▁▃ -0
▁이 -1
▁. -2
▁에 -3
▁다 -4
▁의 -5
▁는 -6
▁, -7
▁하 -8
▁을 -9
▁1 -10
▁은 -11
▁가 -12
▁( -13
▁) -14
▁고 -15
▁를 -16
▁한 -17
▁년 -18
▁으 -19
▁로 -20
▁2 -21
▁으로 -22
▁있 -23
▁에서 -24
▁지 -25
▁대 -26
▁기 -27
▁되 -28
▁일 -29
▁사 -30
▁인 -31
▁었 -32
▁그 -33
▁도 -34
▁시 -35
▁과 -36
▁아 -37
▁들 -38
▁수 -39
▁월 -40
▁19 -41
▁어 -42
▁했 -43
▁전 -44
▁였 -45
▁여 -46
▁와 -47
▁자 -48
▁적 -49
▁20 -50
▁부 -51
▁제 -52
▁주 -53
▁라 -54
▁정 -55
▁중 -56
▁위 -57
▁된 -58
▁공 -59
▁해 -60
▁보 -61
▁경 -62
▁나 -63
▁3 -64
▁게 -65
▁세 -66
▁" -67
▁개 -68
▁것 -69
▁유 -70
▁조 -71
▁등 -72
▁한다 -73
▁선 -74
▁성 -75
▁만 -76
▁동 -77
▁마 -78
▁스 -79
▁연 -80
▁미 -81
▁상 -82
▁오 -83
▁서 -84
▁소 -85
▁모 -86
▁구 -87
▁영 -88
▁면 -89
▁비 -90
▁며 -91
▁발 -92
▁4 -93
▁국 -94
▁' -95
▁201 -96
▁5 -97
▁후 -98
▁명 -99
▁관 -100
▁200 -101
▁신 -102
▁때 -103
▁- -104
▁프 -105
▁장 -106
▁할 -107
▁던 -108
▁방 -109
▁거 -110
▁교 -111
▁문 -112
▁대한 -113
▁바 -114
▁역 -115
▁당 -116
▁현 -117
▁6 -118
▁리 -119
▁차 -120
▁원 -121
▁무 -122
▁우 -123
▁내 -124
▁진 -125
▁계 -126
▁남 -127
▁통 -128
▁분 -129
▁또 -130
▁노 -131
▁포 -132
▁않 -133
▁학 -134
▁까 -135
▁화 -136
▁군 -137
▁7 -138
▁10 -139
▁같 -140
▁8 -141
▁생 -142
▁까지 -143
▁았 -144
▁강 -145
▁작 -146
▁출 -147
▁결 -148
▁불 -149
▁에게 -150
▁받 -151
▁함 -152
▁으며 -153
▁파 -154
▁번 -155
▁단 -156
▁최 -157
▁된다 -158
▁반 -159
▁호 -160
▁9 -161
▁알 -162
▁지만 -163
▁~ -164
▁안 -165
▁회 -166
▁실 -167
▁형 -168
▁초 -169
▁말 -170
▁두 -171
▁부터 -172
▁예 -173
▁재 -174
▁없 -175
▁데 -176
▁따 -177
▁배 -178
▁S -179
▁라고 -180
▁사용 -181
▁종 -182
or -183
▁타 -184
▁라는 -185
▁카 -186
▁음 -187
▁18 -188
▁설 -189
▁요 -190
▁이후 -191
▁일본 -192
▁199 -193
▁특 -194
▁면서 -195
▁산 -196
▁미국 -197
▁12 -198
▁C -199
▁는데 -200
▁운 -201
▁A -202
▁독 -203
▁권 -204
er -205
▁다음 -206
▁행 -207
▁감 -208
▁코 -209
으며 -210
▁왕 -211
▁활 -212
민국 -213
▁처 -214
▁김 -215
▁M -216
▁건 -217
▁레 -218
▁양 -219
▁간 -220
▁더 -221
▁추 -222
▁입 -223
▁11 -224
▁평 -225
▁베 -226
▁태 -227
▁매 -228
la -229
▁많 -230
▁민 -231
▁대한민국 -232
▁본 -233
▁승 -234
▁크 -235
▁참 -236
▁피 -237
▁경기 -238
▁지역 -239
00 -240
▁임 -241
▁다른 -242
▁T -243
▁속 -244
▁열 -245
▁다고 -246
▁대학 -247
▁드 -248
▁북 -249
▁그리 -250
▁올 -251
on -252
▁및 -253
리아 -254
▁목 -255
▁위해 -256
▁프로 -257
▁198 -258
in -259
▁때문 -260
▁총 -261
▁물 -262
스트 -263
▁각 -264
▁법 -265
▁집 -266
▁: -267
▁천 -268
▁달 -269
▁F -270
▁표 -271
▁변 -272
▁야 -273
▁외 -274
▁체 -275
▁시작 -276
▁직 -277
an -278
▁그러 -279
▁f -280
▁사람 -281
▁따라 -282
▁메 -283
▁토 -284
▁트 -285
▁점 -286
▁15 -287
▁B -288
▁항 -289
▁박 -290
▁함께 -291
▁약 -292
▁또한 -293
▁한국 -294
▁현재 -295
▁저 -296
▁광 -297
▁팀 -298
▁선수 -299
▁청 -300
▁D -301
▁경우 -302
▁투 -303
▁사이 -304
▁16 -305
▁판 -306
▁영화 -307
▁치 -308
▁P -309
▁세계 -310
▁새 -311
▁용 -312
▁이름 -313
▁버 -314
▁위치 -315
▁자신 -316
▁브 -317
▁당시 -318
▁기록 -319
▁복 -320
▁하나 -321
▁_ -322
▁편 -323
mu -324
▁축 -325
▁17 -326
▁for -327
▁197 -328
▁조선 -329
▁존 -330
▁디 -331
시아 -332
▁m -333
▁네 -334
▁다는 -335
▁가장 -336
▁국가 -337
▁확 -338
▁이나 -339
▁루 -340
▁학교 -341
▁뒤 -342
▁그러나 -343
▁철 -344
▁가지 -345
▁삼 -346
en -347
mula -348
▁합 -349
▁formula -350
▁I -351
▁필 -352
▁활동 -353
ar -354
▁살 -355
▁또는 -356
▁K -357
▁금 -358
주의 -359
▁테 -360
▁L -361
▁언 -362
▁째 -363
▁심 -364
▁리그 -365
▁창 -366
▁백 -367
▁의해 -368
▁병 -369
▁196 -370
▁증 -371
▁플 -372
▁식 -373
▁k -374
▁못 -375
▁프랑 -376
▁근 -377
▁쓰 -378
▁/ -379
▁14 -380
▁대표 -381
부터 -382
▁페 -383
레이 -384
▁그리고 -385
▁통해 -386
▁연구 -387
으나 -388
▁R -389
▁G -390
▁황 -391
▁돌 -392
▁0 -393
▁규 -394
▁13 -395
▁충 -396
▁순 -397
al -398
▁니 -399
▁사회 -400
▁애 -401
▁서울 -402
▁194 -403
▁보다 -404
▁패 -405
▁첫 -406
▁다시 -407
▁높 -408
▁N -409
at -410
▁아니 -411
▁만들 -412
▁프랑스 -413
▁H -414
▁완 -415
▁러 -416
▁히 -417
▁도시 -418
▁클 -419
▁뜻 -420
▁E -421
▁시대 -422
▁협 -423
랜드 -424
학교 -425
▁중국 -426
▁채 -427
es -428
▁정부 -429
▁는다 -430
▁영국 -431
▁시즌 -432
▁포함 -433
▁대해 -434
▁여러 -435
▁독일 -436
▁키 -437
▁다가 -438
▁으나 -439
▁죽 -440
▁195 -441
▁로서 -442
▁큰 -443
▁전쟁 -444
ic -445
▁별 -446
▁친 -447
▁km -448
▁취 -449
▁문화 -450
▁길 -451
▁모두 -452
▁손 -453
▁가능 -454
▁온 -455
▁축구 -456
▁위원 -457
▁이상 -458
▁대회 -459
▁모든 -460
▁곡 -461
▁아이 -462
▁방송 -463
▁U -464
▁c -465
▁석 -466
▁준 -467
▁엔 -468
▁정치 -469
▁동안 -470
▁지방 -471
▁일부 -472
▁이루 -473
▁처음 -474
▁문제 -475
▁감독 -476
▁환 -477
▁알려 -478
▁허 -479
▁% -480
▁W -481
▁구성 -482
▁대학교 -483
is -484
▁제작 -485
he -486
▁개발 -487
▁뉴 -488
▁였으며 -489
▁시간 -490
▁위한 -491
▁이용 -492
▁검 -493
▁세기 -494
▁30 -495
▁끝 -496
▁날 -497
▁즉 -498
▁골 -499
▁일반 -500
▁존재 -501
▁농 -502
▁씨 -503
▁게임 -504
▁될 -505
▁논 -506
▁향 -507
▁정도 -508
▁중심 -509
▁캐 -510
▁곳 -511
▁193 -512
▁밀 -513
▁급 -514
it -515
▁섬 -516
▁국제 -517
▁걸 -518
▁] -519
▁작품 -520
▁볼 -521
▁폭 -522
▁인구 -523
▁[ -524
▁J -525
▁케 -526
니아 -527
▁주장 -528
라이 -529
▁운동 -530
▁교육 -531
▁앞 -532
▁려 -533
▁역사 -534
▁맡 -535
▁사건 -536
▁관계 -537
▁음악 -538
▁육 -539
▁접 -540
▁나타 -541
▁거나 -542
▁맞 -543
▁t -544
▁효 -545
▁극 -546
▁발견 -547
▁s -548
▁이러 -549
▁갖 -550
▁쿠 -551
▁담 -552
▁절 -553
▁> -554
▁귀 -555
부분 -556
▁아들 -557
▁새로 -558
▁봉 -559
▁25 -560
▁티 -561
▁발표 -562
▁했으며 -563
▁O -564
▁기술 -565
▁질 -566
▁홍 -567
▁줄 -568
▁< -569
▁측 -570
▁전투 -571
▁기준 -572
▁192 -573
▁잘 -574
▁책 -575
▁시키 -576
▁들어 -577
▁막 -578
▁터 -579
le -580
화국 -581
▁로부터 -582
▁공격 -583
000 -584
통령 -585
▁누 -586
▁도록 -587
▁암 -588
리스 -589
▁글 -590
▁경제 -591
▁2010 -592
▁대부분 -593
▁블 -594
이스 -595
re -596
▁슈 -597
▁21 -598
▁우승 -599
▁민주 -600
▁앨 -601
▁잡 -602
▁송 -603
▁밝 -604
▁헤 -605
▁프로그 -606
▁대통령 -607
▁지원 -608
란드 -609
▁커 -610
▁탄 -611
▁영향 -612
ion -613
▁갈 -614
▁최초 -615
▁의미 -616
▁배우 -617
▁중앙 -618
▁업 -619
▁부분 -620
▁결과 -621
▁얻 -622
▁2008 -623
▁참여 -624
▁설립 -625
▁올림 -626
▁과정 -627
▁머 -628
▁특히 -629
▁유럽 -630
▁설치 -631
▁독립 -632
▁고등 -633
▁센 -634
버지 -635
▁진행 -636
지만 -637
▁초등 -638
▁난 -639
▁관련 -640
리카 -641
▁어서 -642
us -643
▁191 -644
▁라이 -645
▁구조 -646
▁상태 -647
▁자유 -648
▁형태 -649
▁발생 -650
▁범 -651
▁2011 -652
▁탈 -653
▁좌 -654
▁같이 -655
ro -656
▁주로 -657
▁나라 -658
▁그녀 -659
▁러시아 -660
▁결정 -661
▁폐 -662
▁2007 -663
▁됐 -664
▁제국 -665
▁이전 -666
▁2009 -667
▁선거 -668
▁일어 -669
▁다양 -670
▁2012 -671
▁사실 -672
▁소속 -673
▁발매 -674
▁23 -675
el -676
▁22 -677
▁하지만 -678
▁24 -679
나라 -680
▁사망 -681
▁올림픽 -682
▁침 -683
▁으로서 -684
▁악 -685
▁태어 -686
▁좋 -687
▁란 -688
▁V -689
므로 -690
▁윤 -691
▁생각 -692
▁100 -693
▁이것 -694
▁프로그램 -695
▁인해 -696
▁새로운 -697
어진 -698
▁2014 -699
디오 -700
▁지정 -701
▁행정 -702
▁혼 -703
▁출신 -704
▁이탈 -705
▁필요 -706
▁벌 -707
▁폴 -708
▁조직 -709
▁스타 -710
▁기관 -711
▁상대 -712
▁관리 -713
▁타이 -714
▁운영 -715
▁팔 -716
▁등장 -717
▁로마 -718
▁계속 -719
▁싱 -720
▁인민 -721
▁2013 -722
▁정보 -723
▁고려 -724
▁중요 -725
▁참가 -726
▁여성 -727
우스 -728
▁르 -729
▁철도 -730
▁계획 -731
▁해서 -732
▁위원회 -733
ol -734
▁매우 -735
▁데뷔 -736
▁여자 -737
as -738
▁아버지 -739
▁헌 -740
▁000 -741
남도 -742
▁성공 -743
▁2006 -744
▁자리 -745
▁이탈리아 -746
▁대전 -747
▁과학 -748
▁해당 -749
라마 -750
▁넘 -751
▁생산 -752
▁뿐 -753
am -754
om -755
▁2015 -756
▁26 -757
▁앨범 -758
▁방법 -759
▁억 -760
리즈 -761
▁사업 -762
프트 -763
▁발전 -764
▁몇 -765
▁콘 -766
et -767
▁시스 -768
▁기원 -769
▁찾 -770
▁국민 -771
▁28 -772
▁처럼 -773
▁27 -774
르크 -775
▁쇼 -776
이트 -777
il -778
▁가리 -779
▁d -780
▁묘 -781
▁돌아 -782
▁아래 -783
ou -784
▁빌 -785
▁2016 -786
▁따르 -787
▁주요 -788
이션 -789
▁차지 -790
스터 -791
▁층 -792
▁최고 -793
▁그리스 -794
ing -795
▁능 -796
▁내용 -797
▁데이 -798
▁그룹 -799
▁떨 -800
▁보이 -801
▁출연 -802
▁칼 -803
▁b -804
▁고등학교 -805
▁한편 -806
▁결국 -807
▁전체 -808
▁둘 -809
▁시리즈 -810
▁였으나 -811
▁드라마 -812
▁회사 -813
운데 -814
▁") -815
ch -816
▁o -817
▁월드 -818
▁생활 -819
▁이유 -820
▁졌 -821
▁못하 -822
▁풍 -823
FA -824
▁가운데 -825
▁격 -826
▁많이 -827
한다 -828
▁p -829
▁컴 -830
▁유명 -831
▁얼 -832
▁힘 -833
▁레이 -834
▁공식 -835
▁연합 -836
▁빠 -837
▁지구 -838
▁음반 -839
▁민족 -840
비아 -841
▁색 -842
▁190 -843
▁방식 -844
▁바이 -845
▁인간 -846
▁2017 -847
▁인도 -848
▁31 -849
▁29 -850
▁제공 -851
▁떠 -852
▁인터 -853
▁몸 -854
▁시스템 -855
레스 -856
▁엘 -857
▁역할 -858
▁잠 -859
▁스페 -860
▁으로써 -861
▁마이 -862
▁반대 -863
▁항공 -864
▁군사 -865
▁퍼 -866
▁대신 -867
▁초기 -868
▁우리 -869
▁2005 -870
▁표현 -871
▁2018 -872
▁수상 -873
▁조사 -874
▁시기 -875
▁졸 -876
▁제도 -877
▁먼 -878
▁홈 -879
▁출전 -880
▁류 -881
▁기업 -882
▁거의 -883
인다 -884
▁후보 -885
▁2000 -886
▁교회 -887
▁특별 -888
▁이르 -889
▁여기 -890
▁각각 -891
▁응 -892
북도 -893
▁분류 -894
▁붙 -895
▁대상 -896
▁승리 -897
▁연결 -898
▁느 -899
▁따라서 -900
▁평가 -901
▁이미 -902
▁몰 -903
▁놓 -904
▁유지 -905
▁해야 -906
▁기능 -907
▁모습 -908
▁밖 -909
▁으로부터 -910
▁공개 -911
▁자연 -912
▁목적 -913
▁워 -914
▁언어 -915
▁경상 -916
▁마지 -917
▁이어 -918
▁2004 -919
▁단체 -920
▁임명 -921
야기 -922
▁규모 -923
▁수도 -924
▁노동 -925
▁인정 -926
▁울 -927
▁시켰 -928
▁현대 -929
머니 -930
▁동시 -931
▁녹 -932
비스 -933
▁가진 -934
BS -935
▁의원 -936
▁불리 -937
▁뛰 -938
▁알려져 -939
▁긴 -940
▁눈 -941
▁마지막 -942
▁지금 -943
ac -944
▁전문 -945
▁브라 -946
▁이론 -947
▁프리 -948
▁지도 -949
▁정의 -950
▁서로 -951
▁열린 -952
▁50 -953
▁희 -954
▁핵 -955
▁직접 -956
▁아르 -957
▁진출 -958
▁계약 -959
▁왔 -960
▁! -961
▁기간 -962
▁오스트 -963
▁이야기 -964
▁했으나 -965
▁공화국 -966
▁공간 -967
▁건물 -968
▁족 -969
▁상황 -970
▁건설 -971
▁웨 -972
▁개인 -973
▁of -974
▁먹 -975
스크 -976
▁산업 -977
▁활약 -978
▁정책 -979
▁플레이 -980
ed -981
▁추가 -982
▁졸업 -983
▁압 -984
▁망 -985
id -986
▁혁 -987
이지 -988
▁야구 -989
▁빈 -990
▁슬 -991
▁변경 -992
▁2002 -993
▁개최 -994
▁푸 -995
▁자동 -996
▁사상 -997
▁시절 -998
▁노래 -999
▁교수 -1000
▁결혼 -1001
▁거리 -1002
학자 -1003
▁으면 -1004
▁공동 -1005
▁훈 -1006
▁밴 -1007
▁경찰 -1008
▁혹 -1009
▁시장 -1010
▁칸 -1011
▁부산 -1012
▁부르 -1013
▁중학교 -1014
▁비롯 -1015
▁모델 -1016
▁역시 -1017
▁관한 -1018
▁노선 -1019
▁너 -1020
▁형성 -1021
▁속하 -1022
킨다 -1023
▁기원전 -1024
▁변화 -1025
▁마을 -1026
▁스페인 -1027
▁습 -1028
▁실제 -1029
▁콜 -1030
▁완전 -1031
▁보통 -1032
▁TV -1033
▁보여 -1034
▁샤 -1035
ent -1036
▁인물 -1037
▁FC -1038
▁우주 -1039
▁궁 -1040
▁? -1041
대로 -1042
▁가수 -1043
▁딸 -1044
▁189 -1045
▁벨 -1046
▁소설 -1047
▁낮 -1048
▁그것 -1049
▁거쳐 -1050
른다 -1051
▁겸 -1052
▁학생 -1053
▁의하 -1054
▁2003 -1055
▁40 -1056
▁사랑 -1057
▁휴 -1058
▁요구 -1059
ad -1060
▁잉 -1061
▁탑 -1062
▁지하 -1063
▁겠 -1064
▁기본 -1065
os -1066
▁최대 -1067
▁원래 -1068
▁퇴 -1069
▁경기도 -1070
▁없이 -1071
▁견 -1072
▁달리 -1073
▁보호 -1074
ig -1075
▁일으 -1076
▁자기 -1077
▁자료 -1078
▁모양 -1079
▁서비스 -1080
▁명칭 -1081
▁중화 -1082
▁국회 -1083
▁황제 -1084
▁싱글 -1085
역시 -1086
니다 -1087
▁텔 -1088
▁The -1089
▁싸 -1090
▁다이 -1091
운드 -1092
▁실시 -1093
ur -1094
▁세력 -1095
르트 -1096
▁나이 -1097
▁어떤 -1098
▁n -1099
▁운행 -1100
▁판매 -1101
▁숙 -1102
▁한다는 -1103
어져 -1104
▁승강 -1105
▁옥 -1106
▁소련 -1107
▁태어났 -1108
▁지지 -1109
▁2019 -1110
▁비판 -1111
▁그래 -1112
▁엄 -1113
이드 -1114
린다 -1115
▁종교 -1116
▁아닌 -1117
▁전통 -1118
▁회의 -1119
▁못했 -1120
▁지나 -1121
▁전기 -1122
▁차이 -1123
▁전자 -1124
▁교황 -1125
▁제외 -1126
▁기반 -1127
▁전국 -1128
▁분야 -1129
▁대해서 -1130
▁수행 -1131
▁나오 -1132
▁북쪽 -1133
프리카 -1134
▁1990 -1135
▁전라 -1136
▁위하 -1137
ter -1138
▁남쪽 -1139
▁시설 -1140
▁혹은 -1141
od -1142
▁탐 -1143
▁부대 -1144
un -1145
▁론 -1146
and -1147
▁환경 -1148
▁높이 -1149
▁밴드 -1150
▁인민공 -1151
iv -1152
▁애니 -1153
▁흐 -1154
▁인민공화국 -1155
▁만든 -1156
▁맥 -1157
▁십 -1158
▁넓 -1159
▁기념 -1160
▁태양 -1161
▁방향 -1162
▁풀 -1163
▁바로 -1164
▁기독 -1165
▁2001 -1166
▁면적 -1167
▁특징 -1168
▁도입 -1169
▁므로 -1170
▁승강장 -1171
▁도쿄 -1172
▁열차 -1173
로스 -1174
▁월드컵 -1175
▁소프트 -1176
▁뮤 -1177
▁비슷 -1178
▁공연 -1179
▁컴퓨 -1180
▁기타 -1181
▁이때 -1182
▁지휘 -1183
▁구역 -1184
▁연방 -1185
▁예술 -1186
▁센터 -1187
▁행위 -1188
▁선정 -1189
▁의한 -1190
ot -1191
▁옮 -1192
▁교통 -1193
▁도로 -1194
▁염 -1195
▁설명 -1196
▁어머니 -1197
어지 -1198
▁기존 -1199
▁작업 -1200
▁득 -1201
▁나가 -1202
스탄 -1203
▁남부 -1204
▁형식 -1205
▁출시 -1206
▁군대 -1207
▁역임 -1208
▁클럽 -1209
▁목록 -1210
진다 -1211
▁차량 -1212
▁국내 -1213
▁이동 -1214
▁착 -1215
▁확인 -1216
▁마다 -1217
▁능력 -1218
ation -1219
▁동물 -1220
▁기독교 -1221
▁유일 -1222
▁지배 -1223
너지 -1224
▁통합 -1225
나다 -1226
▁FI -1227
▁과거 -1228
▁= -1229
▁남자 -1230
BC -1231
▁동일 -1232
▁사무 -1233
um -1234
▁문학 -1235
▁작용 -1236
▁동쪽 -1237
▁X -1238
▁의회 -1239
▁Y -1240
▁가족 -1241
▁이끌 -1242
▁담당 -1243
▁혁명 -1244
▁흥 -1245
▁작곡 -1246
▁St -1247
자리 -1248
▁획 -1249
▁보내 -1250
▁the -1251
▁행동 -1252
▁피해 -1253
▁주변 -1254
▁컴퓨터 -1255
▁낙 -1256
스타 -1257
▁작가 -1258
▁협회 -1259
▁흔 -1260
ra -1261
▁구간 -1262
▁서쪽 -1263
▁영어 -1264
▁추정 -1265
▁h -1266
▁효과 -1267
▁시켜 -1268
▁오늘 -1269
▁런 -1270
▁예정 -1271
▁사고 -1272
▁증가 -1273
▁육군 -1274
▁한다고 -1275
▁충청 -1276
▁곧 -1277
▁비교 -1278
▁장관 -1279
▁덴 -1280
▁적용 -1281
20 -1282
▁인기 -1283
▁솔 -1284
▁시민 -1285
▁물리 -1286
▁갑 -1287
▁넣 -1288
리오 -1289
▁왕국 -1290
▁크기 -1291
▁쪽 -1292
메이션 -1293
▁잔 -1294
em -1295
▁공사 -1296
▁대사 -1297
▁데이터 -1298
▁정당 -1299
▁188 -1300
▁차례 -1301
▁방영 -1302
▁액 -1303
▁1999 -1304
▁품 -1305
▁건축 -1306
▁사단 -1307
▁캐나다 -1308
▁1980 -1309
▁가까 -1310
▁앤 -1311
▁연기 -1312
▁돈 -1313
▁주도 -1314
▁이적 -1315
▁개념 -1316
▁멤 -1317
▁텔레 -1318
▁대하 -1319
▁움 -1320
▁어린 -1321
▁맨 -1322
▁덕 -1323
의원 -1324
▁공산 -1325
▁메이 -1326
▁1998 -1327
▁챔 -1328
▁징 -1329
▁땅 -1330
▁종류 -1331
▁다르 -1332
ec -1333
▁애니메이션 -1334
▁상당 -1335
▁컵 -1336
러스 -1337
▁어느 -1338
im -1339
▁북부 -1340
▁수록 -1341
▁조건 -1342
카이 -1343
▁버전 -1344
▁에너지 -1345
▁뉴욕 -1346
▁위해서 -1347
▁속도 -1348
▁자체 -1349
▁버스 -1350
▁올라 -1351
▁늘 -1352
▁실패 -1353
▁윈 -1354
▁홀 -1355
▁윌 -1356
▁FIFA -1357
▁자치 -1358
글랜드 -1359
▁연속 -1360
▁cm -1361
▁지냈 -1362
▁이런 -1363
▁체제 -1364
▁칭 -1365
▁마음 -1366
▁작전 -1367
ia -1368
비전 -1369
▁컨 -1370
ir -1371
▁고대 -1372
▁규정 -1373
▁즈 -1374
▁베이 -1375
웨어 -1376
ow -1377
▁몽 -1378
▁세포 -1379
가지 -1380
▁특정 -1381
▁스포 -1382
▁조약 -1383
▁멤버 -1384
▁내부 -1385
▁선언 -1386
▁성장 -1387
▁쌍 -1388
▁흑 -1389
▁디자 -1390
▁익 -1391
▁이라 -1392
트남 -1393
▁걸쳐 -1394
▁해군 -1395
▁명령 -1396
▁왜 -1397
▁챔피 -1398
▁몬 -1399
▁민주주의 -1400
▁대체 -1401
▁물질 -1402
▁조지 -1403
▁연대 -1404
▁이사 -1405
▁스트 -1406
▁대구 -1407
거리 -1408
ut -1409
▁선택 -1410
▁헌법 -1411
시마 -1412
▁1997 -1413
▁팬 -1414
▁잉글랜드 -1415
▁곤 -1416
▁록 -1417
▁35 -1418
▁율 -1419
▁60 -1420
▁최근 -1421
▁반응 -1422
▁지명 -1423
▁페르 -1424
▁부족 -1425
▁일어나 -1426
▁1995 -1427
▁a -1428
▁법원 -1429
▁머리 -1430
▁보인다 -1431
▁획득 -1432
▁친구 -1433
▁핀 -1434
루스 -1435
▁마르 -1436
▁평균 -1437
▁연주 -1438
▁표준 -1439
▁척 -1440
▁는지 -1441
▁씩 -1442
▁가치 -1443
▁부문 -1444
▁1996 -1445
▁휘 -1446
▁달러 -1447
▁정신 -1448
▁결승 -1449
▁쥐 -1450
▁인천 -1451
▁최종 -1452
▁내려 -1453
▁단계 -1454
▁선출 -1455
▁출판 -1456
▁당하 -1457
▁벤 -1458
▁설계 -1459
▁밤 -1460
▁찬 -1461
▁국립 -1462
op -1463
▁옛 -1464
▁아시아 -1465
▁선발 -1466
▁일종 -1467
▁배치 -1468
▁포르 -1469
▁밝혔 -1470
▁개혁 -1471
st -1472
▁g -1473
▁강화 -1474
▁32 -1475
▁개월 -1476
▁개봉 -1477
▁체계 -1478
▁비행 -1479
▁함수 -1480
▁편성 -1481
▁술 -1482
▁널 -1483
▁조정 -1484
▁더욱 -1485
▁현상 -1486
▁맺 -1487
▁꽃 -1488
▁통일 -1489
버스 -1490
▁Ch -1491
▁장군 -1492
난다 -1493
▁부상 -1494
▁링 -1495
드리 -1496
메리카 -1497
▁1994 -1498
▁문자 -1499
▁칠 -1500
▁처리 -1501
▁인지 -1502
▁분리 -1503
▁의사 -1504
▁뛰어 -1505
▁주인 -1506
▁후반 -1507
▁관심 -1508
▁공립 -1509
렇게 -1510
▁겨 -1511
▁공항 -1512
▁186 -1513
광역시 -1514
▁1992 -1515
▁어야 -1516
▁들어가 -1517
▁확장 -1518
▁스테 -1519
▁헬 -1520
▁관할 -1521
▁나무 -1522
▁어려 -1523
▁In -1524
▁소비 -1525
▁네덜 -1526
▁네덜란드 -1527
▁원자 -1528
▁가리킨다 -1529
▁자동차 -1530
▁고자 -1531
▁점령 -1532
▁장치 -1533
▁통신 -1534
▁재판 -1535
▁기사 -1536
▁분석 -1537
▁소유 -1538
▁주민 -1539
oc -1540
▁잃 -1541
스코 -1542
▁거주 -1543
▁다면 -1544
▁베트남 -1545
▁정규 -1546
▁빛 -1547
▁려고 -1548
▁실험 -1549
▁사령 -1550
▁요소 -1551
▁목표 -1552
▁폴란드 -1553
아들 -1554
▁대중 -1555
▁공원 -1556
▁도움 -1557
▁제품 -1558
▁1970 -1559
▁외국 -1560
▁북한 -1561
▁언론 -1562
▁신라 -1563
라스 -1564
▁시도 -1565
▁불교 -1566
▁유사 -1567
▁집단 -1568
▁& -1569
▁일제 -1570
▁이해 -1571
▁그림 -1572
▁입단 -1573
▁187 -1574
▁책임 -1575
▁파리 -1576
▁오늘날 -1577
▁듯 -1578
▁행사 -1579
ag -1580
▁1991 -1581
▁정확 -1582
▁크리스 -1583
야마 -1584
▁든 -1585
▁깊 -1586
▁안정 -1587
나무 -1588
▁엔진 -1589
▁값 -1590
특별 -1591
▁시험 -1592
▁본선 -1593
▁mm -1594
▁만나 -1595
▁괴 -1596
▁베르 -1597
▁혈 -1598
▁"( -1599
▁언급 -1600
▁동맹 -1601
▁70 -1602
▁나타나 -1603
▁1993 -1604
▁정권 -1605
디어 -1606
▁신문 -1607
▁스포츠 -1608
▁인데 -1609
▁비해 -1610
▁만화 -1611
리지 -1612
▁학자 -1613
▁마리 -1614
▁갔 -1615
▁광주 -1616
▁대로 -1617
▁투표 -1618
▁결합 -1619
▁사진 -1620
▁지속 -1621
▁웹 -1622
▁구분 -1623
▁제조 -1624
▁앙 -1625
▁수준 -1626
▁준비 -1627
▁불구 -1628
▁이듬 -1629
▁행성 -1630
▁방문 -1631
▁텔레비전 -1632
▁요시 -1633
▁파이 -1634
▁1988 -1635
▁챔피언 -1636
▁끌 -1637
▁문서 -1638
젝트 -1639
▁500 -1640
▁부인 -1641
▁쓴 -1642
▁제한 -1643
▁아직 -1644
스로 -1645
▁디자인 -1646
▁통과 -1647
▁드러 -1648
▁경영 -1649
▁고속 -1650
▁비디오 -1651
▁길이 -1652
▁투수 -1653
▁캠 -1654
▁올랐 -1655
▁유래 -1656
▁왕조 -1657
▁멸 -1658
▁원인 -1659
▁쉽 -1660
▁회장 -1661
▁유전 -1662
▁w -1663
▁80 -1664
▁추진 -1665
▁구단 -1666
▁이듬해 -1667
▁하이 -1668
▁번호 -1669
▁KBS -1670
▁이곳 -1671
▁세워 -1672
▁려는 -1673
▁in -1674
▁동부 -1675
▁영역 -1676
▁성적 -1677
▁믿 -1678
ay -1679
일랜드 -1680
▁통치 -1681
▁궤 -1682
▁표기 -1683
▁그런 -1684
▁소재 -1685
▁촉 -1686
▁방어 -1687
▁1960 -1688
▁발달 -1689
▁용어 -1690
▁로스 -1691
▁평화 -1692
▁폐지 -1693
▁1989 -1694
▁가정 -1695
▁알려진 -1696
▁예선 -1697
▁종합 -1698
▁거두 -1699
▁치료 -1700
▁서부 -1701
▁인터넷 -1702
▁경험 -1703
▁멀 -1704
▁법률 -1705
▁나온 -1706
▁해석 -1707
▁36 -1708
ce -1709
ers -1710
▁보도 -1711
▁널리 -1712
▁아마 -1713
▁라디오 -1714
▁입장 -1715
▁부여 -1716
▁훈련 -1717
▁파괴 -1718
레일 -1719
톨릭 -1720
▁경계 -1721
▁프로젝트 -1722
▁전해 -1723
▁오르 -1724
▁등록 -1725
▁움직 -1726
▁런던 -1727
▁병원 -1728
▁+ -1729
▁요청 -1730
▁오른 -1731
▁놀 -1732
▁펼 -1733
▁자주 -1734
▁조각 -1735
▁바탕 -1736
▁아프리카 -1737
▁스웨 -1738
▁야마 -1739
▁요리 -1740
▁에스 -1741
▁사라 -1742
▁45 -1743
▁무기 -1744
ul -1745
▁정식 -1746
▁깨 -1747
▁경쟁 -1748
▁정상 -1749
▁노력 -1750
▁아서 -1751
▁알렉 -1752
▁생물 -1753
▁정리 -1754
▁완전히 -1755
▁바르 -1756
▁제주 -1757
▁가르 -1758
▁도서 -1759
메달 -1760
▁33 -1761
▁식민 -1762
▁여겨 -1763
▁UE -1764
▁미술 -1765
▁업무 -1766
▁연구소 -1767
▁미사 -1768
▁총리 -1769
요일 -1770
▁스스로 -1771
▁득점 -1772
▁벽 -1773
▁영토 -1774
▁노르 -1775
▁부정 -1776
▁찾아 -1777
▁연맹 -1778
▁지대 -1779
▁여객 -1780
▁가톨릭 -1781
스턴 -1782
인트 -1783
▁제안 -1784
▁그대로 -1785
▁주연 -1786
▁결성 -1787
▁UEFA -1788
▁캐릭 -1789
▁차원 -1790
▁꼬 -1791
▁당했 -1792
▁브라질 -1793
▁소리 -1794
▁오래 -1795
▁계열 -1796
▁스웨덴 -1797
▁수학 -1798
▁파일 -1799
▁로써 -1800
머지 -1801
▁트리 -1802
▁경기장 -1803
▁나머지 -1804
▁마찬 -1805
▁마찬가지 -1806
▁프레 -1807
▁무대 -1808
ri -1809
▁잇 -1810
▁끼 -1811
▁바뀌 -1812
웨이 -1813
▁박사 -1814
▁실제로 -1815
▁철학 -1816
▁초대 -1817
▁표시 -1818
▁집합 -1819
라인 -1820
▁슈퍼 -1821
▁수용 -1822
▁금지 -1823
리트 -1824
▁받아들 -1825
▁쓰이 -1826
▁", -1827
▁카드 -1828
▁량 -1829
▁다리 -1830
▁캐릭터 -1831
시코 -1832
▁하계 -1833
▁외교 -1834
▁거부 -1835
▁남성 -1836
▁상호 -1837
▁박물 -1838
특별시 -1839
▁공작 -1840
▁; -1841
▁관측 -1842
▁츠 -1843
▁삼성 -1844
▁짧 -1845
▁주제 -1846
▁임시 -1847
▁서울특별시 -1848
▁은퇴 -1849
▁주의 -1850
▁인식 -1851
▁복귀 -1852
▁다수 -1853
▁밝혀 -1854
▁장소 -1855
▁강원 -1856
▁v -1857
▁빅 -1858
▁조성 -1859
▁바다 -1860
▁발사 -1861
▁기초 -1862
▁성격 -1863
th -1864
▁근처 -1865
▁이외 -1866
▁개국 -1867
▁돼 -1868
▁화학 -1869
▁보수 -1870
▁의식 -1871
▁강력 -1872
▁반면 -1873
▁인사 -1874
▁1987 -1875
▁패배 -1876
▁38 -1877
▁소프트웨어 -1878
사카 -1879
▁접근 -1880
▁e -1881
▁스위 -1882
▁둔 -1883
▁히로 -1884
▁1986 -1885
▁기여 -1886
▁단순 -1887
▁필리 -1888
▁먼저 -1889
ov -1890
▁식물 -1891
▁회원 -1892
▁폰 -1893
▁서식 -1894
▁뇌 -1895
모토 -1896
▁기자 -1897
멕시코 -1898
▁오스 -1899
▁가문 -1900
주시 -1901
▁검사 -1902
▁아일랜드 -1903
▁34 -1904
▁경상남도 -1905
▁발행 -1906
▁코드 -1907
▁여름 -1908
▁오스트리아 -1909
▁해결 -1910
토리 -1911
▁중간 -1912
▁경상북도 -1913
▁형제 -1914
▁마이크 -1915
▁기계 -1916
레일리아 -1917
▁박물관 -1918
▁l -1919
nd -1920
▁번역 -1921
부르크 -1922
▁아무 -1923
▁지도자 -1924
▁나타내 -1925
ist -1926
▁시행 -1927
▁만큼 -1928
▁유로 -1929
▁일정 -1930
▁1945 -1931
▁1984 -1932
▁흡 -1933
무원 -1934
▁세대 -1935
▁지적 -1936
▁성립 -1937
▁반란 -1938
▁디지 -1939
▁지상 -1940
▁지난 -1941
▁지하철 -1942
▁후기 -1943
▁아카 -1944
▁은행 -1945
▁델 -1946
▁도착 -1947
▁단어 -1948
▁스코 -1949
▁다만 -1950
▁기구 -1951
▁떨어진 -1952
낸다 -1953
▁렌 -1954
ie -1955
▁파견 -1956
▁수많 -1957
▁그린 -1958
▁제시 -1959
▁차트 -1960
▁안전 -1961
▁붕 -1962
▁묘사 -1963
▁사이트 -1964
▁꾸 -1965
▁분포 -1966
▁이스 -1967
▁뉴스 -1968
▁1950 -1969
▁펜 -1970
▁유형 -1971
▁가져 -1972
▁죽음 -1973
▁혜 -1974
▁전시 -1975
▁권력 -1976
▁1985 -1977
▁위험 -1978
og -1979
▁중단 -1980
▁극장 -1981
▁보존 -1982
▁90 -1983
▁활용 -1984
▁단위 -1985
▁본부 -1986
간다 -1987
▁굴 -1988
▁양식 -1989
▁셀 -1990
▁밖에 -1991
▁바꾸 -1992
▁오스트레일리아 -1993
베이 -1994
▁더불 -1995
▁순위 -1996
▁제기 -1997
▁하루 -1998
▁윈도 -1999
▁지식 -2000
▁여행 -2001
▁연장 -2002
▁협력 -2003
▁관광 -2004
▁죄 -2005
▁세웠 -2006
▁48 -2007
▁국회의원 -2008
▁근거 -2009
▁원소 -2010
▁민주당 -2011
▁확대 -2012
워크 -2013
▁태평 -2014
▁멕시코 -2015
▁동생 -2016
▁춘 -2017
▁으므로 -2018
▁나중 -2019
▁유니 -2020
▁세상 -2021
▁이루어진 -2022
▁린 -2023
▁겪 -2024
▁옆 -2025
임스 -2026
▁떠나 -2027
▁수비 -2028
워드 -2029
▁케이 -2030
▁네트 -2031
▁타이틀 -2032
▁촬 -2033
ap -2034
▁완성 -2035
▁귀족 -2036
▁아시 -2037
▁쉬 -2038
▁내각 -2039
▁상징 -2040
▁특수 -2041
▁개통 -2042
▁본관 -2043
▁논란 -2044
▁숨 -2045
▁져 -2046
회사 -2047
▁생성 -2048
나이 -2049
▁문화재 -2050
▁윌리 -2051
▁수사 -2052
▁옹 -2053
▁이렇게 -2054
▁계승 -2055
▁캘 -2056
NA -2057
가리 -2058
▁보유 -2059
▁부른다 -2060
▁대응 -2061
▁시청 -2062
ard -2063
▁그렇 -2064
▁학위 -2065
▁혐 -2066
▁맹 -2067
▁멜 -2068
▁당선 -2069
▁해안 -2070
▁근무 -2071
▁유대 -2072
▁생명 -2073
▁장애 -2074
▁185 -2075
▁영상 -2076
▁총선 -2077
▁통하 -2078
▁밑 -2079
▁촬영 -2080
▁균 -2081
▁뮤직 -2082
▁1982 -2083
▁개정 -2084
어졌 -2085
▁유리 -2086
▁정치인 -2087
▁설정 -2088
▁공장 -2089
▁보였 -2090
▁삶 -2091
▁체결 -2092
▁위기 -2093
▁체포 -2094
▁달성 -2095
▁출생 -2096
▁무역 -2097
▁쌓 -2098
▁300 -2099
지션 -2100
▁아내 -2101
▁판단 -2102
▁이라고 -2103
소년 -2104
▁전라남도 -2105
▁기획 -2106
▁빨 -2107
니스 -2108
▁식민지 -2109
▁님 -2110
▁관찰 -2111
▁몇몇 -2112
▁전달 -2113
▁헝 -2114
▁주식 -2115
▁직후 -2116
가와 -2117
▁디지털 -2118
트로 -2119
▁가리키 -2120
▁음력 -2121
▁전략 -2122
▁상업 -2123
▁승격 -2124
철도 -2125
▁1983 -2126
est -2127
▁Z -2128
▁대륙 -2129
▁낳 -2130
▁소수 -2131
▁본래 -2132
▁도서관 -2133
모리 -2134
▁계산 -2135
▁37 -2136
▁측정 -2137
▁채널 -2138
▁주인공 -2139
▁질량 -2140
▁교체 -2141
▁다루 -2142
▁젊 -2143
▁국왕 -2144
▁종목 -2145
▁소장 -2146
▁천황 -2147
▁제정 -2148
▁카이 -2149
▁다카 -2150
▁홍콩 -2151
▁따른 -2152
▁투자 -2153
▁미군 -2154
▁이슬 -2155
▁싶 -2156
▁왼 -2157
▁얼마 -2158
▁감소 -2159
▁즐 -2160
▁마사 -2161
▁권리 -2162
▁계기 -2163
▁특성 -2164
▁천문 -2165
▁취임 -2166
▁오후 -2167
▁올리 -2168
▁홈런 -2169
▁궤도 -2170
▁포르투 -2171
▁MBC -2172
트리 -2173
▁후쿠 -2174
▁의견 -2175
교회 -2176
▁밀도 -2177
▁', -2178
▁옮겨 -2179
▁각종 -2180
▁공부 -2181
▁즉위 -2182
▁남북 -2183
▁이집 -2184
▁라인 -2185
▁오브 -2186
▁종료 -2187
▁이집트 -2188
ct -2189
▁39 -2190
▁발매되 -2191
▁스튜 -2192
▁톤 -2193
▁성우 -2194
▁41 -2195
▁전차 -2196
▁베네 -2197
▁코치 -2198
▁윌리엄 -2199
▁이루어져 -2200
▁예수 -2201
▁장기 -2202
▁and -2203
▁수정 -2204
▁충돌 -2205
▁강한 -2206
▁납 -2207
▁군인 -2208
▁전환 -2209
▁률 -2210
▁자격 -2211
▁읽 -2212
▁아키 -2213
▁주목 -2214
ess -2215
ine -2216
▁못한 -2217
▁크로 -2218
티나 -2219
ab -2220
▁사회주의 -2221
▁은하 -2222
라도 -2223
아시아 -2224
▁184 -2225
▁시티 -2226
러운 -2227
▁벗 -2228
▁배경 -2229
티아 -2230
▁지위 -2231
▁소개 -2232
▁으면서 -2233
▁물론 -2234
▁래 -2235
▁1981 -2236
▁객 -2237
▁범죄 -2238
▁이주 -2239
▁해외 -2240
▁듀 -2241
▁신경 -2242
▁듣 -2243
▁습니다 -2244
▁실행 -2245
▁스키 -2246
▁만드 -2247
▁작성 -2248
▁잎 -2249
▁만약 -2250
▁병력 -2251
▁55 -2252
▁명예 -2253
▁인근 -2254
▁입학 -2255
▁보냈 -2256
▁청년 -2257
▁학문 -2258
▁텍 -2259
▁비밀 -2260
▁음식 -2261
▁지내 -2262
▁비용 -2263
▁개선 -2264
▁제거 -2265
▁국경 -2266
art -2267
▁됨 -2268
▁저항 -2269
▁컬 -2270
▁네트워크 -2271
▁세이 -2272
▁1979 -2273
▁헨 -2274
리학 -2275
스카 -2276
▁병사 -2277
▁오사카 -2278
▁알렉산 -2279
▁II -2280
▁세르 -2281
▁전사 -2282
▁가입 -2283
▁공군 -2284
▁나누 -2285
▁약간 -2286
▁준다 -2287
av -2288
ity -2289
▁가까운 -2290
▁이하 -2291
▁원정 -2292
▁시위 -2293
▁거대 -2294
▁미사일 -2295
▁합류 -2296
▁표면 -2297
▁신호 -2298
▁지진 -2299
▁51 -2300
▁터키 -2301
▁비트 -2302
▁썼 -2303
▁학년 -2304
ip -2305
ak -2306
▁1972 -2307
▁기후 -2308
▁둘러 -2309
▁명단 -2310
ud -2311
▁변호 -2312
▁빼 -2313
▁자본 -2314
▁체육 -2315
어나 -2316
▁마치 -2317
▁'( -2318
▁불린다 -2319
▁공급 -2320
▁제목 -2321
▁강원도 -2322
▁미래 -2323
전히 -2324
▁측면 -2325
▁충청남도 -2326
▁부모 -2327
▁결승전 -2328
▁도중 -2329
▁연극 -2330
▁자원 -2331
▁세종 -2332
▁등급 -2333
▁둥 -2334
▁이래 -2335
▁대수 -2336
▁1973 -2337
▁전반 -2338
▁건너 -2339
▁이란 -2340
▁신학 -2341
▁집중 -2342
▁무장 -2343
▁인수 -2344
▁갖추 -2345
▁그려 -2346
마크 -2347
▁엘리 -2348
▁재직 -2349
▁Al -2350
▁노동자 -2351
버트 -2352
▁소송 -2353
▁펠 -2354
▁너무 -2355
▁일어난 -2356
▁광고 -2357
▁무렵 -2358
▁헝가리 -2359
▁랑 -2360
▁지점 -2361
오카 -2362
리포 -2363
▁바람 -2364
▁해방 -2365
도로 -2366
▁강조 -2367
▁42 -2368
▁촌 -2369
▁75 -2370
▁de -2371
▁시내 -2372
▁인디 -2373
▁국방 -2374
▁겨울 -2375
▁이슬람 -2376
▁마련 -2377
igh -2378
▁그해 -2379
▁라운드 -2380
아가 -2381
피아 -2382
▁터미 -2383
▁기회 -2384
▁농업 -2385
▁짓 -2386
▁외부 -2387
소리 -2388
▁엑 -2389
▁고종 -2390
▁나왔 -2391
▁뒷 -2392
▁찰 -2393
스티 -2394
ub -2395
▁전력 -2396
▁핀란드 -2397
▁정착 -2398
▁증명 -2399
▁냉 -2400
▁양자 -2401
▁태평양 -2402
▁최소 -2403
▁온도 -2404
if -2405
ill -2406
▁다니 -2407
▁편집 -2408
▁울산 -2409
▁시킨 -2410
▁마쓰 -2411
▁가졌 -2412
▁2020 -2413
▁강의 -2414
▁전하 -2415
동안 -2416
▁에이 -2417
▁재산 -2418
▁제임스 -2419
▁셰 -2420
all -2421
코드 -2422
▁400 -2423
▁양성 -2424
▁흰 -2425
▁현실 -2426
▁가격 -2427
▁합병 -2428
▁1974 -2429
▁건강 -2430
▁아우 -2431
▁잡지 -2432
▁블랙 -2433
▁동계 -2434
▁적극 -2435
▁180 -2436
▁br -2437
▁불러 -2438
▁틀 -2439
▁녹음 -2440
베르 -2441
▁령 -2442
▁마리아 -2443
▁후지 -2444
▁부근 -2445
▁항성 -2446
▁동료 -2447
▁혐의 -2448
▁털 -2449
▁Re -2450
▁대학원 -2451
▁허용 -2452
▁항상 -2453
▁위원장 -2454
▁포지션 -2455
▁금융 -2456
▁64 -2457
▁피아 -2458
▁상하 -2459
▁업체 -2460
▁터미널 -2461
▁근대 -2462
▁쇠 -2463
▁미디어 -2464
▁충분 -2465
▁183 -2466
▁범위 -2467
▁가스 -2468
▁인한 -2469
▁진화 -2470
▁숲 -2471
▁다섯 -2472
▁시인 -2473
▁장면 -2474
▁통제 -2475
▁전역 -2476
▁포르투갈 -2477
▁강제 -2478
▁콩 -2479
▁전선 -2480
▁유도 -2481
▁스위스 -2482
▁오리 -2483
ell -2484
▁강점 -2485
▁1978 -2486
▁보고 -2487
▁엔터 -2488
▁재정 -2489
▁모스크 -2490
▁붕괴 -2491
▁신화 -2492
▁출발 -2493
▁중심지 -2494
디아 -2495
▁고전 -2496
▁그래서 -2497
▁개편 -2498
▁이미지 -2499
▁첨 -2500
▁스티 -2501
▁롤 -2502
▁흘 -2503
▁43 -2504
▁만족 -2505
▁꼬리 -2506
▁수립 -2507
▁얼굴 -2508
▁킬 -2509
▁민간 -2510
▁1976 -2511
▁이승 -2512
래프트 -2513
▁플로 -2514
▁붉 -2515
▁논문 -2516
▁매년 -2517
▁계급 -2518
▁법인 -2519
▁위성 -2520
ge -2521
▁위협 -2522
스키 -2523
▁캘리포 -2524
▁군주 -2525
▁봄 -2526
▁철도역 -2527
▁확보 -2528
▁전개 -2529
▁여전히 -2530
▁라면 -2531
▁대장 -2532
주교 -2533
▁라며 -2534
▁캘리포니아 -2535
▁1971 -2536
▁구축 -2537
▁공업 -2538
테르 -2539
▁불가 -2540
▁카르 -2541
▁남편 -2542
▁폭발 -2543
▁이번 -2544
▁답 -2545
▁공주 -2546
▁임무 -2547
▁장식 -2548
▁수단 -2549
▁세운 -2550
▁에드 -2551
▁원칙 -2552
▁종이 -2553
▁겐 -2554
qu -2555
ran -2556
▁모리 -2557
▁필리핀 -2558
▁교사 -2559
▁남동 -2560
▁해도 -2561
▁냈 -2562
▁채택 -2563
▁불렀 -2564
▁| -2565
▁고구 -2566
▁합의 -2567
▁1968 -2568
▁회복 -2569
▁스파 -2570
▁융 -2571
▁아주 -2572
▁Q -2573
▁버리 -2574
▁귀국 -2575
▁수원 -2576
▁짐 -2577
▁섭 -2578
▁분자 -2579
▁세우 -2580
▁공공 -2581
▁승인 -2582
up -2583
▁대기 -2584
▁1975 -2585
▁대형 -2586
▁꿈 -2587
▁1963 -2588
▁규칙 -2589
▁1969 -2590
▁떨어져 -2591
▁An -2592
▁끊 -2593
ice -2594
▁확실 -2595
▁의해서 -2596
▁장비 -2597
▁남아 -2598
▁선생 -2599
고리 -2600
니어 -2601
▁대대 -2602
▁증거 -2603
▁아름 -2604
▁아나 -2605
▁라이브 -2606
드로 -2607
▁인하 -2608
▁탑재 -2609
ik -2610
CA -2611
▁1920 -2612
▁낭 -2613
▁라틴 -2614
▁기지 -2615
▁선조 -2616
▁점차 -2617
ob -2618
레이드 -2619
▁에게서 -2620
▁갖춘 -2621
▁샌 -2622
▁수입 -2623
▁조치 -2624
▁미치 -2625
▁해체 -2626
▁욕 -2627
▁그곳 -2628
▁좀 -2629
▁평양 -2630
▁Th -2631
▁150 -2632
▁토지 -2633
▁환자 -2634
▁나카 -2635
▁열렸 -2636
▁잠시 -2637
▁44 -2638
▁우수 -2639
▁향상 -2640
▁1940 -2641
▁토론 -2642
키아 -2643
▁일원 -2644
▁힐 -2645
▁신설 -2646
▁가로 -2647
▁사후 -2648
문화 -2649
te -2650
운동 -2651
▁거래 -2652
▁47 -2653
▁단지 -2654
▁편입 -2655
▁덴마크 -2656
▁나치 -2657
▁공산당 -2658
▁일어났 -2659
라노 -2660
▁경향 -2661
▁성인 -2662
▁이제 -2663
로드 -2664
▁캄 -2665
어들 -2666
▁강점기 -2667
▁독자 -2668
▁이스라 -2669
▁서양 -2670
▁기대 -2671
▁삼국 -2672
▁시각 -2673
▁킹 -2674
▁1930 -2675
▁롭 -2676
▁청나라 -2677
▁카메 -2678
ian -2679
▁침공 -2680
▁46 -2681
▁경력 -2682
▁1977 -2683
▁선고 -2684
▁우선 -2685
▁하늘 -2686
▁쓰인다 -2687
▁종종 -2688
▁기억 -2689
▁간주 -2690
▁소년 -2691
▁클라 -2692
▁이끄 -2693
▁왕위 -2694
룬다 -2695
▁고양 -2696
▁보병 -2697
▁튀 -2698
▁불과 -2699
▁이스라엘 -2700
타인 -2701
▁CD -2702
ph -2703
▁삭 -2704
이크 -2705
▁스피 -2706
▁반도 -2707
▁살해 -2708
▁메이저 -2709
▁몽골 -2710
▁나뉘 -2711
▁주교 -2712
▁잭 -2713
▁모르 -2714
▁확정 -2715
▁숭 -2716
▁65 -2717
▁고구려 -2718
오스 -2719
▁1948 -2720
▁신앙 -2721
▁1964 -2722
▁랭 -2723
▁박쥐 -2724
▁띠 -2725
▁후손 -2726
▁181 -2727
▁태어난 -2728
▁의료 -2729
▁아야 -2730
음이 -2731
▁179 -2732
▁유학 -2733
▁경주 -2734
틀랜드 -2735
▁고문 -2736
▁전화 -2737
▁보장 -2738
▁회전 -2739
▁전설 -2740
▁아랍 -2741
▁사례 -2742
▁아라 -2743
▁알려졌 -2744
마스 -2745
▁바이러스 -2746
▁대립 -2747
▁자세 -2748
▁뛰어난 -2749
▁윈도우 -2750
▁어떻 -2751
▁보급 -2752
▁했었 -2753
▁나와 -2754
네시아 -2755
▁산맥 -2756
▁검찰 -2757
▁아르헨 -2758
▁연고 -2759
▁중화민국 -2760
▁x -2761
our -2762
▁읍 -2763
▁복잡 -2764
▁클래 -2765
▁브랜드 -2766
▁아메리카 -2767
▁폼 -2768
▁숫 -2769
▁구체 -2770
요시 -2771
원군 -2772
▁비율 -2773
▁인조 -2774
▁빠르 -2775
▁군단 -2776
▁함대 -2777
▁흔히 -2778
▁탄생 -2779
▁알리 -2780
▁재단 -2781
▁저장 -2782
▁방면 -2783
고기 -2784
▁조합 -2785
FC -2786
보드 -2787
▁아르헨티나 -2788
▁창설 -2789
▁1962 -2790
▁투어 -2791
▁동음이 -2792
▁감염 -2793
▁동음이의 -2794
▁스리 -2795
▁연산 -2796
▁54 -2797
▁공학 -2798
▁r -2799
▁판결 -2800
ne -2801
▁원작 -2802
▁옷 -2803
▁성당 -2804
▁가사 -2805
▁이루어지 -2806
▁중부 -2807
▁스튜디오 -2808
▁태어나 -2809
▁순서 -2810
▁1967 -2811
▁솔로 -2812
▁의학 -2813
데미 -2814
▁1946 -2815
▁지시 -2816
▁자금 -2817
▁조금 -2818
▁지키 -2819
▁집행 -2820
▁감정 -2821
▁동의 -2822
▁참석 -2823
▁뿌 -2824
▁나폴 -2825
▁성과 -2826
▁시킬 -2827
▁Le -2828
▁공기 -2829
▁보안 -2830
▁말기 -2831
▁청소년 -2832
▁초반 -2833
▁올렸 -2834
▁오픈 -2835
백질 -2836
없이 -2837
▁노예 -2838
▁예상 -2839
의회 -2840
▁우크 -2841
▁육상 -2842
▁본격 -2843
▁오른쪽 -2844
하라 -2845
▁암살 -2846
해졌 -2847
▁스타일 -2848
ive -2849
▁공포 -2850
▁아파 -2851
▁대항 -2852
리스트 -2853
▁여객철도 -2854
▁Un -2855
▁협상 -2856
▁스케 -2857
▁전라북도 -2858
▁전용 -2859
▁공무원 -2860
▁플레이어 -2861
▁이성 -2862
▁인상 -2863
▁아카데미 -2864
▁에피 -2865
▁시킨다 -2866
▁루이 -2867
▁1965 -2868
▁교토 -2869
▁운전 -2870
▁차별 -2871
일보 -2872
▁대비 -2873
▁53 -2874
▁켄 -2875
▁물러 -2876
▁전혀 -2877
▁왼쪽 -2878
▁비난 -2879
일러 -2880
▁북서 -2881
▁헤이 -2882
▁관료 -2883
다이 -2884
▁별도 -2885
▁kg -2886
▁전후 -2887
▁변호사 -2888
▁애플 -2889
▁오전 -2890
▁스크 -2891
▁중반 -2892
▁직원 -2893
▁냐 -2894
▁잘못 -2895
▁1949 -2896
▁통한 -2897
▁항복 -2898
ST -2899
▁덮 -2900
▁Ne -2901
▁De -2902
네스 -2903
▁묻 -2904
▁주위 -2905
▁사전 -2906
▁서기 -2907
▁1961 -2908
▁LG -2909
▁사항 -2910
▁북동 -2911
▁이익 -2912
▁56 -2913
▁온라인 -2914
▁수여 -2915
▁re -2916
각형 -2917
▁베이스 -2918
▁공유 -2919
▁연합군 -2920
우드 -2921
▁유적 -2922
▁단백질 -2923
▁52 -2924
▁넘어 -2925
▁법칙 -2926
▁1966 -2927
▁핵심 -2928
▁Ar -2929
▁카를 -2930
▁입자 -2931
▁건국 -2932
▁모스크바 -2933
▁스카 -2934
▁태풍 -2935
▁어린이 -2936
▁고정 -2937
▁게이 -2938
▁역대 -2939
▁장착 -2940
▁투입 -2941
▁만주 -2942
▁단일 -2943
▁바라 -2944
▁광역시 -2945
▁돌아가 -2946
▁사령관 -2947
▁저지 -2948
▁추측 -2949
▁롯 -2950
▁강하 -2951
▁아시안 -2952
▁요한 -2953
▁제자 -2954
에르 -2955
▁레코드 -2956
▁소식 -2957
▁교류 -2958
사키 -2959
▁고향 -2960
▁유엔 -2961
로나 -2962
▁산하 -2963
ea -2964
▁아스 -2965
▁본인 -2966
▁중세 -2967
▁수출 -2968
▁건조 -2969
▁열리 -2970
셔널 -2971
▁뽑 -2972
레이션 -2973
▁텐 -2974
▁요새 -2975
반도 -2976
▁저서 -2977
▁앞서 -2978
싱턴 -2979
▁셋 -2980
터리 -2981
▁오히 -2982
▁플랫 -2983
▁의장 -2984
▁Mar -2985
▁권한 -2986
▁협정 -2987
ry -2988
▁마크 -2989
▁벡 -2990
▁노르웨이 -2991
트라 -2992
▁코미 -2993
퍼스 -2994
▁오랜 -2995
▁집안 -2996
▁SBS -2997
io -2998
▁무리 -2999
▁숫자 -3000
▁성질 -3001
▁인가 -3002
▁사장 -3003
▁베를 -3004
▁김정 -3005
▁출장 -3006
▁보조 -3007
ong -3008
소드 -3009
▁라도 -3010
▁상품 -3011
▁불렸 -3012
▁붙여 -3013
바이 -3014
▁경성 -3015
▁마드리 -3016
▁방출 -3017
▁탁 -3018
▁구별 -3019
▁짜 -3020
▁사우 -3021
▁에선 -3022
▁아침 -3023
▁하드 -3024
▁호텔 -3025
▁선수단 -3026
▁49 -3027
▁창조 -3028
▁창립 -3029
무라 -3030
▁오토 -3031
▁마드리드 -3032
▁목사 -3033
▁지니 -3034
▁합성 -3035
▁금메달 -3036
▁군수 -3037
▁스코틀랜드 -3038
▁안타 -3039
▁정비 -3040
▁운용 -3041
▁개시 -3042
▁건립 -3043
▁작곡가 -3044
▁00 -3045
▁프란 -3046
▁인류 -3047
▁사법 -3048
▁금속 -3049
오프 -3050
▁원주 -3051
▁인정받 -3052
▁유전자 -3053
▁댄 -3054
▁본명 -3055
▁출입 -3056
▁베이징 -3057
▁낸 -3058
▁정복 -3059
▁지닌 -3060
▁공산주의 -3061
▁브리 -3062
▁생겨 -3063
▁활발 -3064
▁절대 -3065
▁주기 -3066
ss -3067
▁포위 -3068
▁한국어 -3069
▁취급 -3070
▁PC -3071
▁멸망 -3072
▁구속 -3073
▁통해서 -3074
▁논의 -3075
▁헨리 -3076
▁마침 -3077
▁흡수 -3078
▁슬로 -3079
▁빙 -3080
▁죽이 -3081
▁판서 -3082
▁일으키 -3083
▁켈 -3084
▁효율 -3085
▁오히려 -3086
▁택 -3087
▁진다 -3088
▁코스 -3089
▁고유 -3090
ib -3091
▁159 -3092
▁학부 -3093
▁보컬 -3094
▁전공 -3095
▁거절 -3096
ant -3097
▁신성 -3098
▁인공 -3099
▁어떻게 -3100
▁US -3101
▁복합 -3102
▁명성 -3103
▁들어갔 -3104
▁58 -3105
ight -3106
▁훨 -3107
▁인권 -3108
ect -3109
▁지낸 -3110
미터 -3111
▁내렸 -3112
▁160 -3113
산시 -3114
▁제출 -3115
▁히데 -3116
BO -3117
▁소방 -3118
▁맛 -3119
▁내리 -3120
노스 -3121
▁소녀 -3122
▁현장 -3123
퍼드 -3124
ich -3125
▁의무 -3126
▁부활 -3127
▁한자 -3128
▁노부 -3129
▁투쟁 -3130
카와 -3131
▁99 -3132
▁재위 -3133
▁훨씬 -3134
▁워싱턴 -3135
▁st -3136
▁관직 -3137
▁부장 -3138
▁1958 -3139
▁간단 -3140
▁원리 -3141
▁미터 -3142
▁영업 -3143
▁61 -3144
▁일대 -3145
문화재 -3146
▁시점 -3147
독부 -3148
▁생기 -3149
▁파라 -3150
▁아테 -3151
▁접하 -3152
▁써 -3153
▁포기 -3154
▁플라 -3155
▁아미 -3156
ert -3157
▁62 -3158
ang -3159
▁시호 -3160
▁임금 -3161
▁불상 -3162
▁속한다 -3163
▁자라 -3164
▁반복 -3165
▁본사 -3166
다리 -3167
▁수송 -3168
▁어렵 -3169
▁천체 -3170
▁아름다 -3171
▁전철 -3172
▁북아 -3173
▁1941 -3174
▁178 -3175
▁십자 -3176
▁찍 -3177
▁취득 -3178
▁심각 -3179
▁형사 -3180
▁예산 -3181
▁1956 -3182
▁동원 -3183
▁직전 -3184
▁장교 -3185
▁갈등 -3186
▁릴 -3187
▁지붕 -3188
▁일치 -3189
▁1944 -3190
▁미니 -3191
▁논리 -3192
ue -3193
▁코미디 -3194
비드 -3195
▁대리 -3196
▁보험 -3197
▁성경 -3198
▁머물 -3199
▁Com -3200
카이도 -3201
▁학술 -3202
▁박정 -3203
▁사령부 -3204
▁레드 -3205
▁더라도 -3206
▁항공기 -3207
▁소스 -3208
▁장악 -3209
▁노스 -3210
도르 -3211
▁비록 -3212
▁보스 -3213
OS -3214
▁직업 -3215
▁견해 -3216
▁이른 -3217
▁메시 -3218
▁태국 -3219
▁백제 -3220
▁폴리 -3221
▁주관 -3222
▁인터뷰 -3223
▁57 -3224
▁해상 -3225
▁인종 -3226
▁멘 -3227
▁김영 -3228
▁연재 -3229
▁Sh -3230
▁해졌 -3231
▁공화 -3232
▁승진 -3233
▁에피소드 -3234
▁취하 -3235
▁95 -3236
▁포도 -3237
▁충청북도 -3238
▁농민 -3239
▁수술 -3240
▁전부 -3241
▁좁 -3242
ens -3243
나이티 -3244
서트 -3245
ort -3246
▁논쟁 -3247
▁불법 -3248
▁렀 -3249
▁학회 -3250
▁말레이 -3251
▁정원 -3252
▁통상 -3253
▁유나이티 -3254
▁신체 -3255
▁진보 -3256
▁혼란 -3257
▁성능 -3258
ain -3259
▁글로 -3260
▁중대 -3261
리어 -3262
▁명명 -3263
▁방사 -3264
기에 -3265
▁66 -3266
▁정지 -3267
▁사태 -3268
▁화물 -3269
ys -3270
▁이기 -3271
▁이치 -3272
▁개체 -3273
▁약속 -3274
ate -3275
▁꼭 -3276
▁허가 -3277
▁프로세 -3278
▁학과 -3279
▁베를린 -3280
▁그레 -3281
▁벼 -3282
쿠라 -3283
▁친일 -3284
▁자이 -3285
데스 -3286
▁제일 -3287
▁편지 -3288
▁1947 -3289
▁다며 -3290
▁해양 -3291
▁플레이오프 -3292
▁연관 -3293
▁블루 -3294
▁시리아 -3295
▁주식회사 -3296
▁도구 -3297
▁주간 -3298
▁주택 -3299
▁자는 -3300
▁거기 -3301
▁교환 -3302
▁채용 -3303
▁기호 -3304
▁분쟁 -3305
▁주전 -3306
▁하위 -3307
▁화면 -3308
▁메인 -3309
▁빠른 -3310
병대 -3311
▁합격 -3312
다가 -3313
아버지 -3314
▁해산 -3315
▁대화 -3316
▁모드 -3317
▁통계 -3318
▁앞두 -3319
▁Pro -3320
▁알아 -3321
누스 -3322
▁청구 -3323
▁국장 -3324
▁요코 -3325
▁남서 -3326
▁신분 -3327
▁국도 -3328
▁다운 -3329
▁.. -3330
▁닥 -3331
▁훗 -3332
▁학원 -3333
▁상당히 -3334
▁1959 -3335
▁닌 -3336
▁영입 -3337
▁재료 -3338
▁폭력 -3339
▁연료 -3340
▁출마 -3341
▁미드 -3342
▁임의 -3343
▁FA -3344
▁선교 -3345
▁자살 -3346
▁철수 -3347
▁그런데 -3348
▁일으켰 -3349
▁상륙 -3350
▁보관 -3351
▁여부 -3352
▁그리스도 -3353
▁응용 -3354
▁도달 -3355
▁이어지 -3356
▁1939 -3357
에트 -3358
end -3359
▁모아 -3360
▁1919 -3361
▁Sp -3362
▁유물 -3363
▁넷 -3364
▁후원 -3365
▁교차 -3366
▁타이완 -3367
▁항구 -3368
▁니콜 -3369
▁미나 -3370
▁1954 -3371
▁변환 -3372
▁브레 -3373
르타 -3374
▁백작 -3375
▁88 -3376
▁파크 -3377
▁제어 -3378
▁SK -3379
▁축제 -3380
▁반발 -3381
▁트랙 -3382
▁갈라 -3383
▁모여 -3384
▁부사 -3385
▁흐르 -3386
▁무엇 -3387
▁콘서트 -3388
▁1000 -3389
▁디스 -3390
▁탈출 -3391
▁63 -3392
▁로드 -3393
▁리더 -3394
▁베스트 -3395
▁고용 -3396
▁떠났 -3397
▁진입 -3398
▁이승만 -3399
▁수집 -3400
▁방송국 -3401
▁세인트 -3402
ly -3403
▁엠 -3404
세이 -3405
▁쳐 -3406
▁예비 -3407
▁동작 -3408
▁68 -3409
▁장수 -3410
▁벨기에 -3411
▁서버 -3412
▁구성원 -3413
▁당한 -3414
▁1952 -3415
▁복무 -3416
▁아사 -3417
정부 -3418
▁감사 -3419
하마 -3420
▁작사 -3421
▁빠져 -3422
▁프리미 -3423
▁85 -3424
▁계통 -3425
▁저작 -3426
▁i -3427
▁반영 -3428
▁전파 -3429
천시 -3430
▁이민 -3431
▁창단 -3432
▁인도네시아 -3433
▁정체 -3434
▁활성 -3435
▁무덤 -3436
▁부임 -3437
▁문헌 -3438
▁대략 -3439
▁진압 -3440
▁핑 -3441
▁망명 -3442
▁마이클 -3443
▁고도 -3444
▁니시 -3445
▁영향력 -3446
▁훗날 -3447
로그 -3448
▁생긴 -3449
▁신청 -3450
▁수소 -3451
준다 -3452
▁고리 -3453
▁연안 -3454
▁주년 -3455
▁포로 -3456
▁독립운동 -3457
정식 -3458
▁위반 -3459
▁웨스트 -3460
▁프라 -3461
▁한때 -3462
▁가을 -3463
▁위상 -3464
▁학습 -3465
이어 -3466
▁182 -3467
▁콤 -3468
▁현지 -3469
▁롯데 -3470
▁보낸 -3471
▁스마 -3472
▁전문가 -3473
▁공통 -3474
▁글자 -3475
▁로운 -3476
드시 -3477
▁보물 -3478
▁별명 -3479
▁문장 -3480
▁스토 -3481
▁120 -3482
▁상승 -3483
▁다스 -3484
▁팝 -3485
▁식품 -3486
▁화성 -3487
▁캠퍼스 -3488
ord -3489
▁각본 -3490
▁177 -3491
▁지급 -3492
▁막부 -3493
▁누구 -3494
▁기도 -3495
▁좌우 -3496
▁일본군 -3497
▁홋 -3498
▁기법 -3499
▁외국인 -3500
▁선보 -3501
시스 -3502
▁여야 -3503
페라 -3504
▁소비에트 -3505
▁기하 -3506
▁하우스 -3507
▁개조 -3508
▁임대 -3509
▁Con -3510
▁탄소 -3511
▁이룬다 -3512
▁배출 -3513
▁관점 -3514
▁흉 -3515
머스 -3516
▁1955 -3517
▁86 -3518
▁물체 -3519
▁임진 -3520
▁1942 -3521
▁정기 -3522
▁마케 -3523
▁원년 -3524
▁테러 -3525
▁실수 -3526
천군 -3527
▁동아 -3528
▁발언 -3529
▁참고 -3530
리케 -3531
▁로버트 -3532
▁한반도 -3533
▁신인 -3534
▁판사 -3535
▁스러운 -3536
▁늦 -3537
▁동성 -3538
▁전주 -3539
라비아 -3540
▁카메라 -3541
▁체코 -3542
▁횡 -3543
▁시조 -3544
▁덧 -3545
▁처형 -3546
▁쫓 -3547
저우 -3548
▁1953 -3549
▁98 -3550
▁주둔 -3551
▁수리 -3552
▁탈락 -3553
▁반드시 -3554
▁광장 -3555
▁어떠 -3556
uc -3557
▁연출 -3558
▁조작 -3559
▁출간 -3560
▁도망 -3561
▁도와 -3562
▁1957 -3563
▁오스만 -3564
▁대개 -3565
ER -3566
▁호수 -3567
▁국무 -3568
▁리스 -3569
▁살인 -3570
▁예측 -3571
▁포트 -3572
▁녹색 -3573
▁남겼 -3574
▁동남 -3575
▁스럽 -3576
ON -3577
oh -3578
ver -3579
▁~) -3580
▁변형 -3581
▁사립 -3582
▁이뤄 -3583
▁히트 -3584
▁갤 -3585
▁800 -3586
▁사운드 -3587
▁to -3588
▁는가 -3589
▁절차 -3590
▁뿌리 -3591
▁농구 -3592
▁둘째 -3593
▁파트 -3594
▁김일 -3595
▁서원 -3596
▁맞이 -3597
▁엑스 -3598
▁나갔 -3599
▁1943 -3600
▁손자 -3601
▁메모리 -3602
자기 -3603
▁큐 -3604
▁600 -3605
▁라이트 -3606
▁뜨 -3607
▁락 -3608
▁특이 -3609
▁방정식 -3610
▁압력 -3611
▁72 -3612
▁왕자 -3613
▁넓이 -3614
▁장르 -3615
▁기체 -3616
▁끝나 -3617
▁개신 -3618
▁선전 -3619
▁생존 -3620
▁등지 -3621
▁71 -3622
AR -3623
▁IS -3624
▁심리 -3625
▁터널 -3626
▁콘스탄 -3627
▁%, -3628
▁싸움 -3629
▁전형 -3630
치아 -3631
▁법정 -3632
▁참전 -3633
▁파악 -3634
▁일본인 -3635
▁82 -3636
▁분열 -3637
▁자녀 -3638
▁간행 -3639
▁살아 -3640
▁황금 -3641
▁목소리 -3642
▁묶 -3643
▁전면 -3644
▁톱 -3645
▁벡터 -3646
▁기둥 -3647
▁톰 -3648
▁부부 -3649
릭스 -3650
▁74 -3651
메리 -3652
듀서 -3653
▁프로듀서 -3654
▁헤르 -3655
▁우스 -3656
▁타격 -3657
▁취소 -3658
수록 -3659
▁신뢰 -3660
▁의도 -3661
▁올려 -3662
▁이온 -3663
▁된다는 -3664
▁트랜 -3665
ast -3666
▁59 -3667
▁범주 -3668
▁공동체 -3669
▁구하 -3670
▁독특 -3671
▁스미 -3672
▁중기 -3673
▁부하 -3674
▁진주 -3675
ff -3676
라드 -3677
▁제대로 -3678
AS -3679
▁방지 -3680
▁일찍 -3681
방송 -3682
▁곽 -3683
▁싸우 -3684
ok -3685
▁예전 -3686
▁전동 -3687
▁분명 -3688
키스탄 -3689
▁73 -3690
▁삽 -3691
▁꺾 -3692
▁실질 -3693
▁픽 -3694
▁웅 -3695
▁물리학 -3696
▁버렸 -3697
▁이중 -3698
▁매일 -3699
▁노벨 -3700
▁조절 -3701
lan -3702
▁81 -3703
▁수영 -3704
▁최다 -3705
▁지리 -3706
▁분할 -3707
▁엄청 -3708
▁아파트 -3709
▁영화제 -3710
에이 -3711
▁민법 -3712
▁여단 -3713
AT -3714
▁풍부 -3715
바라 -3716
틀러 -3717
▁로켓 -3718
▁빼앗 -3719
▁76 -3720
▁모형 -3721
▁레스 -3722
▁끝난 -3723
▁흑인 -3724
▁타임 -3725
▁천연 -3726
▁숙종 -3727
▁대법 -3728
▁집권 -3729
▁당초 -3730
우리 -3731
▁사마 -3732
▁161 -3733
▁독일군 -3734
▁유치 -3735
공항 -3736
바르 -3737
▁부진 -3738
▁분기 -3739
▁효소 -3740
▁스토리 -3741
▁셔 -3742
▁둘러싸 -3743
▁현역 -3744
▁브루 -3745
▁루트 -3746
▁요인 -3747
▁메이지 -3748
▁쓸 -3749
▁광복 -3750
▁희망 -3751
▁질병 -3752
▁시카 -3753
▁유기 -3754
▁움직임 -3755
▁오프 -3756
▁공정 -3757
▁선거구 -3758
▁묵 -3759
▁달하 -3760
▁나뉜 -3761
▁트로 -3762
▁레오 -3763
ae -3764
▁완공 -3765
▁이시 -3766
포르 -3767
▁보건 -3768
▁우려 -3769
▁전신 -3770
어스 -3771
▁성향 -3772
▁랜 -3773
▁날개 -3774
▁달라 -3775
▁모임 -3776
▁오페라 -3777
▁흘러 -3778
▁새겨 -3779
▁나타났 -3780
▁1936 -3781
▁나타난다 -3782
대부 -3783
▁77 -3784
▁마법 -3785
▁편찬 -3786
▁향해 -3787
▁67 -3788
▁구현 -3789
▁샘 -3790
▁전원 -3791
▁등판 -3792
▁91 -3793
▁방해 -3794
▁사형 -3795
▁롱 -3796
▁의존 -3797
▁정하 -3798
▁태조 -3799
▁복지 -3800
▁마침내 -3801
▁사냥 -3802
성군 -3803
▁기온 -3804
▁페이 -3805
▁대공 -3806
▁테이 -3807
▁세르비아 -3808
타르 -3809
▁단독 -3810
▁향하 -3811
▁맞추 -3812
▁1938 -3813
▁팽 -3814
▁피아노 -3815
▁충격 -3816
▁각지 -3817
▁데이비드 -3818
티브 -3819
▁문명 -3820
▁상원 -3821
▁분위 -3822
ure -3823
▁작위 -3824
▁프로그래 -3825
▁그때 -3826
▁출범 -3827
man -3828
▁처벌 -3829
▁희생 -3830
믹스 -3831
▁났 -3832
▁조종 -3833
크스 -3834
▁한계 -3835
▁탐사 -3836
사자 -3837
▁사정 -3838
▁뮤지 -3839
▁함락 -3840
▁띄 -3841
▁발음 -3842
프리 -3843
▁미국인 -3844
▁백성 -3845
▁징역 -3846
▁기기 -3847
▁명확 -3848
▁으려 -3849
▁국제공항 -3850
▁밝히 -3851
▁젠 -3852
학생 -3853
▁화재 -3854
▁AT -3855
▁완료 -3856
▁뚜 -3857
▁순환 -3858
▁명나라 -3859
▁추천 -3860
▁성분 -3861
▁동기 -3862
▁오랫 -3863
▁추구 -3864
▁크리 -3865
▁점점 -3866
▁포인트 -3867
iz -3868
▁공로 -3869
▁순수 -3870
▁영웅 -3871
▁임기 -3872
▁동서 -3873
▁KBO -3874
▁바위 -3875
다는 -3876
먼트 -3877
▁저술 -3878
질랜드 -3879
이치 -3880
▁언제 -3881
▁플래 -3882
▁경로 -3883
▁회담 -3884
▁1910 -3885
▁근본 -3886
▁서명 -3887
젤레스 -3888
▁시드 -3889
피스 -3890
▁뉴질랜드 -3891
one -3892
▁SS -3893
▁평안 -3894
▁모토 -3895
▁양쪽 -3896
▁훌 -3897
▁사원 -3898
▁개신교 -3899
▁이자 -3900
▁이닝 -3901
▁개막 -3902
▁순간 -3903
▁원형 -3904
▁Me -3905
▁오랫동안 -3906
▁무시 -3907
▁닛 -3908
▁영지 -3909
▁된다고 -3910
▁96 -3911
▁일식 -3912
연히 -3913
BA -3914
라이나 -3915
▁승부 -3916
▁복수 -3917
▁구원 -3918
▁1937 -3919
▁교구 -3920
▁사임 -3921
▁파르 -3922
▁첼 -3923
▁가상 -3924
▁동명 -3925
리히 -3926
▁타자 -3927
▁연구원 -3928
▁변수 -3929
ld -3930
▁새롭 -3931
▁인접 -3932
▁무게 -3933
▁한국인 -3934
▁스탠 -3935
▁분해 -3936
ust -3937
▁도쿠 -3938
▁출력 -3939
▁루이스 -3940
▁한정 -3941
▁DNA -3942
▁한글 -3943
▁서구 -3944
숭이 -3945
▁알파 -3946
▁조조 -3947
▁병합 -3948
▁기상 -3949
▁유행 -3950
▁적절 -3951
▁바깥 -3952
▁어도 -3953
▁해리 -3954
▁한다면 -3955
▁꼽 -3956
▁실현 -3957
▁확률 -3958
▁유형문화재 -3959
▁포항 -3960
▁%) -3961
▁1951 -3962
▁그래픽 -3963
시오 -3964
▁신부 -3965
▁제사 -3966
▁공헌 -3967
▁발굴 -3968
▁연간 -3969
▁내전 -3970
▁펼쳐 -3971
▁175 -3972
▁1935 -3973
이센 -3974
▁먹이 -3975
무부 -3976
▁안동 -3977
ore -3978
▁에서부터 -3979
▁캔 -3980
▁상위 -3981
▁포켓 -3982
▁"" -3983
▁침략 -3984
▁급제 -3985
▁170 -3986
▁특별시 -3987
의정 -3988
▁앉 -3989
▁합쳐 -3990
▁행렬 -3991
▁나아가 -3992
▁사실상 -3993
▁이라크 -3994
▁사제 -3995
▁떨어지 -3996
▁입니다 -3997
▁정해 -3998
▁He -3999
▁코르 -4000
▁홍보 -4001
▁느끼 -4002
텐츠 -4003
▁화산 -4004
배우 -4005
베스 -4006
▁드라이 -4007
민주 -4008
▁고지 -4009
▁줄기 -4010
▁악화 -4011
▁증상 -4012
▁진정 -4013
▁춤 -4014
▁교향 -4015
▁프린 -4016
▁레인 -4017
▁복원 -4018
▁민중 -4019
은행 -4020
▁1918 -4021
거운 -4022
▁여왕 -4023
▁DV -4024
▁나들 -4025
왜란 -4026
▁임진왜란 -4027
▁조별 -4028
▁태종 -4029
▁여론 -4030
▁움직이 -4031
▁심사 -4032
▁리가 -4033
▁연예 -4034
▁개입 -4035
▁동해 -4036
디션 -4037
▁앵 -4038
▁com -4039
유럽 -4040
ack -4041
▁무사 -4042
▁78 -4043
▁통산 -4044
▁일본어 -4045
▁섞 -4046
▁수석 -4047
▁마르크 -4048
▁NH -4049
▁태도 -4050
▁1914 -4051
▁혼합 -4052
▁프리미어 -4053
리노 -4054
▁자전 -4055
▁박정희 -4056
▁분위기 -4057
▁페르시아 -4058
라이언 -4059
▁상역 -4060
▁중력 -4061
▁알렉산드 -4062
▁시마 -4063
▁고속도로 -4064
▁사무실 -4065
▁방위 -4066
▁1932 -4067
▁발발 -4068
▁문신 -4069
▁정수 -4070
▁받아들여 -4071
▁기울 -4072
▁악기 -4073
ith -4074
사스 -4075
▁경전 -4076
▁미야 -4077
▁하나님 -4078
▁아프 -4079
▁어깨 -4080
▁의심 -4081
▁87 -4082
▁나들목 -4083
▁승객 -4084
비치 -4085
▁평등 -4086
에른 -4087
▁입력 -4088
▁확산 -4089
브리 -4090
▁곱 -4091
▁과학자 -4092
▁사자 -4093
▁대왕 -4094
▁갈색 -4095
▁AP -4096
▁세리 -4097
▁단편 -4098
▁복음 -4099
▁가시 -4100
▁지형 -4101
투스 -4102
IA -4103
▁신자 -4104
▁92 -4105
▁홋카이도 -4106
▁비평 -4107
▁클레 -4108
▁아테네 -4109
▁Be -4110
▁흐름 -4111
▁멀리 -4112
▁닉 -4113
▁84 -4114
▁176 -4115
▁가진다 -4116
이너 -4117
▁올해 -4118
▁가담 -4119
▁아이돌 -4120
▁93 -4121
▁람 -4122
▁자식 -4123
▁찰스 -4124
레옹 -4125
▁그라 -4126
TV -4127
▁재건 -4128
▁163 -4129
▁97 -4130
▁아동 -4131
▁동양 -4132
▁IC -4133
▁뮤지컬 -4134
▁미쓰 -4135
▁나폴레옹 -4136
▁재배 -4137
마니아 -4138
▁왕실 -4139
▁침입 -4140
ug -4141
▁창원 -4142
▁지사 -4143
▁그레이 -4144
▁리처 -4145
▁확립 -4146
▁162 -4147
▁스마트 -4148
▁가량 -4149
▁지켜 -4150
▁의혹 -4151
▁마무 -4152
▁겹 -4153
▁로스앤 -4154
▁로스앤젤레스 -4155
▁다케 -4156
코스 -4157
▁저녁 -4158
▁접촉 -4159
▁전직 -4160
하여 -4161
▁자극 -4162
▁션 -4163
▁감시 -4164
▁장남 -4165
▁우라 -4166
▁뱅 -4167
▁속한 -4168
▁나뉜다 -4169
▁대량 -4170
▁You -4171
▁깃 -4172
▁균형 -4173
▁조차 -4174
ial -4175
▁승려 -4176
▁실력 -4177
▁Se -4178
▁주최 -4179
▁어디 -4180
▁재학 -4181
▁호주 -4182
▁거듭 -4183
▁액션 -4184
▁프랑크 -4185
▁164 -4186
▁카라 -4187
▁1933 -4188
▁퀸 -4189
▁트라 -4190
▁입법 -4191
▁평론 -4192
러리 -4193
▁쌀 -4194
▁개설 -4195
▁처분 -4196
▁에르 -4197
▁유한 -4198
▁말레이시아 -4199
▁김대 -4200
▁사도 -4201
▁듯이 -4202
▁빌딩 -4203
일스 -4204
▁대선 -4205
버그 -4206
더스 -4207
▁점수 -4208
▁정조 -4209
▁주력 -4210
▁윗 -4211
▁돌아왔 -4212
▁바이에른 -4213
▁비상 -4214
▁다소 -4215
▁벌였 -4216
▁바닥 -4217
▁프로이센 -4218
▁보살 -4219
▁시사 -4220
▁후속 -4221
▁학살 -4222
▁밝혀졌 -4223
▁수도원 -4224
▁158 -4225
▁참모 -4226
▁리버 -4227
▁영조 -4228
▁시카고 -4229
▁일시 -4230
▁1924 -4231
▁참조 -4232
▁치러 -4233
▁폭탄 -4234
▁텍사스 -4235
필더 -4236
▁탈퇴 -4237
▁벗어나 -4238
▁미드필더 -4239
▁일상 -4240
▁어려운 -4241
▁아티 -4242
메이 -4243
▁수익 -4244
▁웨이 -4245
▁비서 -4246
▁심지 -4247
▁보고서 -4248
▁부지 -4249
▁네이 -4250
▁동방 -4251
▁상관 -4252
▁대지 -4253
▁석유 -4254
▁1934 -4255
▁가공 -4256
▁아리 -4257
▁인증 -4258
▁커뮤 -4259
▁김일성 -4260
▁1900 -4261
▁따로 -4262
▁프라이 -4263
▁후계 -4264
ational -4265
▁대성 -4266
▁1928 -4267
▁혁신 -4268
▁Am -4269
▁김성 -4270
조합 -4271
▁데스 -4272
▁왕후 -4273
▁165 -4274
▁끝내 -4275
▁산화 -4276
▁피하 -4277
▁도요 -4278
▁훈장 -4279
▁아름다운 -4280
▁녀 -4281
▁개성 -4282
▁156 -4283
▁공중 -4284
▁쾌 -4285
▁69 -4286
▁국정 -4287
▁바둑 -4288
▁옮겼 -4289
▁오카 -4290
▁나온다 -4291
ind -4292
▁좋아 -4293
▁총회 -4294
▁개칭 -4295
▁기에 -4296
▁알바 -4297
▁조카 -4298
▁기소 -4299
▁커뮤니 -4300
▁정차 -4301
▁돕 -4302
▁계층 -4303
▁유통 -4304
▁절반 -4305
▁창작 -4306
▁지향 -4307
▁잠수 -4308
▁암호 -4309
▁가까이 -4310
▁이른다 -4311
▁튜 -4312
▁불만 -4313
▁주어진 -4314
▁여섯 -4315
▁내셔널 -4316
ath -4317
▁총장 -4318
▁에드워드 -4319
▁화장 -4320
▁이혼 -4321
▁나타낸다 -4322
▁700 -4323
EC -4324
▁백만 -4325
▁그만 -4326
▁일컫 -4327
일리 -4328
▁메리 -4329
▁세자 -4330
▁부담 -4331
▁신사 -4332
▁인용 -4333
▁혼인 -4334
▁FM -4335
▁히틀러 -4336
▁폐쇄 -4337
▁101 -4338
ock -4339
▁89 -4340
▁th -4341
▁스프 -4342
▁y -4343
▁역학 -4344
가락 -4345
▁콘스탄티 -4346
▁당나라 -4347
▁마시 -4348
▁무한 -4349
체스터 -4350
▁청주 -4351
아티아 -4352
▁크로아티아 -4353
▁벌이 -4354
▁매장 -4355
▁그렇게 -4356
▁뮌 -4357
▁선임 -4358
▁발탁 -4359
▁168 -4360
▁가와 -4361
ory -4362
▁심장 -4363
▁는다는 -4364
▁부산광역시 -4365
▁이명 -4366
▁후쿠오카 -4367
▁설득 -4368
▁AFC -4369
▁누르 -4370
ont -4371
▁도전 -4372
▁힙 -4373
토스 -4374
ment -4375
▁권위 -4376
▁고통 -4377
▁En -4378
▁왕비 -4379
▁력 -4380
▁보상 -4381
해서 -4382
▁심판 -4383
▁94 -4384
▁루마니아 -4385
직자 -4386
▁센트 -4387
▁긍 -4388
▁김종 -4389
▁드래프트 -4390
▁메시지 -4391
▁140 -4392
▁골든 -4393
▁on -4394
▁당국 -4395
▁랜드 -4396
▁께 -4397
▁밥 -4398
▁작동 -4399
터스 -4400
▁선박 -4401
▁손상 -4402
▁DVD -4403
▁속해 -4404
▁고기 -4405
▁마무리 -4406
▁대체로 -4407
▁오직 -4408
▁화합 -4409
▁154 -4410
▁돌아와 -4411
▁라틴어 -4412
▁83 -4413
▁총독 -4414
▁본질 -4415
▁무료 -4416
▁하인 -4417
▁디아 -4418
나가 -4419
▁학사 -4420
▁벌어진 -4421
▁의지 -4422
▁원수 -4423
▁포켓몬 -4424
▁타워 -4425
▁브라운 -4426
▁서식지 -4427
▁국군 -4428
▁연습 -4429
▁상실 -4430
자치 -4431
▁디스크 -4432
▁탱 -4433
▁두려 -4434
▁호소 -4435
▁굳 -4436
▁메달 -4437
▁황후 -4438
▁도덕 -4439
▁라스 -4440
▁개방 -4441
▁빌보드 -4442
▁접한다 -4443
▁피해자 -4444
▁Sc -4445
▁블라 -4446
▁일체 -4447
▁올라가 -4448
▁피부 -4449
▁엄청난 -4450
▁빅토 -4451
▁가마 -4452
▁생물학 -4453
▁천안 -4454
▁분노 -4455
▁심지어 -4456
ond -4457
▁추기 -4458
▁로봇 -4459
▁맞서 -4460
▁시나 -4461
▁CP -4462
▁패션 -4463
▁진영 -4464
▁필드 -4465
ove -4466
▁1931 -4467
미야 -4468
▁진격 -4469
▁교리 -4470
▁산소 -4471
▁루스 -4472
▁전송 -4473
▁조지아 -4474
▁조선총 -4475
▁조선총독부 -4476
드리히 -4477
▁결론 -4478
▁소멸 -4479
▁신고 -4480
▁휴대 -4481
▁가나 -4482
▁불가리아 -4483
▁창당 -4484
▁위대 -4485
▁검토 -4486
▁해발 -4487
▁턴 -4488
tt -4489
마르 -4490
▁경남 -4491
▁비례 -4492
▁사기 -4493
메리칸 -4494
▁여겨진다 -4495
AN -4496
▁프리드리히 -4497
▁쓰여 -4498
▁안드로 -4499
제국 -4500
▁기리 -4501
▁졌으며 -4502
▁프랑스군 -4503
이다 -4504
▁더블 -4505
▁145 -4506
▁프랑스어 -4507
▁렀다 -4508
▁파워 -4509
▁동북 -4510
▁리처드 -4511
▁테크 -4512
아내 -4513
▁고시 -4514
▁였을 -4515
▁가슴 -4516
▁궁전 -4517
▁타율 -4518
▁뤼 -4519
인물 -4520
▁목성 -4521
▁주소 -4522
▁시상 -4523
다란 -4524
▁연평 -4525
▁와서 -4526
▁인디언 -4527
▁1929 -4528
▁인원 -4529
▁일기 -4530
▁도마 -4531
▁대책 -4532
ass -4533
▁닥터 -4534
▁사유 -4535
▁유효 -4536
▁주석 -4537
▁110 -4538
▁1923 -4539
바로 -4540
▁웃 -4541
▁테마 -4542
▁닫 -4543
ical -4544
▁HD -4545
▁관여 -4546
▁166 -4547
▁자이언 -4548
유산 -4549
▁업적 -4550
▁요금 -4551
▁노출 -4552
▁늘어 -4553
▁추기경 -4554
▁구입 -4555
▁1921 -4556
▁싱가 -4557
스트라 -4558
▁1922 -4559
▁싱가포르 -4560
▁모바 -4561
▁테스트 -4562
▁1925 -4563
머리 -4564
▁157 -4565
▁수호 -4566
▁독재 -4567
▁151 -4568
▁햄 -4569
▁힌 -4570
▁물건 -4571
▁아웃 -4572
▁늑 -4573
▁폭격 -4574
▁결의 -4575
▁소득 -4576
ies -4577
▁깊이 -4578
▁언덕 -4579
▁당해 -4580
▁79 -4581
▁보르 -4582
▁사퇴 -4583
▁행복 -4584
▁어려움 -4585
▁조상 -4586
▁빚 -4587
▁알고리 -4588
▁01 -4589
▁도모 -4590
▁에어 -4591
▁항공사 -4592
▁미리 -4593
▁수요 -4594
▁하원 -4595
▁타운 -4596
▁적합 -4597
▁전투기 -4598
▁개명 -4599
▁고급 -4600
▁발명 -4601
▁페이지 -4602
▁전술 -4603
▁전당 -4604
바키아 -4605
▁155 -4606
▁Pr -4607
tern -4608
▁똑 -4609
▁려면 -4610
▁격파 -4611
▁그리스어 -4612
▁대우 -4613
▁부친 -4614
ire -4615
▁cod -4616
▁JR -4617
▁코파 -4618
▁사우스 -4619
▁덜 -4620
▁덩 -4621
▁가요 -4622
▁설치류 -4623
로지 -4624
여서 -4625
▁막대 -4626
▁세부 -4627
▁천만 -4628
ood -4629
▁환승 -4630
▁알고리즘 -4631
▁연상 -4632
▁개찰 -4633
▁후임 -4634
▁중추 -4635
act -4636
▁안토 -4637
▁칠레 -4638
▁Ma -4639
총리 -4640
ber -4641
▁서술 -4642
▁즉시 -4643
세포 -4644
▁누리 -4645
▁통화 -4646
▁아트 -4647
▁쿠데 -4648
▁완벽 -4649
AM -4650
▁추방 -4651
해군 -4652
▁모바일 -4653
▁각국 -4654
▁개량 -4655
▁규제 -4656
클리 -4657
사전 -4658
▁부동 -4659
▁오키 -4660
▁검색 -4661
▁매체 -4662
▁1926 -4663
▁OS -4664
▁스타디 -4665
ary -4666
▁내세 -4667
▁느낌 -4668
▁느냐 -4669
▁화이트 -4670
무늬 -4671
▁덧붙 -4672
▁전한 -4673
▁강릉 -4674
▁변하 -4675
▁약칭 -4676
▁배포 -4677
▁진학 -4678
▁우크라 -4679
▁티베 -4680
▁뷰 -4681
▁인생 -4682
▁이마 -4683
▁화려 -4684
▁제이 -4685
▁돌려 -4686
레나 -4687
▁음성 -4688
▁국적 -4689
▁상주 -4690
▁시트 -4691
▁수업 -4692
▁본다 -4693
ivers -4694
▁야스 -4695
▁사과 -4696
▁생겼 -4697
▁천주교 -4698
슬러 -4699
▁화제 -4700
▁랩 -4701
▁레알 -4702
리그 -4703
▁스탈 -4704
▁구매 -4705
▁달려 -4706
▁진단 -4707
원경 -4708
▁가설 -4709
BM -4710
▁음악가 -4711
▁사무소 -4712
▁드래 -4713
▁발간 -4714
▁치렀 -4715
▁고양이 -4716
▁방언 -4717
▁인쇄 -4718
▁상대식 -4719
쿠스 -4720
▁상속 -4721
ide -4722
▁사양 -4723
▁회로 -4724
▁이어졌 -4725
▁상수 -4726
▁최우 -4727
여금 -4728
▁신장 -4729
데이 -4730
▁카스 -4731
▁비행기 -4732
▁쿠데타 -4733
▁유배 -4734
▁153 -4735
▁자국 -4736
자키 -4737
▁신도 -4738
▁밀려 -4739
▁겉 -4740
▁상인 -4741
▁주체 -4742
▁공신 -4743
▁La -4744
▁석사 -4745
▁크로스 -4746
▁곡선 -4747
iss -4748
▁득표 -4749
▁남아프리카 -4750
▁감각 -4751
▁카운 -4752
▁139 -4753
▁정교회 -4754
▁사격 -4755
▁이와 -4756
▁1927 -4757
▁MS -4758
▁화석 -4759
▁마루 -4760
▁국기 -4761
▁167 -4762
▁Ph -4763
▁171 -4764
▁급격 -4765
▁노리 -4766
▁만났 -4767
느님 -4768
▁Br -4769
▁선형 -4770
▁세조 -4771
▁실천 -4772
▁소형 -4773
▁유고 -4774
▁하느님 -4775
레인 -4776
▁Co -4777
▁앤드 -4778
▁영주 -4779
▁질환 -4780
▁갑자기 -4781
per -4782
▁동지 -4783
▁포스 -4784
▁게다가 -4785
▁운항 -4786
▁Wor -4787
▁손실 -4788
▁연락 -4789
▁잭슨 -4790
▁허락 -4791
▁줄어들 -4792
▁Sch -4793
▁끈 -4794
란색 -4795
▁오이 -4796
▁강남 -4797
▁거짓 -4798
▁반사 -4799
▁저자 -4800
▁트레이드 -4801
▁반지 -4802
▁생태 -4803
▁성남 -4804
슈타인 -4805
구치 -4806
▁Te -4807
▁이른바 -4808
▁타이거 -4809
▁남기 -4810
▁라이프 -4811
▁되돌 -4812
▁뮌헨 -4813
▁료 -4814
▁130 -4815
▁부위 -4816
▁칭호 -4817
▁사찰 -4818
▁퀘 -4819
▁연설 -4820
land -4821
▁정면 -4822
▁1912 -4823
▁그리하여 -4824
▁보여준다 -4825
타이 -4826
▁산지 -4827
가니 -4828
▁최후 -4829
pt -4830
▁소문 -4831
▁내놓 -4832
▁중종 -4833
너스 -4834
▁전동차 -4835
▁긍정 -4836
베르트 -4837
▁위키 -4838
▁소위 -4839
▁습격 -4840
펙트 -4841
▁립 -4842
▁이즈 -4843
▁크루 -4844
▁1907 -4845
▁대칭 -4846
▁운송 -4847
▁찬성 -4848
▁프로그래밍 -4849
동생 -4850
▁글로벌 -4851
친다 -4852
민주당 -4853
비히 -4854
▁모음 -4855
▁원주민 -4856
OR -4857
lat -4858
▁04 -4859
▁스타디움 -4860
▁백인 -4861
▁j -4862
▁필수 -4863
▁1908 -4864
▁Bo -4865
▁피터 -4866
▁흰색 -4867
▁게르 -4868
ence -4869
▁첩 -4870
▁오가 -4871
▁베네치아 -4872
▁용인 -4873
과이 -4874
▁거치 -4875
▁골드 -4876
▁항의 -4877
▁꾸준 -4878
ick -4879
▁윙 -4880
▁일으켜 -4881
▁벼슬 -4882
▁09 -4883
▁법학 -4884
오르 -4885
▁가깝 -4886
▁질문 -4887
▁174 -4888
▁동일본 -4889
도사 -4890
▁전적 -4891
▁히로시마 -4892
구리 -4893
▁Joh -4894
▁리드 -4895
▁152 -4896
▁요코하마 -4897
▁후계자 -4898
▁암컷 -4899
▁집회 -4900
▁탄핵 -4901
공사 -4902
▁축구단 -4903
▁202 -4904
▁조항 -4905
▁쓰였 -4906
주군 -4907
und -4908
▁짝 -4909
▁수산 -4910
▁탄압 -4911
조선 -4912
▁힘들 -4913
▁고위 -4914
▁대법원 -4915
▁이념 -4916
▁넥 -4917
▁종사 -4918
▁구름 -4919
▁늑대 -4920
▁소집 -4921
▁입구 -4922
▁1917 -4923
▁1905 -4924
▁톨 -4925
▁극단 -4926
▁비치 -4927
▁다다 -4928
▁하여금 -4929
▁간부 -4930
▁남녀 -4931
▁불안 -4932
▁수백 -4933
▁틈 -4934
사이 -4935
▁동인 -4936
▁받아들이 -4937
▁멀티 -4938
IN -4939
▁경사 -4940
▁손해 -4941
▁열매 -4942
▁쿼 -4943
sh -4944
▁원시 -4945
▁개척 -4946
▁액체 -4947
▁힙합 -4948
▁경비 -4949
▁돌아오 -4950
▁성종 -4951
▁일련 -4952
▁프랭 -4953
▁경제학 -4954
▁번지 -4955
▁주지 -4956
▁세로 -4957
미니 -4958
▁선포 -4959
▁질서 -4960
▁토론토 -4961
▁뻗 -4962
▁개별 -4963
▁축소 -4964
▁라우 -4965
▁비스 -4966
▁영양 -4967
▁마주 -4968
▁콘텐츠 -4969
▁구멍 -4970
▁형상 -4971
▁유산 -4972
▁이웃 -4973
▁차단 -4974
▁평면 -4975
▁My -4976
▁노트 -4977
▁레벨 -4978
▁초점 -4979
▁등장인물 -4980
▁대가 -4981
▁소화 -4982
▁예방 -4983
▁풋 -4984
▁일단 -4985
▁전남 -4986
▁소비자 -4987
▁할아버지 -4988
▁타인 -4989
▁동경 -4990
▁재개 -4991
▁고객 -4992
▁시신 -4993
▁기부 -4994
pe -4995
어도 -4996
▁재능 -4997
▁구로 -4998
▁구글 -4999
▁부속 -5000
▁분화 -5001
▁입대 -5002
▁콜롬 -5003
▁함경 -5004
다수 -5005
▁주일 -5006
▁퀴 -5007
▁국토 -5008
▁미술관 -5009
▁클래식 -5010
고속 -5011
▁사카 -5012
▁주자 -5013
▁걸친 -5014
▁조기 -5015
age -5016
▁영원 -5017
▁림 -5018
▁정확히 -5019
▁개장 -5020
▁혼자 -5021
▁체육관 -5022
▁블록 -5023
▁안쪽 -5024
▁연호 -5025
▁지중 -5026
▁마스터 -5027
▁핫 -5028
시스코 -5029
▁codice -5030
▁수치 -5031
▁아메리칸 -5032
▁계곡 -5033
▁미스 -5034
▁사막 -5035
▁증언 -5036
▁총재 -5037
▁실내 -5038
▁행하 -5039
페이스 -5040
▁올스타 -5041
▁대원 -5042
▁수십 -5043
▁주어졌 -5044
▁약화 -5045
▁오버 -5046
amp -5047
베르크 -5048
▁빌리 -5049
▁Wh -5050
▁클로 -5051
▁현존 -5052
▁섹 -5053
▁언스 -5054
크래프트 -5055
▁돔 -5056
▁대승 -5057
▁군부 -5058
▁킬로 -5059
▁합동 -5060
▁1906 -5061
▁토대 -5062
▁싱어 -5063
▁중성 -5064
리나 -5065
▁크라 -5066
▁스크린 -5067
ann -5068
▁와이 -5069
▁으니 -5070
▁Col -5071
▁핸 -5072
▁자본주의 -5073
ern -5074
▁거느 -5075
▁세트 -5076
▁양산 -5077
▁정통 -5078
▁중계 -5079
▁토착 -5080
▁흔적 -5081
▁중지 -5082
▁마르크스 -5083
키퍼 -5084
▁기동 -5085
▁포스트 -5086
▁08 -5087
▁경찰서 -5088
▁골키퍼 -5089
▁자랑 -5090
▁단순히 -5091
▁광범 -5092
▁우에 -5093
▁배열 -5094
▁부처 -5095
▁충분히 -5096
▁안내 -5097
IS -5098
▁성씨 -5099
▁=" -5100
▁실업 -5101
▁봉해졌 -5102
▁동화 -5103
ah -5104
ame -5105
▁돌아온 -5106
▁복사 -5107
▁들어오 -5108
▁세워졌 -5109
세대 -5110
슬링 -5111
▁철거 -5112
▁172 -5113
▁스테이션 -5114
▁>( -5115
▁해제 -5116
▁사당 -5117
▁멈 -5118
▁146 -5119
▁재임 -5120
▁ST -5121
▁장로 -5122
▁전북 -5123
▁부서 -5124
▁영구 -5125
▁정류 -5126
▁티베트 -5127
▁풍속 -5128
테스 -5129
▁초상 -5130
▁맨체스터 -5131
▁옵 -5132
▁밀리 -5133
▁금강 -5134
▁나섰 -5135
▁원자력 -5136
ace -5137
야스 -5138
▁좌상 -5139
하이 -5140
▁고교 -5141
▁강도 -5142
▁남극 -5143
▁특별히 -5144
▁직무 -5145
▁이행 -5146
▁성서 -5147
▁미시 -5148
▁부호 -5149
▁줄이 -5150
▁김구 -5151
▁당원 -5152
▁선로 -5153
▁코리아 -5154
▁오류 -5155
▁노동당 -5156
▁스카이 -5157
AC -5158
▁휘하 -5159
저스 -5160
▁구상 -5161
▁주문 -5162
▁아오 -5163
▁접속 -5164
▁무용 -5165
▁여우 -5166
▁체험 -5167
▁편의 -5168
▁못한다 -5169
▁엉 -5170
▁뼈 -5171
▁구사 -5172
▁쏘 -5173
공업 -5174
▁가난 -5175
▁당대 -5176
▁판정 -5177
▁딘 -5178
▁한성 -5179
리다 -5180
▁팩 -5181
▁억제 -5182
▁멸종 -5183
▁야당 -5184
▁쿠바 -5185
▁141 -5186
▁드물 -5187
▁무력 -5188
▁보편 -5189
arl -5190
▁댄스 -5191
▁250 -5192
▁스미스 -5193
▁피트 -5194
▁타원 -5195
▁스탈린 -5196
▁놀이 -5197
▁지수 -5198
▁무늬 -5199
▁자매 -5200
드레 -5201
▁주재 -5202
▁스티븐 -5203
▁AC -5204
▁쟁 -5205
▁펑 -5206
OM -5207
▁빵 -5208
▁전제 -5209
가시 -5210
▁세월 -5211
▁재즈 -5212
▁지불 -5213
▁화폐 -5214
▁회색 -5215
▁도쿠가와 -5216
▁대동 -5217
▁판타 -5218
▁보스턴 -5219
▁커다란 -5220
▁프로토 -5221
수량 -5222
▁거점 -5223
▁연평균 -5224
센트 -5225
안군 -5226
▁>, -5227
▁진실 -5228
베리아 -5229
▁대만 -5230
▁주니어 -5231
oun -5232
▁단선 -5233
미르 -5234
▁북서쪽 -5235
▁대한제국 -5236
▁뱀 -5237
▁종로 -5238
▁New -5239
▁유력 -5240
▁05 -5241
▁계수 -5242
▁아인 -5243
▁선호 -5244
▁아티스트 -5245
▁탕 -5246
▁Ad -5247
▁당신 -5248
▁관계자 -5249
▁경고 -5250
▁콜로 -5251
필드 -5252
▁수컷 -5253
▁대다수 -5254
▁꾼 -5255
▁매주 -5256
▁안티 -5257
▁유비 -5258
▁나선 -5259
▁잠수함 -5260
ile -5261
▁사이드 -5262
런스 -5263
▁관객 -5264
▁북미 -5265
▁중동 -5266
▁감옥 -5267
▁가톨릭교회 -5268
▁쯤 -5269
▁진흥 -5270
▁국방부 -5271
▁새벽 -5272
▁사신 -5273
▁장례 -5274
▁광산 -5275
▁김대중 -5276
ton -5277
▁종전 -5278
▁좌파 -5279
▁농장 -5280
▁독일어 -5281
▁원장 -5282
▁윤치 -5283
▁이재 -5284
리우스 -5285
▁파티 -5286
히로 -5287
▁강요 -5288
▁클리 -5289
▁혈액 -5290
▁철학자 -5291
▁하와 -5292
▁자산 -5293
▁목포 -5294
▁베리 -5295
▁엄격 -5296
▁07 -5297
▁지칭 -5298
▁하사 -5299
▁훼 -5300
▁봉기 -5301
▁이스트 -5302
▁간격 -5303
▁타입 -5304
▁탓 -5305
▁부품 -5306
▁유키 -5307
▁전작 -5308
▁화가 -5309
▁그러므로 -5310
▁인터페이스 -5311
▁촉진 -5312
▁알레 -5313
▁ch -5314
▁대결 -5315
▁마감 -5316
▁다이묘 -5317
▁폭풍 -5318
▁리아 -5319
▁브로 -5320
▁양국 -5321
▁비잔 -5322
▁훌륭 -5323
▁발전소 -5324
son -5325
▁박근 -5326
▁물고기 -5327
▁재판소 -5328
부사 -5329
▁진동 -5330
▁시계 -5331
▁익스 -5332
▁테르 -5333
벤트 -5334
▁메탈 -5335
▁법안 -5336
▁쿨 -5337
닉스 -5338
코프 -5339
▁아과 -5340
▁발레 -5341
▁오케 -5342
▁장점 -5343
▁1904 -5344
즈니 -5345
▁일곱 -5346
▁Man -5347
▁마저 -5348
▁문과 -5349
▁WW -5350
어로 -5351
▁레지 -5352
▁비중 -5353
▁타점 -5354
투아 -5355
▁불화 -5356
▁채권 -5357
▁소설가 -5358
ish -5359
성기 -5360
▁지휘관 -5361
▁문인 -5362
▁웰 -5363
▁레닌 -5364
▁다큐 -5365
▁의문 -5366
▁용도 -5367
▁Bl -5368
▁엘리자 -5369
▁툴 -5370
▁히어로 -5371
▁챔피언십 -5372
▁Cl -5373
▁추적 -5374
베이스 -5375
▁특허 -5376
▁광범위 -5377
▁바르셀 -5378
▁바르셀로나 -5379
▁Ex -5380
▁라트 -5381
▁모자 -5382
▁압축 -5383
▁어두 -5384
▁* -5385
▁본토 -5386
▁뚜렷 -5387
▁149 -5388
▁배웠 -5389
▁일자 -5390
▁입사 -5391
▁유아 -5392
▁딜 -5393
▁169 -5394
▁자치구 -5395
▁동굴 -5396
▁드리 -5397
▁김해 -5398
▁석방 -5399
▁도마뱀 -5400
▁관리자 -5401
▁공국 -5402
▁마그 -5403
▁스케이 -5404
▁공룡 -5405
▁밸 -5406
뜨리 -5407
ier -5408
▁펼쳤 -5409
ES -5410
▁새끼 -5411
▁영혼 -5412
▁조문 -5413
▁수비수 -5414
▁교도 -5415
▁수직 -5416
▁망원경 -5417
▁랄 -5418
orm -5419
▁단장 -5420
▁비틀 -5421
▁Univers -5422
se -5423
프레 -5424
▁목숨 -5425
▁코어 -5426
▁사관 -5427
▁그려져 -5428
▁북아메리카 -5429
▁</ -5430
▁놀라 -5431
▁치르 -5432
▁SM -5433
▁유대인 -5434
▁르네 -5435
▁착용 -5436
▁코너 -5437
eb -5438
▁물려 -5439
▁식량 -5440
▁닮 -5441
▁빠지 -5442
▁삭제 -5443
▁초청 -5444
▁기갑 -5445
▁시모 -5446
▁호흡 -5447
▁글씨 -5448
▁서인 -5449
▁동성애 -5450
▁꺼 -5451
ica -5452
▁나서 -5453
▁페이스 -5454
둥이 -5455
▁첫째 -5456
힌다 -5457
드라 -5458
위대 -5459
▁실점 -5460
무네 -5461
rom -5462
▁모노 -5463
▁위안 -5464
▁놓여 -5465
▁항해 -5466
▁종족 -5467
▁똑같 -5468
▁자이언츠 -5469
▁EP -5470
▁북동쪽 -5471
대문 -5472
ite -5473
▁덕분 -5474
▁토벌 -5475
▁농촌 -5476
▁자책 -5477
▁장갑 -5478
ID -5479
▁Tr -5480
▁곤충 -5481
ous -5482
▁선물 -5483
▁동구 -5484
▁북극 -5485
▁평론가 -5486
▁프로세서 -5487
▁집필 -5488
▁화합물 -5489
▁캘리포니아주 -5490
▁기병 -5491
▁약물 -5492
▁간다 -5493
▁요원 -5494
▁동메달 -5495
▁남아메리카 -5496
▁러브 -5497
▁다양체 -5498
▁남동쪽 -5499
▁틴 -5500
▁마틴 -5501
▁규슈 -5502
▁모시 -5503
▁레이다 -5504
▁이벤트 -5505
시스트 -5506
미아 -5507
야수 -5508
▁로즈 -5509
▁매치 -5510
▁점성 -5511
▁커버 -5512
▁로맨 -5513
▁페리 -5514
▁지부 -5515
베리 -5516
▁스톤 -5517
▁조화 -5518
▁향토 -5519
▁가끔 -5520
▁추대 -5521
▁그래프 -5522
▁왕가 -5523
▁평생 -5524
▁외계 -5525
▁1896 -5526
▁al -5527
▁태자 -5528
▁유성 -5529
▁리이다 -5530
▁웨일스 -5531
▁성직자 -5532
▁대변 -5533
▁부드 -5534
▁칙 -5535
lar -5536
▁돌아갔 -5537
에도 -5538
▁지표 -5539
▁후퇴 -5540
▁가구 -5541
▁요미 -5542
▁드러나 -5543
▁공세 -5544
▁강등 -5545
▁기관차 -5546
▁박근혜 -5547
▁세금 -5548
▁서방 -5549
▁토너 -5550
▁근육 -5551
▁수장 -5552
▁인천광역시 -5553
▁극복 -5554
▁미분 -5555
▁일환 -5556
▁파울 -5557
▁Love -5558
▁일어난다 -5559
▁시에 -5560
▁살아남 -5561
▁자유주의 -5562
▁면역 -5563
돌프 -5564
레오 -5565
▁가이 -5566
▁쓰러 -5567
유키 -5568
▁선교사 -5569
▁젤 -5570
▁항목 -5571
▁롬 -5572
olog -5573
ost -5574
▁무릎 -5575
▁빗 -5576
▁룸 -5577
IC -5578
▁이어진 -5579
▁도호 -5580
▁노비 -5581
▁운동가 -5582
▁캠프 -5583
▁킨 -5584
▁펀 -5585
키스 -5586
▁발휘 -5587
▁우크라이나 -5588
▁아비 -5589
▁비즈 -5590
▁중시 -5591
▁갱 -5592
▁카페 -5593
▁펄 -5594
▁03 -5595
▁과일 -5596
▁모래 -5597
▁이브 -5598
are -5599
▁연계 -5600
데르 -5601
▁돌파 -5602
▁1911 -5603
▁기생 -5604
▁유가 -5605
▁코트 -5606
▁표지 -5607
▁문하 -5608
▁존스 -5609
▁합리 -5610
▁교과 -5611
▁로렌 -5612
▁는다고 -5613
▁부작 -5614
▁윤리 -5615
페이지 -5616
▁경유 -5617
▁든다 -5618
▁역전 -5619
▁플로리다 -5620
▁소요 -5621
▁Sy -5622
▁동반 -5623
▁무인 -5624
▁바오 -5625
▁PD -5626
▁매니 -5627
▁지질 -5628
▁결심 -5629
▁명문 -5630
▁철저 -5631
▁KT -5632
▁파운드 -5633
도니아 -5634
▁합니다 -5635
아르 -5636
▁AM -5637
▁SC -5638
우치 -5639
일본 -5640
▁해협 -5641
▁나이트 -5642
▁토마스 -5643
▁부탁 -5644
▁Par -5645
▁무너 -5646
레이크 -5647
▁135 -5648
▁연고지 -5649
▁전승 -5650
▁페루 -5651
▁147 -5652
▁UN -5653
▁독점 -5654
PS -5655
▁강전 -5656
▁노무 -5657
▁제후 -5658
▁대사관 -5659
▁홈페이지 -5660
▁데리 -5661
▁필라 -5662
▁민속 -5663
▁서적 -5664
▁분산 -5665
▁명시 -5666
ck -5667
▁흙 -5668
▁모험 -5669
▁지름 -5670
▁알렉산더 -5671
▁미카 -5672
▁가속 -5673
▁모로 -5674
▁수반 -5675
▁베타 -5676
▁토너먼트 -5677
▁오염 -5678
▁삽입 -5679
▁교향곡 -5680
▁삼각 -5681
▁포유 -5682
▁06 -5683
▁변신 -5684
▁중구 -5685
▁173 -5686
티스 -5687
▁건축물 -5688
▁재생 -5689
▁유역 -5690
▁크레 -5691
▁BBC -5692
▁역과 -5693
카스 -5694
▁la -5695
▁성명 -5696
▁이정 -5697
▁이조 -5698
▁생애 -5699
▁원조 -5700
▁호조 -5701
▁아프가니 -5702
▁근로 -5703
▁옮기 -5704
▁행해 -5705
▁노조 -5706
▁카리 -5707
▁딱 -5708
▁배상 -5709
ft -5710
▁제약 -5711
▁특급 -5712
▁John -5713
▁각자 -5714
▁필립 -5715
▁구리 -5716
▁인치 -5717
▁포드 -5718
▁엽 -5719
사르 -5720
▁누스 -5721
▁투구 -5722
▁MV -5723
▁중립 -5724
▁세워진 -5725
▁인민군 -5726
오리 -5727
▁단행 -5728
▁사촌 -5729
▁과장 -5730
▁무산 -5731
▁사직 -5732
▁남서쪽 -5733
▁약탈 -5734
▁창간 -5735
▁우루 -5736
▁단종 -5737
▁최상 -5738
▁받침 -5739
▁레이블 -5740
▁고서 -5741
▁마일 -5742
▁클래스 -5743
▁직선 -5744
▁전향 -5745
▁조선인 -5746
▁설비 -5747
▁올린 -5748
보이 -5749
란다 -5750
▁박스 -5751
▁필름 -5752
나르 -5753
▁들어서 -5754
▁프레임 -5755
▁여인 -5756
▁원산 -5757
▁장사 -5758
▁트레이 -5759
ung -5760
▁밀라노 -5761
▁지중해 -5762
▁메르 -5763
▁예외 -5764
▁이수 -5765
▁기념물 -5766
▁아이스 -5767
멘트 -5768
▁카자 -5769
▁떼 -5770
▁청동 -5771
▁시내버스 -5772
▁내장 -5773
▁임신 -5774
▁관중 -5775
▁125 -5776
▁이어서 -5777
▁안양 -5778
▁NHK -5779
산화 -5780
행성 -5781
▁음모 -5782
▁칼리지 -5783
▁기단 -5784
▁싫 -5785
▁SF -5786
▁인력 -5787
▁수상자 -5788
▁출현 -5789
▁유닛 -5790
▁파키스탄 -5791
▁문법 -5792
▁연금 -5793
▁공격수 -5794
▁아프가니스탄 -5795
▁상소 -5796
▁십자군 -5797
▁데이터베이스 -5798
스팅 -5799
▁글리 -5800
▁선제 -5801
▁문화유산 -5802
▁경북 -5803
▁기압 -5804
▁기종 -5805
▁랭킹 -5806
▁좌석 -5807
▁통로 -5808
▁아무런 -5809
▁조명 -5810
sp -5811
▁우익 -5812
▁정자 -5813
▁적색 -5814
▁홀로 -5815
▁곰 -5816
마이 -5817
으므로 -5818
슬로 -5819
추어 -5820
▁고고 -5821
▁때로 -5822
▁105 -5823
att -5824
▁연소 -5825
▁남겨 -5826
▁매각 -5827
▁퓨 -5828
▁섬유 -5829
▁옛날 -5830
▁지바 -5831
▁pro -5832
ction -5833
▁보좌 -5834
▁아기 -5835
ET -5836
▁비하 -5837
▁유용 -5838
▁사거리 -5839
▁유신 -5840
▁협약 -5841
▁침해 -5842
다니 -5843
▁간섭 -5844
▁상처 -5845
▁낼 -5846
▁압도 -5847
▁유발 -5848
▁1909 -5849
▁벨라 -5850
▁현종 -5851
무게 -5852
▁스승 -5853
▁쓴다 -5854
▁몸무게 -5855
▁관장 -5856
▁주파 -5857
▁하와이 -5858
▁버지 -5859
▁복구 -5860
▁이토 -5861
▁기하학 -5862
▁육성 -5863
▁램 -5864
▁일행 -5865
▁한나라 -5866
▁배급 -5867
▁상하이 -5868
▁한나라당 -5869
니오 -5870
▁번주 -5871
▁릭 -5872
ime -5873
▁메트로 -5874
▁고분 -5875
▁영광 -5876
▁쇄 -5877
영상 -5878
버드 -5879
▁기용 -5880
▁수감 -5881
▁진술 -5882
▁144 -5883
▁협의회 -5884
보살 -5885
타카 -5886
▁색깔 -5887
▁소관 -5888
▁주류 -5889
▁문재 -5890
▁아울 -5891
▁정사 -5892
▁표본 -5893
▁몬테 -5894
▁빨간 -5895
▁그럼 -5896
▁낸다 -5897
▁지휘자 -5898
▁얀 -5899
▁동치 -5900
▁스쿨 -5901
▁구미 -5902
▁이날 -5903
▁굽 -5904
▁부유 -5905
▁전망 -5906
▁증기 -5907
▁투스 -5908
▁시아 -5909
눅스 -5910
▁148 -5911
▁PS -5912
▁무선 -5913
▁지연 -5914
메니아 -5915
다른 -5916
▁맞춰 -5917
▁빅토리아 -5918
▁이종 -5919
▁당사자 -5920
▁산악 -5921
▁103 -5922
▁리눅스 -5923
▁비단 -5924
런트 -5925
▁개수 -5926
▁심하 -5927
▁마케도니아 -5928
▁사라지 -5929
무르 -5930
▁반환 -5931
▁World -5932
즈키 -5933
▁자사 -5934
▁리스트 -5935
▁유인 -5936
라이터 -5937
▁트랜스 -5938
▁구장 -5939
▁칩 -5940
▁토르 -5941
멘터리 -5942
▁걷 -5943
▁딴 -5944
▁적어도 -5945
▁아르메니아 -5946
▁고르 -5947
▁해설 -5948
oy -5949
▁자바 -5950
▁잠재 -5951
타운 -5952
▁셋째 -5953
▁143 -5954
▁나고 -5955
▁황태 -5956
▁스테이지 -5957
ase -5958
▁마카 -5959
inc -5960
▁SN -5961
▁증권 -5962
▁참판 -5963
▁칭하 -5964
▁넘겨 -5965
▁분교 -5966
식물 -5967
▁저널 -5968
양군 -5969
▁토머스 -5970
▁추락 -5971
▁드래곤 -5972
지마 -5973
▁급행 -5974
▁죠 -5975
▁패러 -5976
▁심리학 -5977
▁들여 -5978
▁이내 -5979
▁전해진다 -5980
게이 -5981
▁DS -5982
▁IP -5983
▁묘소 -5984
▁체인 -5985
▁그랜드 -5986
운서 -5987
▁협의 -5988
OC -5989
▁무관 -5990
▁평소 -5991
IT -5992
▁광역 -5993
▁기름 -5994
▁직위 -5995
▁낱 -5996
▁커피 -5997
▁국민당 -5998
▁줬 -5999
▁상영 -6000
▁아나운서 -6001
▁렉 -6002
▁중국어 -6003
▁험 -6004
니즘 -6005
ign -6006
▁Or -6007
▁데려 -6008
▁신하 -6009
▁탑승 -6010
▁캡 -6011
▁꾸준히 -6012
▁발렌 -6013
▁킬로미터 -6014
▁대교 -6015
ium -6016
▁납치 -6017
▁1913 -6018
▁자문 -6019
▁해진 -6020
▁늘어나 -6021
▁모듈 -6022
▁바이올 -6023
▁민족주의 -6024
▁찌 -6025
▁겨우 -6026
▁봉사 -6027
▁좌익 -6028
▁곧바로 -6029
▁디오 -6030
▁부동산 -6031
▁알바니아 -6032
▁요미우리 -6033
▁이루어진다 -6034
▁샤를 -6035
▁가르치 -6036
▁여서 -6037
▁1895 -6038
▁아마추어 -6039
▁다큐멘터리 -6040
▁명종 -6041
밀리 -6042
▁라이벌 -6043
▁소송법 -6044
▁수수 -6045
▁칼리 -6046
▁향년 -6047
▁사로 -6048
▁어항 -6049
▁왕족 -6050
▁콜롬비아 -6051
▁출판사 -6052
제르 -6053
▁여신 -6054
▁타카 -6055
▁뚫 -6056
▁틸 -6057
▁02 -6058
▁교역 -6059
▁존슨 -6060
▁퍼시 -6061
생물 -6062
▁or -6063
▁대령 -6064
▁라마 -6065
▁교차로 -6066
ED -6067
ool -6068
▁대행 -6069
▁명사 -6070
▁주거 -6071
▁급속 -6072
▁도어 -6073
▁펼치 -6074
▁스케이팅 -6075
엘라 -6076
▁쇠퇴 -6077
▁삼각형 -6078
▁관찰사 -6079
ere -6080
▁시집 -6081
▁주한 -6082
▁오리지 -6083
▁예언 -6084
▁호환 -6085
▁전류 -6086
▁Ed -6087
▁모집 -6088
▁무신 -6089
▁항일 -6090
▁리투아 -6091
▁리투아니아 -6092
▁탐험 -6093
아나 -6094
▁구마 -6095
▁사료 -6096
▁살펴 -6097
▁패턴 -6098
긴다 -6099
▁사면 -6100
▁운명 -6101
▁최우수 -6102
총장 -6103
▁크림 -6104
▁흥미 -6105
▁송라이터 -6106
▁기재 -6107
▁버지니아 -6108
▁동영상 -6109
▁거둔 -6110
▁붙잡 -6111
▁사토 -6112
다이라 -6113
사관 -6114
▁ro -6115
▁파트너 -6116
▁띤 -6117
▁거친 -6118
▁수지 -6119
▁정류장 -6120
▁케이블 -6121
▁소니 -6122
▁아가 -6123
▁호남 -6124
▁자회사 -6125
▁신비 -6126
▁연령 -6127
▁되찾 -6128
문학 -6129
▁시외 -6130
▁1915 -6131
▁수천 -6132
▁138 -6133
스토 -6134
▁나고야 -6135
▁블라디 -6136
▁마라 -6137
▁주사 -6138
▁고안 -6139
▁돼지 -6140
프란 -6141
▁공전 -6142
▁스틸 -6143
▁목격 -6144
▁비전 -6145
▁럭 -6146
▁첸 -6147
▁키스 -6148
▁틱 -6149
▁내륙 -6150
▁파나 -6151
▁자전거 -6152
▁색상 -6153
▁진상 -6154
▁디즈니 -6155
▁유고슬 -6156
▁유고슬라비아 -6157
▁걸려 -6158
▁일요일 -6159
▁주의자 -6160
▁유입 -6161
▁제주도 -6162
▁닐 -6163
문관 -6164
▁판타지 -6165
▁영감 -6166
▁센트럴 -6167
old -6168
▁플레 -6169
▁뛰어나 -6170
▁하천 -6171
▁노무현 -6172
▁기점 -6173
▁발족 -6174
▁서울시 -6175
텐도 -6176
▁닌텐도 -6177
▁가하 -6178
▁소재지 -6179
▁모터 -6180
▁슐 -6181
AD -6182
회의 -6183
▁묘지 -6184
▁트럭 -6185
▁합작 -6186
▁걸리 -6187
▁콘스탄티노 -6188
▁AS -6189
▁히가시 -6190
▁루트비히 -6191
티움 -6192
▁신임 -6193
▁MP -6194
▁하노 -6195
▁Sou -6196
▁서경 -6197
애나 -6198
▁정치가 -6199
▁왈 -6200
세스 -6201
▁방안 -6202
▁상임 -6203
▁차관 -6204
▁일으킨 -6205
▁주말 -6206
ric -6207
▁정교 -6208
교육 -6209
▁가해 -6210
▁관하 -6211
▁발효 -6212
▁스페셜 -6213
▁교섭 -6214
▁목조 -6215
▁900 -6216
aw -6217
ep -6218
▁아도 -6219
▁얼음 -6220
▁좋아하 -6221
▁마쳤 -6222
▁스와 -6223
▁스펙트 -6224
▁하드웨어 -6225
▁다녔 -6226
▁복소 -6227
프스 -6228
▁시달 -6229
▁여동생 -6230
▁모니 -6231
▁진지 -6232
페인 -6233
▁사사 -6234
껍질 -6235
▁퍼져 -6236
▁배제 -6237
▁포맷 -6238
▁푸른 -6239
AP -6240
▁부수 -6241
▁월간 -6242
▁쿠르 -6243
▁나타난 -6244
▁드러내 -6245
▁오리지널 -6246
균관 -6247
▁렌즈 -6248
▁루수 -6249
▁저기 -6250
▁한양 -6251
▁스펙트럼 -6252
▁가게 -6253
▁조류 -6254
▁선진 -6255
▁위주 -6256
TC -6257
▁용기 -6258
▁리치 -6259
▁훼손 -6260
▁두려워 -6261
▁빨리 -6262
▁그쳤 -6263
▁콩고 -6264
▁DJ -6265
▁넬 -6266
▁던지 -6267
▁옹호 -6268
▁136 -6269
루살 -6270
▁사인 -6271
▁리듬 -6272
▁선두 -6273
루살렘 -6274
플레이 -6275
▁동아시아 -6276
▁디자이너 -6277
▁희극 -6278
▁계단 -6279
▁싸웠 -6280
리케이션 -6281
클린 -6282
▁연애 -6283
▁제의 -6284
▁합계 -6285
▁혜성 -6286
랑이 -6287
ism -6288
▁통칭 -6289
우옌 -6290
▁봐 -6291
▁우드 -6292
▁차체 -6293
▁플루 -6294
▁1500 -6295
▁독립운동가 -6296
▁심한 -6297
▁네이션 -6298
▁북동부 -6299
▁오타 -6300
▁노인 -6301
▁입증 -6302
슬리 -6303
▁대단 -6304
▁정계 -6305
▁파생 -6306
▁폐기 -6307
▁엘리자베스 -6308
▁룩 -6309
▁포크 -6310
▁푼 -6311
▁좌표 -6312
▁127 -6313
▁안드로이드 -6314
▁운반 -6315
▁102 -6316
▁스타크래프트 -6317
▁왕립 -6318
▁수학자 -6319
▁대조 -6320
▁도심 -6321
▁바그 -6322
▁성공회 -6323
▁아크 -6324
▁이에 -6325
▁장편 -6326
▁스마트폰 -6327
▁고조 -6328
▁WWE -6329
▁공용 -6330
▁대안 -6331
▁친정 -6332
▁이명박 -6333
▁1916 -6334
▁비즈니스 -6335
▁마쓰다이라 -6336
▁굿 -6337
▁전임 -6338
▁시체 -6339
▁댐 -6340
▁정서 -6341
▁121 -6342
▁스트라이 -6343
잡이 -6344
▁자마 -6345
az -6346
▁산타 -6347
▁예루살렘 -6348
▁원로 -6349
▁별자리 -6350
yn -6351
로프 -6352
몬드 -6353
▁헤드 -6354
▁규명 -6355
레이터 -6356
▁선보였 -6357
▁한데 -6358
▁108 -6359
int -6360
▁무라 -6361
ree -6362
▁규격 -6363
▁쇼군 -6364
▁적응 -6365
▁재무 -6366
▁형법 -6367
▁잊 -6368
▁서독 -6369
▁호르 -6370
▁개찰구 -6371
▁MC -6372
▁링크 -6373
▁오디션 -6374
▁꼴 -6375
▁노드 -6376
▁전두 -6377
▁128 -6378
▁승차 -6379
▁끼리 -6380
▁벌어지 -6381
▁오다 -6382
▁이리 -6383
▁보전 -6384
▁점유 -6385
▁마스 -6386
▁스피드 -6387
ix -6388
▁복제 -6389
▁파동 -6390
▁성균관 -6391
나와 -6392
▁입문 -6393
경기 -6394
구장 -6395
스케 -6396
▁신칸 -6397
▁Ge -6398
▁개발자 -6399
▁뿔 -6400
▁El -6401
▁김동 -6402
▁신용 -6403
▁악마 -6404
▁천문학 -6405
널드 -6406
마치 -6407
▁137 -6408
▁흥행 -6409
▁회원국 -6410
트롤 -6411
▁자면 -6412
▁조국 -6413
▁연주자 -6414
나카 -6415
▁111 -6416
▁메가 -6417
▁귀환 -6418
▁식사 -6419
▁타마 -6420
▁지역구 -6421
▁버그 -6422
▁사르 -6423
ala -6424
▁국어 -6425
▁동전 -6426
▁사범 -6427
▁직장 -6428
▁인텔 -6429
▁장인 -6430
네이 -6431
▁|| -6432
▁용량 -6433
▁분배 -6434
▁들어와 -6435
▁커뮤니티 -6436
▁수면 -6437
▁권유 -6438
▁밀접 -6439
▁전진 -6440
원숭이 -6441
부인 -6442
▁최신 -6443
▁폭스 -6444
슬라 -6445
ina -6446
▁사명 -6447
▁애국 -6448
데이트 -6449
ve -6450
▁금성 -6451
▁관광객 -6452
▁브라우 -6453
▁여덟 -6454
▁노동조합 -6455
▁간접 -6456
▁만난 -6457
▁상무 -6458
▁업데이트 -6459
▁붙이 -6460
▁와중 -6461
▁교전 -6462
▁도리 -6463
▁안보 -6464
▁이오 -6465
▁강수량 -6466
외선 -6467
▁융합 -6468
▁깔 -6469
▁지주 -6470
어트 -6471
▁5000 -6472
전자 -6473
▁le -6474
▁개업 -6475
▁마산 -6476
▁중장 -6477
▁애플리케이션 -6478
▁Gr -6479
▁후일 -6480
▁비로 -6481
▁강연 -6482
▁겸임 -6483
▁선사 -6484
▁찾아가 -6485
▁수신 -6486
▁신칸센 -6487
▁무효 -6488
▁압박 -6489
▁벌어졌 -6490
▁구동 -6491
▁투명 -6492
▁저기압 -6493
▁긴급 -6494
▁어릴 -6495
▁피렌 -6496
▁응우옌 -6497
▁전문학교 -6498
▁바티 -6499
▁야생 -6500
▁에스파 -6501
▁라이온 -6502
▁다룬 -6503
▁연수 -6504
▁중도 -6505
▁119 -6506
▁부패 -6507
yl -6508
▁가득 -6509
▁패전 -6510
▁광해군 -6511
▁드림 -6512
▁용산 -6513
▁랴 -6514
트니 -6515
▁실용 -6516
▁보통학교 -6517
란트 -6518
▁아틀 -6519
▁들어간 -6520
▁도메 -6521
▁시게 -6522
▁품질 -6523
▁흩 -6524
iki -6525
▁리오 -6526
▁분지 -6527
▁자손 -6528
▁정벌 -6529
▁사라졌 -6530
▁샌프란 -6531
▁어워드 -6532
▁샌프란시스코 -6533
▁아울러 -6534
▁은메달 -6535
▁Is -6536
▁번식 -6537
▁물러나 -6538
ML -6539
사기 -6540
▁동사 -6541
▁세례 -6542
이즈 -6543
▁전장 -6544
▁초래 -6545
▁퇴각 -6546
▁뱅크 -6547
▁Mus -6548
▁굉 -6549
예프 -6550
▁예술가 -6551
▁주머니 -6552
iel -6553
ron -6554
▁고립 -6555
▁광년 -6556
▁출구 -6557
▁붓 -6558
eth -6559
▁착수 -6560
▁미만 -6561
▁박영 -6562
▁번뇌 -6563
대군 -6564
▁착공 -6565
▁지분 -6566
▁우주선 -6567
▁기아 -6568
▁우르 -6569
▁서일본 -6570
▁MVP -6571
악기 -6572
▁말라 -6573
▁상류 -6574
▁착륙 -6575
▁피난 -6576
▁련 -6577
▁예능 -6578
rist -6579
아지 -6580
▁맥스 -6581
oph -6582
▁고개 -6583
▁사이클 -6584
▁존경 -6585
▁앨런 -6586
▁학파 -6587
▁피렌체 -6588
로운 -6589
▁전이 -6590
▁전지 -6591
▁준공 -6592
▁채무 -6593
▁곁 -6594
▁자책점 -6595
▁서브 -6596
▁취재 -6597
▁자고 -6598
▁부자 -6599
▁순조 -6600
▁점프 -6601
▁팅 -6602
▁편곡 -6603
▁그럼에도 -6604
토미 -6605
▁배정 -6606
▁부리 -6607
▁석탄 -6608
▁알렸 -6609
▁농도 -6610
▁비잔티움 -6611
카드 -6612
랑크 -6613
로디 -6614
▁부흥 -6615
▁미나미 -6616
▁스프링 -6617
가루 -6618
▁모순 -6619
▁여의 -6620
▁외무 -6621
▁얇 -6622
결승 -6623
▁권고 -6624
▁두드 -6625
가타 -6626
▁따위 -6627
페이 -6628
▁리메 -6629
▁쇼핑 -6630
▁수명 -6631
▁제휴 -6632
▁지장 -6633
▁'() -6634
▁베이스볼 -6635
▁생명체 -6636
가스 -6637
들리 -6638
브라 -6639
▁별로 -6640
▁판매량 -6641
▁삿 -6642
▁젖 -6643
▁공자 -6644
▁주파수 -6645
▁프로세스 -6646
▁시라 -6647
▁조용 -6648
▁나폴리 -6649
▁사리 -6650
▁머물렀 -6651
▁스트리트 -6652
▁앱 -6653
▁매사 -6654
▁아즈 -6655
▁주가 -6656
▁책봉 -6657
▁Fran -6658
▁서서 -6659
▁석탑 -6660
Pa -6661
프라 -6662
▁z -6663
▁앞면 -6664
▁청와 -6665
▁거인 -6666
▁특유 -6667
▁이복 -6668
스티벌 -6669
▁페스티벌 -6670
▁굵 -6671
ult -6672
▁보드 -6673
▁142 -6674
▁회수 -6675
▁부도 -6676
▁출입구 -6677
ps -6678
▁밭 -6679
▁리얼 -6680
▁문제점 -6681
▁플라스 -6682
▁태어났으며 -6683
▁측근 -6684
▁청와대 -6685
ke -6686
▁템 -6687
▁관습 -6688
▁3000 -6689
ale -6690
▁없애 -6691
고속도로 -6692
▁몰락 -6693
▁검증 -6694
▁근접 -6695
▁오렌 -6696
▁우정 -6697
▁호평 -6698
▁의정부 -6699
▁과도 -6700
▁메디 -6701
▁포수 -6702
▁게시 -6703
▁CPU -6704
▁옌 -6705
트랙 -6706
▁IT -6707
▁구제 -6708
▁석조 -6709
▁충성 -6710
어리 -6711
▁곳곳 -6712
▁상대방 -6713
▁공략 -6714
▁지목 -6715
▁각기 -6716
▁경선 -6717
ose -6718
▁ex -6719
▁비틀즈 -6720
▁창업 -6721
▁공인 -6722
▁보잉 -6723
▁사바 -6724
수수 -6725
ork -6726
▁눈물 -6727
▁못해 -6728
▁오케스트라 -6729
▁승무원 -6730
▁외곽 -6731
폴리스 -6732
▁소지 -6733
▁의거 -6734
▁통행 -6735
▁1894 -6736
▁얼마나 -6737
▁가질 -6738
▁과제 -6739
▁단원 -6740
아리 -6741
▁한화 -6742
▁회화 -6743
▁University -6744
소스 -6745
▁내지 -6746
▁건의 -6747
▁서북 -6748
▁와카 -6749
▁할당 -6750
▁봤 -6751
루미 -6752
산리 -6753
▁이순 -6754
▁지각 -6755
▁한강 -6756
▁반격 -6757
▁시상식 -6758
▁남양 -6759
stem -6760
▁밀양 -6761
▁빌헬 -6762
▁장성 -6763
▁전함 -6764
▁해인 -6765
▁마찰 -6766
▁강사 -6767
▁유격 -6768
메르 -6769
▁김용 -6770
▁소총 -6771
▁염색 -6772
▁요크 -6773
산군 -6774
▁전두환 -6775
▁컨트롤 -6776
▁얘 -6777
ome -6778
▁변동 -6779
▁상상 -6780
▁이지 -6781
▁해임 -6782
▁공과 -6783
▁청사 -6784
▁허브 -6785
▁경부 -6786
▁히데요시 -6787
▁아군 -6788
▁아세 -6789
▁비평가 -6790
▁휩 -6791
▁과목 -6792
▁수군 -6793
▁디젤 -6794
▁이어져 -6795
▁행정부 -6796
▁민국 -6797
▁역명 -6798
▁인형 -6799
칠리아 -6800
▁성모 -6801
▁디비전 -6802
▁짙 -6803
▁프랜 -6804
▁사망자 -6805
▁황해 -6806
▁크리스토 -6807
동물 -6808
▁천사 -6809
▁사물 -6810
▁우편 -6811
▁주립 -6812
▁아이디 -6813
▁취약 -6814
리티 -6815
▁김영삼 -6816
▁왜성 -6817
▁정찰 -6818
▁사로잡 -6819
▁Intern -6820
▁DC -6821
▁우지 -6822
▁115 -6823
튜브 -6824
▁회견 -6825
▁쏟 -6826
▁교장 -6827
▁아이템 -6828
▁친선 -6829
▁약한 -6830
혁명 -6831
▁남인 -6832
▁모으 -6833
▁사가 -6834
▁서열 -6835
▁소닉 -6836
▁학명 -6837
▁And -6838
▁진나라 -6839
▁스페인어 -6840
▁어드 -6841
▁엄마 -6842
▁하버드 -6843
▁바이올린 -6844
▁예배 -6845
▁인과 -6846
▁We -6847
▁가미 -6848
▁프로토콜 -6849
산물 -6850
▁SP -6851
▁남한 -6852
▁무슬 -6853
▁소금 -6854
▁완화 -6855
▁추격 -6856
▁유튜브 -6857
▁Comp -6858
플러 -6859
▁담배 -6860
▁미네 -6861
▁추증 -6862
▁대답 -6863
▁테오 -6864
▁피스 -6865
▁매개 -6866
▁반경 -6867
▁자율 -6868
▁트윈 -6869
▁제네 -6870
▁꾀 -6871
▁샬 -6872
▁뷔 -6873
서양 -6874
orn -6875
▁차남 -6876
▁외국어 -6877
모니 -6878
▁어두운 -6879
ox -6880
▁루터 -6881
▁여진 -6882
악단 -6883
▁패스 -6884
붙이 -6885
▁발원 -6886
▁보충 -6887
▁법무 -6888
팩트 -6889
▁이영 -6890
▁112 -6891
▁마케팅 -6892
▁금액 -6893
▁연루 -6894
▁전례 -6895
▁대주교 -6896
▁무슬림 -6897
ach -6898
▁버튼 -6899
▁여수 -6900
▁유언 -6901
▁갤럭 -6902
▁진도 -6903
▁태수 -6904
▁행진 -6905
▁크리스티 -6906
EN -6907
▁믿음 -6908
▁알라 -6909
▁야기 -6910
▁우즈 -6911
▁북서부 -6912
▁스파이 -6913
▁포도주 -6914
▁It -6915
▁일족 -6916
▁기타리스트 -6917
▁공민 -6918
▁관현 -6919
▁코로나 -6920
▁사용자 -6921
▁시드니 -6922
▁매출 -6923
▁배구 -6924
▁토요일 -6925
집합 -6926
▁상부 -6927
▁환상 -6928
길이 -6929
▁유교 -6930
▁106 -6931
차례 -6932
▁둥근 -6933
▁히라 -6934
▁줄여서 -6935
IM -6936
▁대군 -6937
▁제트 -6938
▁호칭 -6939
▁피고 -6940
▁천문학자 -6941
▁동독 -6942
▁민사 -6943
▁최적 -6944
▁빌헬름 -6945
▁문양 -6946
▁화살 -6947
▁서서히 -6948
▁쿄 -6949
▁정밀 -6950
▁하트 -6951
▁회계 -6952
▁전도 -6953
▁주권 -6954
▁갤럭시 -6955
▁떨어졌 -6956
수아 -6957
▁골프 -6958
▁민영 -6959
수엘라 -6960
▁시외버스 -6961
▁니스 -6962
▁비극 -6963
▁후자 -6964
ley -6965
▁성벽 -6966
▁연인 -6967
▁진리 -6968
▁시청자 -6969
▁동위 -6970
▁사다 -6971
▁항공모 -6972
받침 -6973
▁별개 -6974
▁샹 -6975
▁고원 -6976
▁니아 -6977
▁위장 -6978
▁문화방송 -6979
▁쥬 -6980
▁법령 -6981
▁시립 -6982
▁토니 -6983
▁됐으며 -6984
▁일찍이 -6985
▁중국인 -6986
▁펴 -6987
ear -6988
▁상장 -6989
▁이노 -6990
베이터 -6991
▁123 -6992
▁석가 -6993
▁유해 -6994
▁즐기 -6995
▁다이아 -6996
▁트레 -6997
▁레이스 -6998
▁언론인 -6999
▁트럼 -7000
명사전 -7001
태우 -7002
▁상자 -7003
▁선원 -7004
▁수성 -7005
▁카나 -7006
▁부통령 -7007
▁나열 -7008
▁신전 -7009
▁이슈 -7010
▁일관 -7011
enn -7012
▁가즈 -7013
▁분광 -7014
그라드 -7015
토시 -7016
▁광부 -7017
▁조언 -7018
ai -7019
hel -7020
▁미소 -7021
▁창건 -7022
▁베네수엘라 -7023
▁가르침 -7024
▁게이트 -7025
▁오렌지 -7026
▁추모 -7027
▁미스터 -7028
▁리메이크 -7029
▁무제 -7030
▁야간 -7031
▁제곱 -7032
▁태생 -7033
▁친척 -7034
▁몸길이 -7035
때로 -7036
▁격렬 -7037
▁117 -7038
▁캐스팅 -7039
▁아이디어 -7040
▁연구자 -7041
츠키 -7042
▁고무 -7043
▁그랑 -7044
▁둘레 -7045
▁수령 -7046
▁일렉 -7047
▁Gre -7048
▁셈 -7049
▁명의 -7050
▁진군 -7051
▁카자흐 -7052
▁와인 -7053
▁포장 -7054
▁응답 -7055
▁비아 -7056
▁now -7057
▁삼진 -7058
▁죽였 -7059
▁초창 -7060
▁자유당 -7061
자와 -7062
▁아베 -7063
▁준우 -7064
▁감지 -7065
▁강과 -7066
▁게재 -7067
▁식당 -7068
▁파스 -7069
▁난다 -7070
델피아 -7071
▁브라이언 -7072
▁필라델피아 -7073
▁유출 -7074
▁때때로 -7075
AL -7076
▁준결승 -7077
▁급진 -7078
▁미하 -7079
▁아바 -7080
▁건너가 -7081
▁제작자 -7082
▁쿠스 -7083
리크 -7084
▁내내 -7085
▁마오 -7086
니스트 -7087
▁평행 -7088
▁104 -7089
상스 -7090
oci -7091
▁기장 -7092
▁저택 -7093
▁하얀 -7094
럼비아 -7095
▁마리오 -7096
▁실종 -7097
▁기다리 -7098
DP -7099
▁물러났 -7100
▁아리스 -7101
▁스파르타 -7102
▁원나라 -7103
▁sp -7104
▁관념 -7105
▁중점 -7106
▁폴리스 -7107
▁팽창 -7108
ons -7109
▁개미 -7110
▁미얀 -7111
▁성주 -7112
▁자기장 -7113
▁배틀 -7114
▁부시 -7115
▁속성 -7116
하르트 -7117
▁거슬러 -7118
▁양상 -7119
▁향교 -7120
▁안장 -7121
▁온천 -7122
▁룬 -7123
▁CC -7124
▁피에르 -7125
▁오키나와 -7126
▁턱 -7127
▁나미 -7128
▁협조 -7129
▁오디오 -7130
▁이슬람교 -7131
ude -7132
▁연세대 -7133
▁자마자 -7134
▁코무네 -7135
마사 -7136
▁다녀 -7137
▁갓 -7138
▁병조 -7139
▁충족 -7140
▁생일 -7141
▁단기 -7142
▁항공모함 -7143
gr -7144
▁On -7145
▁ar -7146
▁113 -7147
ild -7148
▁나리 -7149
▁시즈 -7150
▁남긴 -7151
▁언제나 -7152
▁CE -7153
▁강경 -7154
▁낱말 -7155
▁떠난 -7156
▁법조 -7157
항공 -7158
▁신세 -7159
▁1890 -7160
▁국사 -7161
▁수평 -7162
▁All -7163
▁룡 -7164
보기 -7165
커스 -7166
▁치세 -7167
▁토리 -7168
▁해운 -7169
▁건축가 -7170
▁손가락 -7171
▁중추원 -7172
▁헐 -7173
기니 -7174
디스 -7175
▁문재인 -7176
일드 -7177
▁가라 -7178
▁기수 -7179
▁동등 -7180
▁짜리 -7181
▁보스니아 -7182
산면 -7183
▁직책 -7184
▁드라이브 -7185
화점 -7186
▁hPa -7187
▁궁정 -7188
▁마운 -7189
▁음원 -7190
▁친일인 -7191
▁친일인명사전 -7192
▁달린 -7193
▁선종 -7194
▁두드러 -7195
▁엘리베이터 -7196
서리 -7197
▁조반 -7198
▁지지자 -7199
▁공채 -7200
▁시공 -7201
▁동남아시아 -7202
▁두산 -7203
▁이원 -7204
▁서울대 -7205
▁북위 -7206
▁제수 -7207
▁Car -7208
▁원자로 -7209
▁단점 -7210
▁자발 -7211
▁테스 -7212
▁지나치 -7213
▁Cent -7214
▁풀려 -7215
▁하마 -7216
▁부른 -7217
▁북방 -7218
▁홍수 -7219
▁르네상스 -7220
▁초창기 -7221
▁투르크 -7222
▁1902 -7223
▁로고 -7224
킨스 -7225
▁레이저 -7226
▁계절 -7227
▁카타 -7228
▁토스 -7229
▁귀중 -7230
▁방침 -7231
▁슬라 -7232
▁든지 -7233
▁김태 -7234
▁스핀 -7235
▁적대 -7236
▁고체 -7237
ance -7238
벌레 -7239
▁별칭 -7240
▁서해 -7241
▁중재 -7242
▁성전 -7243
Hz -7244
▁가쓰 -7245
▁연도 -7246
▁이글 -7247
▁유수 -7248
▁교원 -7249
▁동당 -7250
▁원고 -7251
TA -7252
▁상서 -7253
▁숭배 -7254
▁패하 -7255
▁효력 -7256
▁ISO -7257
▁이바 -7258
▁이인 -7259
▁제갈 -7260
▁에이스 -7261
▁준우승 -7262
▁마친 -7263
▁물자 -7264
▁360 -7265
▁버린 -7266
▁109 -7267
▁이를 -7268
▁$ -7269
공신 -7270
▁전대 -7271
iam -7272
▁드럼 -7273
▁마비 -7274
▁후한 -7275
▁거느리 -7276
▁텍스트 -7277
MS -7278
pp -7279
▁컸 -7280
▁튼 -7281
▁히스 -7282
▁'' -7283
▁섭정 -7284
▁스릴 -7285
▁에릭 -7286
▁편리 -7287
▁라트비아 -7288
▁미르 -7289
▁양주 -7290
▁1898 -7291
주곡 -7292
ise -7293
▁무죄 -7294
▁할리 -7295
▁어업 -7296
▁가르쳤 -7297
▁객관 -7298
▁세미 -7299
▁클린 -7300
▁평야 -7301
▁다중 -7302
▁마천 -7303
▁센서 -7304
▁취지 -7305
▁1899 -7306
행위 -7307
ics -7308
▁TO -7309
▁병역 -7310
▁전압 -7311
au -7312
▁겸하 -7313
▁그렸 -7314
▁김수 -7315
▁아사히 -7316
▁닿 -7317
▁대역 -7318
▁동력 -7319
▁존중 -7320
▁포괄 -7321
oth -7322
▁대포 -7323
▁써서 -7324
▁이이 -7325
▁최저 -7326
▁출토 -7327
▁초상화 -7328
▁TH -7329
▁승점 -7330
▁퍼시픽 -7331
▁명목 -7332
▁김상 -7333
▁창시 -7334
▁총대 -7335
니치 -7336
▁대제 -7337
▁동래 -7338
▁트위 -7339
▁향후 -7340
▁뉘 -7341
▁박탈 -7342
▁부재 -7343
▁아케 -7344
▁환원 -7345
▁대위 -7346
ii -7347
카르 -7348
▁118 -7349
▁하부 -7350
▁하인리히 -7351
enc -7352
▁교단 -7353
▁끌어 -7354
▁탈환 -7355
▁후지와 -7356
▁도라 -7357
▁주차 -7358
▁십자가 -7359
노리 -7360
▁두루 -7361
ount -7362
▁이어받 -7363
▁나가사키 -7364
▁"() -7365
▁챌 -7366
▁상세 -7367
▁순천 -7368
▁지류 -7369
▁테일러 -7370
▁개관 -7371
▁개그 -7372
▁고래 -7373
▁원하 -7374
▁합법 -7375
▁협동 -7376
▁베르크 -7377
제프 -7378
▁장안 -7379
▁사헌 -7380
▁충남 -7381
OL -7382
▁기습 -7383
포구 -7384
▁갑작 -7385
▁원반 -7386
▁캄보 -7387
▁"(" -7388
▁지냈으며 -7389
석기 -7390
▁굉장 -7391
▁영동 -7392
▁세균 -7393
own -7394
▁타르 -7395
라트 -7396
▁부착 -7397
▁재미 -7398
▁최소한 -7399
▁nowiki -7400
▁긴장 -7401
▁총괄 -7402
▁셸 -7403
실록 -7404
▁기요 -7405
▁1901 -7406
박쥐 -7407
▁추상 -7408
▁기상청 -7409
▁양도 -7410
▁닛폰 -7411
▁볼리 -7412
▁술탄 -7413
▁종결 -7414
▁폐위 -7415
▁에다 -7416
▁오빠 -7417
▁조리 -7418
erm -7419
▁전한다 -7420
▁복장 -7421
라이더 -7422
▁발해 -7423
▁캠페인 -7424
▁버려 -7425
▁증진 -7426
▁침몰 -7427
▁후대 -7428
▁레논 -7429
ius -7430
out -7431
▁물리학자 -7432
▁슬로바키아 -7433
추세 -7434
▁가면 -7435
▁천도 -7436
▁네이버 -7437
▁도메인 -7438
▁모스 -7439
▁시오 -7440
▁카트 -7441
▁리버풀 -7442
▁만세 -7443
▁테니스 -7444
▁파장 -7445
▁내외 -7446
▁따뜻 -7447
▁산림 -7448
▁아벨 -7449
크리트 -7450
▁톈 -7451
▁계몽 -7452
▁김재 -7453
▁무상 -7454
▁촉구 -7455
추세츠 -7456
▁매사추세츠 -7457
▁영리 -7458
▁청장 -7459
▁107 -7460
▁사헌부 -7461
▁신흥 -7462
▁남동부 -7463
▁영의정 -7464
▁우연히 -7465
▁장학 -7466
▁바퀴 -7467
▁전라도 -7468
▁기금 -7469
▁매력 -7470
▁지나가 -7471
▁격투 -7472
▁고발 -7473
▁바꿔 -7474
▁컬러 -7475
▁불명 -7476
▁총사 -7477
ake -7478
▁소실 -7479
▁주지사 -7480
▁해병대 -7481
▁부천 -7482
▁아폴 -7483
▁문학상 -7484
▁유소년 -7485
▁시가 -7486
▁오클 -7487
▁시나리오 -7488
MA -7489
▁북구 -7490
▁아우구 -7491
▁에스토 -7492
▁발현 -7493
▁방패 -7494
▁정말 -7495
▁불편 -7496
▁첨가 -7497
▁htt -7498
▁극장판 -7499
노부 -7500
▁정무 -7501
▁상당수 -7502
isc -7503
▁Ab -7504
▁앙리 -7505
▁일화 -7506
▁들어온 -7507
▁로맨스 -7508
▁옐 -7509
져서 -7510
▁리어 -7511
▁아이슬 -7512
▁관통 -7513
▁열대 -7514
▁룰 -7515
▁날짜 -7516
▁트루 -7517
▁NBA -7518
▁인격 -7519
▁펌 -7520
▁1903 -7521
▁멈추 -7522
▁객체 -7523
▁사지 -7524
▁지혜 -7525
▁파업 -7526
▁몬스터 -7527
▁섭취 -7528
▁넘어가 -7529
▁대외 -7530
▁머신 -7531
▁스릴러 -7532
▁껍질 -7533
▁백색 -7534
▁주축 -7535
▁126 -7536
▁둘러싼 -7537
▁자치체 -7538
▁크리스마스 -7539
▁몰려 -7540
▁쇼트 -7541
▁공직 -7542
▁명제 -7543
▁토성 -7544
▁아이슬란드 -7545
노프 -7546
시티 -7547
▁생전 -7548
▁콜라 -7549
▁가져왔 -7550
IV -7551
▁김진 -7552
▁동년 -7553
▁위탁 -7554
▁평일 -7555
▁미즈 -7556
▁하우 -7557
치오 -7558
▁끊임 -7559
▁종로구 -7560
▁관람 -7561
▁단식 -7562
erv -7563
▁출산 -7564
▁에티 -7565
▁이틀 -7566
▁사이버 -7567
▁Ac -7568
▁청하 -7569
ward -7570
▁중성자 -7571
▁탤 -7572
▁에스토니아 -7573
▁반박 -7574
▁여래 -7575
▁도호쿠 -7576
▁시칠리아 -7577
▁되게 -7578
▁조르 -7579
▁아미타 -7580
▁휠 -7581
lass -7582
▁도스 -7583
▁사절 -7584
▁아종 -7585
▁가벼 -7586
▁대전광역시 -7587
▁유니폼 -7588
▁딩 -7589
선스 -7590
ata -7591
▁소환 -7592
▁후세 -7593
itt -7594
▁매카 -7595
▁수동 -7596
▁시그 -7597
▁캄보디아 -7598
▁신중 -7599
▁노란색 -7600
▁중심부 -7601
▁왓 -7602
우라 -7603
생활 -7604
▁부과 -7605
▁송시 -7606
▁다운로드 -7607
▁걱 -7608
▁제독 -7609
▁충실 -7610
▁힌두 -7611
시로 -7612
▁입상 -7613
▁탐지 -7614
▁발트 -7615
▁적자 -7616
▁집계 -7617
▁외교관 -7618
▁초연 -7619
▁송나라 -7620
▁우라늄 -7621
▁1897 -7622
▁EC -7623
▁고가 -7624
▁여겼 -7625
▁중순 -7626
▁유연 -7627
▁자랐 -7628
▁춘추 -7629
▁한성부 -7630
▁들어왔 -7631
▁라이선스 -7632
▁우루과이 -7633
▁닭 -7634
▁고인 -7635
▁무려 -7636
▁바실 -7637
▁엔지 -7638
▁뢰 -7639
▁전했 -7640
▁훔 -7641
▁반감 -7642
▁Will -7643
무기 -7644
▁바뀐 -7645
▁위임 -7646
▁참가자 -7647
키지 -7648
▁서사 -7649
▁IBM -7650
▁미얀마 -7651
올리 -7652
▁보리 -7653
양함 -7654
▁스터 -7655
▁암석 -7656
▁입체 -7657
▁고사 -7658
▁함유 -7659
▁무거운 -7660
▁에스파냐 -7661
▁수렴 -7662
▁이광 -7663
▁이드 -7664
▁향한 -7665
▁블루스 -7666
▁콘크리트 -7667
▁원내 -7668
나리 -7669
▁산다 -7670
▁바치 -7671
▁붙였 -7672
▁얘기 -7673
▁버린다 -7674
라미 -7675
▁NG -7676
▁평범 -7677
▁고베 -7678
▁신기 -7679
▁임상 -7680
▁충주 -7681
▁디스플레이 -7682
▁그로 -7683
▁비문 -7684
▁쉬운 -7685
▁-) -7686
▁당일 -7687
▁여주 -7688
▁차기 -7689
▁라파 -7690
▁장미 -7691
▁133 -7692
창군 -7693
▁번영 -7694
▁역설 -7695
▁장난 -7696
▁진짜 -7697
▁124 -7698
▁덧붙여 -7699
▁간호 -7700
▁챌린 -7701
▁1884 -7702
▁국무총리 -7703
리즘 -7704
평군 -7705
▁CS -7706
▁모방 -7707
▁플라이 -7708
▁미상 -7709
▁휴식 -7710
▁For -7711
▁냄 -7712
▁명백 -7713
▁미션 -7714
▁선구 -7715
▁일어날 -7716
▁난민 -7717
▁III -7718
▁공모 -7719
▁내린 -7720
▁영장 -7721
▁작센 -7722
▁끌려 -7723
▁중량 -7724
▁동아일보 -7725
▁언더 -7726
▁요르 -7727
▁육지 -7728
람쥐 -7729
살이 -7730
고쿠 -7731
▁구릉 -7732
▁중독 -7733
▁증후 -7734
▁리비아 -7735
▁업계 -7736
▁횟 -7737
▁col -7738
▁꽤 -7739
승지 -7740
lic -7741
▁합창 -7742
자치도 -7743
▁수용소 -7744
▁제주특별 -7745
▁제주특별자치도 -7746
▁대처 -7747
▁# -7748
▁AK -7749
▁고백 -7750
▁김포 -7751
▁휴전 -7752
▁고치 -7753
▁드라 -7754
▁보완 -7755
▁서재 -7756
▁연패 -7757
▁입지 -7758
▁명령어 -7759
▁총선거 -7760
▁후쿠시마 -7761
▁나주 -7762
▁옥스 -7763
▁신학교 -7764
▁AR -7765
▁께서 -7766
▁미토 -7767
▁인연 -7768
▁막내 -7769
▁이진 -7770
▁즈음 -7771
▁바라보 -7772
▁누군 -7773
▁미쳤 -7774
▁배신 -7775
▁병행 -7776
▁걱정 -7777
트리올 -7778
▁몬트리올 -7779
▁솟 -7780
▁주름 -7781
▁치열 -7782
▁표명 -7783
그로 -7784
▁행적 -7785
▁잦 -7786
▁메타 -7787
▁탱크 -7788
▁BC -7789
▁남원 -7790
▁시흥 -7791
▁안드레 -7792
▁실려 -7793
▁청원 -7794
▁해수 -7795
▁트라이 -7796
▁옴 -7797
▁팜 -7798
▁포격 -7799
▁느낀 -7800
▁브래 -7801
row -7802
▁NC -7803
▁전성기 -7804
▁교황청 -7805
▁신학자 -7806
▁아랍어 -7807
타고 -7808
▁교양 -7809
▁교외 -7810
▁마약 -7811
▁마인 -7812
▁저명 -7813
▁책임자 -7814
▁사우디아 -7815
▁페어 -7816
▁어울 -7817
▁Ro -7818
▁분당 -7819
▁Rob -7820
ru -7821
법인 -7822
하면 -7823
▁구도 -7824
▁오세 -7825
▁운동장 -7826
▁브라우저 -7827
▁조선일보 -7828
▁지선 -7829
▁카탈 -7830
▁실장 -7831
▁팔레스 -7832
▁겔 -7833
▁정전 -7834
▁통근 -7835
▁나타낼 -7836
▁황태자 -7837
차기 -7838
▁CH -7839
▁등재 -7840
▁베드 -7841
▁풋볼 -7842
▁소유자 -7843
▁컴파 -7844
▁효종 -7845
▁파이어 -7846
▁전염 -7847
▁케이스 -7848
▁깨달 -7849
▁탈당 -7850
▁내려가 -7851
▁부제 -7852
▁임용 -7853
▁구조물 -7854
람회 -7855
▁프레스 -7856
▁맵 -7857
다드 -7858
▁에도 -7859
▁풍경 -7860
▁코믹스 -7861
▁룽 -7862
루션 -7863
▁수습 -7864
▁야구장 -7865
▁증후군 -7866
의자 -7867
퍼니 -7868
▁빠졌 -7869
▁숨겨 -7870
▁식별 -7871
▁첼시 -7872
▁호기 -7873
대신 -7874
▁알코 -7875
▁중소 -7876
▁묘역 -7877
▁의상 -7878
▁입당 -7879
포스 -7880
포트 -7881
▁인재 -7882
▁조연 -7883
▁보일 -7884
▁항소 -7885
▁새겨져 -7886
▁테이블 -7887
TS -7888
▁바닷 -7889
▁실전 -7890
▁Qu -7891
▁나쁜 -7892
▁방송사 -7893
블로 -7894
▁횟수 -7895
▁옆면 -7896
▁정한 -7897
▁밟 -7898
▁햇 -7899
▁냉각 -7900
▁서정 -7901
▁공의회 -7902
▁근교 -7903
▁윌리엄스 -7904
▁114 -7905
▁송시열 -7906
▁엔지니어 -7907
▁` -7908
백과 -7909
네스코 -7910
▁며칠 -7911
▁영남 -7912
▁쫓겨 -7913
▁벗어 -7914
▁중위 -7915
▁129 -7916
▁별다른 -7917
▁솜 -7918
▁주행 -7919
▁추출 -7920
▁퍼센트 -7921
▁복선 -7922
▁카운티 -7923
lay -7924
▁태양계 -7925
▁이에야스 -7926
▁박해 -7927
▁주주 -7928
▁International -7929
▁덤 -7930
▁면허 -7931
▁조달 -7932
케이션 -7933
▁쌍둥이 -7934
▁리라 -7935
주의자 -7936
▁134 -7937
제리 -7938
▁CF -7939
▁Op -7940
▁동점 -7941
▁일러 -7942
▁적당 -7943
▁패키지 -7944
▁끓 -7945
▁처녀 -7946
▁Christ -7947
▁돌리 -7948
▁스콧 -7949
▁평원 -7950
▁히메 -7951
▁친일파 -7952
▁경연 -7953
▁김기 -7954
▁시초 -7955
▁탐사선 -7956
▁멋 -7957
▁킥 -7958
회장 -7959
▁초과 -7960
ames -7961
▁동국 -7962
sk -7963
▁윌슨 -7964
▁해변 -7965
▁경상도 -7966
▁이글스 -7967
▁매달 -7968
▁바흐 -7969
▁실린 -7970
▁허리 -7971
▁사우디아라비아 -7972
IP -7973
▁고민 -7974
▁사슬 -7975
▁정렬 -7976
▁Bar -7977
▁실시간 -7978
지붕 -7979
▁격퇴 -7980
▁좌절 -7981
▁거행 -7982
▁미주 -7983
▁인자 -7984
▁해소 -7985
▁기업인 -7986
▁다항 -7987
▁바른 -7988
▁남서부 -7989
언스 -7990
▁신주 -7991
▁환영 -7992
PG -7993
▁용병 -7994
페르 -7995
▁한쪽 -7996
▁스러 -7997
▁실리 -7998
▁키프 -7999
▁결혼식 -8000
▁검정 -8001
▁동상 -8002
▁약자 -8003
▁해전 -8004
▁팔레스타인 -8005
eg -8006
▁광물 -8007
▁소통 -8008
▁후방 -8009
▁사업자 -8010
▁최상위 -8011
▁견제 -8012
▁최악 -8013
▁목판 -8014
▁시선 -8015
▁신생 -8016
▁신속 -8017
▁신한 -8018
▁라이브러리 -8019
▁성체 -8020
▁폭행 -8021
▁관해서 -8022
▁마이너 -8023
▁유네스코 -8024
▁돋 -8025
▁민회 -8026
▁왕복 -8027
리니 -8028
▁내보 -8029
▁못할 -8030
▁지폐 -8031
▁뭉 -8032
▁의병 -8033
승부 -8034
토모 -8035
▁SD -8036
▁창원시 -8037
모어 -8038
▁도마뱀붙이 -8039
▁어요 -8040
▁혈통 -8041
▁아마도 -8042
▁350 -8043
▁콰 -8044
리에 -8045
자스 -8046
▁어원 -8047
▁관구 -8048
▁총독부 -8049
▁영화배우 -8050
▁위키백과 -8051
▁모았 -8052
▁범인 -8053
▁성사 -8054
리케인 -8055
▁대표작 -8056
▁너비 -8057
▁상용 -8058
▁수법 -8059
▁차장 -8060
▁호세 -8061
▁공민왕 -8062
▁백화점 -8063
▁허리케인 -8064
▁개교 -8065
▁스톡 -8066
▁오노 -8067
▁닝 -8068
▁쿤 -8069
▁거론 -8070
▁구호 -8071
▁쓰인 -8072
▁주역 -8073
▁감리 -8074
▁왜냐 -8075
▁평택 -8076
▁현금 -8077
▁블로그 -8078
도바 -8079
▁창고 -8080
▁도왔 -8081
▁맥주 -8082
▁어휘 -8083
▁토마 -8084
▁바오로 -8085
ition -8086
▁is -8087
▁유동 -8088
▁의뢰 -8089
▁넨 -8090
▁낙선 -8091
▁신민 -8092
▁워드 -8093
lo -8094
▁Ag -8095
▁로프 -8096
▁지능 -8097
▁쾌속 -8098
▁다스리 -8099
▁뜨거운 -8100
▁모른다 -8101
바야 -8102
▁구이 -8103
▁카시 -8104
▁회고 -8105
▁페르디 -8106
바다 -8107
▁그날 -8108
▁극히 -8109
▁속했 -8110
▁프랭크 -8111
▁기인 -8112
▁우위 -8113
▁일컬 -8114
▁전자기 -8115
바시 -8116
산동 -8117
▁나눌 -8118
▁부당 -8119
▁설탕 -8120
▁순회 -8121
▁존속 -8122
푸스 -8123
▁호위 -8124
ement -8125
▁러시아어 -8126
▁가동 -8127
▁순교 -8128
▁전념 -8129
▁연합회 -8130
기지 -8131
▁광학 -8132
▁급격히 -8133
▁릉 -8134
▁국소 -8135
▁몰아 -8136
▁No -8137
어버 -8138
▁레바 -8139
▁일가 -8140
▁할지 -8141
▁다발 -8142
▁여지 -8143
▁거제 -8144
▁이세 -8145
▁천장 -8146
▁터치 -8147
▁카이사르 -8148
▁신규 -8149
▁에우 -8150
▁게이지 -8151
▁-- -8152
▁도장 -8153
▁아홉 -8154
▁음료 -8155
▁투르 -8156
란히 -8157
▁고장 -8158
▁심의 -8159
▁해적 -8160
▁부채 -8161
anc -8162
▁서초 -8163
▁헤라 -8164
▁호랑이 -8165
▁링컨 -8166
▁서진 -8167
▁뒷면 -8168
▁갑작스 -8169
▁공단 -8170
▁나비 -8171
▁응원 -8172
▁Part -8173
▁공산주의자 -8174
▁앓 -8175
▁상공 -8176
▁악장 -8177
▁하락 -8178
▁세계관 -8179
▁바리 -8180
▁힘입 -8181
조부 -8182
▁공수 -8183
▁수련 -8184
▁우세 -8185
▁통증 -8186
▁게르만 -8187
▁오피스 -8188
▁언니 -8189
▁잡아 -8190
▁증대 -8191
▁원숭이 -8192
▁자민 -8193
▁윤치호 -8194
하시 -8195
▁낭만 -8196
▁요동 -8197
▁돌연 -8198
▁성운 -8199
▁말리 -8200
▁그랑프리 -8201
▁갇 -8202
▁억압 -8203
▁추세 -8204
푸르트 -8205
ener -8206
▁하이드 -8207
ology -8208
▁드문 -8209
▁대학생 -8210
▁육체 -8211
▁펜실 -8212
▁생겨났 -8213
베이니아 -8214
▁사우루스 -8215
▁펜실베이니아 -8216
▁그루 -8217
▁예조 -8218
▁지평 -8219
▁내려오 -8220
▁부르크 -8221
▁분기점 -8222
▁닷 -8223
선거 -8224
트릭 -8225
▁누이 -8226
▁모이 -8227
▁에디 -8228
▁경찰청 -8229
▁나이지 -8230
▁나이지리아 -8231
▁농림 -8232
먼드 -8233
▁고수 -8234
내셔널 -8235
▁132 -8236
▁1871 -8237
▁인터내셔널 -8238
▁기어 -8239
▁몰래 -8240
▁시뮬 -8241
▁여당 -8242
▁저하 -8243
▁치아 -8244
▁누나 -8245
▁안성 -8246
▁장려 -8247
▁삼성전자 -8248
▁상담 -8249
▁성숙 -8250
▁122 -8251
릴라 -8252
▁일방 -8253
▁피에 -8254
▁배터리 -8255
▁아미노 -8256
▁노부나가 -8257
ash -8258
▁부적 -8259
▁상단 -8260
마루 -8261
▁원종 -8262
▁이경 -8263
▁프랑수아 -8264
말라 -8265
▁늘어났 -8266
▁경관 -8267
▁고령 -8268
대원군 -8269
▁계열사 -8270
ans -8271
ene -8272
▁후안 -8273
베니아 -8274
idae -8275
▁대의원 -8276
▁바이오 -8277
▁누가 -8278
▁{ -8279
▁상반 -8280
▁실체 -8281
▁차종 -8282
▁쉐 -8283
▁1885 -8284
곡리 -8285
▁치명 -8286
▁한지 -8287
스부르크 -8288
les -8289
▁Go -8290
▁컴퍼니 -8291
▁선비 -8292
▁야마토 -8293
그레이드 -8294
▁슬로베니아 -8295
타로 -8296
▁CO -8297
▁오비 -8298
▁토크 -8299
▁고소 -8300
▁생식 -8301
▁왜냐하면 -8302
▁양호 -8303
마쓰 -8304
▁황실 -8305
라이트 -8306
▁그만두 -8307
▁업그레이드 -8308
▁자연수 -8309
▁바스 -8310
▁마하 -8311
▁트래 -8312
▁화장실 -8313
▁Pa -8314
▁비시 -8315
▁서남 -8316
▁장거리 -8317
▁땄 -8318
▁릿 -8319
▁구출 -8320
▁성단 -8321
▁시바 -8322
▁카리브 -8323
▁김경 -8324
▁어스 -8325
▁해역 -8326
▁여겨졌 -8327
▁물리치 -8328
▁개원 -8329
▁춘천 -8330
▁해명 -8331
비나 -8332
▁관해 -8333
▁래퍼 -8334
▁로빈 -8335
ife -8336
▁극동 -8337
▁나스 -8338
▁목재 -8339
▁후궁 -8340
▁간단히 -8341
▁누군가 -8342
▁이사장 -8343
▁떨어 -8344
▁반도체 -8345
▁딕 -8346
대기 -8347
위원 -8348
▁배후 -8349
▁서자 -8350
▁운하 -8351
▁게스트 -8352
▁고쳐 -8353
▁사육 -8354
▁Bla -8355
▁거북 -8356
▁동문 -8357
▁소원 -8358
▁허위 -8359
▁Ste -8360
▁그동안 -8361
시타 -8362
▁김현 -8363
▁인문 -8364
▁GP -8365
▁루프 -8366
▁축하 -8367
▁친왕 -8368
은이 -8369
▁상사 -8370
▁협박 -8371
▁116 -8372
▁스페이스 -8373
포로 -8374
mer -8375
▁영문 -8376
▁들어간다 -8377
ute -8378
▁벌금 -8379
▁의약 -8380
▁치즈 -8381
▁이순신 -8382
▁중의원 -8383
중국 -8384
▁소매 -8385
▁우울 -8386
▁당주 -8387
▁빠진 -8388
▁판본 -8389
▁후사 -8390
▁흠 -8391
▁매입 -8392
▁봉쇄 -8393
▁유저 -8394
▁모니터 -8395
▁코프 -8396
▁초록 -8397
▁오리콘 -8398
▁찾아볼 -8399
▁가짜 -8400
▁단단 -8401
▁양키스 -8402
▁교과서 -8403
▁라오스 -8404
▁시베리아 -8405
▁공익 -8406
▁그냥 -8407
▁So -8408
▁근원 -8409
▁아랫 -8410
▁증손 -8411
▁Cor -8412
▁이산화 -8413
▁줄무늬 -8414
▁미라 -8415
▁이타 -8416
▁진급 -8417
▁현저 -8418
▁드러났 -8419
▁무승부 -8420
▁세이브 -8421
▁외야수 -8422
▁가장자리 -8423
▁눌 -8424
▁대웅 -8425
▁이케 -8426
▁우승자 -8427
▁할머니 -8428
아이 -8429
▁갈릴 -8430
▁거울 -8431
ink -8432
▁제대 -8433
래스카 -8434
줄기 -8435
▁마디 -8436
▁미루 -8437
▁우유 -8438
▁포럼 -8439
ott -8440
▁진공 -8441
▁Ass -8442
▁교정 -8443
▁담겨 -8444
▁돌격 -8445
▁신선 -8446
▁정주 -8447
▁스티브 -8448
▁조종사 -8449
▁마력 -8450
▁승계 -8451
▁일반인 -8452
누엘 -8453
도리 -8454
▁Gu -8455
▁부설 -8456
▁빌려 -8457
드리아 -8458
▁마츠 -8459
ream -8460
▁가마쿠라 -8461
시피 -8462
▁구해 -8463
▁대폭 -8464
▁무지 -8465
▁신조 -8466
▁악단 -8467
▁우호 -8468
▁유년 -8469
▁탐구 -8470
▁스튜어트 -8471
▁나트 -8472
▁분비 -8473
▁비유 -8474
▁카자흐스탄 -8475
▁땃 -8476
시온 -8477
▁만남 -8478
▁연기자 -8479
▁상표 -8480
▁성문 -8481
▁연꽃 -8482
▁확신 -8483
브리지 -8484
▁CON -8485
▁엿 -8486
red -8487
▁비리 -8488
▁적분 -8489
▁통틀 -8490
▁블랙홀 -8491
▁끄 -8492
▁나눠 -8493
다지 -8494
▁사회학 -8495
▁유로파 -8496
▁ID -8497
▁종착 -8498
▁탤런트 -8499
개미 -8500
▁GS -8501
▁sc -8502
▁먼지 -8503
▁문예 -8504
▁학기 -8505
▁힘든 -8506
▁세이부 -8507
다고 -8508
▁센티 -8509
▁야쿠 -8510
▁바티칸 -8511
▁느껴 -8512
▁뒤집 -8513
▁사간 -8514
▁진사 -8515
▁호프 -8516
▁기적 -8517
▁리틀 -8518
▁요하 -8519
▁토모 -8520
▁이민자 -8521
▁주어지 -8522
▁공백 -8523
▁포병 -8524
▁살아가 -8525
▁연산군 -8526
▁공조 -8527
▁더글 -8528
▁어긋 -8529
▁커널 -8530
▁독일인 -8531
▁법무부 -8532
리안 -8533
que -8534
▁밝기 -8535
▁붙인 -8536
▁테레 -8537
▁국내외 -8538
▁반지름 -8539
▁협주곡 -8540
▁봉안 -8541
▁특집 -8542
▁평정 -8543
rans -8544
▁열정 -8545
▁오사 -8546
▁오해 -8547
▁포획 -8548
ey -8549
단체 -8550
축구 -8551
▁리우 -8552
▁사위 -8553
▁유니버 -8554
▁승부차기 -8555
▁둥지 -8556
▁시어 -8557
▁신탁 -8558
▁구축함 -8559
▁맏 -8560
▁캉 -8561
▁매매 -8562
▁축적 -8563
▁%), -8564
▁케네 -8565
▁테이프 -8566
▁한동안 -8567
▁구경 -8568
▁재현 -8569
▁물려받 -8570
▁Amer -8571
기업 -8572
▁규범 -8573
▁옵션 -8574
▁이긴 -8575
▁RNA -8576
의장 -8577
▁곡인 -8578
▁보증 -8579
▁원했 -8580
omys -8581
▁차이점 -8582
마드 -8583
▁디비 -8584
▁반해 -8585
▁아부 -8586
▁총칭 -8587
▁1880 -8588
끼리 -8589
▁결선 -8590
▁궁극 -8591
▁산란 -8592
▁쳤 -8593
▁김규 -8594
▁깨닫 -8595
▁수색 -8596
▁이화 -8597
▁투옥 -8598
오피아 -8599
▁검찰청 -8600
▁성리학 -8601
▁에티오피아 -8602
▁대니 -8603
▁최대한 -8604
크로 -8605
▁고성 -8606
▁트위터 -8607
▁컬럼비아 -8608
▁HT -8609
▁요건 -8610
▁조부 -8611
ject -8612
▁다룬다 -8613
▁염기 -8614
▁해고 -8615
▁알제리 -8616
▁오바 -8617
▁품종 -8618
테르부르크 -8619
▁IM -8620
▁단층 -8621
▁문구 -8622
▁티스 -8623
▁연합국 -8624
▁군정 -8625
▁애덤 -8626
▁칭찬 -8627
▁김정일 -8628
▁왔으며 -8629
▁1860 -8630
▁풍자 -8631
▁방사선 -8632
▁다이아몬드 -8633
▁살리 -8634
▁굉장히 -8635
▁삿포로 -8636
▁거쳤 -8637
▁노바 -8638
▁땃쥐 -8639
▁양측 -8640
▁연승 -8641
▁잔류 -8642
▁충전 -8643
▁혈관 -8644
▁이소 -8645
▁자아 -8646
ler -8647
▁가죽 -8648
▁왜곡 -8649
▁치안 -8650
▁깎 -8651
▁팡 -8652
▁마블 -8653
▁결함 -8654
▁곤란 -8655
▁생략 -8656
▁아예 -8657
▁강서 -8658
▁치러진 -8659
▁달했 -8660
▁부피 -8661
▁상법 -8662
▁이윤 -8663
▁플래시 -8664
▁도르 -8665
▁도청 -8666
▁성취 -8667
▁도카이 -8668
라리 -8669
▁CR -8670
▁디렉 -8671
▁종래 -8672
▁하프 -8673
▁항쟁 -8674
▁형조 -8675
▁평의회 -8676
▁체코슬로 -8677
▁체코슬로바키아 -8678
ald -8679
▁만료 -8680
▁소모 -8681
▁유방 -8682
▁한스 -8683
pr -8684
연합 -8685
hem -8686
▁an -8687
▁맑 -8688
올라 -8689
▁극심 -8690
▁난징 -8691
▁만일 -8692
lect -8693
▁얹 -8694
레기 -8695
ict -8696
▁Je -8697
▁도루 -8698
▁Har -8699
▁대부 -8700
▁유죄 -8701
▁제압 -8702
▁철회 -8703
▁아타 -8704
▁오라 -8705
▁캐시 -8706
고래 -8707
▁날씨 -8708
▁보석 -8709
▁연봉 -8710
▁조세 -8711
▁칼라 -8712
▁취항 -8713
ail -8714
▁대피 -8715
▁베스 -8716
▁신약 -8717
▁애틀 -8718
▁엔딩 -8719
▁개막전 -8720
▁결코 -8721
▁동정 -8722
▁즉각 -8723
▁체크 -8724
▁하워드 -8725
▁맘 -8726
▁담긴 -8727
▁효고 -8728
문트 -8729
박스 -8730
▁사모 -8731
▁지인 -8732
▁호출 -8733
▁SU -8734
▁연쇄 -8735
▁우측 -8736
▁청춘 -8737
▁회관 -8738
▁Art -8739
권자 -8740
ett -8741
▁Pe -8742
▁기다 -8743
▁택시 -8744
▁연산자 -8745
브레 -8746
▁CN -8747
▁공습 -8748
▁구할 -8749
▁요정 -8750
▁알코올 -8751
▁가루 -8752
▁서민 -8753
▁재상 -8754
▁주부 -8755
▁탐색 -8756
▁화해 -8757
베르토 -8758
▁pr -8759
▁부딪 -8760
▁어른 -8761
▁전년 -8762
▁한인 -8763
▁베네딕 -8764
▁시가지 -8765
▁School -8766
블리 -8767
way -8768
▁날아 -8769
▁시코 -8770
▁점성술 -8771
▁받아들였 -8772
갈색 -8773
▁경보 -8774
▁세속 -8775
▁타당 -8776
▁횡단 -8777
▁오프닝 -8778
▁구와 -8779
▁카롤 -8780
▁Dav -8781
▁타이거즈 -8782
▁헥 -8783
▁스칼 -8784
타리오 -8785
▁사상자 -8786
▁ne -8787
▁일조 -8788
▁축출 -8789
▁트윈스 -8790
톨레 -8791
하루 -8792
▁시범 -8793
▁키우 -8794
▁One -8795
▁따른다 -8796
나스 -8797
바닥 -8798
▁CJ -8799
▁황족 -8800
▁연예인 -8801
▁다크 -8802
▁프랑크푸르트 -8803
러미 -8804
▁드로 -8805
▁사쿠라 -8806
▁홈구장 -8807
▁경신 -8808
▁괴물 -8809
▁내정 -8810
▁말씀 -8811
▁루이지 -8812
II -8813
ade -8814
덕션 -8815
▁외모 -8816
▁나올 -8817
▁통보 -8818
▁폭동 -8819
▁청주시 -8820
▁암시 -8821
▁태극 -8822
퍼런스 -8823
ower -8824
▁드라이버 -8825
▁블라디미르 -8826
▁뉴턴 -8827
▁Sup -8828
EL -8829
황후 -8830
▁말미 -8831
거진 -8832
▁승자 -8833
▁131 -8834
▁220 -8835
▁금요일 -8836
▁총사령 -8837
▁가환 -8838
▁건담 -8839
▁에버 -8840
바이잔 -8841
▁클라우드 -8842
▁공적 -8843
▁밀집 -8844
▁자음 -8845
▁포터 -8846
▁1889 -8847
▁페르난 -8848
TP -8849
yc -8850
▁경성부 -8851
▁휴스턴 -8852
▁네이션스 -8853
▁개소 -8854
▁네스 -8855
▁등기 -8856
▁징계 -8857
방송공사 -8858
▁슈트 -8859
▁어렸 -8860
▁을지 -8861
▁참의 -8862
▁체중 -8863
▁통영 -8864
▁선도 -8865
▁핸드 -8866
▁아제르 -8867
▁어미 -8868
▁희귀 -8869
▁상점 -8870
▁침투 -8871
▁헬기 -8872
▁보인 -8873
▁하동 -8874
▁아레나 -8875
▁아제르바이잔 -8876
uro -8877
▁개종 -8878
▁바나 -8879
▁양반 -8880
▁플랜 -8881
▁헤비 -8882
▁핵무기 -8883
▁우파 -8884
▁비로소 -8885
▁소방서 -8886
▁1800 -8887
▁대손 -8888
▁소생 -8889
▁응시 -8890
▁일생 -8891
▁Ind -8892
▁내주 -8893
▁신념 -8894
▁자비 -8895
▁히사 -8896
▁중형 -8897
▁월요일 -8898
교도 -8899
조건 -8900
ark -8901
▁김창 -8902
▁레일 -8903
▁시골 -8904
▁예하 -8905
▁그레고 -8906
▁케네디 -8907
수리 -8908
▁바꾼 -8909
▁왼손 -8910
레슬링 -8911
▁광주광역시 -8912
▁성도 -8913
▁Gro -8914
▁이어진다 -8915
▁뇌물 -8916
▁상해 -8917
▁빨간색 -8918
▁코스타 -8919
uk -8920
▁공방 -8921
▁미키 -8922
▁살펴보 -8923
▁희생자 -8924
▁본국 -8925
▁정세 -8926
▁안테 -8927
▁자택 -8928
▁니콜라 -8929
▁브로드 -8930
▁생산량 -8931
▁설화 -8932
▁모로코 -8933
▁1870 -8934
IG -8935
▁꿀 -8936
▁국보 -8937
▁나눈 -8938
▁아담 -8939
▁벨라루스 -8940
▁유체 -8941
파이어 -8942
▁일리노 -8943
▁붐 -8944
▁심해 -8945
▁코카 -8946
▁펠리 -8947
▁프로레슬링 -8948
그룹 -8949
▁이식 -8950
▁애틀랜 -8951
▁브라더스 -8952
저지 -8953
▁각도 -8954
▁답변 -8955
▁지옥 -8956
게이머 -8957
▁일리노이 -8958
▁프로게이머 -8959
▁옹립 -8960
▁USS -8961
기념 -8962
▁간선 -8963
▁더니 -8964
▁패널 -8965
▁근로자 -8966
▁토착종 -8967
▁커뮤니케이션 -8968
▁National -8969
▁몰리 -8970
▁직결 -8971
▁매니저 -8972
▁멜로디 -8973
무스 -8974
ola -8975
▁MB -8976
▁구절 -8977
▁그램 -8978
▁트로이 -8979
천리 -8980
▁관음 -8981
▁던져 -8982
▁원전 -8983
▁학계 -8984
▁바깥쪽 -8985
▁1600 -8986
스틴 -8987
▁시정 -8988
▁입국 -8989
▁정변 -8990
▁컨셉 -8991
▁해밀 -8992
▁당한다 -8993
드르 -8994
규모 -8995
ank -8996
▁은데 -8997
▁혼동 -8998
▁냉전 -8999
▁모친 -9000
▁폭포 -9001
▁JT -9002
▁벽돌 -9003
▁여운 -9004
▁피오 -9005
▁하단 -9006
▁레온 -9007
▁피신 -9008
▁흔하 -9009
able -9010
▁도미니 -9011
▁알루미 -9012
▁포켓몬스터 -9013
▁슈팅 -9014
▁중복 -9015
▁쥐과 -9016
▁뉴저지 -9017
▁어려서 -9018
▁어려워 -9019
여래 -9020
▁가축 -9021
▁욕구 -9022
▁채워 -9023
▁방송인 -9024
▁스크립 -9025
▁1883 -9026
▁with -9027
ng -9028
▁BS -9029
▁감행 -9030
▁비석 -9031
▁스폰 -9032
▁신시 -9033
▁정점 -9034
▁Res -9035
irl -9036
▁그대 -9037
▁축조 -9038
▁매카트니 -9039
▁오사카부 -9040
▁대패 -9041
▁따온 -9042
▁보헤 -9043
▁폭넓 -9044
크라 -9045
▁발기 -9046
▁비자 -9047
▁유진 -9048
▁파이널 -9049
▁대구광역시 -9050
▁나르 -9051
▁데모 -9052
▁바빌 -9053
▁숙청 -9054
▁재혼 -9055
▁패했 -9056
▁옳 -9057
▁EU -9058
▁축물 -9059
▁나간다 -9060
펜하 -9061
▁sh -9062
▁인플 -9063
헤이 -9064
▁세션 -9065
▁척추 -9066
▁초월 -9067
▁필터 -9068
▁하고 -9069
▁학업 -9070
▁스트레스 -9071
LS -9072
▁빔 -9073
셰비 -9074
우트 -9075
▁샘플 -9076
▁기술자 -9077
▁이성계 -9078
▁퐁 -9079
글리 -9080
짓점 -9081
치기 -9082
▁강희 -9083
▁인산 -9084
▁입원 -9085
▁동학 -9086
▁저주 -9087
▁지로 -9088
▁초신 -9089
▁고고학 -9090
▁꼭짓점 -9091
▁플러스 -9092
로니 -9093
미사 -9094
샤바 -9095
ole -9096
▁애칭 -9097
▁필사 -9098
▁분명히 -9099
eng -9100
▁적도 -9101
▁정성 -9102
▁키르 -9103
▁달한다 -9104
브스 -9105
▁비주 -9106
▁어로 -9107
▁체조 -9108
▁커지 -9109
▁노태우 -9110
마이오스 -9111
▁베니 -9112
▁퍼지 -9113
▁다니엘 -9114
▁스타리그 -9115
▁Em -9116
▁연이 -9117
▁영국인 -9118
▁1868 -9119
▁온타리오 -9120
닐라 -9121
▁어뢰 -9122
▁의자 -9123
▁토양 -9124
▁닦 -9125
▁카를로스 -9126
▁감자 -9127
▁남구 -9128
▁믹스 -9129
▁방화 -9130
▁우체 -9131
▁제재 -9132
▁프로덕션 -9133
화물 -9134
▁쌓았 -9135
▁쓰촨 -9136
▁위쪽 -9137
▁젊은이 -9138
▁러시 -9139
▁배수 -9140
▁천재 -9141
▁화강 -9142
▁히타 -9143
▁그다지 -9144
데시 -9145
▁외관 -9146
▁체류 -9147
노미야 -9148
▁므 -9149
▁mu -9150
▁대치 -9151
▁미세 -9152
▁무어 -9153
▁War -9154
▁대웅전 -9155
▁레바논 -9156
▁공리 -9157
▁워터 -9158
▁피겨 -9159
▁플라스틱 -9160
▁개화 -9161
▁기증 -9162
▁드레 -9163
▁중산 -9164
▁최강 -9165
▁퇴임 -9166
틱스 -9167
▁극한 -9168
▁롤링 -9169
▁con -9170
▁트럼프 -9171
▁IN -9172
▁봉건 -9173
▁잡혀 -9174
▁취업 -9175
브르 -9176
ana -9177
▁군중 -9178
▁왕세 -9179
▁확실히 -9180
▁Sm -9181
▁서장 -9182
▁입성 -9183
▁머무르 -9184
테면 -9185
▁적혀 -9186
▁파인 -9187
▁끌어들 -9188
▁지식인 -9189
▁이를테면 -9190
▁울산광역시 -9191
▁깃발 -9192
▁모나 -9193
▁사슴 -9194
▁사탕 -9195
▁가까워 -9196
▁복소수 -9197
▁소규모 -9198
▁라이온즈 -9199
▁륙 -9200
▁관제 -9201
▁기각 -9202
▁대합 -9203
▁상트 -9204
▁자선 -9205
▁지침 -9206
▁베어스 -9207
▁발급 -9208
▁스님 -9209
▁기사단 -9210
▁모서리 -9211
▁대거 -9212
▁서신 -9213
▁선배 -9214
▁전위 -9215
▁가벼운 -9216
sc -9217
▁끼쳤 -9218
▁매수 -9219
▁본문 -9220
▁삼국지 -9221
온다 -9222
▁간토 -9223
▁광대 -9224
▁속편 -9225
we -9226
덩이 -9227
▁띤다 -9228
▁실망 -9229
▁표방 -9230
▁짱 -9231
▁강동 -9232
▁스캔 -9233
▁용이 -9234
▁인체 -9235
▁첨단 -9236
▁카카 -9237
렉스 -9238
▁독서 -9239
▁미노 -9240
▁Per -9241
▁라이언 -9242
▁천문대 -9243
▁바우 -9244
▁광저우 -9245
▁파란색 -9246
지스 -9247
lex -9248
▁손꼽 -9249
클레스 -9250
IL -9251
▁인명 -9252
▁정문 -9253
form -9254
▁셨 -9255
▁사본 -9256
▁자형 -9257
▁챌린지 -9258
▁홍문관 -9259
ode -9260
▁이건 -9261
▁호쿠 -9262
▁키보드 -9263
▁AD -9264
▁수용체 -9265
▁표기법 -9266
▁아카데미상 -9267
산성 -9268
▁감마 -9269
▁자오 -9270
▁컴백 -9271
▁토끼 -9272
▁Rec -9273
▁알루미늄 -9274
ble -9275
▁불꽃 -9276
▁정유 -9277
▁팔리 -9278
▁혜택 -9279
▁대변인 -9280
▁박람회 -9281
▁he -9282
ater -9283
보르 -9284
▁공관 -9285
▁나갈 -9286
▁피츠 -9287
린스 -9288
fer -9289
▁마녀 -9290
▁팔라 -9291
▁브리지 -9292
AF -9293
히코 -9294
▁헬리 -9295
▁폭격기 -9296
▁그치 -9297
▁화력 -9298
▁화상 -9299
▁소나무 -9300
▁정해진 -9301
카미 -9302
▁소나 -9303
▁사회당 -9304
▁소셜 -9305
▁수분 -9306
▁정적 -9307
▁키프로스 -9308
▁보트 -9309
▁예고 -9310
▁제프 -9311
▁케임 -9312
▁Kor -9313
▁부회장 -9314
▁우즈베 -9315
▁필리프 -9316
니까 -9317
▁EX -9318
▁기차 -9319
▁동조 -9320
▁파산 -9321
쟁이 -9322
▁였음 -9323
▁웹툰 -9324
▁흥선 -9325
▁장례식 -9326
은색 -9327
▁Gl -9328
▁원본 -9329
▁좌측 -9330
▁구스타 -9331
▁충북 -9332
ym -9333
▁가군 -9334
▁Her -9335
▁아돌프 -9336
▁아리스토 -9337
▁갱신 -9338
▁둥글 -9339
▁정립 -9340
프레스 -9341
▁"), -9342
▁프톨레 -9343
▁프톨레마이오스 -9344
러드 -9345
▁과반 -9346
▁지미 -9347
▁호모 -9348
▁THE -9349
▁아나키 -9350
▁아인슈타인 -9351
▁서류 -9352
▁카디 -9353
먼스 -9354
▁입각 -9355
▁자작 -9356
▁부여받 -9357
진군 -9358
▁공감 -9359
▁열도 -9360
▁운수 -9361
▁이준 -9362
▁중수 -9363
▁렐 -9364
▁발리 -9365
▁선우 -9366
▁싸이 -9367
▁충청도 -9368
▁색채 -9369
▁임관 -9370
▁하르 -9371
▁강남구 -9372
▁대서양 -9373
▁피고인 -9374
대장 -9375
ini -9376
▁영등 -9377
▁겁 -9378
▁걸렸 -9379
▁다름 -9380
▁현감 -9381
아프리카 -9382
▁강변 -9383
▁등용 -9384
▁도요토미 -9385
카타 -9386
▁그릇 -9387
▁날카 -9388
▁정화 -9389
▁교통국 -9390
두리 -9391
랑카 -9392
▁단축 -9393
▁부를 -9394
레아 -9395
▁남미 -9396
▁늘리 -9397
▁무궁 -9398
▁주조 -9399
▁준주 -9400
▁청산 -9401
▁체력 -9402
▁꼭대기 -9403
▁시위대 -9404
아웃 -9405
▁광무 -9406
▁에콰 -9407
▁한족 -9408
▁에콰도르 -9409
피어 -9410
▁상금 -9411
▁함정 -9412
▁뮤지션 -9413
▁상트페 -9414
▁1882 -9415
▁상트페테르부르크 -9416
▁남매 -9417
▁페널 -9418
▁핑크 -9419
▁웨스턴 -9420
▁가야 -9421
▁두께 -9422
▁신원 -9423
▁콤팩트 -9424
▁System -9425
벤처 -9426
▁가드 -9427
▁물품 -9428
▁이현 -9429
▁어드벤처 -9430
타니 -9431
타임 -9432
▁무명 -9433
▁워크 -9434
▁윤보 -9435
▁이관 -9436
▁제치 -9437
▁코끼리 -9438
▁광둥 -9439
▁분수 -9440
▁천하 -9441
▁카우 -9442
▁단절 -9443
▁채우 -9444
불교 -9445
폴리 -9446
▁공명 -9447
▁기숙 -9448
▁영산 -9449
▁중령 -9450
▁함선 -9451
▁해진다 -9452
역학 -9453
텍처 -9454
함수 -9455
▁그려진 -9456
▁아키텍처 -9457
로이 -9458
속기 -9459
▁모용 -9460
▁오크 -9461
▁태그 -9462
▁총대주교 -9463
▁할리우드 -9464
▁나노 -9465
▁종속 -9466
▁펑크 -9467
▁203 -9468
개골 -9469
▁대두 -9470
▁흔한 -9471
▁1892 -9472
▁기슭 -9473
▁단의 -9474
▁예명 -9475
▁미하일 -9476
▁의약품 -9477
▁AN -9478
▁동형 -9479
▁모모 -9480
▁토기 -9481
▁잃어버 -9482
▁한국방송공사 -9483
▁달아 -9484
▁로열 -9485
▁루시 -9486
▁오를 -9487
▁케냐 -9488
▁법정동 -9489
▁이병 -9490
▁주이 -9491
▁NAS -9492
▁플랫폼 -9493
▁대문 -9494
▁부스 -9495
▁약하 -9496
▁잘라 -9497
▁패한 -9498
▁민정 -9499
▁분출 -9500
▁Day -9501
RO -9502
▁하야 -9503
▁룩셈 -9504
▁유라 -9505
▁지우 -9506
가와현 -9507
ound -9508
▁룩셈부르크 -9509
▁공예 -9510
▁단면 -9511
▁정관 -9512
▁Pet -9513
▁뒷받침 -9514
▁스즈키 -9515
▁제네바 -9516
▁데이비스 -9517
시즘 -9518
▁군함 -9519
▁극작 -9520
▁생체 -9521
▁전속 -9522
▁채소 -9523
▁희곡 -9524
▁안토니오 -9525
▁선행 -9526
▁수축 -9527
몰로지 -9528
▁관광지 -9529
▁부의장 -9530
▁럼 -9531
▁얽 -9532
ual -9533
▁달걀 -9534
▁대명 -9535
▁염증 -9536
▁예시 -9537
▁동행 -9538
▁불타 -9539
▁오오 -9540
▁페르디난 -9541
ye -9542
▁격자 -9543
▁보복 -9544
▁부가 -9545
▁하차 -9546
일으 -9547
▁조립 -9548
▁창출 -9549
▁불러일으 -9550
▁쟈 -9551
ner -9552
▁밀란 -9553
▁Inst -9554
고스 -9555
▁발라 -9556
▁실재 -9557
▁1888 -9558
▁륜 -9559
▁남작 -9560
▁따왔 -9561
▁리프 -9562
▁세라 -9563
▁여파 -9564
베트남 -9565
▁기질 -9566
▁면제 -9567
▁모은 -9568
▁벨트 -9569
▁삼촌 -9570
▁습지 -9571
▁카프 -9572
▁관세 -9573
▁뒤쪽 -9574
▁병기 -9575
▁실무 -9576
▁주어진다 -9577
미트 -9578
▁갈래 -9579
▁소자 -9580
▁Can -9581
▁였으므로 -9582
▁퉁 -9583
▁공파 -9584
▁돌기 -9585
▁변이 -9586
▁소령 -9587
▁평안남도 -9588
번스 -9589
▁un -9590
▁까닭 -9591
▁리만 -9592
▁일부분 -9593
▁기니 -9594
▁벌인 -9595
▁청색 -9596
롤라이나 -9597
▁파라과이 -9598
더슨 -9599
▁CM -9600
▁주된 -9601
▁헬륨 -9602
▁되돌아 -9603
▁후속작 -9604
▁괘 -9605
▁기르 -9606
▁카미 -9607
▁흔들 -9608
▁몫 -9609
▁김지 -9610
▁안산 -9611
▁이단 -9612
라이어 -9613
▁비행장 -9614
▁슬라브 -9615
ins -9616
▁가려 -9617
▁박지 -9618
▁서문 -9619
▁즐겨 -9620
▁직경 -9621
▁스위치 -9622
▁트리플 -9623
vel -9624
▁신축 -9625
▁원천 -9626
▁일파 -9627
▁전산 -9628
▁정려 -9629
▁코믹 -9630
▁크리스티안 -9631
루아 -9632
▁명하 -9633
▁직면 -9634
셰비키 -9635
▁장기간 -9636
▁흥선대원군 -9637
EG -9638
▁슨 -9639
▁퀘벡 -9640
▁특권 -9641
▁들어갈 -9642
▁루타 -9643
▁산출 -9644
▁일산 -9645
▁입주 -9646
▁대사헌 -9647
▁찐 -9648
벨트 -9649
▁계정 -9650
▁조인 -9651
▁Fl -9652
▁케임브리지 -9653
50 -9654
곡동 -9655
부리 -9656
▁성지 -9657
▁제니 -9658
▁조수 -9659
▁유닉스 -9660
af -9661
▁추산 -9662
▁프란츠 -9663
레타 -9664
oll -9665
▁ES -9666
▁유부 -9667
▁방사성 -9668
▁사적 -9669
▁이용자 -9670
ution -9671
▁볼리비아 -9672
포드 -9673
▁권총 -9674
▁깨끗 -9675
▁무성 -9676
▁미들 -9677
▁봉해 -9678
▁수료 -9679
▁한층 -9680
▁다항식 -9681
ax -9682
▁교대 -9683
▁선동 -9684
▁오쿠 -9685
▁장자 -9686
▁취미 -9687
▁한테 -9688
▁경찰관 -9689
▁공용어 -9690
▁대성당 -9691
▁그렇지만 -9692
▁Colle -9693
▁씌 -9694
▁거뒀 -9695
▁레즈 -9696
▁무로 -9697
▁불신 -9698
▁브뤼 -9699
▁싸워 -9700
▁임원 -9701
▁퇴역 -9702
▁두개골 -9703
▁평안북도 -9704
HO -9705
▁분량 -9706
▁체르 -9707
▁탄도 -9708
▁더욱이 -9709
▁요르단 -9710
▁올라간다 -9711
▁Fr -9712
▁반공 -9713
▁사살 -9714
▁고양시 -9715
사업 -9716
▁공손 -9717
▁누적 -9718
▁만성 -9719
▁선장 -9720
▁수확 -9721
▁우왕 -9722
▁장단 -9723
▁조형 -9724
▁언어학 -9725
▁설교 -9726
▁체스 -9727
▁어둠 -9728
▁장원 -9729
▁제인 -9730
▁As -9731
▁비타 -9732
▁끊임없이 -9733
▁옥스퍼드 -9734
▁시뮬레이션 -9735
▁대관 -9736
▁후반기 -9737
▁Dr -9738
▁워너 -9739
테르담 -9740
▁Med -9741
▁조반니 -9742
▁야마구치 -9743
반구 -9744
▁복음서 -9745
▁새겨진 -9746
▁원로원 -9747
▁부드러운 -9748
▁중원 -9749
▁출처 -9750
▁고속도 -9751
▁겐지 -9752
▁글루 -9753
▁밝힌 -9754
▁시야 -9755
▁겉보기 -9756
▁캔자스 -9757
▁바르샤바 -9758
▁보헤미아 -9759
정리 -9760
▁DM -9761
▁김홍 -9762
▁우물 -9763
▁갈수록 -9764
▁흉노 -9765
▁페널티 -9766
▁1893 -9767
RA -9768
나우 -9769
▁발칸 -9770
▁시킴 -9771
▁심야 -9772
▁복합체 -9773
▁웬 -9774
타마 -9775
▁니코 -9776
▁전방 -9777
▁짐작 -9778
▁충렬 -9779
▁만주국 -9780
▁이룬 -9781
끄러운 -9782
▁남동생 -9783
▁아틀레 -9784
▁푸에르 -9785
츠크 -9786
▁냄새 -9787
▁서리 -9788
▁철폐 -9789
▁보이스 -9790
▁사업가 -9791
▁제작사 -9792
▁일러스트 -9793
토르 -9794
▁농사 -9795
▁제국주의 -9796
즈카 -9797
▁라그 -9798
▁발령 -9799
▁차르 -9800
▁총무 -9801
▁호족 -9802
▁붙여진 -9803
▁히어로즈 -9804
사우 -9805
아키 -9806
▁과실 -9807
▁극대 -9808
▁둔다 -9809
▁스턴 -9810
▁태백 -9811
▁키예프 -9812
▁교량 -9813
▁원료 -9814
▁아폴로 -9815
▁크리스토퍼 -9816
▁염소 -9817
▁의의 -9818
▁화자 -9819
▁후작 -9820
▁-, -9821
▁고산 -9822
▁재선 -9823
▁거짓말 -9824
▁센고쿠 -9825
▁염색체 -9826
▁프란체 -9827
19 -9828
▁벵 -9829
도스 -9830
푸아 -9831
▁김옥 -9832
▁동이 -9833
▁역량 -9834
▁하치 -9835
▁Mag -9836
헌영 -9837
oss -9838
▁DD -9839
▁Fe -9840
▁가신 -9841
▁강대 -9842
▁느리 -9843
▁무함 -9844
▁KIA -9845
▁중공업 -9846
▁지방산 -9847
▁스크립트 -9848
▁William -9849
EM -9850
▁강철 -9851
▁기관총 -9852
▁다케다 -9853
라이언트 -9854
타나 -9855
▁괴롭 -9856
▁복권 -9857
▁인질 -9858
▁교육부 -9859
▁거처 -9860
▁스트리 -9861
▁아니하 -9862
▁클라이언트 -9863
▁밍 -9864
▁국당 -9865
▁일으킬 -9866
▁궁중 -9867
▁도미 -9868
▁반군 -9869
▁질소 -9870
▁당연히 -9871
▁익스프레스 -9872
▁안경 -9873
▁드레스 -9874
▁낫 -9875
▁견인 -9876
▁상고 -9877
▁시종 -9878
▁헌신 -9879
▁마르티 -9880
▁아래쪽 -9881
▁타임스 -9882
▁각색 -9883
▁감안 -9884
▁공약 -9885
▁느꼈 -9886
▁일간 -9887
▁활주 -9888
▁마라톤 -9889
▁믹 -9890
chn -9891
▁김제 -9892
▁난이 -9893
▁보강 -9894
▁종점 -9895
▁법조인 -9896
UC -9897
자르 -9898
▁연못 -9899
▁용서 -9900
▁일렉트로 -9901
▁례 -9902
▁구약 -9903
▁석회 -9904
▁타석 -9905
▁Don -9906
▁그래미 -9907
▁설립자 -9908
▁1848 -9909
na -9910
석탑 -9911
▁To -9912
▁우회 -9913
▁정경 -9914
▁폭로 -9915
▁열린다 -9916
▁맞붙 -9917
▁무슨 -9918
▁브란 -9919
▁정인 -9920
▁몰아내 -9921
▁전시회 -9922
산맥 -9923
테인 -9924
▁ph -9925
▁혐오 -9926
층석탑 -9927
▁새로이 -9928
▁삼국사기 -9929
FL -9930
▁델라 -9931
▁쥐속 -9932
▁무너지 -9933
▁데카 -9934
▁보성 -9935
▁Mon -9936
▁인테르 -9937
▁동네 -9938
▁이규 -9939
▁CEO -9940
▁아리아 -9941
▁1886 -9942
퀘어 -9943
▁관절 -9944
▁기성 -9945
▁당수 -9946
▁북경 -9947
▁우치 -9948
▁집결 -9949
▁탑신 -9950
▁통치자 -9951
▁AG -9952
▁GO -9953
▁우상 -9954
▁아름답 -9955
가미 -9956
▁독성 -9957
▁세키 -9958
▁쳐들 -9959
자치시 -9960
▁교도소 -9961
▁북아프리카 -9962
▁특별자치시 -9963
▁킴 -9964
▁상경 -9965
▁세네 -9966
▁사이토 -9967
▁생겨나 -9968
▁그레고리오 -9969
▁쯔 -9970
세기 -9971
▁경과 -9972
▁고아 -9973
▁넘기 -9974
▁다마 -9975
▁추첨 -9976
▁침체 -9977
▁동성애자 -9978
▁연극배우 -9979
▁농부 -9980
▁상행 -9981
▁암흑 -9982
▁특색 -9983
▁기병대 -9984
▁연대기 -9985
▁1592 -9986
▁슛 -9987
▁호응 -9988
▁나란히 -9989
바른 -9990
스기 -9991
▁BM -9992
테이션 -9993
▁450 -9994
▁그림자 -9995
▁대장군 -9996
▁배우자 -9997
▁안치 -9998
▁앞장 -9999
▁CBS -10000
▁단행본 -10001
테쓰 -10002
▁장대 -10003
▁조계 -10004
▁조병 -10005
▁종파 -10006
▁진수 -10007
기념물 -10008
▁중앙아시아 -10009
▁콕 -10010
▁간신 -10011
▁불린 -10012
▁파우 -10013
▁현직 -10014
▁황도 -10015
ings -10016
컨대 -10017
▁가계 -10018
▁광명 -10019
▁민감 -10020
▁하리 -10021
파리 -10022
▁빌라 -10023
▁진전 -10024
▁레슬링 -10025
10 -10026
국사 -10027
그리 -10028
럴드 -10029
▁Mc -10030
▁게리 -10031
▁온대 -10032
▁갈리아 -10033
▁윤보선 -10034
▁줄거리 -10035
▁버드 -10036
▁지녔 -10037
▁케라 -10038
▁표적 -10039
나미 -10040
▁NE -10041
▁신동 -10042
▁용암 -10043
▁타우 -10044
▁드러머 -10045
▁미시시피 -10046
▁리조 -10047
▁무술 -10048
▁소시 -10049
▁모티브 -10050
▁트로피 -10051
▁렘 -10052
▁비늘 -10053
▁살려 -10054
▁신정 -10055
▁240 -10056
▁하노이 -10057
▁그리스인 -10058
사리 -10059
▁러셀 -10060
▁수녀 -10061
▁원더 -10062
▁앨리스 -10063
▁유대교 -10064
▁중앙부 -10065
▁뻔 -10066
▁두꺼 -10067
▁로라 -10068
▁마키 -10069
▁빈곤 -10070
▁차가 -10071
▁크롬 -10072
▁예정자 -10073
▁호르몬 -10074
▁덮여 -10075
▁빛나 -10076
▁에미 -10077
▁주임 -10078
▁회피 -10079
▁마운트 -10080
▁세워져 -10081
▁으려고 -10082
▁알렉산드리아 -10083
디나 -10084
▁김민 -10085
▁동참 -10086
▁유령 -10087
▁진행자 -10088
▁블리 -10089
▁일리 -10090
▁김병 -10091
▁라오 -10092
▁무궁화 -10093
▁박헌영 -10094
▁SL -10095
▁공표 -10096
▁상응 -10097
▁심화 -10098
▁음향 -10099
▁자결 -10100
▁페니 -10101
▁회상 -10102
▁클라이 -10103
▁1887 -10104
카가 -10105
▁도선 -10106
▁1891 -10107
▁대본 -10108
▁아브 -10109
▁요약 -10110
▁울프 -10111
스카르 -10112
▁쓰레기 -10113
▁다툼 -10114
▁퇴장 -10115
▁쓰시마 -10116
▁위나라 -10117
ma -10118
▁be -10119
▁다를 -10120
▁돌입 -10121
▁모인 -10122
▁이태 -10123
▁지켰 -10124
▁진료 -10125
덕왕 -10126
홀름 -10127
▁노보 -10128
▁미륵 -10129
▁열심 -10130
니시 -10131
▁') -10132
▁델타 -10133
▁발각 -10134
▁아닐 -10135
▁초원 -10136
▁출가 -10137
▁후진 -10138
▁가져오 -10139
▁1866 -10140
▁줘 -10141
▁qu -10142
▁검출 -10143
▁고토 -10144
▁현행 -10145
▁거주지 -10146
모스 -10147
▁경희 -10148
▁데르 -10149
▁상가 -10150
▁타협 -10151
▁Bro -10152
▁패밀리 -10153
뜨렸 -10154
uck -10155
▁로우 -10156
▁발병 -10157
▁시켰으며 -10158
▁콘스탄티노폴리스 -10159
▁리뷰 -10160
▁실적 -10161
▁입수 -10162
▁저렴 -10163
▁양성자 -10164
▁옥수수 -10165
▁엇 -10166
▁엮 -10167
▁GN -10168
▁니카 -10169
▁리모 -10170
▁소수자 -10171
▁쾰 -10172
▁검열 -10173
▁복식 -10174
▁시네 -10175
▁아산 -10176
▁정종 -10177
▁민간인 -10178
▁유치원 -10179
▁천연기념물 -10180
▁레전 -10181
▁조광 -10182
▁니콜라이 -10183
▁극도 -10184
▁시합 -10185
▁강풍 -10186
▁관동 -10187
▁군청 -10188
▁진해 -10189
▁철종 -10190
▁붙여졌 -10191
플로 -10192
▁가열 -10193
▁리바 -10194
▁수인 -10195
▁재질 -10196
▁파병 -10197
▁솔루션 -10198
▁군산 -10199
▁들려 -10200
▁수목 -10201
▁애리 -10202
▁어리 -10203
▁마카오 -10204
▁구형 -10205
▁버마 -10206
▁이겼 -10207
▁파문 -10208
▁다람쥐 -10209
멘스 -10210
▁경작 -10211
▁원격 -10212
▁제동 -10213
▁카를로 -10214
US -10215
▁기념관 -10216
▁리더십 -10217
▁지도부 -10218
▁아시카가 -10219
▁메라 -10220
▁반전 -10221
▁보위 -10222
▁연동 -10223
▁함자 -10224
▁팰 -10225
니지 -10226
▁기저 -10227
▁이득 -10228
▁접수 -10229
▁커스 -10230
▁허정 -10231
▁아라비아 -10232
으니 -10233
▁LA -10234
▁가역 -10235
▁강간 -10236
▁베토 -10237
▁수중 -10238
▁추론 -10239
▁int -10240
▁우체국 -10241
푸르 -10242
rop -10243
▁Su -10244
▁가산 -10245
▁번성 -10246
▁상연 -10247
▁무함마드 -10248
파르 -10249
let -10250
▁급수 -10251
▁이끈 -10252
▁장덕 -10253
▁정선 -10254
▁추종 -10255
▁긴테쓰 -10256
▁보수당 -10257
▁이주하 -10258
▁++ -10259
▁마당 -10260
▁지청 -10261
▁프론 -10262
▁교육청 -10263
▁아스널 -10264
▁자란다 -10265
CC -10266
▁괄 -10267
▁넌 -10268
▁kt -10269
▁아치 -10270
올로 -10271
ane -10272
▁AV -10273
▁Im -10274
▁국영 -10275
▁시중 -10276
▁온갖 -10277
▁터보 -10278
▁데스크 -10279
▁리우스 -10280
▁소행성 -10281
▁준결승전 -10282
▁쑤 -10283
▁개항 -10284
▁동요 -10285
▁닫힌 -10286
▁성실 -10287
▁을까 -10288
▁지출 -10289
▁퇴적 -10290
▁포고 -10291
▁개인전 -10292
▁이동하 -10293
▁Korea -10294
▁감동 -10295
▁따랐 -10296
▁물가 -10297
▁전복 -10298
▁창녕 -10299
ouse -10300
▁된다면 -10301
▁옮겨졌 -10302
urn -10303
▁정동 -10304
▁토미 -10305
▁표창 -10306
텔레스 -10307
메다 -10308
할시 -10309
▁탁월 -10310
사관학교 -10311
구역 -10312
ger -10313
▁메릴 -10314
▁복용 -10315
▁줄어 -10316
▁컨트리 -10317
▁광양 -10318
▁코코 -10319
▁휴가 -10320
▁디트로 -10321
▁Comm -10322
▁둘러싸여 -10323
▁디트로이트 -10324
▁합스부르크 -10325
▁팟 -10326
기스 -10327
ral -10328
▁vs -10329
▁공황 -10330
▁유료 -10331
▁코시 -10332
가르 -10333
oid -10334
▁감싸 -10335
▁엄밀 -10336
▁발렌시아 -10337
구르 -10338
▁김유 -10339
▁선보이 -10340
▁아마존 -10341
▁힌두교 -10342
▁낚 -10343
리코 -10344
벨라 -10345
▁출석 -10346
▁하행 -10347
번뇌 -10348
▁IV -10349
▁가볍 -10350
▁장벽 -10351
▁페이스북 -10352
파크 -10353
▁Cr -10354
▁경시 -10355
▁만년 -10356
▁벤치 -10357
▁세비 -10358
▁시국 -10359
▁절단 -10360
▁컴퓨팅 -10361
▁케플러 -10362
16 -10363
하키 -10364
▁상기 -10365
▁토요 -10366
▁통용 -10367
lude -10368
▁아리스토텔레스 -10369
히토 -10370
▁공고 -10371
▁돌출 -10372
운다 -10373
▁맥도 -10374
▁반역 -10375
▁자카 -10376
▁장시 -10377
▁재외 -10378
▁창시자 -10379
▁나루 -10380
▁내면 -10381
▁문종 -10382
▁이장 -10383
▁자르 -10384
▁지성 -10385
▁콘테 -10386
▁뾰 -10387
▁NP -10388
▁섬세 -10389
▁징병 -10390
ific -10391
▁오른손 -10392
▁청동기 -10393
링턴 -10394
▁결제 -10395
▁빈도 -10396
그라 -10397
▁경인 -10398
▁천왕 -10399
port -10400
▁분류군 -10401
▁수원시 -10402
▁자세히 -10403
▁맹세 -10404
▁합당 -10405
▁단과 -10406
▁메일 -10407
▁신상 -10408
▁평민 -10409
▁브리튼 -10410
▁파이프 -10411
▁SE -10412
▁대출 -10413
▁상급 -10414
▁오로 -10415
▁장제 -10416
▁전구 -10417
▁피로 -10418
▁랍 -10419
▁me -10420
▁고쿠 -10421
▁낙동 -10422
▁입양 -10423
▁스토어 -10424
▁신문사 -10425
▁그레고리 -10426
▁함경남도 -10427
▁알렉산드르 -10428
▁메커 -10429
▁무척 -10430
▁세손 -10431
▁시의 -10432
▁울리 -10433
▁제왕 -10434
해살이 -10435
▁대성전 -10436
맥스 -10437
쿠버 -10438
▁듀오 -10439
▁등극 -10440
▁명분 -10441
▁수교 -10442
▁오락 -10443
▁직통 -10444
▁초빙 -10445
면체 -10446
▁계시 -10447
▁불행 -10448
▁빈번 -10449
▁저격 -10450
사이드 -10451
▁갤러리 -10452
▁미군정 -10453
▁성남시 -10454
▁조지프 -10455
▁더글러스 -10456
▁이완 -10457
▁청소 -10458
ield -10459
▁마다가 -10460
▁통틀어 -10461
▁파나마 -10462
▁컷 -10463
▁노론 -10464
▁팔레 -10465
▁와일드 -10466
▁1864 -10467
▁썬 -10468
ike -10469
▁감수 -10470
▁로그 -10471
▁Rock -10472
▁가오 -10473
▁벽화 -10474
▁무조건 -10475
▁낮추 -10476
▁왕정 -10477
▁총애 -10478
▁카사 -10479
ator -10480
▁사각형 -10481
amb -10482
▁압둘 -10483
▁유정 -10484
▁자크 -10485
▁프레드 -10486
ee -10487
▁광도 -10488
▁실버 -10489
▁전날 -10490
▁해부 -10491
▁스퀘어 -10492
처스 -10493
▁개개 -10494
▁일당 -10495
▁부작용 -10496
▁스톡홀름 -10497
▁안드레아 -10498
라기 -10499
▁도우 -10500
▁중상 -10501
▁찰리 -10502
▁친분 -10503
▁서재필 -10504
천면 -10505
타주 -10506
▁Sk -10507
▁at -10508
▁경질 -10509
▁보로 -10510
▁일명 -10511
▁자칭 -10512
▁조례 -10513
▁바이트 -10514
▁히로시 -10515
글라 -10516
▁기분 -10517
▁부조 -10518
▁아빠 -10519
▁천거 -10520
▁활발히 -10521
▁관문 -10522
▁독도 -10523
▁봉수 -10524
▁자생 -10525
▁투항 -10526
▁Time -10527
▁러시아인 -10528
▁함부르크 -10529
OV -10530
▁관청 -10531
▁기념비 -10532
▁신도비 -10533
▁봇 -10534
▁수양 -10535
▁칼럼 -10536
▁스폰서 -10537
▁올바른 -10538
▁센티미터 -10539
▁낙하 -10540
▁남해 -10541
▁연한 -10542
▁화순 -10543
▁확고 -10544
▁일자리 -10545
▁사무총장 -10546
사상 -10547
▁ww -10548
▁갈리 -10549
▁김원 -10550
▁더비 -10551
▁소행 -10552
▁차용 -10553
▁창의 -10554
▁부원군 -10555
▁캐서 -10556
▁거래소 -10557
그래 -10558
▁감금 -10559
▁때려 -10560
▁왜구 -10561
▁중서 -10562
▁아이오 -10563
▁Robert -10564
▁른 -10565
▁줄여 -10566
▁타케 -10567
▁Tra -10568
▁애리조 -10569
▁려던 -10570
▁송도 -10571
▁이데 -10572
ican -10573
▁대대로 -10574
▁대합실 -10575
캐롤라이나 -10576
▁Music -10577
</ -10578
▁샐 -10579
▁홉 -10580
신문 -10581
암동 -10582
▁맞대 -10583
▁보라 -10584
▁왕건 -10585
▁Pol -10586
▁포스터 -10587
▁활주로 -10588
▁1863 -10589
▁구마모토 -10590
▁삼층석탑 -10591
어질 -10592
퍼슨 -10593
▁조이 -10594
▁넘어갔 -10595
▁뉴욕주 -10596
▁프라하 -10597
공산 -10598
기구 -10599
rol -10600
▁본작 -10601
▁유스 -10602
▁정국 -10603
▁해져 -10604
▁라이더 -10605
▁NT -10606
▁대원군 -10607
에몽 -10608
▁가옥 -10609
▁분과 -10610
▁살라 -10611
▁이룩 -10612
▁정제 -10613
▁www -10614
▁레전드 -10615
▁아미노산 -10616
▁민요 -10617
▁판례 -10618
▁메커니즘 -10619
▁약혼 -10620
▁우아 -10621
▁꼽힌다 -10622
▁동대문 -10623
▁미생물 -10624
▁1881 -10625
▁SA -10626
▁듀얼 -10627
▁앞쪽 -10628
▁장흥 -10629
▁학설 -10630
▁해남 -10631
▁NGC -10632
▁게릴라 -10633
▁만화가 -10634
▁카타르 -10635
▁총사령관 -10636
▁LP -10637
▁고추 -10638
▁다투 -10639
▁모의 -10640
▁수염 -10641
▁올드 -10642
▁원군 -10643
▁내야수 -10644
▁시코쿠 -10645
▁올랐으며 -10646
위성 -10647
▁불어 -10648
▁티켓 -10649
ital -10650
천사 -10651
▁궁궐 -10652
▁배려 -10653
▁et -10654
▁네오 -10655
▁노이 -10656
▁모셔 -10657
▁온다 -10658
▁주계 -10659
▁대지진 -10660
▁반란군 -10661
▁1861 -10662
▁경제학자 -10663
▁그레이트 -10664
▁이탈리아어 -10665
▁현은 -10666
▁북아일랜드 -10667
코딩 -10668
콥터 -10669
sch -10670
▁도사 -10671
▁무실 -10672
▁스텔 -10673
바야시 -10674
추부사 -10675
▁자제 -10676
▁촉매 -10677
▁서유럽 -10678
▁Mo -10679
▁보행 -10680
▁원심 -10681
▁프롤 -10682
▁합친 -10683
▁마르틴 -10684
▁오로지 -10685
▁토스카 -10686
▁High -10687
▁프로리그 -10688
ex -10689
▁구내 -10690
▁중생 -10691
▁즐길 -10692
▁화엄 -10693
란토 -10694
체고 -10695
▁곡물 -10696
▁문경 -10697
▁스노 -10698
▁휴게 -10699
▁경영자 -10700
▁비주얼 -10701
체고비나 -10702
▁Black -10703
거지 -10704
▁갑옷 -10705
▁생계 -10706
▁의석 -10707
▁초고 -10708
▁헌정 -10709
▁김규식 -10710
ino -10711
▁국악 -10712
▁매직 -10713
▁박종 -10714
▁뾰족 -10715
▁이빨 -10716
▁전격 -10717
▁케빈 -10718
▁헬싱 -10719
▁마우스 -10720
▁카스티 -10721
▁올림피아 -10722
네시 -10723
무소 -10724
▁대국 -10725
▁만장 -10726
▁반성 -10727
▁베른 -10728
▁특전 -10729
▁Mac -10730
▁경쟁력 -10731
▁베토벤 -10732
▁끝났 -10733
▁농어 -10734
▁극작가 -10735
▁Geor -10736
▁GM -10737
▁나인 -10738
▁문고 -10739
▁소말 -10740
▁제물 -10741
▁미네소 -10742
▁안테나 -10743
▁유격수 -10744
▁플라톤 -10745
▁1876 -10746
▁신종 -10747
▁지쿠 -10748
▁미주리 -10749
로우 -10750
▁리히 -10751
▁전단 -10752
▁최진 -10753
▁파손 -10754
▁대각 -10755
▁말년 -10756
▁사방 -10757
▁실권 -10758
▁전무 -10759
▁페로 -10760
▁셜 -10761
▁부각 -10762
▁소울 -10763
▁가락 -10764
▁어류 -10765
▁영유 -10766
브리아 -10767
▁에디션 -10768
▁알래스카 -10769
▁당내 -10770
▁마에 -10771
▁송신 -10772
▁수년 -10773
▁워치 -10774
▁접해 -10775
▁커플 -10776
▁쾰른 -10777
▁화약 -10778
테리아 -10779
▁마닐라 -10780
▁보낸다 -10781
▁지지율 -10782
▁마다가스카르 -10783
원장 -10784
▁하비 -10785
▁서대문 -10786
▁NASA -10787
▁only -10788
원수 -10789
지기 -10790
▁국공 -10791
▁본성 -10792
▁창문 -10793
▁내무부 -10794
▁는다면 -10795
▁해밀턴 -10796
▁헤르체고비나 -10797
air -10798
▁넷째 -10799
▁막시 -10800
▁밀러 -10801
▁배속 -10802
▁숙주 -10803
▁재활 -10804
▁치루 -10805
▁호의 -10806
▁Eng -10807
▁초신성 -10808
그레 -10809
충류 -10810
▁성별 -10811
▁파도 -10812
▁마르코 -10813
▁샀 -10814
ave -10815
ull -10816
▁글래 -10817
▁루카 -10818
▁불변 -10819
▁카바 -10820
▁트릭 -10821
▁평창 -10822
ited -10823
▁ABC -10824
▁ATP -10825
▁건전 -10826
▁마니 -10827
▁섹스 -10828
▁적군 -10829
▁통역 -10830
▁시달리 -10831
▁어려웠 -10832
▁켈리 -10833
▁하반 -10834
▁선거법 -10835
▁Charl -10836
미즈 -10837
사와 -10838
ara -10839
▁EM -10840
▁독창 -10841
▁동로 -10842
▁신지 -10843
▁이남 -10844
▁종말 -10845
바이트 -10846
▁Mic -10847
▁아키타 -10848
▁고쳤 -10849
▁요지 -10850
▁찬양 -10851
▁리조트 -10852
ection -10853
▁Of -10854
▁막스 -10855
▁반하 -10856
▁이의 -10857
▁테라 -10858
▁피치 -10859
▁황소 -10860
▁안토니 -10861
거래 -10862
쓰마 -10863
천동 -10864
▁구실 -10865
▁권장 -10866
▁능선 -10867
▁이치현 -10868
▁고속버스 -10869
토랑 -10870
▁나우 -10871
▁들이 -10872
▁중퇴 -10873
▁처하 -10874
▁호리 -10875
▁레스토랑 -10876
me -10877
방울 -10878
▁묘비 -10879
▁수심 -10880
▁전래 -10881
▁평형 -10882
십자 -10883
ris -10884
ven -10885
▁백신 -10886
▁샌디 -10887
▁프렌 -10888
▁Wal -10889
▁알프스 -10890
ael -10891
▁리본 -10892
▁맥락 -10893
▁소극 -10894
▁역도 -10895
▁재난 -10896
▁카즈 -10897
▁호크 -10898
▁des -10899
▁Open -10900
▁실존 -10901
▁예약 -10902
▁버클리 -10903
▁오리온 -10904
▁미야자키 -10905
▁얕 -10906
▁미친 -10907
▁실록 -10908
▁이렇 -10909
▁정반 -10910
▁태권 -10911
▁모리스 -10912
▁화강암 -10913
▁효자 -10914
▁제조업 -10915
▁메뉴 -10916
▁유희 -10917
▁종자 -10918
▁정부군 -10919
▁찾아내 -10920
▁볼셰비키 -10921
대교 -10922
ony -10923
▁At -10924
▁냐는 -10925
▁방콕 -10926
▁세바 -10927
▁사카이 -10928
▁Life -10929
포터 -10930
▁극락 -10931
▁Nor -10932
▁아키라 -10933
▁엘리트 -10934
▁프랭클린 -10935
으로 -10936
▁김명 -10937
▁남산 -10938
▁수복 -10939
▁수필 -10940
▁실정 -10941
▁왕권 -10942
▁원통 -10943
▁죽인 -10944
▁펜싱 -10945
▁광복군 -10946
▁라이너 -10947
▁알파벳 -10948
▁용인시 -10949
▁구스 -10950
▁농경 -10951
▁예종 -10952
▁의결 -10953
▁제위 -10954
ille -10955
▁비밀리 -10956
▁여의도 -10957
ision -10958
▁무과 -10959
▁성령 -10960
▁소음 -10961
▁힘썼 -10962
inal -10963
▁내려졌 -10964
▁목요일 -10965
▁법원장 -10966
▁예선전 -10967
▁유아기 -10968
▁주차장 -10969
▁1872 -10970
▁ac -10971
▁강령 -10972
▁구청 -10973
▁라서 -10974
▁걸린 -10975
▁남군 -10976
▁당연 -10977
▁사민 -10978
▁색소 -10979
▁타스 -10980
테이너 -10981
▁소피아 -10982
▁예컨대 -10983
▁1865 -10984
▁어시스트 -10985
▁툰 -10986
다운 -10987
버리 -10988
▁마술 -10989
▁서임 -10990
▁수로 -10991
▁210 -10992
▁크레이 -10993
렉션 -10994
▁동진 -10995
▁안녕 -10996
▁알프레 -10997
▁1873 -10998
▁가나가와현 -10999
나드 -11000
▁RS -11001
▁돌보 -11002
▁리비 -11003
▁위생 -11004
마리 -11005
▁담보 -11006
▁럭비 -11007
▁불량 -11008
▁스로 -11009
▁Sci -11010
▁효고현 -11011
루냐 -11012
▁그랜 -11013
▁산성 -11014
▁시애 -11015
▁야드 -11016
ensis -11017
yd -11018
지르 -11019
▁리터 -11020
▁마야 -11021
▁참사 -11022
▁함양 -11023
▁방글라 -11024
▁파이터 -11025
▁방글라데시 -11026
▁앗 -11027
해튼 -11028
any -11029
▁by -11030
▁비뉴 -11031
▁아날 -11032
▁앵글 -11033
▁제너 -11034
▁동유럽 -11035
▁스카우트 -11036
▁일으킨다 -11037
자루 -11038
통일 -11039
▁도둑 -11040
▁사서 -11041
파니아 -11042
▁친위대 -11043
▁Star -11044
▁산요 -11045
▁이양 -11046
▁왕세자 -11047
▁인프라 -11048
▁크라이 -11049
ux -11050
▁떡 -11051
부로 -11052
▁나트륨 -11053
▁말미암 -11054
▁무스 -11055
▁열강 -11056
▁치과 -11057
▁퍼스 -11058
▁뛰어났 -11059
▁브레이크 -11060
CAF -11061
▁리보 -11062
▁자명 -11063
▁줄리 -11064
▁퍼포 -11065
▁Girl -11066
▁후지와라노 -11067
DA -11068
바흐 -11069
▁대좌 -11070
▁증인 -11071
▁마천루 -11072
▁1878 -11073
▁타이거스 -11074
include -11075
▁오미 -11076
▁청룡 -11077
▁포식 -11078
▁API -11079
▁잡아먹 -11080
▁애틀랜타 -11081
▁퍼포먼스 -11082
▁싣 -11083
▁전담 -11084
iver -11085
▁비타민 -11086
▁시애틀 -11087
▁교실 -11088
▁잇따 -11089
▁MTV -11090
▁스트라이커 -11091
▁공양 -11092
▁니혼 -11093
▁반포 -11094
▁사림 -11095
▁시부 -11096
▁패럴 -11097
▁포털 -11098
▁하타 -11099
휴일 -11100
▁Kn -11101
▁가솔 -11102
▁개헌 -11103
▁거미 -11104
▁대영 -11105
▁사설 -11106
▁샌드 -11107
▁어쩔 -11108
▁화기 -11109
▁AKB -11110
▁지상파 -11111
▁앰 -11112
▁유목 -11113
▁이겨 -11114
▁한신 -11115
▁향했 -11116
▁똑같이 -11117
▁프랑스인 -11118
미스 -11119
▁노랑 -11120
▁러스 -11121
▁마차 -11122
▁삼림 -11123
▁드디어 -11124
▁백과 -11125
▁주심 -11126
▁침묵 -11127
▁도널드 -11128
사고 -11129
▁산시 -11130
▁매거진 -11131
▁에스페 -11132
▁역사가 -11133
들여 -11134
▁TR -11135
▁감찰 -11136
▁별세 -11137
▁유혹 -11138
▁평평 -11139
▁모터스 -11140
▁자치주 -11141
UR -11142
▁김광 -11143
▁형질 -11144
공산당 -11145
▁쓰여진 -11146
▁지배자 -11147
▁가면라이더 -11148
▁쉴 -11149
망디 -11150
어사 -11151
유예 -11152
▁마땅 -11153
▁시노 -11154
▁이븐 -11155
▁채취 -11156
▁1867 -11157
▁대승불교 -11158
▁섀 -11159
▁노면 -11160
▁모호 -11161
▁벤처 -11162
▁씨앗 -11163
▁1850 -11164
정원 -11165
▁". -11166
▁대법관 -11167
놀이 -11168
▁몽고 -11169
▁어긋나 -11170
▁우즈베키스탄 -11171
ena -11172
▁다나카 -11173
▁사라진 -11174
▁프레이 -11175
EE -11176
여객 -11177
정동 -11178
▁Er -11179
▁as -11180
▁반기 -11181
▁병자 -11182
▁스텝 -11183
▁슬하 -11184
▁처지 -11185
▁커서 -11186
마르크 -11187
▁교통부 -11188
▁나타냈 -11189
▁겹쳐 -11190
▁구두 -11191
▁약사 -11192
▁양육 -11193
▁아이스하키 -11194
풀이 -11195
▁후배 -11196
페스트 -11197
▁Sec -11198
▁흐른다 -11199
▁결별 -11200
▁유식 -11201
▁차출 -11202
▁추리 -11203
▁퇴직 -11204
▁늙 -11205
매매 -11206
▁금호 -11207
▁순종 -11208
▁정에 -11209
▁종군 -11210
▁테일 -11211
메스 -11212
▁GB -11213
▁볼로 -11214
▁취했 -11215
▁예수회 -11216
▁해상도 -11217
▁http -11218
mun -11219
▁대북 -11220
▁숙부 -11221
▁욕망 -11222
▁절벽 -11223
▁중엽 -11224
▁평지 -11225
▁생긴다 -11226
▁포도당 -11227
덴부르크 -11228
▁1869 -11229
IR -11230
수소 -11231
▁분파 -11232
▁개구리 -11233
▁스트로 -11234
▁원산지 -11235
▁무형 -11236
▁비정 -11237
▁어군 -11238
▁위그 -11239
▁전전 -11240
▁총통 -11241
▁항만 -11242
▁330 -11243
▁Alb -11244
▁기관지 -11245
▁열심히 -11246
▁멍 -11247
▁가늘 -11248
▁경호 -11249
▁오지 -11250
▁유서 -11251
▁종영 -11252
▁카니 -11253
▁요제프 -11254
▁사이타마 -11255
러지 -11256
▁루비 -11257
▁몸통 -11258
▁점포 -11259
▁지붕돌 -11260
코토 -11261
▁생선 -11262
▁정형 -11263
▁제리 -11264
도르프 -11265
▁경주시 -11266
▁클라크 -11267
려서 -11268
▁벌여 -11269
▁에밀 -11270
▁유공 -11271
▁이방 -11272
OP -11273
▁도교 -11274
▁송출 -11275
▁쌍대 -11276
▁유선 -11277
▁제퍼슨 -11278
▁캐서린 -11279
지부 -11280
▁김형 -11281
▁세븐 -11282
▁그래도 -11283
▁농산물 -11284
▁미야기 -11285
▁선구자 -11286
▁Live -11287
질러 -11288
▁걸어 -11289
▁공휴일 -11290
▁졌으나 -11291
▁인디애나 -11292
▁콘테스트 -11293
LA -11294
▁ab -11295
▁한림 -11296
▁생존자 -11297
▁프랑스령 -11298
ype -11299
▁갈아 -11300
▁국유 -11301
▁바디 -11302
▁수락 -11303
▁중공 -11304
▁톈진 -11305
▁MHz -11306
▁스칼라 -11307
▁패러디 -11308
▁시즈오카 -11309
OT -11310
▁적외선 -11311
▁프란치 -11312
gu -11313
▁김준 -11314
▁요충 -11315
▁제로 -11316
▁맨해튼 -11317
▁헬리콥터 -11318
삭스 -11319
캐슬 -11320
환경 -11321
▁CG -11322
▁im -11323
▁공성 -11324
▁김인 -11325
▁다윈 -11326
▁사쿠 -11327
▁어찌 -11328
▁의류 -11329
▁주입 -11330
▁요시다 -11331
▁도카이도 -11332
▁오클랜드 -11333
▁프로그래머 -11334
▁공천 -11335
▁IOC -11336
▁비추 -11337
▁선대 -11338
▁자란 -11339
▁탄약 -11340
▁티코 -11341
raph -11342
▁Vol -11343
▁자유민주당 -11344
▁댓 -11345
워서 -11346
카리 -11347
▁내걸 -11348
▁선봉 -11349
▁신발 -11350
▁아쿠 -11351
▁연말 -11352
▁천국 -11353
▁카터 -11354
▁나타낸 -11355
▁발라드 -11356
▁제우스 -11357
▁하노버 -11358
LE -11359
▁검거 -11360
▁구니 -11361
▁남용 -11362
▁선천 -11363
▁와라 -11364
▁칼뱅 -11365
클리드 -11366
▁기숙사 -11367
▁편집자 -11368
▁계주 -11369
▁공존 -11370
▁단군 -11371
▁연희 -11372
▁클러 -11373
▁포토 -11374
▁1862 -11375
파이 -11376
▁강해 -11377
▁교의 -11378
▁러서 -11379
▁카지 -11380
▁펌프 -11381
▁해독 -11382
▁가져온 -11383
▁솔로몬 -11384
▁케이프 -11385
▁아름다움 -11386
▁David -11387
▁글러 -11388
▁다테 -11389
▁볼프 -11390
▁우의정 -11391
▁좌의정 -11392
▁야마가타 -11393
▁간략 -11394
▁간첩 -11395
▁감상 -11396
▁공영 -11397
▁습윤 -11398
▁연정 -11399
▁이언 -11400
▁320 -11401
▁GDP -11402
▁OST -11403
▁TBS -11404
ative -11405
라고 -11406
eck -11407
▁Do -11408
▁강렬 -11409
▁병마 -11410
▁del -11411
▁뉴캐슬 -11412
▁가타 -11413
▁양심 -11414
▁토리노 -11415
▁Club -11416
▁깜 -11417
융합 -11418
쩌둥 -11419
▁꼽히 -11420
▁다듬 -11421
▁로크 -11422
▁모금 -11423
▁블레 -11424
▁마오쩌둥 -11425
▁섰 -11426
▁타지 -11427
▁휩쓸 -11428
▁가솔린 -11429
▁방어선 -11430
▁튀니지 -11431
▁Good -11432
워하 -11433
▁릴리 -11434
▁백두 -11435
▁브룩 -11436
▁안개 -11437
▁앙골 -11438
▁유생 -11439
▁징수 -11440
▁찬사 -11441
▁부드럽 -11442
▁전염병 -11443
ations -11444
▁쿡 -11445
▁넘치 -11446
▁단말 -11447
▁속력 -11448
▁포착 -11449
▁황색 -11450
▁아나톨 -11451
▁핵융합 -11452
CD -11453
▁로이 -11454
▁루크 -11455
▁부평 -11456
▁학력 -11457
▁형벌 -11458
▁시켜야 -11459
aster -11460
▁프란체스코 -11461
▁벅 -11462
▁귀신 -11463
▁기량 -11464
▁정월 -11465
▁져서 -11466
▁천수 -11467
▁카피 -11468
▁항우 -11469
▁바그너 -11470
▁시트콤 -11471
15 -11472
티시 -11473
rag -11474
▁봉인 -11475
▁불참 -11476
▁송파 -11477
▁중합 -11478
▁현도 -11479
▁대단히 -11480
▁부총리 -11481
▁시멘트 -11482
▁나카무라 -11483
▁DF -11484
▁경복 -11485
▁위로 -11486
▁파벌 -11487
▁하구 -11488
▁마켓 -11489
▁암스 -11490
▁음절 -11491
▁해리슨 -11492
관계 -11493
▁그저 -11494
▁문집 -11495
▁바꿨 -11496
▁수식 -11497
▁최영 -11498
▁치환 -11499
▁하키 -11500
▁방사능 -11501
▁올라갔 -11502
▁주계열 -11503
히트 -11504
▁국수 -11505
▁느린 -11506
▁다치 -11507
▁바쳤 -11508
▁볼트 -11509
▁사천 -11510
▁시안 -11511
▁정몽 -11512
▁드미 -11513
▁북군 -11514
위원회 -11515
▁여배우 -11516
▁모색 -11517
▁바꿀 -11518
▁시속 -11519
▁진한 -11520
▁서태 -11521
▁아데 -11522
▁잠정 -11523
▁동시대 -11524
ook -11525
▁나아 -11526
▁비준 -11527
▁합치 -11528
네그로 -11529
▁마르크스주의 -11530
대사 -11531
▁도래 -11532
▁르노 -11533
▁문무 -11534
▁야전 -11535
▁칙령 -11536
▁켈트 -11537
▁고인돌 -11538
▁김옥균 -11539
▁루돌프 -11540
말로 -11541
▁박성 -11542
▁적료 -11543
▁정치학 -11544
▁제갈량 -11545
▁스리랑카 -11546
협회 -11547
화문 -11548
▁ML -11549
▁급여 -11550
▁메카 -11551
▁한큐 -11552
▁드러냈 -11553
▁오바마 -11554
▁감성 -11555
▁마가 -11556
▁방치 -11557
▁부다 -11558
▁케르 -11559
▁280 -11560
▁시켜서 -11561
▁1830 -11562
▁Tour -11563
▁싼 -11564
케이 -11565
현동 -11566
▁거란 -11567
▁시리 -11568
▁위스 -11569
▁대리인 -11570
▁정보원 -11571
▁Your -11572
변이 -11573
eae -11574
▁매트 -11575
▁무네 -11576
▁신곡 -11577
▁총기 -11578
▁장학금 -11579
▁Wind -11580
▁돌연변이 -11581
▁피아니스트 -11582
▁고생 -11583
▁근사 -11584
▁블로 -11585
▁여유 -11586
▁이모 -11587
▁이뤄졌 -11588
▁끼치 -11589
▁머스 -11590
▁정작 -11591
스탄불 -11592
▁ref -11593
▁뛰어들 -11594
▁이스탄불 -11595
▁엥 -11596
어내 -11597
▁재해 -11598
span -11599
▁EBS -11600
▁김정은 -11601
▁공무 -11602
▁남방 -11603
▁모욕 -11604
▁부왕 -11605
▁용액 -11606
▁일괄 -11607
▁자서 -11608
▁다저스 -11609
▁대표자 -11610
▁메디치 -11611
▁James -11612
▁모하 -11613
▁온난 -11614
▁전보 -11615
펜하겐 -11616
▁가이드 -11617
▁마스크 -11618
▁컨트롤러 -11619
▁코펜하겐 -11620
▁멧 -11621
erg -11622
▁NS -11623
▁간사 -11624
▁나간 -11625
▁봉화 -11626
▁서면 -11627
▁이회 -11628
▁전반기 -11629
▁카메룬 -11630
▁피라미 -11631
▁Cont -11632
▁u -11633
▁관목 -11634
▁극우 -11635
▁부름 -11636
▁준장 -11637
▁현황 -11638
▁로렌스 -11639
▁연구회 -11640
▁저지대 -11641
▁Up -11642
▁결핍 -11643
▁관우 -11644
▁임정 -11645
▁제노 -11646
▁토트 -11647
브로 -11648
지능 -11649
▁리옹 -11650
▁성폭 -11651
▁지극 -11652
▁간신히 -11653
▁인공지능 -11654
▁} -11655
▁공소 -11656
▁너머 -11657
▁모세 -11658
▁재편 -11659
▁족보 -11660
▁푸르 -11661
ions -11662
vent -11663
▁두려움 -11664
▁서초구 -11665
▁아날로그 -11666
대표 -11667
프로 -11668
▁국교 -11669
▁수위 -11670
▁응급 -11671
▁특화 -11672
호란 -11673
▁강당 -11674
▁내성 -11675
▁배트 -11676
▁위조 -11677
▁걸쳐서 -11678
▁놀라운 -11679
▁마법사 -11680
▁체인지 -11681
▁쳐들어 -11682
▁통신사 -11683
▁타이베이 -11684
▁거성 -11685
▁격추 -11686
▁보름 -11687
▁선양 -11688
▁수다 -11689
▁슬픔 -11690
▁퍼스트 -11691
▁히브리 -11692
▁라기 -11693
▁문단 -11694
▁발상 -11695
▁애정 -11696
▁제명 -11697
▁카테 -11698
▁달아났 -11699
▁레이트 -11700
▁지닌다 -11701
▁가혹 -11702
▁러일 -11703
▁로페 -11704
▁위력 -11705
▁노르망디 -11706
▁GT -11707
▁랭크 -11708
▁리베 -11709
▁청자 -11710
▁하코 -11711
▁함량 -11712
▁Des -11713
▁대나무 -11714
▁판소리 -11715
▁각성 -11716
▁피지 -11717
▁글로브 -11718
▁메이커 -11719
▁신세계 -11720
▁헛 -11721
uth -11722
▁명소 -11723
▁선명 -11724
▁았었 -11725
▁1875 -11726
▁유클리드 -11727
co -11728
▁군데 -11729
▁마애 -11730
▁재일 -11731
▁절정 -11732
▁폭파 -11733
▁해저 -11734
버러 -11735
용차 -11736
ery -11737
▁가맹 -11738
▁방대 -11739
▁산호 -11740
▁연립 -11741
▁영정 -11742
▁빅토르 -11743
▁혀 -11744
수스 -11745
ors -11746
▁스태 -11747
▁우산 -11748
▁다이어 -11749
▁명확히 -11750
▁헤이안 -11751
▁에스페란토 -11752
▁찔 -11753
▁모범 -11754
▁비야 -11755
▁쿼크 -11756
느러미 -11757
프랑크 -11758
▁230 -11759
▁단속 -11760
▁소중 -11761
▁아메 -11762
▁약해 -11763
▁콜레 -11764
▁후예 -11765
▁Cal -11766
▁단결 -11767
▁새긴 -11768
▁자수 -11769
▁저우 -11770
▁하시 -11771
▁AB -11772
▁국철 -11773
▁기세 -11774
▁양수 -11775
▁웨인 -11776
▁접한 -11777
▁출자 -11778
블랜드 -11779
▁각본가 -11780
▁동산 -11781
▁바트 -11782
▁요격 -11783
▁위촉 -11784
▁이점 -11785
▁제단 -11786
▁평판 -11787
▁신주쿠 -11788
▁앤드루 -11789
▁유권자 -11790
CACAF -11791
▁컨테이너 -11792
▁CONCACAF -11793
라니 -11794
위안 -11795
▁결사 -11796
▁직속 -11797
네이루 -11798
▁밴쿠버 -11799
▁와이번스 -11800
▁클리블랜드 -11801
14 -11802
AI -11803
관리 -11804
▁사학 -11805
▁서귀 -11806
▁실증 -11807
▁양대 -11808
▁여권 -11809
▁티아 -11810
▁플리 -11811
▁비서관 -11812
▁실험실 -11813
▁튀르크 -11814
▁Night -11815
들이 -11816
▁금산 -11817
▁뒤이 -11818
▁브랜 -11819
▁주성 -11820
▁허드 -11821
▁레이싱 -11822
▁윗부분 -11823
▁고의 -11824
▁글꼴 -11825
▁세련 -11826
▁이북 -11827
▁절망 -11828
▁국제법 -11829
▁이뤄지 -11830
▁촛 -11831
▁재래 -11832
▁지자 -11833
▁치른 -11834
▁관례 -11835
▁대청 -11836
▁소프 -11837
▁정정 -11838
▁준수 -11839
▁호스 -11840
▁클린턴 -11841
▁4000 -11842
게임 -11843
▁김윤 -11844
▁받들 -11845
▁사영 -11846
▁성곽 -11847
▁야외 -11848
▁Pre -11849
▁페트로 -11850
▁Ke -11851
▁대마 -11852
▁비엔 -11853
▁일각 -11854
▁타락 -11855
▁관현악단 -11856
▁덮개 -11857
▁미수 -11858
▁초콜 -11859
▁파란 -11860
▁호아 -11861
work -11862
▁너무나 -11863
▁부르고 -11864
▁아이폰 -11865
▁흩어져 -11866
▁Thom -11867
포시 -11868
▁가네 -11869
▁고로 -11870
▁관상 -11871
▁부파 -11872
▁부합 -11873
▁절감 -11874
▁타수 -11875
▁학장 -11876
▁국제선 -11877
▁함경북도 -11878
▁결핵 -11879
▁녹화 -11880
▁드루 -11881
▁몬테네그로 -11882
oo -11883
▁관악 -11884
▁신입 -11885
▁염려 -11886
▁화랑 -11887
▁북조선 -11888
▁Mich -11889
▁욱 -11890
본부 -11891
▁관행 -11892
▁누렸 -11893
▁석불 -11894
▁앞선 -11895
▁옮긴 -11896
▁Red -11897
▁달라지 -11898
▁리프트 -11899
▁보수주의 -11900
▁onlyinclude -11901
직경 -11902
▁낙동강 -11903
▁무실점 -11904
▁시직경 -11905
▁Park -11906
▁매끄러운 -11907
▁즘 -11908
등식 -11909
바나 -11910
팡이 -11911
▁범행 -11912
▁압록 -11913
▁유우 -11914
▁조교 -11915
▁진로 -11916
▁치뤘 -11917
▁Act -11918
▁동맹군 -11919
▁엣 -11920
돌이 -11921
틀리 -11922
▁고든 -11923
▁비토 -11924
▁익숙 -11925
▁타이어 -11926
▁1874 -11927
▁조제 -11928
▁주선 -11929
▁집정 -11930
▁서기관 -11931
▁시간대 -11932
▁알아보 -11933
▁프랜시스 -11934
나오 -11935
ray -11936
▁명인 -11937
▁모어 -11938
▁상록 -11939
▁주창 -11940
▁토시 -11941
▁클레이 -11942
▁노사 -11943
▁등등 -11944
▁요절 -11945
▁차선 -11946
▁타로 -11947
▁톱니 -11948
▁1200 -11949
나갔 -11950
▁낙양 -11951
상시 -11952
▁승지 -11953
▁치카 -11954
▁파랑 -11955
▁가브리 -11956
▁마이크로 -11957
▁Po -11958
▁경위 -11959
▁류큐 -11960
▁빙하 -11961
▁시몬 -11962
▁한문 -11963
▁투자자 -11964
▁부르고뉴 -11965
다르 -11966
▁세습 -11967
▁스런 -11968
▁정령 -11969
za -11970
웍스 -11971
▁가토 -11972
▁불경 -11973
▁사수 -11974
▁스칸 -11975
cess -11976
▁고려대 -11977
▁사간원 -11978
▁우루스 -11979
제이 -11980
urg -11981
▁교직 -11982
▁로비 -11983
▁외치 -11984
▁우림 -11985
▁해왕 -11986
▁해치 -11987
▁비해서 -11988
▁피라미드 -11989
▁사운드트랙 -11990
▁훙 -11991
메니 -11992
에미 -11993
▁고딕 -11994
▁국한 -11995
▁꾀하 -11996
▁양보 -11997
▁업자 -11998
▁이황 -11999
▁테리 -12000
▁LED -12001
▁영원히 -12002
▁평안도 -12003
▁Paul -12004
be -12005
iew -12006
▁외래 -12007
▁잠깐 -12008
▁국정원 -12009
▁사단장 -12010
▁텔레콤 -12011
▁파일럿 -12012
▁JTBC -12013
▁캅 -12014
▁법관 -12015
▁급속히 -12016
▁Instit -12017
AE -12018
▁숀 -12019
서스 -12020
애미 -12021
창호 -12022
▁거지 -12023
▁번창 -12024
▁성악 -12025
▁천마 -12026
▁친족 -12027
▁쿠퍼 -12028
▁하남 -12029
▁생겨난 -12030
▁마이애미 -12031
▁쾨 -12032
▁거세 -12033
▁미셸 -12034
▁형편 -12035
▁고려사 -12036
▁ad -12037
▁국외 -12038
▁규탄 -12039
▁목회 -12040
▁외형 -12041
▁요법 -12042
▁이반 -12043
▁지오 -12044
▁흡사 -12045
▁앤더슨 -12046
▁황해도 -12047
▁램프 -12048
▁보루 -12049
▁이송 -12050
▁SNS -12051
GM -12052
도라 -12053
net -12054
▁꿈꾸 -12055
▁식스 -12056
▁악보 -12057
▁함흥 -12058
메이카 -12059
▁어울리 -12060
▁호스트 -12061
▁자메이카 -12062
▁카탈루냐 -12063
▁뫼 -12064
▁챙 -12065
▁대차 -12066
▁었었 -12067
▁인칭 -12068
▁종양 -12069
▁Air -12070
▁관계없이 -12071
▁오카야마 -12072
▁네이션스컵 -12073
▁건륭 -12074
▁느낄 -12075
▁삽화 -12076
▁이범 -12077
▁증오 -12078
타이드 -12079
▁시네마 -12080
▁유학자 -12081
▁찢 -12082
교통 -12083
북구 -12084
시노 -12085
▁남하 -12086
▁동적 -12087
▁무안 -12088
▁스킬 -12089
▁작물 -12090
▁최선 -12091
▁발전기 -12092
ublic -12093
나마 -12094
치히 -12095
▁삼존 -12096
▁정거 -12097
▁증폭 -12098
▁연장전 -12099
▁디비시온 -12100
▁러시아군 -12101
ze -12102
▁AL -12103
▁공안 -12104
▁내무 -12105
▁매킨 -12106
▁재팬 -12107
▁전세 -12108
▁큐브 -12109
▁탄자 -12110
▁마이어 -12111
▁1840 -12112
▁그라운드 -12113
그마 -12114
지아 -12115
amm -12116
▁SV -12117
▁높여 -12118
▁단정 -12119
▁랴오 -12120
▁리즈 -12121
▁전수 -12122
▁내세우 -12123
▁대공국 -12124
▁접어들 -12125
▁Dream -12126
센스 -12127
▁콘솔 -12128
▁교향악단 -12129
▁유니버설 -12130
▁American -12131
단위 -12132
의사 -12133
▁wh -12134
▁로저 -12135
▁여도 -12136
▁혼다 -12137
atch -12138
▁로마자 -12139
erson -12140
▁몹 -12141
제품 -12142
합성 -12143
▁군벌 -12144
▁매리 -12145
▁아소 -12146
▁엔드 -12147
▁일진 -12148
하이오 -12149
▁가져다 -12150
▁절도사 -12151
▁오하이오 -12152
▁기와 -12153
▁서산 -12154
▁안무 -12155
▁260 -12156
▁Inc -12157
▁프레데 -12158
▁곶 -12159
▁교부 -12160
▁대덕 -12161
▁맡기 -12162
▁복위 -12163
▁Mor -12164
▁사쓰마 -12165
▁산스크 -12166
▁산스크리트 -12167
▁후쿠오카현 -12168
▁colspan -12169
▁온화 -12170
▁조슈 -12171
▁한미 -12172
▁파시즘 -12173
▁Associ -12174
티넘 -12175
▁굴절 -12176
▁몰타 -12177
▁박상 -12178
▁버터 -12179
▁요양 -12180
▁운임 -12181
▁저조 -12182
▁절제 -12183
▁천천 -12184
▁캐롤 -12185
▁왔으나 -12186
▁1877 -12187
▁가와사키 -12188
▁플래티넘 -12189
▁SO -12190
▁달랐 -12191
▁스루 -12192
▁시문 -12193
▁시크 -12194
▁학대 -12195
▁볼로냐 -12196
▁순양함 -12197
▁파푸아 -12198
▁코스타리카 -12199
▁고흥 -12200
▁구치 -12201
▁발동 -12202
▁컨설 -12203
▁헬레 -12204
▁바이킹 -12205
▁브레이 -12206
ows -12207
▁맞춤 -12208
▁베트 -12209
▁이항 -12210
▁피우 -12211
▁아이즈 -12212
▁Super -12213
▁사회민주당 -12214
연수 -12215
▁금전 -12216
▁내일 -12217
▁다우 -12218
▁유영 -12219
▁조영 -12220
▁직행 -12221
▁해태 -12222
미디어 -12223
클레 -12224
▁부교 -12225
▁사안 -12226
▁위패 -12227
▁위함 -12228
▁트렌 -12229
▁난이도 -12230
▁스테파 -12231
▁앙골라 -12232
▁로키 -12233
▁여사 -12234
▁으리 -12235
▁피핀 -12236
▁아무것 -12237
▁천천히 -12238
OW -12239
네임 -12240
▁동포 -12241
▁맞춘 -12242
▁오만 -12243
▁장녀 -12244
▁차츰 -12245
▁치유 -12246
▁하급 -12247
▁게시판 -12248
▁메릴랜드 -12249
▁대종 -12250
▁빅뱅 -12251
▁교육자 -12252
▁알렉스 -12253
부르 -12254
▁객차 -12255
▁리사 -12256
▁편견 -12257
르타뉴 -12258
▁논리학 -12259
▁동물원 -12260
▁프로모 -12261
▁브르타뉴 -12262
▁생모 -12263
▁종신 -12264
▁카네 -12265
▁하류 -12266
▁서해안 -12267
꼬리 -12268
▁배역 -12269
▁분단 -12270
▁스킴 -12271
▁직계 -12272
▁청계 -12273
▁부상자 -12274
해살이풀 -12275
▁암스테르담 -12276
▁줌 -12277
▁선인 -12278
▁추계 -12279
▁카세 -12280
레스트 -12281
▁270 -12282
▁교구장 -12283
▁주니치 -12284
▁해운대 -12285
▁Euro -12286
버른 -12287
▁관성 -12288
▁농지 -12289
▁당할 -12290
▁모던 -12291
▁무서 -12292
▁장병 -12293
▁초전 -12294
▁추서 -12295
▁한중 -12296
▁강화도 -12297
▁수요일 -12298
▁조선왕 -12299
▁맷 -12300
▁UC -12301
▁강행 -12302
▁고노 -12303
▁골격 -12304
▁놓인 -12305
▁양력 -12306
▁청량 -12307
▁쿠니 -12308
소통 -12309
▁네티 -12310
▁워커 -12311
▁점검 -12312
▁지르 -12313
▁추억 -12314
▁코소 -12315
▁격투기 -12316
▁결과물 -12317
▁도르트 -12318
▁comp -12319
DS -12320
▁고집 -12321
▁구한 -12322
▁대의 -12323
▁라디 -12324
▁심부 -12325
▁정했 -12326
▁특사 -12327
▁피할 -12328
▁축구팀 -12329
▁도라에몽 -12330
▁우에스기 -12331
▁College -12332
▁놈 -12333
▁쪼 -12334
▁츄 -12335
세유 -12336
▁도박 -12337
▁로리 -12338
▁베어 -12339
▁벨리 -12340
▁설문 -12341
▁충무 -12342
▁태후 -12343
▁마누엘 -12344
▁일본국 -12345
▁장로교 -12346
▁휴게소 -12347
▁스트라이크 -12348
타리 -12349
ety -12350
ney -12351
▁MA -12352
▁배달 -12353
▁분사 -12354
▁칭송 -12355
▁칸국 -12356
▁파직 -12357
▁항로 -12358
▁회귀 -12359
▁라파엘 -12360
▁아라곤 -12361
▁의사소통 -12362
트르 -12363
▁동향 -12364
▁어의 -12365
▁유족 -12366
▁자진 -12367
▁떠오르 -12368
▁서사시 -12369
▁천안시 -12370
▁해안선 -12371
▁녕 -12372
▁스가 -12373
▁원상 -12374
▁제창 -12375
▁취한 -12376
▁카스티야 -12377
내리 -12378
▁능동 -12379
▁대주 -12380
▁로트 -12381
▁마테 -12382
▁순차 -12383
▁Award -12384
oot -12385
▁간혹 -12386
▁새우 -12387
▁Rev -12388
▁요충지 -12389
▁고트 -12390
▁노후 -12391
▁아유 -12392
▁연회 -12393
▁점거 -12394
▁정재 -12395
▁간사이 -12396
▁행정동 -12397
▁상관없이 -12398
▁재단법인 -12399
▁굶 -12400
히사 -12401
ody -12402
▁소외 -12403
▁소용 -12404
▁안드 -12405
▁워즈 -12406
▁전학 -12407
▁짐승 -12408
▁창구 -12409
▁코네 -12410
▁키워 -12411
▁이바지 -12412
▁괌 -12413
피언 -12414
▁AU -12415
▁it -12416
▁가중 -12417
▁가쿠 -12418
▁사치 -12419
▁출동 -12420
▁Bre -12421
▁브루스 -12422
▁위안부 -12423
▁King -12424
ha -12425
광성 -12426
▁무작 -12427
▁피리 -12428
▁휴양 -12429
▁Met -12430
yr -12431
로쿠 -12432
por -12433
▁tr -12434
▁라르 -12435
▁숨기 -12436
▁철강 -12437
▁초안 -12438
▁축성 -12439
▁특기 -12440
▁Val -12441
▁가라앉 -12442
▁녹색당 -12443
▁북유럽 -12444
▁미스터리 -12445
유사 -12446
▁가했 -12447
▁기뻐 -12448
른스트 -12449
토리코 -12450
illa -12451
▁경영학 -12452
▁레이크 -12453
▁프린스턴 -12454
18 -12455
칼리 -12456
▁MM -12457
▁김승 -12458
▁막판 -12459
▁표정 -12460
▁다이쇼 -12461
▁좌표계 -12462
▁화장품 -12463
17 -12464
UN -12465
걸이 -12466
▁끝날 -12467
▁모라 -12468
▁스콜 -12469
▁아목 -12470
▁외과 -12471
▁동맹국 -12472
▁1879 -12473
▁KB -12474
▁내분 -12475
▁리카 -12476
▁열전 -12477
▁주세 -12478
▁Ser -12479
▁멜버른 -12480
▁경도 -12481
▁메소 -12482
▁슬램 -12483
▁보살상 -12484
▁세네갈 -12485
▁수차례 -12486
▁컨텐츠 -12487
▁미나모토 -12488
QL -12489
업자 -12490
▁격차 -12491
▁묻혔 -12492
▁수열 -12493
▁정읍 -12494
▁황산 -12495
▁떠난다 -12496
▁민병대 -12497
▁올리브 -12498
▁유적지 -12499
▁홈경기 -12500
▁참모총장 -12501
▁늪 -12502
▁tv -12503
▁닉스 -12504
▁대접 -12505
▁보낼 -12506
▁완결 -12507
▁종식 -12508
▁카야 -12509
▁코호 -12510
▁타일 -12511
▁탈취 -12512
▁휘말 -12513
▁OB -12514
▁데미 -12515
▁바지 -12516
▁복종 -12517
▁성산 -12518
▁유무 -12519
▁전락 -12520
▁지면 -12521
▁통폐 -12522
▁부르주 -12523
▁영화상 -12524
▁아이디얼 -12525
▁푸에르토리코 -12526
▁애인 -12527
▁왕궁 -12528
▁우두 -12529
▁차수 -12530
▁축산 -12531
▁플러 -12532
▁204 -12533
▁Min -12534
▁경전철 -12535
▁내린다 -12536
▁자서전 -12537
▁카르타고 -12538
▁프란치스코 -12539
몬트 -12540
홍색 -12541
▁비대 -12542
▁성동 -12543
▁심문 -12544
▁양현 -12545
▁파편 -12546
▁보여준 -12547
▁사상가 -12548
▁산티아 -12549
▁이바라 -12550
▁초콜릿 -12551
▁마르세유 -12552
▁갚 -12553
데라 -12554
자동 -12555
▁Rh -12556
▁이우 -12557
▁덩어리 -12558
▁둘러싸인 -12559
IX -12560
독립 -12561
▁고온 -12562
▁마우 -12563
▁배분 -12564
▁주먹 -12565
▁채색 -12566
▁팔렸 -12567
▁카카오 -12568
▁프린스 -12569
▁필립스 -12570
히드 -12571
lin -12572
▁애초 -12573
▁잔인 -12574
▁지법 -12575
리카락 -12576
▁돌아다니 -12577
▁머리카락 -12578
프턴 -12579
▁각료 -12580
▁곡면 -12581
▁긴키 -12582
▁발목 -12583
▁상국 -12584
▁소동 -12585
▁웃음 -12586
▁유의 -12587
스트리 -12588
▁수나라 -12589
▁잃어버린 -12590
▁냥 -12591
▁귀속 -12592
▁높였 -12593
▁씨족 -12594
▁오하 -12595
▁스타트 -12596
▁지바현 -12597
▁오스트리 -12598
RT -12599
▁댈 -12600
uss -12601
▁모차 -12602
▁몸돌 -12603
▁아츠 -12604
▁월트 -12605
▁후유 -12606
▁흥분 -12607
▁GNU -12608
▁브뤼셀 -12609
우회 -12610
▁가고 -12611
▁경종 -12612
▁750 -12613
▁다스렸 -12614
▁박테리아 -12615
▁TC -12616
▁배운 -12617
▁손녀 -12618
▁원유 -12619
▁위계 -12620
▁칼슘 -12621
솔리니 -12622
▁충렬왕 -12623
짜기 -12624
▁노아 -12625
▁안방 -12626
▁총격 -12627
▁기원후 -12628
▁독립군 -12629
▁바이어 -12630
▁통폐합 -12631
에고 -12632
▁소사 -12633
▁여타 -12634
▁입시 -12635
▁자립 -12636
▁장쑤 -12637
▁할인 -12638
암리 -12639
▁게끔 -12640
▁상한 -12641
▁오아 -12642
▁주군 -12643
▁치하 -12644
▁철저히 -12645
▁1859 -12646
▁SH -12647
▁성화 -12648
▁우월 -12649
▁군사력 -12650
▁집행유예 -12651
▁Center -12652
▁@ -12653
화학 -12654
▁밸리 -12655
▁USB -12656
▁비스타 -12657
▁베네딕토 -12658
에스 -12659
▁가가 -12660
▁겹치 -12661
▁수량 -12662
▁오메 -12663
▁조롱 -12664
▁콜럼 -12665
▁퍼즐 -12666
른베르크 -12667
gan -12668
▁Tw -12669
▁기전 -12670
▁습관 -12671
▁장래 -12672
▁침례 -12673
ella -12674
▁Wii -12675
▁안티오 -12676
▁전주시 -12677
▁화요일 -12678
▁City -12679
▁컴파일러 -12680
▁그릴 -12681
▁급증 -12682
▁기이 -12683
▁대금 -12684
▁중고 -12685
▁축전 -12686
▁코리 -12687
▁대상자 -12688
▁정거장 -12689
▁지켜보 -12690
동자 -12691
셔주 -12692
익스 -12693
ula -12694
▁강성 -12695
▁경무 -12696
▁과연 -12697
▁발의 -12698
▁서스 -12699
▁우연 -12700
▁유러 -12701
▁천지 -12702
▁추이 -12703
▁케인 -12704
▁타리 -12705
▁팔작 -12706
▁트리오 -12707
▁FK -12708
▁신의 -12709
▁다이빙 -12710
▁유러피언 -12711
▁군관 -12712
▁오대 -12713
▁협연 -12714
▁Out -12715
▁라치오 -12716
▁어웨이 -12717
▁야마모토 -12718
ugh -12719
▁간직 -12720
▁계량 -12721
▁피사 -12722
▁하임 -12723
▁허블 -12724
▁호대 -12725
퍼레이션 -12726
도군 -12727
비크 -12728
▁근래 -12729
▁대인 -12730
▁미성 -12731
▁정예 -12732
▁허목 -12733
▁아무리 -12734
▁카운트 -12735
OD -12736
ura -12737
▁죽임 -12738
▁집착 -12739
▁혈압 -12740
▁달라진다 -12741
▁뇨 -12742
꿈치 -12743
우에 -12744
app -12745
▁Jo -12746
▁낚시 -12747
▁네모 -12748
▁사역 -12749
▁영덕 -12750
▁자판 -12751
▁전권 -12752
▁해피 -12753
▁환관 -12754
ates -12755
▁줄기세포 -12756
▁중소기업 -12757
EP -12758
▁콥 -12759
진우 -12760
▁밀레 -12761
▁병과 -12762
▁캐리 -12763
▁헌장 -12764
드라마 -12765
라이드 -12766
▁Lib -12767
▁꽂 -12768
거스 -12769
▁격려 -12770
▁과테 -12771
▁약점 -12772
▁용품 -12773
▁잠실 -12774
▁재차 -12775
▁취해 -12776
▁포탄 -12777
▁레오폴 -12778
▁밝혀진 -12779
▁과테말라 -12780
분열 -12781
▁광선 -12782
▁은혜 -12783
▁장전 -12784
▁헌납 -12785
오르크 -12786
웨이트 -12787
▁Mer -12788
▁지리학 -12789
지사 -12790
▁니켈 -12791
▁무수 -12792
▁본체 -12793
▁셀레 -12794
▁애완 -12795
▁어는 -12796
▁어파 -12797
▁재벌 -12798
▁705 -12799
▁App -12800
▁공화정 -12801
▁파충류 -12802
▁from -12803
수지 -12804
▁PM -12805
▁en -12806
▁대도 -12807
▁행방 -12808
로이드 -12809
▁Win -12810
▁기념일 -12811
▁Mart -12812
▁공법 -12813
▁불사 -12814
▁상정 -12815
▁이아 -12816
▁선진국 -12817
▁무솔리니 -12818
셀러 -12819
▁급히 -12820
▁긴밀 -12821
▁나뭇 -12822
▁라카 -12823
▁명부 -12824
▁모신 -12825
▁영암 -12826
▁요괴 -12827
▁정명 -12828
▁프랜차 -12829
▁Best -12830
공주 -12831
▁관내 -12832
▁측량 -12833
▁Bab -12834
▁들어섰 -12835
▁문자열 -12836
▁밀가루 -12837
▁박영효 -12838
▁받침돌 -12839
▁초록색 -12840
▁포항시 -12841
▁Rich -12842
▁견고 -12843
▁견디 -12844
▁까마 -12845
▁마셜 -12846
▁보령 -12847
▁삼중 -12848
▁시비 -12849
▁코난 -12850
▁홀리 -12851
▁단체전 -12852
▁셰익스 -12853
▁산티아고 -12854
▁아케이드 -12855
▁요하네스 -12856
▁셰익스피어 -12857
▁교동 -12858
▁몰두 -12859
▁세레 -12860
▁양군 -12861
▁추존 -12862
berg -12863
▁Rad -12864
▁공연장 -12865
▁압록강 -12866
▁레드삭스 -12867
▁탄자니아 -12868
토프 -12869
▁객원 -12870
▁면모 -12871
▁반동 -12872
▁순례 -12873
▁실각 -12874
로니아 -12875
▁550 -12876
▁보좌관 -12877
▁부분군 -12878
▁였음을 -12879
▁해안가 -12880
▁Inter -12881
▁딥 -12882
둘기 -12883
워스 -12884
▁단국 -12885
▁배척 -12886
▁원활 -12887
▁Ang -12888
디나비아 -12889
▁레인저스 -12890
▁스칸디나비아 -12891
▁맬 -12892
▁Mi -12893
▁무언 -12894
▁오디 -12895
▁코사 -12896
▁650 -12897
▁사업소 -12898
▁승정원 -12899
▁이용객 -12900
▁도르트문트 -12901
슈타 -12902
▁Mr -12903
▁버러 -12904
▁원제 -12905
▁퍼졌 -12906
▁페더 -12907
▁가리켜 -12908
▁선제골 -12909
▁스캔들 -12910
▁안산시 -12911
▁인해서 -12912
▁쿠웨이트 -12913
▁씻 -12914
참찬 -12915
▁넬슨 -12916
▁로버 -12917
▁리마 -12918
▁반주 -12919
▁버섯 -12920
▁위시 -12921
▁평탄 -12922
▁합창단 -12923
바리 -12924
왕후 -12925
▁구슬 -12926
▁동자 -12927
▁승하 -12928
▁전리 -12929
▁혼혈 -12930
▁Hol -12931
▁기업가 -12932
▁발기인 -12933
▁알아내 -12934
▁테네시 -12935
▁Phil -12936
▁루이지애나 -12937
▁프랜차이즈 -12938
예술 -12939
▁XP -12940
▁co -12941
▁금고 -12942
▁라즈 -12943
▁식용 -12944
▁조소 -12945
▁으려는 -12946
▁자외선 -12947
aceae -12948
▁뱃 -12949
보리 -12950
▁도출 -12951
▁레버 -12952
▁무단 -12953
▁산수 -12954
▁이즈미 -12955
▁육군사관학교 -12956
▁교지 -12957
▁리에 -12958
▁리코 -12959
▁모국 -12960
▁조현 -12961
▁카마 -12962
▁포츠 -12963
▁von -12964
▁롬바르 -12965
▁야쿠르트 -12966
RI -12967
▁공대 -12968
▁뉴클 -12969
▁떠올 -12970
▁재앙 -12971
▁제르 -12972
▁치우 -12973
▁다면서 -12974
▁백악기 -12975
▁스테인 -12976
▁소말리아 -12977
▁헤라클레스 -12978
나파 -12979
ero -12980
▁Sa -12981
▁단조 -12982
▁병단 -12983
▁켄트 -12984
▁터지 -12985
▁단거리 -12986
▁달아나 -12987
▁토마토 -12988
▁복음주의 -12989
▁TS -12990
▁공시 -12991
▁깃털 -12992
▁동창 -12993
▁서예 -12994
▁슈테 -12995
▁투여 -12996
▁현판 -12997
▁작품상 -12998
▁해석학 -12999
▁가고시마 -13000
▁부다페스트 -13001
▁쩐 -13002
폭탄 -13003
▁나름 -13004
▁습득 -13005
▁이메 -13006
▁지석 -13007
▁여학생 -13008
▁카스트 -13009
▁사이타마현 -13010
림픽 -13011
평리 -13012
ari -13013
▁바울 -13014
▁양조 -13015
▁제천 -13016
▁피드 -13017
▁슈타인 -13018
▁격리 -13019
▁두각 -13020
▁레프 -13021
▁마트 -13022
▁메스 -13023
▁입헌 -13024
▁전교 -13025
▁한번 -13026
▁UTC -13027
▁대전차 -13028
▁쇠고기 -13029
▁스포르 -13030
▁일본식 -13031
▁고마 -13032
▁기쁨 -13033
▁발톱 -13034
▁승상 -13035
▁울릉 -13036
▁자켓 -13037
▁Net -13038
▁도야마 -13039
▁미토콘 -13040
▁성매매 -13041
▁에른스트 -13042
▁미토콘드리아 -13043
▁당황 -13044
▁열려 -13045
▁독수리 -13046
▁데스크톱 -13047
yp -13048
제비 -13049
▁복직 -13050
▁여건 -13051
▁MSL -13052
▁네티즌 -13053
▁라인업 -13054
▁로마인 -13055
▁팔작지붕 -13056
▁물결 -13057
▁이봉 -13058
▁화학자 -13059
▁도미니카 -13060
니파 -13061
▁놓이 -13062
▁송환 -13063
▁응하 -13064
▁이호 -13065
▁데일리 -13066
▁센다이 -13067
▁용의자 -13068
▁펠리페 -13069
▁율리우스 -13070
▁인공위성 -13071
▁렛 -13072
▁핼 -13073
레드 -13074
ION -13075
▁Sw -13076
▁반죽 -13077
▁서위 -13078
▁속주 -13079
▁유포 -13080
▁직사 -13081
▁항원 -13082
▁홈즈 -13083
ling -13084
▁탈리아 -13085
▁거칠 -13086
▁과시 -13087
▁보정 -13088
▁사변 -13089
▁중랑 -13090
▁청송 -13091
▁촛불 -13092
▁풍습 -13093
▁더블린 -13094
▁스탠드 -13095
▁호크스 -13096
▁코호몰로지 -13097
바인 -13098
▁가우 -13099
▁곱셈 -13100
▁몰랐 -13101
▁배기 -13102
▁뽑혔 -13103
▁토유 -13104
▁리믹스 -13105
▁플랑크 -13106
▁Record -13107
yle -13108
▁se -13109
▁마린 -13110
▁버트 -13111
▁소아 -13112
▁피크 -13113
▁필명 -13114
▁Bus -13115
▁Let -13116
▁관련자 -13117
▁보안법 -13118
li -13119
께끼 -13120
▁닌자 -13121
▁만날 -13122
▁물류 -13123
▁세분 -13124
▁스윙 -13125
▁영예 -13126
▁합금 -13127
▁내보내 -13128
▁덧붙였 -13129
▁몰도바 -13130
▁보너스 -13131
▁외무부 -13132
▁Stud -13133
▁수수께끼 -13134
▁Gener -13135
▁구금 -13136
▁매진 -13137
▁무자 -13138
▁미식 -13139
▁박수 -13140
▁유타 -13141
▁펠로 -13142
▁현과 -13143
▁정의당 -13144
▁클레멘스 -13145
12 -13146
▁거룩 -13147
▁구획 -13148
▁미미 -13149
▁볼티 -13150
▁영천 -13151
▁우시 -13152
▁주화 -13153
▁퇴위 -13154
▁공방전 -13155
▁유전학 -13156
▁화성시 -13157
국적 -13158
▁모건 -13159
▁종업 -13160
▁토목 -13161
▁개정안 -13162
▁모차르트 -13163
TE -13164
북면 -13165
▁니키 -13166
▁부에 -13167
▁상파 -13168
▁왕관 -13169
▁헤로 -13170
▁Lou -13171
▁삼각주 -13172
▁생리학 -13173
▁Group -13174
▁알렉산드로스 -13175
구스 -13176
▁다행 -13177
▁알맞 -13178
▁편제 -13179
▁글래스 -13180
▁게오르크 -13181
▁돗 -13182
데자 -13183
티노 -13184
▁산기 -13185
▁스모 -13186
▁심포 -13187
▁조경 -13188
▁카레 -13189
ated -13190
▁계승자 -13191
▁나타날 -13192
▁오일러 -13193
▁패럴림픽 -13194
▁묻혀 -13195
▁복역 -13196
▁심소 -13197
▁원동 -13198
▁유능 -13199
▁유태 -13200
▁판관 -13201
▁iOS -13202
▁강서구 -13203
▁김성수 -13204
▁뉴클레오 -13205
▁은거 -13206
▁자코 -13207
▁종묘 -13208
▁첼로 -13209
▁경희대 -13210
▁그만큼 -13211
▁Mark -13212
▁김선 -13213
▁도상 -13214
▁배향 -13215
▁알폰 -13216
▁영월 -13217
▁증세 -13218
루이스 -13219
▁뛰어넘 -13220
▁모나코 -13221
▁재판부 -13222
▁구부 -13223
▁기해 -13224
▁사내 -13225
▁조준 -13226
▁포화 -13227
▁두려워하 -13228
▁Michael -13229
▁간판 -13230
▁관용 -13231
▁리튬 -13232
▁황자 -13233
▁Fri -13234
▁NAT -13235
▁San -13236
▁고분군 -13237
▁재판관 -13238
▁패트릭 -13239
▁목욕 -13240
▁백악 -13241
▁음운 -13242
▁갔으며 -13243
▁로베르 -13244
▁케이크 -13245
▁경매 -13246
▁괄호 -13247
▁이은 -13248
▁바람직 -13249
▁프리미엄 -13250
▁얄 -13251
▁펫 -13252
▁뒤늦 -13253
▁섞여 -13254
▁신대 -13255
▁이터 -13256
절도사 -13257
▁들어올 -13258
▁베이커 -13259
▁차세대 -13260
▁코스트 -13261
▁날카로운 -13262
HC -13263
타케 -13264
▁맥아 -13265
▁백업 -13266
▁비싼 -13267
▁세간 -13268
▁조개 -13269
▁주고 -13270
▁중개 -13271
▁톰슨 -13272
▁페오 -13273
▁합하 -13274
중추부사 -13275
▁가로지르 -13276
▁뮐 -13277
▁LS -13278
▁배아 -13279
▁추력 -13280
▁도로는 -13281
▁장난감 -13282
▁리우데자 -13283
▁리우데자네이루 -13284
de -13285
▁샨 -13286
게스 -13287
달마 -13288
▁가부 -13289
▁거꾸 -13290
▁도네 -13291
▁배양 -13292
▁벌레 -13293
▁Hen -13294
▁온타리오주 -13295
mus -13296
▁sy -13297
▁감추 -13298
▁매도 -13299
▁월터 -13300
▁즐거 -13301
▁레이디 -13302
▁여진족 -13303
에미리트 -13304
▁Count -13305
▁아랍에미리트 -13306
▁내포 -13307
▁넥센 -13308
▁살짝 -13309
▁에로 -13310
▁작년 -13311
▁움직일 -13312
다오 -13313
▁가닥 -13314
▁구독 -13315
▁마요 -13316
▁삼척 -13317
▁슈타 -13318
▁온건 -13319
▁베르나르 -13320
▁핏 -13321
자드 -13322
▁대강 -13323
▁번갈 -13324
▁오름 -13325
▁침대 -13326
▁페트 -13327
ague -13328
ular -13329
▁Techn -13330
태평 -13331
▁쓰루 -13332
▁어촌 -13333
▁죄수 -13334
▁캐치 -13335
▁공식전 -13336
▁노르드 -13337
▁승용차 -13338
▁에이즈 -13339
미경 -13340
▁등단 -13341
▁모닝 -13342
▁스몰 -13343
▁기획사 -13344
▁사이먼 -13345
▁우울증 -13346
▁cont -13347
▁볼티모어 -13348
▁개기 -13349
▁앤디 -13350
▁접합 -13351
▁Ber -13352
▁손잡이 -13353
▁청년회 -13354
라이어티 -13355
▁HTML -13356
▁버라이어티 -13357
화경 -13358
ien -13359
▁왕성 -13360
▁유다 -13361
▁재발 -13362
▁지경 -13363
▁키릴 -13364
▁Int -13365
▁바로크 -13366
▁타임즈 -13367
▁노스캐롤라이나 -13368
번에 -13369
쓰기 -13370
EST -13371
oug -13372
▁공판 -13373
▁단자 -13374
▁란스 -13375
▁서주 -13376
▁수력 -13377
▁앵커 -13378
▁708 -13379
▁Mod -13380
▁개체군 -13381
▁포르노 -13382
▁석가모니 -13383
▁프란시스코 -13384
du -13385
비오 -13386
철수 -13387
ret -13388
▁납작 -13389
▁눈치 -13390
▁붕어 -13391
▁사나 -13392
▁생리 -13393
▁아드 -13394
▁여고 -13395
▁직관 -13396
▁필하 -13397
▁레인저 -13398
▁로드리 -13399
▁발가락 -13400
▁아닌가 -13401
▁안동시 -13402
▁가브리엘 -13403
▁유니버스 -13404
나시 -13405
▁데드 -13406
▁동탁 -13407
▁이누 -13408
▁증조부 -13409
▁토트넘 -13410
▁삼국유사 -13411
lation -13412
IF -13413
ka -13414
지오 -13415
티에 -13416
lor -13417
▁림프 -13418
▁베일 -13419
▁양면 -13420
▁Cap -13421
▁Reg -13422
▁경계선 -13423
▁남베트남 -13424
▁미네소타 -13425
▁경지 -13426
▁무고 -13427
▁베풀 -13428
▁비르 -13429
▁자궁 -13430
세우스 -13431
▁음악원 -13432
▁조선소 -13433
▁줄리아 -13434
▁출입문 -13435
▁프랑코 -13436
▁고스 -13437
▁국호 -13438
▁무르 -13439
▁연행 -13440
▁이야 -13441
▁잔디 -13442
▁전과 -13443
▁치뤄 -13444
▁태우 -13445
▁햇빛 -13446
부아르 -13447
▁언론사 -13448
▁클라우 -13449
▁구문 -13450
▁발착 -13451
▁유머 -13452
▁하의 -13453
▁역사학 -13454
▁조선왕조 -13455
▁경량 -13456
▁이산 -13457
▁임계 -13458
▁헌병 -13459
▁수시로 -13460
▁크리에이 -13461
▁플로리다주 -13462
▁q -13463
▁뭐 -13464
네트 -13465
▁김치 -13466
▁댄서 -13467
▁말단 -13468
▁모반 -13469
▁처해 -13470
▁청문 -13471
▁키로 -13472
▁탄산 -13473
▁통지 -13474
▁한창 -13475
▁근거지 -13476
▁1858 -13477
러진 -13478
▁계보 -13479
▁부실 -13480
▁새겼 -13481
▁세요 -13482
▁얼룩 -13483
▁익명 -13484
▁최장 -13485
▁펠트 -13486
▁흑백 -13487
▁끝난다 -13488
▁요리토모 -13489
lt -13490
열차 -13491
ops -13492
▁발산 -13493
▁성기 -13494
▁의령 -13495
▁편안 -13496
▁평했 -13497
▁걸린다 -13498
▁컬렉션 -13499
▁꿰 -13500
▁Bu -13501
▁기묘 -13502
▁끝냈 -13503
▁남조 -13504
▁두어 -13505
▁배리 -13506
▁신진 -13507
▁어우 -13508
▁Cro -13509
▁경복궁 -13510
▁변광성 -13511
▁펭 -13512
▁KO -13513
▁꽃잎 -13514
▁도피 -13515
▁맡겼 -13516
▁불분 -13517
▁산물 -13518
▁이례 -13519
▁투하 -13520
▁홀딩 -13521
ival -13522
▁거꾸로 -13523
▁모멘트 -13524
▁자유형 -13525
▁코소보 -13526
▁텍사스주 -13527
▁Association -13528
사화 -13529
olf -13530
▁농축 -13531
▁라미 -13532
▁미아 -13533
▁사커 -13534
▁신봉 -13535
▁양지 -13536
▁타도 -13537
▁형용 -13538
▁형주 -13539
irst -13540
▁베이비 -13541
▁종업원 -13542
헤드 -13543
훈장 -13544
▁AA -13545
▁금동 -13546
▁라흐 -13547
▁진흙 -13548
▁활자 -13549
▁전해졌 -13550
▁픽처스 -13551
레시 -13552
ila -13553
▁Ev -13554
▁굴복 -13555
▁기밀 -13556
▁악곡 -13557
▁재결 -13558
▁협업 -13559
바도르 -13560
▁범죄자 -13561
두르 -13562
찬성 -13563
era -13564
▁법전 -13565
▁시원 -13566
▁워킹 -13567
▁입술 -13568
▁증발 -13569
▁터빈 -13570
▁감리교 -13571
▁개그맨 -13572
▁릴레이 -13573
▁페르미 -13574
▁활동가 -13575
unction -13576
▁슌 -13577
사태 -13578
클럽 -13579
▁am -13580
▁군자 -13581
▁죽여 -13582
▁휩싸 -13583
▁관현악 -13584
▁데니스 -13585
▁쇼핑몰 -13586
▁컴파일 -13587
▁푹 -13588
다발 -13589
▁거스 -13590
▁라바 -13591
▁척도 -13592
▁파기 -13593
▁Charles -13594
NG -13595
나기 -13596
대전 -13597
▁고모 -13598
▁납부 -13599
▁미인 -13600
▁신해 -13601
▁야망 -13602
▁작중 -13603
▁탁구 -13604
▁해냈 -13605
▁흘리 -13606
ship -13607
▁두꺼운 -13608
▁봉우리 -13609
▁장제스 -13610
▁취리히 -13611
▁프리스 -13612
▁프레임워크 -13613
▁PL -13614
▁교서 -13615
▁대목 -13616
▁왓슨 -13617
▁잡히 -13618
▁페스 -13619
▁향기 -13620
▁교통사고 -13621
▁브리티시 -13622
단지 -13623
▁바시 -13624
▁발포 -13625
▁앞세 -13626
▁조니 -13627
▁조심 -13628
▁클릭 -13629
▁로맨틱 -13630
▁장애물 -13631
▁Heart -13632
▁RT -13633
▁대진 -13634
▁별장 -13635
▁브릿 -13636
▁아편 -13637
▁텐서 -13638
▁필두 -13639
민스터 -13640
▁슬로건 -13641
▁치러졌 -13642
▁프로모션 -13643
성경 -13644
cus -13645
▁건널 -13646
▁당뇨 -13647
▁리트 -13648
▁안나 -13649
▁조석 -13650
▁충당 -13651
▁대표단 -13652
▁카이로 -13653
▁1812 -13654
▁Song -13655
▁이바라키 -13656
▁봉황 -13657
▁히토 -13658
▁380 -13659
▁Ant -13660
▁거쳐서 -13661
▁시티즌 -13662
▁우간다 -13663
▁드미트리 -13664
▁소대 -13665
▁위헌 -13666
▁트란 -13667
▁탐험가 -13668
attle -13669
▁마을버스 -13670
동맹 -13671
비안 -13672
▁나마 -13673
▁논하 -13674
▁부군 -13675
▁사하 -13676
▁섬기 -13677
▁쌍성 -13678
▁오우 -13679
▁천주 -13680
▁토록 -13681
▁파열 -13682
ason -13683
▁대교구 -13684
▁대니얼 -13685
▁세비야 -13686
▁오스틴 -13687
▁트레이닝 -13688
▁광업 -13689
▁닉슨 -13690
▁댓글 -13691
▁라드 -13692
▁몸체 -13693
▁세토 -13694
▁외환 -13695
▁위법 -13696
▁임하 -13697
▁조서 -13698
▁축일 -13699
▁피어 -13700
▁갈라져 -13701
▁까마귀 -13702
▁이뤄진 -13703
▁펠릭스 -13704
▁하이퍼 -13705
▁핵분열 -13706
▁BL -13707
▁강세 -13708
▁마레 -13709
▁예의 -13710
▁per -13711
▁아브라 -13712
▁조나라 -13713
▁채권자 -13714
▁구스타프 -13715
▁CV -13716
▁당당 -13717
▁암모 -13718
▁옹주 -13719
▁용감 -13720
▁만난다 -13721
▁스코어 -13722
▁아카이 -13723
▁위구르 -13724
▁히타치 -13725
BI -13726
▁렙 -13727
서니 -13728
▁과잉 -13729
▁김천 -13730
▁대타 -13731
▁마나 -13732
▁민물 -13733
▁원한 -13734
▁일설 -13735
▁출혈 -13736
▁패권 -13737
▁ATC -13738
▁Dan -13739
▁득표율 -13740
▁사절단 -13741
▁아비달마 -13742
▁힐베르트 -13743
▁di -13744
▁영사 -13745
▁잔존 -13746
▁아이언 -13747
▁스파이더 -13748
ization -13749
▁싹 -13750
▁광배 -13751
▁교제 -13752
▁길드 -13753
▁뒤따 -13754
▁정진 -13755
▁조공 -13756
▁진언 -13757
▁투신 -13758
▁IMF -13759
▁제이슨 -13760
▁덱 -13761
으면 -13762
▁국부 -13763
▁꼬마 -13764
▁문정 -13765
▁북벌 -13766
▁열렬 -13767
▁일지 -13768
▁중용 -13769
▁205 -13770
▁마그네 -13771
▁운동량 -13772
▁캐스트 -13773
▁가두 -13774
▁구례 -13775
▁나빠 -13776
▁더러 -13777
▁매립 -13778
▁볼넷 -13779
▁선율 -13780
▁여호 -13781
▁충신 -13782
▁토로 -13783
▁행군 -13784
▁포르투갈어 -13785
its -13786
▁꺼내 -13787
▁다닌 -13788
▁라가 -13789
▁마모 -13790
▁스기 -13791
▁오산 -13792
▁코딩 -13793
▁무사히 -13794
▁생성물 -13795
거나 -13796
느리 -13797
퉁이 -13798
▁간결 -13799
▁복싱 -13800
▁윤휴 -13801
▁이력 -13802
플로러 -13803
▁갈라지 -13804
▁불분명 -13805
▁후원자 -13806
▁익스플로러 -13807
▁상어 -13808
▁쵸 -13809
쿠르 -13810
▁거사 -13811
▁사비 -13812
▁유구 -13813
▁전멸 -13814
▁체하 -13815
▁포대 -13816
▁골짜기 -13817
▁따라가 -13818
▁북극점 -13819
▁쿠르드 -13820
▁6000 -13821
▁Jose -13822
▁낭만주의 -13823
▁대중교통 -13824
▁톡 -13825
▁po -13826
▁마타 -13827
▁머니 -13828
▁산신 -13829
▁상선 -13830
▁용수 -13831
▁제철 -13832
▁지탱 -13833
▁직교 -13834
▁공통점 -13835
▁지하역 -13836
▁참의원 -13837
▁하얀색 -13838
▁오토바이 -13839
▁아나키스트 -13840
▁정황 -13841
▁코뮌 -13842
▁파파 -13843
변속기 -13844
▁516 -13845
▁베르타 -13846
▁예비역 -13847
▁1700 -13848
rid -13849
▁김희 -13850
▁다목 -13851
▁단역 -13852
▁아다 -13853
▁타구 -13854
▁헤일 -13855
▁화승 -13856
▁회유 -13857
▁브루클린 -13858
▁여성주의 -13859
매김 -13860
전트 -13861
타입 -13862
▁객실 -13863
▁기운 -13864
▁튼튼 -13865
▁파주 -13866
▁헌터 -13867
atic -13868
▁가르쳐 -13869
▁농어촌 -13870
▁제너럴 -13871
사우루스 -13872
▁깁 -13873
▁노프 -13874
▁바비 -13875
▁배드 -13876
▁성부 -13877
▁세단 -13878
▁한민 -13879
▁데이브 -13880
▁소나타 -13881
▁영유권 -13882
▁군세 -13883
▁꾸며 -13884
▁농성 -13885
▁올레 -13886
▁탐정 -13887
▁토이 -13888
▁폐렴 -13889
▁포탑 -13890
▁Pla -13891
▁허드슨 -13892
▁변종 -13893
▁야시 -13894
가르트 -13895
▁민영화 -13896
▁벗어난 -13897
▁브래드 -13898
▁아이콘 -13899
▁용산구 -13900
▁원자핵 -13901
▁백과사전 -13902
▁부르주아 -13903
▁신한은행 -13904
▁미나모토노 -13905
▁웨스트민스터 -13906
세다 -13907
ior -13908
▁PP -13909
▁권익 -13910
▁노란 -13911
▁라니 -13912
▁만점 -13913
▁자재 -13914
▁Sun -13915
▁항아리 -13916
▁후세인 -13917
▁니콜라스 -13918
▁페르난도 -13919
▁썩 -13920
▁IR -13921
▁구강 -13922
▁단서 -13923
▁성원 -13924
▁페인 -13925
▁홍성 -13926
▁1856 -13927
▁후지와라 -13928
▁수이 -13929
▁어선 -13930
▁유림 -13931
▁체내 -13932
▁패킷 -13933
▁Tri -13934
▁주나라 -13935
▁자리매김 -13936
by -13937
시대 -13938
▁걸작 -13939
▁부류 -13940
▁수레 -13941
▁아와 -13942
▁여포 -13943
▁코린 -13944
▁표절 -13945
뉴기니 -13946
▁다마스 -13947
▁사대부 -13948
▁종착역 -13949
▁겟 -13950
▁과격 -13951
▁도제 -13952
▁무도 -13953
▁보직 -13954
▁생원 -13955
▁완비 -13956
▁장신 -13957
▁꽃차례 -13958
▁라면서 -13959
▁발사체 -13960
아메리카 -13961
워즈 -13962
▁고이 -13963
▁사주 -13964
▁성품 -13965
▁슈고 -13966
▁집전 -13967
▁Pat -13968
▁금강산 -13969
▁변한다 -13970
▁서바이 -13971
▁유년기 -13972
▁프라이즈 -13973
▁SR -13974
▁겨루 -13975
▁산조 -13976
▁열쇠 -13977
▁지문 -13978
▁포자 -13979
▁Arm -13980
▁Pop -13981
▁폼페이 -13982
▁하반기 -13983
바지 -13984
▁경순 -13985
▁애슬 -13986
▁어사 -13987
▁채굴 -13988
▁천상 -13989
▁패해 -13990
▁하중 -13991
▁대리석 -13992
▁반감기 -13993
▁애덤스 -13994
▁차가운 -13995
활약 -13996
▁모조 -13997
▁반입 -13998
▁오자 -13999
▁우마 -14000
▁Tom -14001
▁마스코 -14002
▁밝혀져 -14003
▁유라시아 -14004
▁비스마르크 -14005
olution -14006
▁콧 -14007
arm -14008
▁머무 -14009
▁봉하 -14010
▁수하 -14011
▁저그 -14012
▁쿠라 -14013
리아스 -14014
urus -14015
▁연속극 -14016
▁장로회 -14017
▁학술지 -14018
▁행해졌 -14019
▁베이시스트 -14020
▁미츠 -14021
▁심정 -14022
▁정박 -14023
▁지체 -14024
▁쿠로 -14025
▁CIA -14026
▁맹활약 -14027
▁사무관 -14028
▁여우원숭이 -14029
▁페르디난트 -14030
EA -14031
큐어 -14032
ros -14033
▁Af -14034
▁발자 -14035
▁왜군 -14036
▁외척 -14037
▁이니 -14038
▁절약 -14039
▁황폐 -14040
▁비단털 -14041
▁연예계 -14042
▁이메일 -14043
elf -14044
ump -14045
▁고제 -14046
▁너스 -14047
▁동호 -14048
▁매스 -14049
▁취향 -14050
▁후미 -14051
▁고성군 -14052
▁비단털쥐 -14053
▁프랑스와 -14054
클라 -14055
▁메틸 -14056
▁모함 -14057
▁시우 -14058
▁일선 -14059
▁쿼터 -14060
▁푸아 -14061
▁필연 -14062
▁허난 -14063
atus -14064
▁집단군 -14065
▁폐기물 -14066
할린 -14067
▁들리 -14068
▁라자 -14069
▁애기 -14070
▁완만 -14071
▁입출 -14072
rich -14073
▁Bas -14074
▁다시금 -14075
▁허베이 -14076
▁Serv -14077
뛰기 -14078
미쓰 -14079
지로 -14080
▁근방 -14081
▁슈투 -14082
▁스투 -14083
▁안중 -14084
▁암수 -14085
▁연해 -14086
▁지린 -14087
▁파커 -14088
▁Che -14089
▁해결책 -14090
▁다이노스 -14091
▁이시카와 -14092
▁Thomas -14093
▁샴 -14094
넌트 -14095
▁Du -14096
▁면직 -14097
▁세무 -14098
▁소라 -14099
▁펼친 -14100
▁한겨 -14101
▁헤어 -14102
▁Big -14103
▁수도회 -14104
▁제작진 -14105
▁class -14106
들러 -14107
진구 -14108
▁대담 -14109
▁문관 -14110
▁솔라 -14111
▁오트 -14112
▁온두 -14113
▁참패 -14114
▁커졌 -14115
aint -14116
▁206 -14117
▁내려와 -14118
▁반대파 -14119
▁여객기 -14120
▁올리버 -14121
▁주고받 -14122
▁진주시 -14123
▁집정관 -14124
▁타이탄 -14125
▁1400 -14126
▁온두라스 -14127
▁낡 -14128
▁씬 -14129
정보 -14130
▁겸직 -14131
▁과자 -14132
▁금색 -14133
▁무비 -14134
▁버티 -14135
▁사와 -14136
▁요즘 -14137
▁처방 -14138
▁편향 -14139
록대부 -14140
▁1857 -14141
▁Champ -14142
FS -14143
▁맴 -14144
▁샵 -14145
▁ON -14146
▁계좌 -14147
▁부두 -14148
▁야심 -14149
eder -14150
▁노동력 -14151
▁스탠리 -14152
▁위너스 -14153
▁타타르 -14154
▁팔꿈치 -14155
▁합성어 -14156
▁떨어진다 -14157
bo -14158
어류 -14159
정사 -14160
▁DB -14161
▁가명 -14162
▁고을 -14163
▁반점 -14164
▁최남 -14165
ural -14166
urch -14167
▁나치오 -14168
▁노벨상 -14169
▁신기록 -14170
▁남양주시 -14171
▁대한항공 -14172
▁United -14173
젤로 -14174
▁"> -14175
▁그란 -14176
▁내란 -14177
▁덴쇼 -14178
▁라다 -14179
▁목동 -14180
▁몹시 -14181
▁반항 -14182
▁부전 -14183
▁부풀 -14184
▁영미 -14185
▁피셔 -14186
▁남극점 -14187
▁무작위 -14188
▁스트림 -14189
▁한겨레 -14190
▁Soul -14191
▁병자호란 -14192
▁엡 -14193
err -14194
▁번개 -14195
▁접전 -14196
▁칭했 -14197
▁킹스 -14198
▁당선자 -14199
▁명성황후 -14200
▁파시스트 -14201
▁베스트셀러 -14202
▁삐 -14203
▁쑨 -14204
리쿠 -14205
세키 -14206
▁경건 -14207
▁국세 -14208
▁메츠 -14209
▁변모 -14210
▁잠입 -14211
▁중견 -14212
▁집어 -14213
▁충칭 -14214
▁줄어든 -14215
▁1839 -14216
▁무로마치 -14217
▁피츠버그 -14218
쿠니 -14219
▁가방 -14220
▁갖춰 -14221
▁구르 -14222
▁부관 -14223
▁북대 -14224
▁분경 -14225
▁완수 -14226
▁처장 -14227
▁구단주 -14228
▁그나마 -14229
▁마포구 -14230
▁정해져 -14231
크라테스 -14232
▁고등학생 -14233
▁금환 -14234
▁냐고 -14235
▁부추 -14236
▁상과 -14237
▁시진 -14238
▁연달 -14239
▁연화 -14240
▁패치 -14241
▁페라 -14242
▁209 -14243
▁내세워 -14244
▁부여군 -14245
▁레지스터 -14246
▁https -14247
▁아나톨리아 -14248
aj -14249
리야 -14250
▁국인 -14251
▁다량 -14252
▁망치 -14253
▁변질 -14254
▁수증 -14255
▁자릿 -14256
▁정언 -14257
ency -14258
▁가환환 -14259
▁무언가 -14260
▁예언자 -14261
▁이랜드 -14262
▁채무자 -14263
▁특별법 -14264
타스 -14265
행파 -14266
▁PA -14267
▁던졌 -14268
▁모란 -14269
▁성가 -14270
▁유망 -14271
▁친한 -14272
▁파주시 -14273
vin -14274
▁규율 -14275
▁음주 -14276
▁준동 -14277
▁추축 -14278
▁펀드 -14279
▁대명사 -14280
▁찾아와 -14281
▁풀려났 -14282
▁지하철역 -14283
▁기판 -14284
▁길러 -14285
▁도적 -14286
▁동종 -14287
▁수급 -14288
▁에겐 -14289
▁유화 -14290
▁조비 -14291
▁조셉 -14292
▁패망 -14293
▁다국적 -14294
▁마르셀 -14295
▁요금소 -14296
▁지나친 -14297
▁데카르트 -14298
▁Great -14299
▁쥘 -14300
▁KS -14301
▁강진 -14302
▁격하 -14303
▁소박 -14304
▁오일 -14305
▁오즈 -14306
▁이끼 -14307
▁자취 -14308
▁텍스 -14309
▁해병 -14310
이스케 -14311
▁국민회 -14312
▁알폰소 -14313
▁가르시아 -14314
ta -14315
▁궐 -14316
하임 -14317
▁도부 -14318
▁도성 -14319
▁방공 -14320
▁불로 -14321
▁사교 -14322
▁타나 -14323
▁Fre -14324
▁Sam -14325
▁내세웠 -14326
▁1854 -14327
▁변해 -14328
▁시르 -14329
▁이심 -14330
▁주저 -14331
▁출세 -14332
▁피처 -14333
▁DOS -14334
▁Ver -14335
▁미카엘 -14336
▁숨겨진 -14337
▁스테판 -14338
▁액세스 -14339
30 -14340
PA -14341
콘신 -14342
▁구가 -14343
▁빈민 -14344
▁생길 -14345
▁샤프 -14346
▁참수 -14347
▁연주회 -14348
▁와세다 -14349
▁펼쳐져 -14350
▁위스콘신 -14351
▁이노우에 -14352
주크 -14353
티컷 -14354
lus -14355
▁강호 -14356
▁고난 -14357
▁당과 -14358
▁성수 -14359
▁악당 -14360
▁잔해 -14361
▁휘발 -14362
▁Hot -14363
▁Sal -14364
▁목적지 -14365
▁보유자 -14366
▁엑스포 -14367
▁8000 -14368
▁Sing -14369
▁매킨토시 -14370
▁코네티컷 -14371
너드 -14372
뜨려 -14373
블릿 -14374
수단 -14375
▁계엄 -14376
▁교관 -14377
▁기린 -14378
▁넘겼 -14379
▁떠날 -14380
▁백자 -14381
▁베오 -14382
▁사키 -14383
▁서머 -14384
▁서지 -14385
▁아디 -14386
▁을사 -14387
▁투니 -14388
▁횡령 -14389
▁Trans -14390
▁뉘른베르크 -14391
라호 -14392
▁cc -14393
▁고찰 -14394
▁볼록 -14395
▁인승 -14396
▁노미야 -14397
▁사라져 -14398
곡면 -14399
플린 -14400
▁AE -14401
▁가도 -14402
▁가비 -14403
▁인위 -14404
▁취할 -14405
▁Cup -14406
▁그랜트 -14407
▁다비드 -14408
▁지질학 -14409
▁라이프치히 -14410
비언 -14411
ese -14412
▁대류 -14413
▁산책 -14414
▁알로 -14415
▁키드 -14416
▁316 -14417
▁가해자 -14418
▁반정부 -14419
▁송파구 -14420
▁AI -14421
▁도발 -14422
▁러닝 -14423
▁말려 -14424
▁문중 -14425
▁손님 -14426
▁정승 -14427
▁조장 -14428
▁항체 -14429
브리드 -14430
태평양 -14431
▁Off -14432
▁노르만 -14433
▁이브스 -14434
▁자격증 -14435
▁편집장 -14436
▁해리스 -14437
ham -14438
▁Ap -14439
▁PR -14440
▁노브 -14441
▁스에 -14442
▁웍스 -14443
▁태아 -14444
▁본거지 -14445
▁불가피 -14446
▁1855 -14447
▁캄파니아 -14448
▁Institute -14449
구나 -14450
▁WC -14451
▁강우 -14452
▁공상 -14453
▁동군 -14454
▁레아 -14455
▁엇갈 -14456
▁자처 -14457
▁후드 -14458
▁과반수 -14459
HL -14460
OK -14461
▁끔 -14462
▁기한 -14463
▁네임 -14464
▁모사 -14465
▁박진 -14466
▁아뢰 -14467
▁아어 -14468
▁열릴 -14469
▁초음 -14470
▁픽셀 -14471
▁Wil -14472
▁머물러 -14473
▁이사회 -14474
▁해부학 -14475
선언 -14476
큐슈 -14477
▁교화 -14478
▁반론 -14479
▁배반 -14480
▁법제 -14481
▁소론 -14482
▁잉카 -14483
▁청각 -14484
ning -14485
▁게오르 -14486
▁게임기 -14487
▁글러브 -14488
▁나리타 -14489
▁Free -14490
▁친선경기 -14491
▁코퍼레이션 -14492
ek -14493
▁김연 -14494
▁독살 -14495
▁상의 -14496
▁소작 -14497
▁순식 -14498
▁에프 -14499
▁유이 -14500
▁유자 -14501
▁자질 -14502
▁포니 -14503
▁엑스박스 -14504
끄러 -14505
산부 -14506
텐셜 -14507
▁그물 -14508
▁기고 -14509
▁모피 -14510
▁바보 -14511
▁석기 -14512
▁옥타 -14513
▁원단 -14514
▁자정 -14515
▁256 -14516
▁you -14517
▁하이브리드 -14518
▁민심 -14519
▁비지 -14520
▁산청 -14521
▁숙소 -14522
▁야수 -14523
▁여대 -14524
▁플러그 -14525
VA -14526
수염 -14527
포타 -14528
프랑 -14529
히메 -14530
▁GR -14531
▁노현 -14532
▁다닐 -14533
▁삭스 -14534
▁선상 -14535
▁수만 -14536
▁조어 -14537
▁진이 -14538
선거구 -14539
▁다녀왔 -14540
▁수비대 -14541
▁제조사 -14542
▁퍼텐셜 -14543
▁홀딩스 -14544
▁유가행파 -14545
구니 -14546
마디 -14547
ren -14548
▁날려 -14549
▁박원 -14550
▁선체 -14551
▁이거 -14552
▁절충 -14553
▁표출 -14554
플렉스 -14555
reet -14556
▁도망치 -14557
▁돌아갈 -14558
▁셀주크 -14559
▁파라오 -14560
포타미아 -14561
▁스트리밍 -14562
▁메소포타미아 -14563
알라 -14564
▁고국 -14565
▁국화 -14566
▁라리 -14567
▁용지 -14568
▁조봉 -14569
▁직물 -14570
▁토피 -14571
▁풀백 -14572
▁헤센 -14573
▁코트디 -14574
▁플루토 -14575
▁코트디부아르 -14576
▁미지 -14577
▁밸브 -14578
▁사귀 -14579
▁솜씨 -14580
▁쇼크 -14581
▁앞둔 -14582
▁위도 -14583
▁인제 -14584
▁자부 -14585
▁지요 -14586
▁802 -14587
▁스피커 -14588
▁지자체 -14589
▁Soci -14590
▁괜 -14591
▁경의 -14592
▁니까 -14593
▁사부 -14594
▁사소 -14595
▁증강 -14596
▁키즈 -14597
▁피카 -14598
슬라프 -14599
▁경부선 -14600
▁동아리 -14601
▁사무국 -14602
▁저지른 -14603
▁1849 -14604
▁스테이트 -14605
에쓰 -14606
일치 -14607
▁구세 -14608
▁내재 -14609
▁삭감 -14610
▁익산 -14611
▁지그 -14612
▁출국 -14613
▁코마 -14614
▁코모 -14615
▁해시 -14616
▁Str -14617
▁한다며 -14618
earch -14619
▁1801 -14620
▁마스코트 -14621
노르 -14622
▁남송 -14623
▁늘려 -14624
▁버크 -14625
▁병렬 -14626
▁병풍 -14627
▁서당 -14628
▁성대 -14629
▁이별 -14630
레타리아 -14631
▁NATO -14632
▁스케이트 -14633
▁프롤레타리아 -14634
▁국력 -14635
▁리브 -14636
▁실상 -14637
▁아흐 -14638
▁양양 -14639
▁왕래 -14640
▁외상 -14641
▁표제 -14642
▁340 -14643
▁AMD -14644
▁강력히 -14645
▁경쟁자 -14646
▁두드러지 -14647
코타 -14648
▁계룡 -14649
▁관위 -14650
▁그럴 -14651
▁루즈 -14652
▁방호 -14653
▁순항 -14654
▁안기 -14655
▁양파 -14656
▁재고 -14657
▁지아 -14658
▁찌르 -14659
▁철자 -14660
▁침식 -14661
라호마 -14662
uman -14663
▁되풀이 -14664
▁에스컬 -14665
▁페미니 -14666
▁오클라호마 -14667
▁League -14668
▁에스컬레이터 -14669
니티 -14670
즐리 -14671
oul -14672
▁괴로 -14673
▁나사 -14674
▁리크 -14675
▁본존 -14676
▁상동 -14677
▁원문 -14678
▁적발 -14679
▁치사 -14680
▁다가오 -14681
▁오릭스 -14682
▁피닉스 -14683
고르 -14684
▁Kh -14685
▁경원 -14686
▁교훈 -14687
▁루피 -14688
▁바쿠 -14689
▁분별 -14690
▁서거 -14691
▁수역 -14692
▁실명 -14693
▁심상 -14694
▁연중 -14695
▁줄일 -14696
▁착각 -14697
▁--- -14698
▁235 -14699
▁대사간 -14700
▁여운형 -14701
▁1815 -14702
▁West -14703
ya -14704
욕장 -14705
▁다비 -14706
▁리키 -14707
▁모체 -14708
▁사각 -14709
▁스택 -14710
▁양서 -14711
▁온실 -14712
▁정칙 -14713
▁질투 -14714
▁칸트 -14715
▁천문단위 -14716
▁조선공산당 -14717
itz -14718
▁받치 -14719
▁싫어 -14720
▁진원 -14721
▁토라 -14722
▁티저 -14723
▁현무 -14724
▁흡연 -14725
▁신석기 -14726
▁올라오 -14727
▁일부러 -14728
▁권역 -14729
▁시찰 -14730
▁포천 -14731
▁합천 -14732
올로기 -14733
▁생화학 -14734
▁순식간 -14735
▁Elect -14736
▁이데올로기 -14737
▁라라 -14738
▁박용 -14739
▁박재 -14740
▁우한 -14741
▁310 -14742
▁검은색 -14743
빌리 -14744
우주 -14745
질렀 -14746
ule -14747
▁걸음 -14748
▁남단 -14749
▁렉스 -14750
▁외면 -14751
▁절친 -14752
▁켄터 -14753
▁하수 -14754
▁APG -14755
▁KTX -14756
▁금나라 -14757
▁담당자 -14758
▁며느리 -14759
▁서포터 -14760
▁프로테 -14761
ional -14762
▁Franc -14763
GB -14764
▁다룰 -14765
▁사드 -14766
▁새뮤 -14767
▁실사 -14768
▁악명 -14769
▁외삼 -14770
▁달린다 -14771
▁바닷물 -14772
더지 -14773
방군 -14774
▁광자 -14775
▁노원 -14776
▁당진 -14777
▁숙련 -14778
▁중남 -14779
▁출품 -14780
▁포인 -14781
▁NBC -14782
▁비둘기 -14783
▁사보이 -14784
▁소학교 -14785
▁연출가 -14786
▁케이트 -14787
▁1852 -14788
ope -14789
▁빨강 -14790
▁이목 -14791
▁입히 -14792
▁줄곧 -14793
▁착취 -14794
▁촉발 -14795
▁취직 -14796
▁하스 -14797
▁함장 -14798
노스케 -14799
▁Not -14800
▁교육학 -14801
▁세미나 -14802
▁갯 -14803
▁킷 -14804
전선 -14805
코르 -14806
umb -14807
▁과다 -14808
▁독주 -14809
▁묶여 -14810
▁샤이 -14811
▁외할 -14812
▁초회 -14813
▁화소 -14814
▁레스터 -14815
▁앤서니 -14816
▁열역학 -14817
▁갈릴레오 -14818
▁소아시아 -14819
▁바빌로니아 -14820
남면 -14821
더링 -14822
장사 -14823
▁KN -14824
▁방울 -14825
▁보류 -14826
▁이강 -14827
▁처치 -14828
▁국내선 -14829
▁베르트 -14830
▁일리노이주 -14831
ars -14832
▁AF -14833
▁구루 -14834
▁옥시 -14835
▁208 -14836
▁로이드 -14837
▁시마즈 -14838
▁중앙선 -14839
▁피의자 -14840
▁7000 -14841
▁팍 -14842
위치 -14843
일기 -14844
▁결전 -14845
▁고창 -14846
▁농가 -14847
▁서클 -14848
▁성군 -14849
▁외손 -14850
▁이선 -14851
▁저축 -14852
▁중일 -14853
▁Tim -14854
▁감염증 -14855
▁썼으며 -14856
▁케이드 -14857
▁1846 -14858
▁스틸러스 -14859
▁페널티킥 -14860
누마 -14861
부대 -14862
ple -14863
▁HP -14864
▁결장 -14865
▁로얄 -14866
▁리자 -14867
▁빨라 -14868
▁자행 -14869
▁종가 -14870
▁지날 -14871
▁지치 -14872
▁추후 -14873
▁푸젠 -14874
▁프루 -14875
▁해트 -14876
▁사이즈 -14877
▁입법부 -14878
▁준다는 -14879
▁Back -14880
▁지나간다 -14881
▁했으므로 -14882
GA -14883
자원 -14884
화산 -14885
▁실효 -14886
▁열세 -14887
▁읍성 -14888
▁자루 -14889
▁전조 -14890
▁처한 -14891
▁행선 -14892
▁대수학 -14893
▁라이스 -14894
▁낯 -14895
링겐 -14896
ama -14897
▁극찬 -14898
▁마구 -14899
▁문체 -14900
▁비옥 -14901
▁시발 -14902
▁아델 -14903
ility -14904
▁Alex -14905
▁영등포구 -14906
방향 -14907
양이 -14908
황색 -14909
▁DO -14910
▁등산 -14911
▁미학 -14912
▁민자 -14913
▁캐논 -14914
▁콘티 -14915
▁예문관 -14916
iness -14917
▁Blue -14918
▁멀티미디어 -14919
▁George -14920
▁뜰 -14921
▁나쁘 -14922
▁단발 -14923
▁북측 -14924
▁올릴 -14925
▁풀리 -14926
▁Sim -14927
▁국방군 -14928
▁스테이 -14929
▁이광수 -14930
▁테크놀 -14931
▁1789 -14932
▁가졌으며 -14933
▁쇼트트랙 -14934
▁지장보살 -14935
▁인플레이션 -14936
벤션 -14937
티야 -14938
▁강인 -14939
▁그랬 -14940
▁극소 -14941
▁명왕 -14942
▁뷰티 -14943
▁스톰 -14944
▁아쉬 -14945
▁요직 -14946
▁청취 -14947
▁평방 -14948
▁God -14949
TF -14950
▁싯 -14951
데기 -14952
렐라 -14953
림사 -14954
che -14955
▁가곡 -14956
▁교파 -14957
▁당파 -14958
▁막강 -14959
▁베라 -14960
▁손목 -14961
▁여럿 -14962
▁친밀 -14963
▁대제학 -14964
▁크메르 -14965
펠러 -14966
▁FS -14967
▁괘불 -14968
▁멋진 -14969
▁버진 -14970
▁에바 -14971
▁용해 -14972
▁이길 -14973
▁CoA -14974
▁아리랑 -14975
▁켄터키 -14976
▁패스트 -14977
▁Jean -14978
▁됩 -14979
루크 -14980
연구 -14981
윽고 -14982
쿠사 -14983
▁bl -14984
▁동백 -14985
▁배워 -14986
▁카슈 -14987
▁혼잡 -14988
ange -14989
▁데뷔작 -14990
▁동남쪽 -14991
▁안창호 -14992
▁오스카 -14993
▁이윽고 -14994
▁필사본 -14995
▁2021 -14996
동원 -14997
루엔 -14998
보내 -14999
▁경내 -15000
▁상식 -15001
▁아님 -15002
▁에마 -15003
▁점진 -15004
▁콜드 -15005
▁네이트 -15006
▁맥아더 -15007
▁외계인 -15008
▁통신망 -15009
▁Miss -15010
건설 -15011
상어 -15012
con -15013
▁강습 -15014
▁김우 -15015
▁서품 -15016
▁영락 -15017
▁예식 -15018
▁첩보 -15019
▁최하 -15020
▁호투 -15021
▁강희제 -15022
▁리스본 -15023
▁손꼽히 -15024
▁모자이크 -15025
▁우두머리 -15026
DI -15027
리드 -15028
테이 -15029
▁"- -15030
▁다자 -15031
▁임종 -15032
▁전서 -15033
합중국 -15034
▁전해져 -15035
▁천도교 -15036
▁1851 -15037
▁그린란드 -15038
운수 -15039
▁골라 -15040
▁동차 -15041
▁떨쳤 -15042
▁정청 -15043
▁폴라 -15044
▁환율 -15045
ient -15046
▁새뮤얼 -15047
▁정치국 -15048
▁크루즈 -15049
▁해준다 -15050
▁중앙아메리카 -15051
▁밋 -15052
간지 -15053
군다 -15054
och -15055
▁디나 -15056
▁라플 -15057
▁면담 -15058
▁미칠 -15059
▁산인 -15060
▁우표 -15061
▁적정 -15062
▁전미 -15063
▁해킹 -15064
▁화염 -15065
▁Bel -15066
▁물려주 -15067
▁사나이 -15068
▁벙 -15069
▁김두 -15070
▁불려 -15071
▁침범 -15072
▁튜브 -15073
▁팔린 -15074
▁폐차 -15075
▁한복 -15076
▁Way -15077
▁캐스터 -15078
▁고등교육 -15079
▁세인트루이스 -15080
센터 -15081
친왕 -15082
테랑 -15083
▁강좌 -15084
▁민원 -15085
▁바늘 -15086
▁아자 -15087
▁오시 -15088
▁옥사 -15089
▁원점 -15090
▁공주시 -15091
▁반대편 -15092
▁상반기 -15093
▁유니언 -15094
ste -15095
▁Il -15096
▁능가 -15097
▁모티 -15098
▁목장 -15099
▁서체 -15100
▁숙박 -15101
▁증식 -15102
▁클랜 -15103
▁향수 -15104
▁207 -15105
▁End -15106
▁NAD -15107
▁종사자 -15108
▁Road -15109
▁YG -15110
▁균일 -15111
▁기마 -15112
▁성행 -15113
▁태화 -15114
▁기념장 -15115
▁보호법 -15116
▁사할린 -15117
▁1820 -15118
▁파푸아뉴기니 -15119
기아 -15120
▁Ca -15121
▁IF -15122
▁급성 -15123
▁기조 -15124
▁로브 -15125
▁부양 -15126
▁생몰 -15127
▁유골 -15128
▁장정 -15129
▁정오 -15130
▁타선 -15131
▁폐허 -15132
▁흥원 -15133
고로드 -15134
▁앞바다 -15135
스코리아 -15136
▁땀 -15137
▁샷 -15138
능력 -15139
▁명상 -15140
▁박자 -15141
▁백조 -15142
▁재물 -15143
▁리바운드 -15144
▁브란덴부르크 -15145
모음 -15146
▁고승 -15147
▁곡식 -15148
▁기공 -15149
▁날리 -15150
▁수당 -15151
▁은신 -15152
▁지령 -15153
▁푸드 -15154
▁항생 -15155
▁Bea -15156
▁net -15157
▁뉴기니 -15158
▁슈퍼컵 -15159
▁웨이브 -15160
▁윤치영 -15161
▁최성기 -15162
▁프리츠 -15163
▁클러스터 -15164
▁협동조합 -15165
▁라이베리아 -15166
osa -15167
▁가독 -15168
▁게놈 -15169
▁공병 -15170
▁기통 -15171
▁라크 -15172
▁로니 -15173
▁안팎 -15174
▁웨어 -15175
▁해지 -15176
▁Carl -15177
계약 -15178
▁넘버 -15179
▁서점 -15180
▁싸울 -15181
▁월남 -15182
▁육식 -15183
▁차명 -15184
▁토바 -15185
▁베르나 -15186
▁시그마 -15187
▁테두리 -15188
▁챈 -15189
디언 -15190
변수 -15191
투리 -15192
▁개경 -15193
▁걸프 -15194
▁디바 -15195
▁배당 -15196
▁엄지 -15197
▁염두 -15198
▁정역 -15199
▁쳐서 -15200
▁토키 -15201
▁티모 -15202
▁확충 -15203
이치로 -15204
ball -15205
itch -15206
▁맥스웰 -15207
▁백악관 -15208
▁빼앗기 -15209
▁외교부 -15210
▁이성질 -15211
▁후쿠시마현 -15212
▁매사추세츠주 -15213
▁공문 -15214
▁서한 -15215
▁승낙 -15216
▁왕명 -15217
▁자장 -15218
▁전범 -15219
▁연방군 -15220
▁함경도 -15221
▁This -15222
▁와카야마 -15223
13 -15224
ipp -15225
▁관군 -15226
▁뒤덮 -15227
▁몰수 -15228
▁자위 -15229
▁퇴진 -15230
▁히노 -15231
▁370 -15232
▁단말기 -15233
▁미친다 -15234
▁슈트라 -15235
▁아세틸 -15236
▁중거리 -15237
▁루스벨트 -15238
▁썰 -15239
은사 -15240
▁격전 -15241
▁레몬 -15242
▁무찌 -15243
▁영수 -15244
▁용사 -15245
▁이룰 -15246
▁조시 -15247
▁서태지 -15248
▁순천시 -15249
▁올라와 -15250
▁재미있 -15251
▁흔들리 -15252
▁미합중국 -15253
▁중앙은행 -15254
▁슈트라우스 -15255
▁켜 -15256
보당 -15257
der -15258
▁DR -15259
▁나투 -15260
▁뚜껑 -15261
▁법규 -15262
▁양천 -15263
▁747 -15264
▁der -15265
▁sub -15266
ister -15267
CO -15268
ks -15269
이에 -15270
▁가선 -15271
▁군마 -15272
▁귀인 -15273
▁낭비 -15274
▁다쓰 -15275
▁동거 -15276
▁무색 -15277
▁문물 -15278
▁상계 -15279
▁안식 -15280
▁유카 -15281
▁풀이 -15282
▁도망쳤 -15283
▁안양시 -15284
▁조광조 -15285
▁근본번뇌 -15286
▁South -15287
ij -15288
르산 -15289
▁my -15290
▁리타 -15291
▁만류 -15292
▁변론 -15293
▁시영 -15294
▁실은 -15295
▁염화 -15296
▁자네 -15297
▁캐피 -15298
▁호찌 -15299
▁Ger -15300
▁관심사 -15301
▁시달렸 -15302
▁프론트 -15303
▁중앙일보 -15304
네르 -15305
화당 -15306
▁Lu -15307
▁fr -15308
▁란트 -15309
▁맞배 -15310
▁백운 -15311
▁센다 -15312
▁싸운 -15313
▁잔여 -15314
▁조동 -15315
▁통솔 -15316
▁플랑 -15317
▁획기 -15318
레이트 -15319
▁됩니다 -15320
▁여수시 -15321
ca -15322
면적 -15323
▁관아 -15324
▁불태 -15325
▁소양 -15326
▁중건 -15327
▁타쿠 -15328
▁헤더 -15329
▁Die -15330
▁김해시 -15331
▁슈투트 -15332
▁제프리 -15333
▁찾아오 -15334
▁콘퍼런스 -15335
▁슈투트가르트 -15336
박사 -15337
소문 -15338
▁us -15339
▁금정 -15340
▁산재 -15341
▁쏟아 -15342
▁엘레 -15343
▁행보 -15344
▁방위군 -15345
▁지리산 -15346
▁창립자 -15347
▁컨설팅 -15348
▁오아시스 -15349
▁오프라인 -15350
댓값 -15351
신저 -15352
▁소주 -15353
▁아끼 -15354
▁예편 -15355
▁판명 -15356
▁하라 -15357
▁res -15358
▁개화파 -15359
▁대항전 -15360
▁원주시 -15361
▁1814 -15362
▁아우구스 -15363
▁펜실베이니아주 -15364
주석 -15365
▁놓치 -15366
▁대입 -15367
▁듀스 -15368
▁레트 -15369
▁모교 -15370
▁산문 -15371
▁은밀 -15372
▁일삼 -15373
▁저해 -15374
▁직렬 -15375
▁차림 -15376
▁칠성 -15377
▁해질 -15378
에이고 -15379
▁420 -15380
▁브레멘 -15381
▁선거인 -15382
▁아스카 -15383
▁테오도 -15384
▁사무라이 -15385
▁샌디에이고 -15386
계사 -15387
악산 -15388
효소 -15389
▁나토 -15390
▁발광 -15391
▁복속 -15392
▁생도 -15393
▁하후 -15394
스크림 -15395
▁org -15396
▁물러난 -15397
▁슈미트 -15398
▁조각가 -15399
▁환승역 -15400
▁안드로메다 -15401
디슨 -15402
반정 -15403
촌리 -15404
▁Ob -15405
▁군도 -15406
▁사병 -15407
▁생쥐 -15408
▁안겨 -15409
▁월화 -15410
▁주포 -15411
▁퇴치 -15412
▁호로 -15413
▁호른 -15414
▁활기 -15415
▁new -15416
▁컨벤션 -15417
▁크라운 -15418
▁바그다드 -15419
▁Project -15420
▁멱 -15421
▁텅 -15422
▁발판 -15423
▁법상 -15424
▁상환 -15425
▁석권 -15426
▁앨리 -15427
▁예멘 -15428
▁원효 -15429
▁휴일 -15430
▁곧이어 -15431
▁업로드 -15432
▁인지도 -15433
▁조각상 -15434
▁표트르 -15435
▁Hist -15436
80 -15437
▁펩 -15438
▁HS -15439
▁거머 -15440
▁이카 -15441
▁헤겔 -15442
▁아키텐 -15443
▁우에노 -15444
▁주제가 -15445
▁치료제 -15446
▁헤르만 -15447
▁회고록 -15448
▁세계유산 -15449
▁세르게이 -15450
▁미스코리아 -15451
▁캣 -15452
대비 -15453
▁경화 -15454
▁괜찮 -15455
▁구아 -15456
▁뉴런 -15457
▁복부 -15458
▁선과 -15459
▁어학 -15460
▁카툰 -15461
▁환산 -15462
▁후견 -15463
▁Cla -15464
▁Mil -15465
▁공학자 -15466
▁토요타 -15467
ush -15468
▁구타 -15469
▁도키 -15470
▁문수 -15471
▁방학 -15472
▁변혁 -15473
▁신병 -15474
▁실렸 -15475
▁위크 -15476
▁출사 -15477
▁컴필 -15478
▁키리 -15479
▁홍익 -15480
▁게이오 -15481
▁시니어 -15482
▁컴필레이션 -15483
내티 -15484
메드 -15485
사유 -15486
신보 -15487
▁호적 -15488
▁후루 -15489
▁연대장 -15490
▁희극인 -15491
press -15492
▁신시내티 -15493
▁키르기스 -15494
▁뜬 -15495
ita -15496
▁맞물 -15497
▁맡겨 -15498
▁성현 -15499
▁쓰일 -15500
▁오도 -15501
oman -15502
▁강대국 -15503
▁자릿수 -15504
▁커리어 -15505
▁1853 -15506
▁Gold -15507
▁아오모리 -15508
▁퀄 -15509
바퀴 -15510
▁FF -15511
▁앞뒤 -15512
▁추장 -15513
로그램 -15514
mann -15515
rown -15516
▁스케줄 -15517
▁Hell -15518
▁뉴멕시코 -15519
▁당상 -15520
▁명륜 -15521
▁부식 -15522
▁숙명 -15523
▁양동 -15524
▁유충 -15525
▁처마 -15526
▁Sub -15527
▁und -15528
▁교육감 -15529
▁목표물 -15530
▁포식자 -15531
▁VS -15532
▁규약 -15533
▁모션 -15534
▁박찬 -15535
▁보어 -15536
▁수마 -15537
▁술라 -15538
▁안심 -15539
▁애드 -15540
▁억울 -15541
▁열악 -15542
▁오마 -15543
▁전봉 -15544
▁정실 -15545
▁향신 -15546
▁니가타 -15547
▁부르봉 -15548
▁청문회 -15549
▁친환경 -15550
irect -15551
▁1836 -15552
▁Europe -15553
▁벚 -15554
길준 -15555
의금 -15556
▁Jr -15557
▁거창 -15558
▁결말 -15559
▁승률 -15560
▁HMS -15561
▁미트라 -15562
▁카디널 -15563
▁1776 -15564
▁1844 -15565
▁구시 -15566
▁라울 -15567
▁불릴 -15568
▁징집 -15569
▁칼륨 -15570
▁헌종 -15571
▁Ben -15572
▁가이아 -15573
▁시미즈 -15574
▁참전하 -15575
▁최진실 -15576
▁현미경 -15577
▁탬 -15578
대성 -15579
몽골 -15580
▁천자 -15581
▁피살 -15582
▁협곡 -15583
타나베 -15584
▁North -15585
▁벳 -15586
엽수 -15587
울루 -15588
▁군복 -15589
▁안면 -15590
▁오인 -15591
▁익히 -15592
▁일면 -15593
▁자키 -15594
▁재화 -15595
▁쫓아 -15596
▁추운 -15597
▁후난 -15598
▁오슬로 -15599
▁프라임 -15600
▁바이마르 -15601
yt -15602
렌스 -15603
여지 -15604
정변 -15605
▁가세 -15606
▁백지 -15607
▁백혈 -15608
▁버펄 -15609
▁비싸 -15610
▁빌드 -15611
▁셔틀 -15612
▁손수 -15613
▁아지 -15614
▁양궁 -15615
▁이만 -15616
▁일차 -15617
폴리탄 -15618
▁교황령 -15619
▁바뀐다 -15620
▁적십자 -15621
▁메트로폴리탄 -15622
도감 -15623
제철 -15624
▁공석 -15625
▁니케 -15626
▁야권 -15627
▁열람 -15628
▁자성 -15629
▁피자 -15630
▁225 -15631
▁MLB -15632
▁돌고래 -15633
▁무지개 -15634
▁셰퍼드 -15635
▁혼합물 -15636
▁Company -15637
무장 -15638
▁감축 -15639
▁강유 -15640
▁모태 -15641
▁베크 -15642
▁출격 -15643
▁후이 -15644
▁됐으나 -15645
▁음식점 -15646
▁Plan -15647
▁아이파크 -15648
▁랙 -15649
재판 -15650
▁가뭄 -15651
▁내릴 -15652
▁두터 -15653
▁매듭 -15654
▁카와 -15655
▁학당 -15656
▁서스펜 -15657
▁선제후 -15658
▁송진우 -15659
▁스케일 -15660
▁조봉암 -15661
▁튀어나 -15662
놀드 -15663
세서 -15664
암사 -15665
▁동급 -15666
▁민선 -15667
▁바인 -15668
▁보우 -15669
▁장이 -15670
▁tvN -15671
▁게임즈 -15672
▁정해졌 -15673
▁2022 -15674
▁세웠으며 -15675
▁원종공신 -15676
▁꽝 -15677
▁멕 -15678
▁탔 -15679
▁더빙 -15680
▁돌렸 -15681
▁묘호 -15682
▁박경 -15683
▁오와 -15684
▁이문 -15685
▁이희 -15686
▁하층 -15687
▁화풍 -15688
▁댈러스 -15689
▁야마다 -15690
▁1793 -15691
▁리시 -15692
▁멜라 -15693
▁산둥 -15694
▁일주 -15695
▁전열 -15696
▁추밀 -15697
▁클럭 -15698
▁사학자 -15699
▁파스칼 -15700
▁한자어 -15701
▁2500 -15702
▁미야기현 -15703
▁Enter -15704
루즈 -15705
▁고후 -15706
▁되살 -15707
▁두르 -15708
▁바젤 -15709
▁산동 -15710
▁순찰 -15711
▁왕당 -15712
▁폐하 -15713
▁She -15714
▁대관식 -15715
▁매니아 -15716
▁장갑차 -15717
▁책임지 -15718
▁휴대폰 -15719
▁Jack -15720
▁With -15721
60 -15722
MP -15723
뮬러 -15724
▁BO -15725
▁가의 -15726
▁닛산 -15727
▁로망 -15728
▁로큰 -15729
▁맹렬 -15730
▁이질 -15731
▁친화 -15732
스타인 -15733
▁Div -15734
▁가져가 -15735
▁비잔틴 -15736
▁trans -15737
▁건안 -15738
▁수퍼 -15739
▁아연 -15740
▁여정 -15741
▁오차 -15742
▁윈난 -15743
▁짐바 -15744
▁코로 -15745
▁타파 -15746
▁호그 -15747
▁Mat -15748
▁거주자 -15749
▁부사관 -15750
▁오르간 -15751
▁이회창 -15752
▁1837 -15753
▁Ever -15754
▁띈 -15755
다보 -15756
▁꾸몄 -15757
▁레비 -15758
▁잔혹 -15759
▁로스트 -15760
▁로큰롤 -15761
▁물리쳤 -15762
가야 -15763
▁메모 -15764
▁보국 -15765
▁신익 -15766
▁장강 -15767
▁보리스 -15768
▁유길준 -15769
▁관음보살 -15770
▁불법행위 -15771
리언 -15772
장군 -15773
플레 -15774
▁논산 -15775
▁아노 -15776
▁조회 -15777
▁초식 -15778
▁커브 -15779
▁개척자 -15780
▁오메가 -15781
of -15782
ury -15783
▁갇혀 -15784
▁금천 -15785
▁김학 -15786
▁마티 -15787
▁불문 -15788
▁츠카 -15789
루엔자 -15790
▁ind -15791
▁대대장 -15792
▁신호장 -15793
▁전시관 -15794
▁펼쳐진 -15795
▁자카르타 -15796
민당 -15797
황제 -15798
▁왕릉 -15799
▁총감 -15800
▁콜론 -15801
▁통감 -15802
▁Top -15803
▁노르트 -15804
▁데이트 -15805
▁부적절 -15806
▁형용사 -15807
▁갑작스럽 -15808
▁건국훈장 -15809
▁브로드웨이 -15810
▁볶 -15811
omb -15812
▁BB -15813
▁거병 -15814
▁기스 -15815
▁서약 -15816
▁차역 -15817
▁춘계 -15818
▁펭귄 -15819
▁MIT -15820
▁Vir -15821
▁붙잡혀 -15822
▁앨버트 -15823
▁중공군 -15824
▁기타큐슈 -15825
▁못했으며 -15826
▁골절 -15827
▁사연 -15828
▁주유 -15829
▁카펠 -15830
▁희미 -15831
▁거느렸 -15832
▁기본법 -15833
▁운전자 -15834
▁가로질러 -15835
▁아미타불 -15836
▁레닌그라드 -15837
▁알렉산데르 -15838
UI -15839
둘러 -15840
연맹 -15841
▁기미 -15842
▁라벨 -15843
▁병장 -15844
▁생생 -15845
▁위즈 -15846
▁진위 -15847
▁Mad -15848
▁Windows -15849
던트 -15850
양구 -15851
완다 -15852
태자 -15853
▁고관 -15854
▁라프 -15855
▁위트 -15856
▁잉여 -15857
▁치마 -15858
▁주거지 -15859
과학 -15860
뜨린 -15861
브웨 -15862
작전 -15863
ida -15864
▁Sn -15865
▁딱딱 -15866
▁떠돌 -15867
▁사생 -15868
▁생년 -15869
▁시성 -15870
▁카일 -15871
▁퇴출 -15872
▁Hel -15873
▁Jon -15874
▁end -15875
▁양산시 -15876
▁트레일 -15877
▁다카하시 -15878
▁사이언스 -15879
go -15880
▁짚 -15881
UCN -15882
▁Ha -15883
▁가령 -15884
▁군기 -15885
▁봉분 -15886
▁용맹 -15887
▁제비 -15888
진보당 -15889
▁440 -15890
▁랴오닝 -15891
▁스케치 -15892
▁안데스 -15893
▁울주군 -15894
▁생물학자 -15895
▁크리스티나 -15896
▁훅 -15897
▁DA -15898
▁up -15899
▁베티 -15900
▁서안 -15901
▁폭주 -15902
▁후회 -15903
▁독재자 -15904
▁아니면 -15905
▁유전체 -15906
▁직사각 -15907
▁플루토늄 -15908
버터 -15909
▁구비 -15910
▁근세 -15911
▁넓히 -15912
▁무위 -15913
▁자백 -15914
▁장지 -15915
▁제지 -15916
▁호화 -15917
해방군 -15918
iter -15919
▁625 -15920
▁강화군 -15921
▁콘라트 -15922
▁태어날 -15923
▁1795 -15924
▁1832 -15925
▁인민해방군 -15926
▁인플루엔자 -15927
▁Island -15928
빨리 -15929
질량 -15930
▁kW -15931
▁달콤 -15932
▁반정 -15933
▁변한 -15934
▁사체 -15935
▁양극 -15936
▁GPS -15937
▁Sil -15938
▁배트맨 -15939
▁항공편 -15940
▁IUCN -15941
▁아이스크림 -15942
방스 -15943
토크 -15944
피크 -15945
EEE -15946
▁구전 -15947
▁동률 -15948
▁모치 -15949
▁뮐러 -15950
▁변함 -15951
▁보아 -15952
▁소량 -15953
▁소서 -15954
▁어부 -15955
▁오이타 -15956
▁일진회 -15957
▁만장일치 -15958
들였 -15959
탄두 -15960
▁MD -15961
▁갑신 -15962
▁강국 -15963
▁규합 -15964
▁넓혀 -15965
▁문건 -15966
▁바쳐 -15967
▁부락 -15968
▁세밀 -15969
▁소피 -15970
▁청일 -15971
▁축복 -15972
▁통킹 -15973
▁포상 -15974
▁허물 -15975
▁Nat -15976
▁Sum -15977
▁사생활 -15978
▁공군기지 -15979
▁Richard -15980
▁둠 -15981
▁뮈 -15982
매기 -15983
ada -15984
▁김주 -15985
▁득실 -15986
▁빅터 -15987
▁선단 -15988
▁앨라 -15989
▁인먼 -15990
▁자석 -15991
▁족장 -15992
▁테헤 -15993
▁특명 -15994
▁라스트 -15995
▁자본가 -15996
▁트로트 -15997
▁북대서양 -15998
▁슈퍼스타 -15999
▁Christian -16000
히데 -16001
iet -16002
ird -16003
▁교재 -16004
▁그늘 -16005
▁근위 -16006
▁날렸 -16007
▁너희 -16008
▁옥천 -16009
▁최용 -16010
▁파고 -16011
▁순교자 -16012
▁엄청나 -16013
▁판매고 -16014
▁보컬리스트 -16015
▁아우구스투스 -16016
선교 -16017
▁광서 -16018
▁교명 -16019
▁뉴잉 -16020
▁라임 -16021
▁제고 -16022
▁로드리게스 -16023
▁남경 -16024
▁니즈 -16025
▁미러 -16026
▁양원 -16027
▁인계 -16028
▁장경 -16029
▁적법 -16030
▁점토 -16031
▁키트 -16032
▁화원 -16033
▁고문서 -16034
▁길거리 -16035
▁끌려가 -16036
▁동북부 -16037
▁바닷가 -16038
▁연금술 -16039
▁지방도 -16040
▁1842 -16041
▁1847 -16042
▁뤄 -16043
▁MT -16044
▁단양 -16045
▁센타 -16046
▁스플 -16047
▁유민 -16048
▁유틸 -16049
▁체로 -16050
▁헬스 -16051
▁바빌론 -16052
▁클리어 -16053
▁유틸리티 -16054
LC -16055
▁SG -16056
▁간지 -16057
▁김도 -16058
▁노카 -16059
▁리나 -16060
▁설리 -16061
▁예금 -16062
▁유보 -16063
▁잡힌 -16064
▁캐슬 -16065
▁현청 -16066
▁렌더링 -16067
▁부등식 -16068
▁이케다 -16069
▁타일러 -16070
▁와타나베 -16071
▁Battle -16072
▁뵈 -16073
▁웜 -16074
▁IA -16075
▁fl -16076
▁국문 -16077
▁근간 -16078
▁변성 -16079
▁야코 -16080
▁에페 -16081
▁우기 -16082
▁제방 -16083
▁홀수 -16084
불명 -16085
ady -16086
▁롤러 -16087
▁빛깔 -16088
▁소진 -16089
▁스쿼 -16090
▁죽일 -16091
▁Bra -16092
▁이유로 -16093
▁1792 -16094
▁IEEE -16095
▁테크놀로지 -16096
시게 -16097
▁대여 -16098
▁동대 -16099
▁부엌 -16100
▁부화 -16101
▁스펙 -16102
▁에리 -16103
▁피쳐 -16104
▁한하 -16105
▁mod -16106
▁미성년 -16107
▁바나나 -16108
▁국가원수 -16109
▁남한산성 -16110
▁콘스탄티누스 -16111
ATA -16112
▁CT -16113
▁nm -16114
▁공경 -16115
▁깨지 -16116
▁부기 -16117
▁사탄 -16118
▁상층 -16119
▁어지 -16120
▁조우 -16121
▁진심 -16122
▁확진 -16123
▁Max -16124
▁뉴올리 -16125
▁로빈슨 -16126
▁실리콘 -16127
▁오리엔 -16128
▁일렉트로닉 -16129
탄올 -16130
▁과세 -16131
▁미에 -16132
▁불쾌 -16133
▁산정 -16134
▁재회 -16135
▁코일 -16136
▁탄수 -16137
▁여주인 -16138
▁테크노 -16139
▁What -16140
▁콜럼버스 -16141
gy -16142
나들 -16143
▁BR -16144
▁교인 -16145
▁노마 -16146
▁무패 -16147
▁슬리 -16148
▁시제 -16149
▁원곡 -16150
▁으러 -16151
▁365 -16152
▁Aut -16153
▁간호사 -16154
▁기울였 -16155
▁김종직 -16156
▁에이지 -16157
▁파르마 -16158
ident -16159
▁아드리아 -16160
▁Street -16161
라과 -16162
메랄 -16163
배마 -16164
▁끼친 -16165
▁논증 -16166
▁농담 -16167
▁달력 -16168
▁면하 -16169
▁배타 -16170
▁앙상 -16171
▁어인 -16172
▁중등 -16173
▁르완다 -16174
▁아우르 -16175
▁저질렀 -16176
의금부사 -16177
▁Play -16178
▁모노이드 -16179
▁앨라배마 -16180
▁뉴잉글랜드 -16181
▁NX -16182
▁RA -16183
▁라쿠 -16184
▁브렌 -16185
▁산술 -16186
▁세스 -16187
▁세일 -16188
▁수구 -16189
▁진성 -16190
▁480 -16191
▁보조금 -16192
▁컨퍼런스 -16193
▁inter -16194
▁저널리스트 -16195
▁밧 -16196
▁팻 -16197
마을 -16198
자락 -16199
▁군량 -16200
▁능숙 -16201
▁닷컴 -16202
▁에노 -16203
▁여관 -16204
▁인척 -16205
▁중신 -16206
▁증축 -16207
▁키타 -16208
▁USA -16209
▁유엔군 -16210
▁카디널스 -16211
린트 -16212
초프 -16213
els -16214
▁ft -16215
▁반달 -16216
▁상회 -16217
▁승단 -16218
▁요도 -16219
▁원만 -16220
▁유계 -16221
▁접두 -16222
▁쿠마 -16223
▁현악 -16224
▁효성 -16225
▁518 -16226
▁Rem -16227
▁공성전 -16228
▁그러면 -16229
▁기울이 -16230
▁오른다 -16231
▁춘천시 -16232
▁태블릿 -16233
▁1623 -16234
▁레닌주의 -16235
▁스테파노 -16236
▁프레슬리 -16237
▁Grand -16238
▁Sport -16239
고사 -16240
평면 -16241
▁RC -16242
▁du -16243
▁김시 -16244
▁눌러 -16245
▁윤곽 -16246
▁의례 -16247
▁잡혔 -16248
▁죄인 -16249
▁진구 -16250
▁카로 -16251
ople -16252
▁경덕왕 -16253
▁되돌려 -16254
▁재판장 -16255
▁향신료 -16256
▁Long -16257
▁니카라과 -16258
▁House -16259
▁Light -16260
유행 -16261
bor -16262
▁NM -16263
▁가든 -16264
▁끔찍 -16265
▁상이 -16266
▁아호 -16267
▁지크 -16268
▁Tor -16269
▁결의안 -16270
▁사이다 -16271
▁지극히 -16272
▁Beat -16273
▁남아시아 -16274
▁라이센스 -16275
▁알프레드 -16276
▁Joseph -16277
▁궁주 -16278
▁금관 -16279
▁상설 -16280
▁스펜 -16281
▁양념 -16282
▁유관 -16283
▁응력 -16284
▁이홍 -16285
▁자갈 -16286
▁콜린 -16287
▁합장 -16288
tain -16289
▁Tre -16290
▁예수교 -16291
▁Just -16292
▁일렉트릭 -16293
▁짐바브웨 -16294
▁호소카와 -16295
▁무형문화재 -16296
▁Science -16297
tr -16298
▁Na -16299
▁te -16300
▁경합 -16301
▁궁수 -16302
▁내림 -16303
▁대등 -16304
▁레티 -16305
▁마자 -16306
▁모를 -16307
▁벤트 -16308
▁비료 -16309
▁안주 -16310
▁에트 -16311
▁하지 -16312
▁회차 -16313
▁Bad -16314
▁엎 -16315
▁쿰 -16316
날레 -16317
남동 -16318
▁ED -16319
▁거문 -16320
▁광시 -16321
▁교학 -16322
▁노엘 -16323
▁미녀 -16324
▁세제 -16325
▁종실 -16326
▁창씨 -16327
씨식물 -16328
▁아이젠 -16329
ittle -16330
▁서비스업 -16331
▁Society -16332
니언 -16333
무지 -16334
▁모빌 -16335
▁윤년 -16336
▁율법 -16337
▁좌랑 -16338
▁차오 -16339
▁템플 -16340
▁향로 -16341
공화당 -16342
▁나와서 -16343
▁록히드 -16344
▁사가미 -16345
▁아놀드 -16346
▁혈액형 -16347
▁민주공화당 -16348
▁뿜 -16349
▁곤살 -16350
▁관개 -16351
▁랜덤 -16352
▁리차 -16353
▁벵골 -16354
▁시타 -16355
▁에볼 -16356
▁연하 -16357
▁오보 -16358
▁청군 -16359
▁항문 -16360
프랑스 -16361
apan -16362
▁Mem -16363
▁여러분 -16364
▁영문학 -16365
▁올라왔 -16366
▁토론회 -16367
노스아이 -16368
노스아이레스 -16369
▁부에노스아이레스 -16370
IVE -16371
▁권투 -16372
▁미켈 -16373
▁범람 -16374
▁석재 -16375
▁수표 -16376
▁요가 -16377
▁트림 -16378
▁평하 -16379
▁850 -16380
▁가우스 -16381
▁가치관 -16382
▁부사장 -16383
▁석회암 -16384
▁스러워 -16385
▁어도비 -16386
▁제주시 -16387
▁지배했 -16388
▁테헤란 -16389
▁1300 -16390
▁고바야시 -16391
▁플랑드르 -16392
las -16393
oon -16394
▁SW -16395
▁대용 -16396
▁리안 -16397
▁식이 -16398
▁약품 -16399
▁양정 -16400
▁원술 -16401
▁유상 -16402
▁퀴즈 -16403
▁특공 -16404
▁Web -16405
▁par -16406
▁자오선 -16407
formation -16408
▁랠 -16409
▁잼 -16410
▁짠 -16411
led -16412
▁김장 -16413
▁무공 -16414
▁애호 -16415
▁자막 -16416
▁폐교 -16417
▁개개인 -16418
▁아파치 -16419
▁엘비스 -16420
▁서귀포시 -16421
▁이리하여 -16422
르카 -16423
쳐서 -16424
▁다쿠 -16425
▁레저 -16426
▁무겁 -16427
▁사산 -16428
▁시력 -16429
▁예프 -16430
▁탈피 -16431
▁학급 -16432
▁흑색 -16433
▁마코토 -16434
▁비행사 -16435
▁수영장 -16436
▁유공자 -16437
▁정몽주 -16438
▁후반전 -16439
▁심리학자 -16440
▁여러해살이풀 -16441
40 -16442
▁둑 -16443
니츠 -16444
라는 -16445
산업 -16446
▁단수 -16447
▁담수 -16448
▁루키 -16449
▁무가 -16450
▁바니 -16451
▁속국 -16452
▁신관 -16453
▁에레 -16454
▁으뜸 -16455
▁자각 -16456
▁장택 -16457
▁직류 -16458
▁Roy -16459
▁로저스 -16460
▁사하라 -16461
▁생몰년 -16462
▁수백만 -16463
▁CA -16464
▁균등 -16465
▁베가 -16466
▁수주 -16467
▁시편 -16468
▁웅진 -16469
▁장론 -16470
▁해자 -16471
▁당뇨병 -16472
▁무신론 -16473
▁에이브 -16474
▁인류학 -16475
▁Baby -16476
▁격침 -16477
▁담임 -16478
▁두뇌 -16479
▁매슈 -16480
▁발터 -16481
▁섞인 -16482
▁영도 -16483
▁유재 -16484
▁컬링 -16485
▁흐트 -16486
▁430 -16487
▁남해군 -16488
▁사천왕 -16489
▁예비군 -16490
▁주머니쥐 -16491
득점 -16492
인구 -16493
▁깊숙 -16494
▁따지 -16495
▁마늘 -16496
▁반향 -16497
▁이창 -16498
▁인성 -16499
▁켈빈 -16500
▁트론 -16501
사이클 -16502
▁Soc -16503
▁감마선 -16504
▁중심핵 -16505
▁맞배지붕 -16506
디드 -16507
▁FR -16508
▁과감 -16509
▁끼워 -16510
▁다윗 -16511
▁세울 -16512
▁수의 -16513
▁씨름 -16514
▁용역 -16515
▁작자 -16516
▁212 -16517
▁301 -16518
▁신익희 -16519
▁플래닛 -16520
▁막시밀리 -16521
▁system -16522
▁KD -16523
▁나기 -16524
▁덕수 -16525
▁도이 -16526
▁문성 -16527
▁미디 -16528
▁불복 -16529
▁성제 -16530
▁오랑 -16531
▁왕좌 -16532
▁중학 -16533
▁천태 -16534
▁흉내 -16535
uter -16536
▁베이직 -16537
▁아이작 -16538
▁앙상블 -16539
▁페르시 -16540
▁평의원 -16541
▁1841 -16542
▁Arch -16543
▁드러난다 -16544
▁유니코드 -16545
세르 -16546
▁당장 -16547
▁매복 -16548
▁무쓰 -16549
▁서역 -16550
▁소포 -16551
▁승선 -16552
▁시차 -16553
▁아킬 -16554
▁압수 -16555
▁콘스 -16556
▁현관 -16557
▁후면 -16558
하우스 -16559
▁222 -16560
▁난쟁이 -16561
▁남북조 -16562
▁유기체 -16563
▁이와테 -16564
IO -16565
러져 -16566
▁균열 -16567
▁능하 -16568
▁니체 -16569
▁머큐 -16570
▁사파 -16571
▁수문 -16572
▁수질 -16573
▁일보 -16574
▁장차 -16575
▁직각 -16576
▁철기 -16577
▁총수 -16578
▁출병 -16579
학생회 -16580
▁광합성 -16581
▁신안군 -16582
▁영화관 -16583
▁전동기 -16584
▁이마가와 -16585
▁총학생회 -16586
▁쏠 -16587
네오 -16588
는점 -16589
데오 -16590
▁가창 -16591
▁도약 -16592
▁만물 -16593
▁무소 -16594
▁변했 -16595
▁워스 -16596
▁장준 -16597
▁초계 -16598
over -16599
▁강릉시 -16600
▁대혁명 -16601
▁메신저 -16602
▁을수록 -16603
▁클라리 -16604
▁이오니아 -16605
▁캥 -16606
기둥 -16607
덱스 -16608
▁결렬 -16609
▁김은 -16610
▁라시 -16611
▁리언 -16612
▁린다 -16613
▁안톤 -16614
▁양위 -16615
▁열기 -16616
▁특위 -16617
▁품목 -16618
adem -16619
▁기생충 -16620
▁날아가 -16621
▁백두산 -16622
▁시부야 -16623
▁클레어 -16624
▁하카타 -16625
▁쐐 -16626
▁나바 -16627
▁노총 -16628
▁니치 -16629
▁무주 -16630
▁박태 -16631
▁벤츠 -16632
▁비어 -16633
▁적힌 -16634
▁전극 -16635
▁치밀 -16636
▁하산 -16637
▁황위 -16638
ness -16639
▁붉은색 -16640
▁돌아간다 -16641
▁미식축구 -16642
▁다마스쿠스 -16643
토쿠 -16644
피카 -16645
▁결여 -16646
▁고층 -16647
▁듀엣 -16648
▁발진 -16649
▁사미 -16650
▁트램 -16651
▁해커 -16652
리오스 -16653
▁215 -16654
▁386 -16655
▁419 -16656
▁COM -16657
▁등록금 -16658
▁추축국 -16659
▁콜린스 -16660
▁통계학 -16661
▁두드러진 -16662
▁사라진다 -16663
▁CB -16664
▁MO -16665
▁겨냥 -16666
▁경마 -16667
▁쐐기 -16668
▁우디 -16669
▁카다 -16670
▁카보 -16671
▁WHO -16672
▁마피아 -16673
▁변호인 -16674
▁통계청 -16675
▁대법원장 -16676
▁항공우주 -16677
구미 -16678
▁강가 -16679
▁구인 -16680
▁기피 -16681
▁동맥 -16682
▁레크 -16683
▁마태 -16684
▁버밍 -16685
▁송이 -16686
▁수은 -16687
▁스킨 -16688
▁신천 -16689
▁짝수 -16690
▁290 -16691
▁man -16692
▁초대칭 -16693
▁그래픽스 -16694
▁몽고메리 -16695
▁셴 -16696
▁탭 -16697
▁강타 -16698
▁노하 -16699
▁대방 -16700
▁로바 -16701
▁사옥 -16702
▁약수 -16703
▁엿볼 -16704
▁영성 -16705
▁의제 -16706
▁차차 -16707
ally -16708
alth -16709
ander -16710
orean -16711
▁1791 -16712
▁Sound -16713
xt -16714
거성 -16715
▁Da -16716
▁과달 -16717
▁노름 -16718
▁드니 -16719
▁무루 -16720
▁소인 -16721
▁영위 -16722
▁운석 -16723
▁위축 -16724
▁충동 -16725
▁Ann -16726
▁깨달음 -16727
▁베드로 -16728
▁야구부 -16729
▁불러일으켰 -16730
rew -16731
unt -16732
▁RP -16733
▁개축 -16734
▁노라 -16735
▁망가 -16736
▁반납 -16737
▁베컴 -16738
▁선별 -16739
▁스팀 -16740
▁항전 -16741
▁238 -16742
▁How -16743
▁노무라 -16744
▁디에고 -16745
▁라그랑 -16746
▁스타드 -16747
▁펼쳐지 -16748
▁서대문구 -16749
든가 -16750
이상 -16751
▁do -16752
▁em -16753
▁감당 -16754
▁내기 -16755
▁마흐 -16756
▁면은 -16757
▁변증 -16758
▁볼드 -16759
▁유세 -16760
▁전곡 -16761
▁정맥 -16762
▁제타 -16763
▁초석 -16764
▁테살 -16765
▁행운 -16766
▁다행히 -16767
▁마에다 -16768
▁여행자 -16769
▁믈 -16770
날드 -16771
로로 -16772
▁Hy -16773
▁KC -16774
▁오딘 -16775
▁유독 -16776
▁의복 -16777
▁입혔 -16778
▁철근 -16779
▁하강 -16780
▁원정대 -16781
▁뜯 -16782
▁건네 -16783
▁글렌 -16784
▁따돌 -16785
▁마취 -16786
▁명장 -16787
▁북인 -16788
▁사조 -16789
▁악의 -16790
▁애프 -16791
▁유창 -16792
▁이부 -16793
▁접시 -16794
▁퇴계 -16795
▁행한 -16796
▁모델링 -16797
▁바스크 -16798
▁어드밴 -16799
▁캅카스 -16800
▁포인터 -16801
▁에이전트 -16802
▁소크라테스 -16803
락부 -16804
팔렌 -16805
▁김석 -16806
▁엘라 -16807
▁인삼 -16808
▁정일 -16809
▁진하 -16810
▁컵스 -16811
▁황하 -16812
obal -16813
▁군주제 -16814
▁레코딩 -16815
▁사다리 -16816
▁왕당파 -16817
▁적절히 -16818
▁카리스 -16819
▁White -16820
▁베오그라드 -16821
▁켐 -16822
처럼 -16823
uch -16824
unk -16825
▁공지 -16826
▁귀순 -16827
▁기교 -16828
▁마초 -16829
▁매기 -16830
▁셔츠 -16831
▁체질 -16832
▁Are -16833
▁나눈다 -16834
▁루카스 -16835
▁생산자 -16836
▁Power -16837
▁Stand -16838
▁General -16839
▁뭔 -16840
▁쏜 -16841
▁남포 -16842
▁대정 -16843
▁로런 -16844
▁산체 -16845
▁장승 -16846
▁즐겼 -16847
▁천구 -16848
▁리그컵 -16849
▁이치로 -16850
▁조병옥 -16851
▁카지노 -16852
▁1597 -16853
▁1843 -16854
▁아르바이트 -16855
마타 -16856
시험 -16857
▁강자 -16858
▁봉헌 -16859
▁북송 -16860
▁세타 -16861
▁이설 -16862
▁잉크 -16863
▁코이 -16864
▁혼돈 -16865
▁습니까 -16866
▁에다가 -16867
▁즐거움 -16868
▁Show -16869
분투 -16870
비에 -16871
입자 -16872
▁거품 -16873
▁견훤 -16874
▁놓였 -16875
▁블러 -16876
▁시역 -16877
▁알마 -16878
▁에뮬 -16879
▁윗면 -16880
▁이색 -16881
▁접목 -16882
▁증직 -16883
▁표어 -16884
▁Cat -16885
▁Jul -16886
▁통도사 -16887
▁프리킥 -16888
▁Mont -16889
▁독립선언 -16890
▁베르사유 -16891
네프 -16892
보라 -16893
어냈 -16894
ano -16895
▁kr -16896
▁가모 -16897
▁거시 -16898
▁굳이 -16899
▁급기 -16900
▁라지 -16901
▁맞닿 -16902
▁사목 -16903
▁성자 -16904
▁소마 -16905
▁소정 -16906
▁시시 -16907
▁우니 -16908
▁이달 -16909
▁천리 -16910
▁춘향 -16911
▁코우 -16912
▁필살 -16913
▁Lee -16914
▁나카노 -16915
▁선데이 -16916
▁스태프 -16917
▁알아차 -16918
▁야구단 -16919
▁출판물 -16920
▁페드로 -16921
▁1831 -16922
▁상파울루 -16923
쓰네 -16924
제사 -16925
alk -16926
▁강했 -16927
▁걸스 -16928
▁기일 -16929
▁나한 -16930
▁다채 -16931
▁던진 -16932
▁동체 -16933
▁명중 -16934
▁바덴 -16935
▁바바 -16936
▁보훈 -16937
▁안락 -16938
▁월경 -16939
▁젤리 -16940
▁좌천 -16941
arch -16942
▁KST -16943
▁리그전 -16944
▁바실리 -16945
▁재빨리 -16946
▁프로방스 -16947
IST -16948
▁마른 -16949
▁멘델 -16950
▁생포 -16951
▁신궁 -16952
▁영종 -16953
▁외가 -16954
▁유미 -16955
▁유승 -16956
▁장서 -16957
▁청정 -16958
▁한꺼 -16959
지스터 -16960
▁영사관 -16961
▁필리스 -16962
▁합쳐서 -16963
▁마르쿠스 -16964
▁이루어질 -16965
▁한꺼번에 -16966
▁Church -16967
WS -16968
덕궁 -16969
▁공훈 -16970
▁관원 -16971
▁우타 -16972
▁집사 -16973
▁풍기 -16974
던지기 -16975
arth -16976
inus -16977
▁건널목 -16978
▁머큐리 -16979
▁보이즈 -16980
▁안철수 -16981
▁앙드레 -16982
▁유성구 -16983
▁이세이 -16984
▁한국군 -16985
▁핵탄두 -16986
▁1835 -16987
▁Oper -16988
▁York -16989
▁안티오키아 -16990
그램 -16991
데냐 -16992
레앙 -16993
샤오 -16994
일체 -16995
▁가결 -16996
▁구명 -16997
▁데일 -16998
▁무예 -16999
▁박동 -17000
▁불길 -17001
▁사악 -17002
▁어둡 -17003
▁투기 -17004
▁페레 -17005
▁힘쓰 -17006
▁223 -17007
▁737 -17008
▁데이빗 -17009
▁평상시 -17010
▁해수면 -17011
▁Game -17012
▁사르데냐 -17013
▁오스트로 -17014
▁클라이맥스 -17015
▁트랜지스터 -17016
가요 -17017
▁내역 -17018
▁루나 -17019
▁루도 -17020
▁소켓 -17021
▁손책 -17022
▁열거 -17023
▁이크 -17024
▁진천 -17025
▁첫날 -17026
▁총국 -17027
▁치킨 -17028
▁커트 -17029
▁코크 -17030
ider -17031
▁TBC -17032
▁농민군 -17033
▁성북구 -17034
▁조용히 -17035
▁출장소 -17036
▁함부로 -17037
ester -17038
▁그레고리력 -17039
▁모터사이클 -17040
▁조선왕조실록 -17041
라르 -17042
로마 -17043
▁결투 -17044
▁교감 -17045
▁담장 -17046
▁상투 -17047
▁유감 -17048
▁캔터 -17049
▁탄성 -17050
▁히코 -17051
▁교토부 -17052
▁돌아올 -17053
▁목포시 -17054
▁후유증 -17055
▁툼 -17056
급시 -17057
인산 -17058
▁결단 -17059
▁도봉 -17060
▁레나 -17061
▁모였 -17062
▁미트 -17063
▁북마 -17064
▁실책 -17065
▁아약 -17066
▁연어 -17067
▁윤원 -17068
▁제학 -17069
▁타라 -17070
▁탈리 -17071
▁태상 -17072
▁틈타 -17073
▁패자 -17074
레틱스 -17075
▁Boy -17076
▁동일시 -17077
▁선보인 -17078
▁연습생 -17079
▁이론가 -17080
▁조합원 -17081
▁통신부 -17082
▁트레인 -17083
▁행해진 -17084
▁마쓰모토 -17085
▁Class -17086
▁애슬레틱스 -17087
uf -17088
당류 -17089
민정 -17090
주사 -17091
티지 -17092
▁TN -17093
▁교내 -17094
▁군림 -17095
▁대소 -17096
▁동두 -17097
▁비방 -17098
▁솔직 -17099
▁시주 -17100
▁입찰 -17101
▁정공 -17102
▁정여 -17103
▁초판 -17104
▁출항 -17105
▁학도 -17106
▁화음 -17107
▁Dig -17108
▁떠올랐 -17109
▁로페스 -17110
▁볼프강 -17111
▁영장류 -17112
▁일제히 -17113
▁퀘스트 -17114
▁혁명군 -17115
▁도쿠시마 -17116
▁물리학상 -17117
▁캄파니아주 -17118
림동 -17119
형제 -17120
ied -17121
▁갑오 -17122
▁광동 -17123
▁규장 -17124
▁극회 -17125
▁금기 -17126
▁부트 -17127
▁엄정 -17128
▁재주 -17129
▁221 -17130
▁Pap -17131
▁sup -17132
▁광화문 -17133
▁안티고 -17134
▁저스틴 -17135
▁합쳐져 -17136
박이 -17137
lam -17138
oft -17139
▁궁내 -17140
▁귀여 -17141
▁던전 -17142
▁미자 -17143
▁블룸 -17144
▁안재 -17145
▁율령 -17146
▁후추 -17147
네소스 -17148
▁LCD -17149
▁냈으며 -17150
▁들어선 -17151
▁헬싱키 -17152
▁1821 -17153
▁뉴올리언스 -17154
바오 -17155
백색 -17156
스톤 -17157
ING -17158
▁NL -17159
▁ag -17160
▁남궁 -17161
▁도하 -17162
▁로사 -17163
▁리서 -17164
▁속초 -17165
▁숭실 -17166
▁스완 -17167
▁오니 -17168
▁이한 -17169
▁제식 -17170
▁주상 -17171
▁출정 -17172
▁택하 -17173
▁해주 -17174
게이트 -17175
ther -17176
ware -17177
▁Gra -17178
▁노트북 -17179
▁무사시 -17180
▁문하시 -17181
▁Spec -17182
▁헬레니즘 -17183
건적 -17184
다임 -17185
모닉 -17186
징어 -17187
후이 -17188
▁'- -17189
▁꾸미 -17190
▁내시 -17191
▁도량 -17192
▁벗겨 -17193
▁보그 -17194
▁살피 -17195
▁생장 -17196
▁샤르 -17197
▁국문학 -17198
▁두더지 -17199
▁블러드 -17200
▁시에라 -17201
▁카스텔 -17202
▁1806 -17203
▁1845 -17204
▁로베르토 -17205
▁리하르트 -17206
거루 -17207
범죄 -17208
현실 -17209
▁Ju -17210
▁그간 -17211
▁담양 -17212
▁안상 -17213
▁원사 -17214
▁정글 -17215
▁지검 -17216
▁청했 -17217
▁풍요 -17218
▁피그 -17219
▁핼리 -17220
▁훈족 -17221
ford -17222
▁Que -17223
▁내려온 -17224
▁도망가 -17225
▁당했으며 -17226
▁돼지고기 -17227
▁이성질체 -17228
재단 -17229
탐정 -17230
학파 -17231
ely -17232
▁Vf -17233
▁광종 -17234
▁두부 -17235
▁루손 -17236
▁매질 -17237
▁습도 -17238
▁아요 -17239
▁용문 -17240
▁융기 -17241
▁이효 -17242
▁자의 -17243
▁조율 -17244
▁증류 -17245
▁책정 -17246
▁카파 -17247
▁터너 -17248
▁하세 -17249
ense -17250
▁건륭제 -17251
▁공양왕 -17252
▁남반구 -17253
▁디렉터 -17254
▁레이건 -17255
▁브루크 -17256
▁시나노 -17257
▁익산시 -17258
▁지팡이 -17259
▁직할시 -17260
▁포뮬러 -17261
그라운드 -17262
▁글로브상 -17263
ograph -17264
HS -17265
zy -17266
▁격화 -17267
▁괴멸 -17268
▁구석 -17269
▁귀양 -17270
▁메드 -17271
▁명동 -17272
▁모식 -17273
▁변천 -17274
▁불능 -17275
▁수라 -17276
▁엔젤 -17277
▁유장 -17278
▁출루 -17279
▁콤비 -17280
▁탄두 -17281
▁매디슨 -17282
▁수증기 -17283
▁아약스 -17284
▁조연상 -17285
▁진정한 -17286
▁혁명가 -17287
▁1819 -17288
▁name -17289
▁패러다임 -17290
▁챠 -17291
월드 -17292
킨슨 -17293
▁da -17294
▁도끼 -17295
▁라테 -17296
▁사일 -17297
▁위태 -17298
▁음역 -17299
▁최순 -17300
▁친목 -17301
ring -17302
ript -17303
▁Fil -17304
▁넘어서 -17305
▁취약점 -17306
천국 -17307
▁공평 -17308
▁구라 -17309
▁문맥 -17310
▁반야 -17311
▁변조 -17312
▁본능 -17313
▁블랑 -17314
▁수프 -17315
▁아쉽 -17316
▁안건 -17317
▁정중 -17318
▁친히 -17319
▁탄광 -17320
▁합산 -17321
▁군산시 -17322
▁기네스 -17323
▁브리스 -17324
▁올라갈 -17325
▁정착지 -17326
▁초고층 -17327
▁항소심 -17328
▁마그네슘 -17329
▁사다하루 -17330
▁암모니아 -17331
▁\ -17332
바드 -17333
ira -17334
▁고취 -17335
▁관저 -17336
▁기민 -17337
▁마도 -17338
▁성조 -17339
▁우대 -17340
▁장령 -17341
▁초당 -17342
▁캡틴 -17343
▁퀘이 -17344
▁토프 -17345
▁튜링 -17346
플레잉 -17347
gram -17348
▁라쿠텐 -17349
▁로버츠 -17350
▁방법론 -17351
▁오리건 -17352
▁장택상 -17353
ering -17354
▁1796 -17355
▁Fest -17356
▁롤플레잉 -17357
▁토스카나 -17358
▁State -17359
99 -17360
든지 -17361
촌동 -17362
▁나탈 -17363
▁내게 -17364
▁농협 -17365
▁리노 -17366
▁미완 -17367
▁본기 -17368
▁선지 -17369
▁아역 -17370
▁애매 -17371
▁어라 -17372
▁가요제 -17373
▁관찰자 -17374
▁내몽골 -17375
▁중서부 -17376
▁호기심 -17377
▁1794 -17378
▁그레이엄 -17379
▁돌아와서 -17380
▁드래곤즈 -17381
▁무궁화호 -17382
구멍 -17383
나비 -17384
재란 -17385
▁결실 -17386
▁굶주 -17387
▁망루 -17388
▁실베 -17389
▁양분 -17390
▁정시 -17391
▁태안 -17392
레이즈 -17393
로세서 -17394
▁214 -17395
▁Law -17396
▁돋보이 -17397
▁사법부 -17398
▁사이공 -17399
▁애벌레 -17400
▁그래미상 -17401
▁자이언트 -17402
▁정유재란 -17403
포리 -17404
esc -17405
ico -17406
▁고는 -17407
▁기권 -17408
▁기형 -17409
▁마한 -17410
▁무능 -17411
▁사계 -17412
▁술집 -17413
▁전란 -17414
▁카노 -17415
▁팀장 -17416
시아드 -17417
▁내려갔 -17418
▁비올라 -17419
▁재결합 -17420
▁충주시 -17421
▁크레타 -17422
▁클로드 -17423
▁피어스 -17424
▁First -17425
▁아우구스트 -17426
▁유니버시아드 -17427
▁뽀 -17428
경찰 -17429
르바 -17430
즈미 -17431
커우 -17432
테일 -17433
▁YM -17434
▁래리 -17435
▁미겔 -17436
▁수아 -17437
라이스 -17438
▁not -17439
▁안중근 -17440
▁제노바 -17441
▁조계종 -17442
▁타블로 -17443
▁평택시 -17444
agement -17445
WC -17446
끄럽 -17447
레반 -17448
▁개리 -17449
▁군집 -17450
▁디펜 -17451
▁모질 -17452
▁설과 -17453
▁온전 -17454
▁유원 -17455
▁조참 -17456
▁칠곡 -17457
▁캠벨 -17458
▁터스 -17459
▁티오 -17460
▁현령 -17461
▁현수 -17462
코비치 -17463
burg -17464
ible -17465
▁급속도 -17466
▁Peter -17467
▁고요 -17468
▁덩굴 -17469
▁무왕 -17470
▁수선 -17471
▁아칸 -17472
▁위배 -17473
▁처칠 -17474
▁추위 -17475
▁코바 -17476
▁투병 -17477
▁펠레 -17478
▁헤임 -17479
▁호지 -17480
▁개막식 -17481
▁막아내 -17482
▁북반구 -17483
▁여객선 -17484
▁Land -17485
YP -17486
▁강구 -17487
▁교란 -17488
▁교주 -17489
▁논설 -17490
▁육박 -17491
▁준하 -17492
▁지반 -17493
▁쿠시 -17494
▁핑계 -17495
▁Run -17496
▁상속인 -17497
▁스와프 -17498
▁아르테 -17499
▁제품군 -17500
▁학생회 -17501
▁폼페이우스 -17502
▁뉴클레오타이드 -17503
va -17504
▁름 -17505
마니 -17506
스레 -17507
▁TA -17508
▁각광 -17509
▁구애 -17510
▁약학 -17511
▁완산 -17512
▁우도 -17513
▁정직 -17514
▁쿠사 -17515
▁호시 -17516
▁Dis -17517
▁Sur -17518
▁거제시 -17519
▁시공간 -17520
▁우승컵 -17521
▁주세페 -17522
▁항생제 -17523
살바도르 -17524
▁갑작스런 -17525
팽이 -17526
▁리퍼 -17527
▁성형 -17528
▁역모 -17529
▁음양 -17530
▁이철 -17531
시아키 -17532
ious -17533
ress -17534
▁수도사 -17535
▁전기장 -17536
▁Port -17537
▁Rain -17538
▁폴란드인 -17539
▁프리큐어 -17540
▁켓 -17541
가키 -17542
ios -17543
▁공보 -17544
▁급사 -17545
▁도표 -17546
▁마틸 -17547
▁말소 -17548
▁본당 -17549
▁안시 -17550
▁에치 -17551
▁장항 -17552
▁충고 -17553
▁침수 -17554
▁카인 -17555
▁탄력 -17556
▁현의 -17557
▁공기업 -17558
▁도치기 -17559
▁모조리 -17560
▁이베이 -17561
▁후베이 -17562
▁보였으나 -17563
▁산업단지 -17564
sy -17565
▁렬 -17566
▁썸 -17567
높이 -17568
크리 -17569
▁가온 -17570
▁공해 -17571
▁독실 -17572
▁로시 -17573
▁버니 -17574
▁산마 -17575
▁세도 -17576
▁쌍용 -17577
▁허구 -17578
▁화교 -17579
▁고스트 -17580
▁대항해 -17581
▁인문학 -17582
▁1392 -17583
부미 -17584
심원 -17585
트론 -17586
RNA -17587
▁살레 -17588
▁에두 -17589
▁요셉 -17590
▁의인 -17591
▁이코 -17592
▁키를 -17593
▁타오 -17594
▁한서 -17595
▁호국 -17596
▁211 -17597
▁401 -17598
▁all -17599
▁건너편 -17600
▁무너져 -17601
▁미우라 -17602
▁호흡기 -17603
▁갑신정변 -17604
▁아나키즘 -17605
▁시즈오카현 -17606
사랑 -17607
▁OC -17608
▁국산 -17609
▁무당 -17610
▁부윤 -17611
▁소탕 -17612
▁손쉽 -17613
▁아명 -17614
▁악어 -17615
▁오웬 -17616
▁오호 -17617
▁원생 -17618
▁지층 -17619
▁참배 -17620
▁채집 -17621
▁청중 -17622
▁패퇴 -17623
▁글리제 -17624
▁도망쳐 -17625
▁스타즈 -17626
▁시아파 -17627
▁암스트 -17628
▁체스터 -17629
▁갈릴레이 -17630
▁기념사업 -17631
▁기독교인 -17632
▁사탕수수 -17633
▁아브라함 -17634
▁카롤루스 -17635
▁크리스탈 -17636
▁필하모닉 -17637
▁해수욕장 -17638
▁쑹 -17639
담회 -17640
▁논평 -17641
▁케리 -17642
▁허들 -17643
▁가시마 -17644
▁웨슬리 -17645
▁합병증 -17646
▁Sant -17647
▁다리우스 -17648
▁부위원장 -17649
▁엔지니어링 -17650
광선 -17651
▁DP -17652
▁느슨 -17653
▁니트 -17654
▁바투 -17655
▁박인 -17656
▁발작 -17657
▁변장 -17658
▁봉작 -17659
▁옥상 -17660
▁장현 -17661
▁커져 -17662
▁포교 -17663
스트림 -17664
▁로스쿨 -17665
▁분홍색 -17666
▁스위트 -17667
▁실린더 -17668
▁트럼펫 -17669
▁항공대 -17670
▁윔 -17671
▁펙 -17672
티어 -17673
▁견지 -17674
▁느라 -17675
▁문어 -17676
▁섬겼 -17677
▁순정 -17678
▁어쨌 -17679
▁인출 -17680
▁종단 -17681
▁계약금 -17682
▁돌아간 -17683
▁바로잡 -17684
▁앤드류 -17685
▁나왔으며 -17686
▁Records -17687
뉴스 -17688
회원 -17689
ily -17690
▁"| -17691
▁걸치 -17692
▁공덕 -17693
▁국명 -17694
▁민가 -17695
▁비긴 -17696
▁섹션 -17697
▁역동 -17698
▁은평 -17699
▁이석 -17700
▁정현 -17701
▁종친 -17702
▁체리 -17703
▁911 -17704
▁니스트 -17705
▁리바이 -17706
▁상대론 -17707
▁오나라 -17708
▁쫓겨나 -17709
▁선거인단 -17710
▁Green -17711
BL -17712
카라 -17713
▁마신 -17714
▁미첼 -17715
▁밑면 -17716
▁보카 -17717
▁북면 -17718
▁비욘 -17719
▁의논 -17720
▁이보 -17721
▁포섭 -17722
▁할양 -17723
▁Luc -17724
▁amp -17725
▁남조선 -17726
▁보호관 -17727
▁부천시 -17728
▁유명세 -17729
▁주교좌 -17730
▁청구인 -17731
▁프린터 -17732
▁시킨다는 -17733
▁폴리네시아 -17734
ava -17735
ona -17736
▁나날 -17737
▁마왕 -17738
▁명은 -17739
▁바야 -17740
▁부안 -17741
▁새기 -17742
▁샤오 -17743
▁슐레 -17744
▁이가 -17745
▁자존 -17746
▁젠더 -17747
그래피 -17748
▁231 -17749
▁FBI -17750
▁May -17751
▁분류학 -17752
▁야행성 -17753
▁오토모 -17754
▁올라온 -17755
▁지평선 -17756
▁콘티넨 -17757
▁포스코 -17758
▁조기어류 -17759
▁히로부미 -17760
▁Japan -17761
▁막시밀리안 -17762
▁갸 -17763
▁EF -17764
▁간파 -17765
▁당명 -17766
▁열반 -17767
▁윈드 -17768
▁이게 -17769
▁흥덕 -17770
▁마운틴 -17771
▁전망대 -17772
▁찾아왔 -17773
▁디렉터리 -17774
▁리얼리티 -17775
▁병마절도사 -17776
▁서아프리카 -17777
▁쿵 -17778
다스 -17779
ias -17780
ues -17781
▁Wr -17782
▁교복 -17783
▁군비 -17784
▁넷플 -17785
▁단사 -17786
▁달마 -17787
▁당분 -17788
▁봐야 -17789
▁수렵 -17790
▁시경 -17791
▁원화 -17792
▁총관 -17793
▁총살 -17794
ough -17795
▁라이드 -17796
▁셀레우 -17797
▁치른다 -17798
▁콜라보 -17799
▁펠로폰 -17800
▁1636 -17801
▁1790 -17802
▁넷플릭스 -17803
▁펠로폰네소스 -17804
더릭 -17805
연의 -17806
▁ER -17807
▁김문 -17808
▁깁슨 -17809
▁나일 -17810
▁목화 -17811
▁성찬 -17812
▁영재 -17813
▁하츠 -17814
노벨라 -17815
▁양평군 -17816
▁잠비아 -17817
▁접근성 -17818
▁트리스 -17819
▁후쿠이 -17820
▁1833 -17821
▁레오나르 -17822
▁텔레노벨라 -17823
▁귤 -17824
여왕 -17825
ART -17826
▁XX -17827
▁계투 -17828
▁군국 -17829
▁당사 -17830
▁도매 -17831
▁박기 -17832
▁보육 -17833
▁커넥 -17834
▁킬러 -17835
▁할로 -17836
▁호전 -17837
ison -17838
▁무정부 -17839
▁핸드볼 -17840
ental -17841
▁Conc -17842
▁^ -17843
▁큼 -17844
나주 -17845
작물 -17846
▁본초 -17847
▁분담 -17848
▁비기 -17849
▁슬러 -17850
▁어쩌 -17851
▁월북 -17852
▁토의 -17853
oney -17854
▁XML -17855
▁개최지 -17856
▁건너갔 -17857
▁고지대 -17858
▁북극해 -17859
▁어리석 -17860
▁유도탄 -17861
▁추밀원 -17862
▁치료법 -17863
▁1798 -17864
▁탄수화물 -17865
▁포틀랜드 -17866
레븐 -17867
▁CL -17868
▁PH -17869
▁노골 -17870
▁려다 -17871
▁매월 -17872
▁미로 -17873
▁성교 -17874
▁예속 -17875
▁용접 -17876
▁이뤘 -17877
▁증원 -17878
▁지카 -17879
▁카토 -17880
▁트롤 -17881
▁파격 -17882
가하라 -17883
세데스 -17884
정보부 -17885
▁베테랑 -17886
▁세운다 -17887
▁쓰여져 -17888
▁아테나 -17889
▁알칼리 -17890
▁입출력 -17891
▁접미사 -17892
▁현급시 -17893
▁메르세데스 -17894
▁낀 -17895
금속 -17896
동리 -17897
발트 -17898
싸움 -17899
▁루머 -17900
▁마는 -17901
▁문교 -17902
▁미추 -17903
▁브람 -17904
▁상작 -17905
▁성간 -17906
▁아열 -17907
▁앨버 -17908
▁연유 -17909
▁치중 -17910
이즈미 -17911
cher -17912
▁디나모 -17913
▁보라색 -17914
타고라스 -17915
▁1804 -17916
▁속씨식물 -17917
▁요코스카 -17918
IE -17919
지리 -17920
▁"' -17921
▁감탄 -17922
▁델리 -17923
▁말린 -17924
▁미숙 -17925
▁쇠약 -17926
▁승전 -17927
▁은폐 -17928
▁정년 -17929
▁지킬 -17930
▁직권 -17931
▁고조선 -17932
▁바란다 -17933
▁액티브 -17934
▁전철역 -17935
▁지방관 -17936
▁포천시 -17937
▁황도대 -17938
ather -17939
▁모니터링 -17940
▁여주인공 -17941
▁Korean -17942
개혁 -17943
▁NK -17944
▁가니 -17945
▁감기 -17946
▁고해 -17947
▁교묘 -17948
▁모잠 -17949
▁박승 -17950
▁발송 -17951
▁발열 -17952
▁북상 -17953
▁새턴 -17954
▁선회 -17955
▁연임 -17956
▁접종 -17957
▁평신 -17958
▁한라 -17959
▁Ros -17960
▁기뻐하 -17961
▁김종필 -17962
▁노스케 -17963
▁빼앗겼 -17964
▁스트라 -17965
▁연구실 -17966
▁외무성 -17967
▁유격대 -17968
▁Prot -17969
▁모잠비크 -17970
▁소용돌이 -17971
▁자연주의 -17972
▁태평천국 -17973
HD -17974
▁돛 -17975
링크 -17976
조사 -17977
▁군왕 -17978
▁서강 -17979
▁실태 -17980
▁인대 -17981
▁조던 -17982
▁준위 -17983
▁1824 -17984
▁퀼 -17985
체어 -17986
▁OK -17987
▁교포 -17988
▁기근 -17989
▁바일 -17990
▁부녀 -17991
▁소치 -17992
▁수족 -17993
▁어진 -17994
▁여생 -17995
▁제보 -17996
▁택지 -17997
▁효모 -17998
다람쥐 -17999
▁Aug -18000
▁Lab -18001
▁거머쥐 -18002
▁단기간 -18003
▁벤피카 -18004
▁비정규 -18005
▁손바닥 -18006
▁유물론 -18007
▁하동군 -18008
▁해인사 -18009
▁1813 -18010
▁블레이드 -18011
▁오브젝트 -18012
라나 -18013
훈련 -18014
gin -18015
▁mg -18016
▁네브 -18017
▁미타 -18018
▁분장 -18019
▁서보 -18020
▁스텐 -18021
▁슬퍼 -18022
▁승마 -18023
▁액수 -18024
▁모여서 -18025
▁브루노 -18026
▁울트라 -18027
▁이범석 -18028
▁정확도 -18029
▁Research -18030
WA -18031
▁랏 -18032
▁RE -18033
▁격상 -18034
▁관대 -18035
▁광택 -18036
▁시온 -18037
▁헬로 -18038
▁510 -18039
▁car -18040
▁길버트 -18041
▁부제학 -18042
▁아산시 -18043
▁MPEG -18044
▁수마트라 -18045
▁자동변속기 -18046
▁뺏 -18047
모자 -18048
블릭 -18049
▁구룡 -18050
▁권하 -18051
▁기악 -18052
▁늘렸 -18053
▁루드 -18054
▁멜론 -18055
▁명주 -18056
▁무진 -18057
▁보디 -18058
▁소르 -18059
▁에픽 -18060
▁우이 -18061
▁이로 -18062
▁총생 -18063
▁환기 -18064
▁논산시 -18065
▁무인역 -18066
▁압둘라 -18067
▁에히메 -18068
▁컨디션 -18069
▁마음대로 -18070
▁무라카미 -18071
스텐 -18072
연대 -18073
▁Li -18074
▁국면 -18075
▁기욤 -18076
▁발췌 -18077
▁방탄 -18078
▁벽면 -18079
▁본진 -18080
▁소도 -18081
▁전액 -18082
▁중주 -18083
피에르 -18084
▁Get -18085
▁Pan -18086
▁집어넣 -18087
▁창업자 -18088
▁표준어 -18089
▁휠체어 -18090
▁알베르트 -18091
전쟁 -18092
평동 -18093
OVE -18094
▁Ig -18095
▁MR -18096
▁UK -18097
▁ha -18098
▁기주 -18099
▁도식 -18100
▁방조 -18101
▁배영 -18102
▁빌미 -18103
▁수강 -18104
▁아토 -18105
▁최북 -18106
▁현충 -18107
▁드러난 -18108
▁선언문 -18109
▁제니퍼 -18110
ality -18111
▁Over -18112
▁서프랑크 -18113
▁세키가하라 -18114
▁Network -18115
니발 -18116
▁낙랑 -18117
▁대세 -18118
▁메콩 -18119
▁반열 -18120
▁북해 -18121
▁옹정 -18122
▁우사 -18123
▁은지 -18124
▁총액 -18125
▁팔려 -18126
▁한가 -18127
▁환초 -18128
▁가입자 -18129
▁넥스트 -18130
▁맞대결 -18131
▁방문객 -18132
▁서남쪽 -18133
▁어려울 -18134
▁점성가 -18135
▁클라인 -18136
▁Lang -18137
▁알렉세이 -18138
▁언어학자 -18139
▁Louis -18140
▁중앙정보부 -18141
오드 -18142
정권 -18143
lad -18144
▁gr -18145
▁다지 -18146
▁사보 -18147
▁잇달 -18148
▁정병 -18149
▁착한 -18150
▁태세 -18151
▁학점 -18152
▁233 -18153
▁개찰기 -18154
▁교직원 -18155
▁급기야 -18156
▁삼거리 -18157
▁알베르 -18158
▁이주민 -18159
▁지석묘 -18160
▁평화상 -18161
▁가까스로 -18162
▁받아들일 -18163
블린 -18164
ube -18165
▁개전 -18166
▁스커 -18167
▁스톨 -18168
▁이삭 -18169
▁조식 -18170
▁후백 -18171
더니즘 -18172
▁겨울철 -18173
▁광주시 -18174
▁꽃받침 -18175
▁보행자 -18176
▁스레드 -18177
▁주둔지 -18178
▁암스트롱 -18179
▁천연가스 -18180
르모 -18181
우어 -18182
처리 -18183
파스 -18184
▁거액 -18185
▁박중 -18186
▁버퍼 -18187
▁신구 -18188
▁아핀 -18189
▁총체 -18190
▁특혜 -18191
▁효용 -18192
직할시 -18193
▁390 -18194
▁Del -18195
▁Inf -18196
▁Und -18197
▁로타르 -18198
▁엘리스 -18199
▁요나라 -18200
▁이사벨 -18201
▁참모장 -18202
▁태양광 -18203
▁Bill -18204
▁들어와서 -18205
▁Service -18206
td -18207
패드 -18208
▁올랭 -18209
▁잔치 -18210
▁지회 -18211
▁탄환 -18212
고양이 -18213
bert -18214
▁264 -18215
▁데려가 -18216
▁디지몬 -18217
▁아가씨 -18218
▁오비탈 -18219
▁향한다 -18220
▁롬바르디아 -18221
▁도독 -18222
▁두스 -18223
▁쌓여 -18224
▁억류 -18225
▁열풍 -18226
▁지브 -18227
▁착안 -18228
▁치가 -18229
▁코니 -18230
▁콘셉 -18231
▁키웠 -18232
▁패드 -18233
▁휴먼 -18234
▁건국대 -18235
▁알레산 -18236
▁여긴다 -18237
▁일간지 -18238
▁저지르 -18239
▁조르주 -18240
▁크라스 -18241
▁페이퍼 -18242
▁프리드 -18243
▁1810 -18244
▁열렸으며 -18245
▁Party -18246
▁그리스도인 -18247
▁Master -18248
무트 -18249
▁EN -18250
▁결탁 -18251
▁로지 -18252
▁엠블 -18253
▁전집 -18254
▁해머 -18255
▁흡입 -18256
▁DFB -18257
▁브릿지 -18258
▁선수상 -18259
▁팩토리 -18260
스트리트 -18261
▁빠져나가 -18262
ny -18263
러기 -18264
실험 -18265
오린 -18266
idd -18267
▁ME -18268
▁걸맞 -18269
▁경치 -18270
▁녀석 -18271
▁변방 -18272
▁새해 -18273
▁스팅 -18274
▁아픔 -18275
▁유익 -18276
▁정철 -18277
▁평년 -18278
line -18279
▁캥거루 -18280
▁블리자드 -18281
▁Little -18282
▁꼼 -18283
개명 -18284
무실 -18285
버라 -18286
하늘 -18287
for -18288
▁결집 -18289
▁금리 -18290
▁도산 -18291
▁돼서 -18292
▁매번 -18293
▁미코 -18294
▁방한 -18295
▁사흘 -18296
▁암초 -18297
▁완투 -18298
▁직함 -18299
▁최경 -18300
▁치수 -18301
▁향리 -18302
▁형광 -18303
지먼트 -18304
eter -18305
▁... -18306
▁대주주 -18307
▁서기장 -18308
▁작사가 -18309
▁잠재력 -18310
▁카운터 -18311
▁Jour -18312
▁매니지먼트 -18313
pl -18314
ua -18315
레미 -18316
스퍼 -18317
자나 -18318
▁가변 -18319
▁고독 -18320
▁군락 -18321
▁굴욕 -18322
▁기물 -18323
▁납품 -18324
▁딸린 -18325
▁리저 -18326
▁리츠 -18327
▁명지 -18328
▁셀룰 -18329
▁정과 -18330
▁조위 -18331
▁천명 -18332
▁천적 -18333
▁청탁 -18334
노세키 -18335
루리아 -18336
말라야 -18337
캐스트 -18338
▁NHL -18339
▁산투스 -18340
▁인코딩 -18341
▁1809 -18342
▁고고학자 -18343
▁다이스케 -18344
▁어드밴스 -18345
▁Commun -18346
▁GL -18347
▁구운 -18348
▁등대 -18349
▁마조 -18350
▁미오 -18351
▁석상 -18352
▁여긴 -18353
▁차분 -18354
▁첨부 -18355
▁통찰 -18356
▁파피 -18357
▁pol -18358
▁나주시 -18359
▁네바다 -18360
▁다면체 -18361
▁리서치 -18362
▁성명서 -18363
▁원정군 -18364
▁태극기 -18365
▁합천군 -18366
ville -18367
▁1805 -18368
▁Home -18369
▁비로자나 -18370
▁서바이벌 -18371
▁프린세스 -18372
▁좡 -18373
▁UP -18374
▁mi -18375
▁견습 -18376
▁사극 -18377
▁심플 -18378
▁악역 -18379
▁언젠 -18380
▁오구 -18381
▁우동 -18382
▁태워 -18383
▁페가 -18384
▁농작물 -18385
▁바레인 -18386
▁특이점 -18387
▁티무르 -18388
▁렝 -18389
전차 -18390
호르 -18391
▁대광 -18392
▁도화 -18393
▁미모 -18394
▁세가 -18395
▁아말 -18396
▁어판 -18397
▁인스 -18398
▁포구 -18399
▁화전 -18400
▁SQL -18401
▁국무원 -18402
▁보르도 -18403
▁엉덩이 -18404
▁잎자루 -18405
▁준다고 -18406
▁지난해 -18407
▁브루나이 -18408
▁트로츠키 -18409
▁히말라야 -18410
▁히로시마현 -18411
UT -18412
던스 -18413
모습 -18414
스틱 -18415
tor -18416
▁IB -18417
▁OH -18418
▁고증 -18419
▁권세 -18420
▁근연 -18421
▁낙엽 -18422
▁낙태 -18423
▁맞섰 -18424
▁배울 -18425
▁사죄 -18426
▁상시 -18427
▁속기 -18428
▁신작 -18429
▁아람 -18430
▁앙주 -18431
▁예일 -18432
▁워낙 -18433
▁유폐 -18434
▁윤영 -18435
▁표결 -18436
▁헤지 -18437
▁과선교 -18438
▁다카라 -18439
▁루터교 -18440
▁불렀으며 -18441
▁창씨개명 -18442
▁삼국지연의 -18443
▁고운 -18444
▁덧셈 -18445
▁독소 -18446
▁로동 -18447
▁모기 -18448
▁박준 -18449
▁수배 -18450
▁양손 -18451
▁울루 -18452
▁장조 -18453
▁재심 -18454
▁전갈 -18455
▁키아 -18456
▁하쿠 -18457
▁현명 -18458
메데스 -18459
▁배수량 -18460
▁빈센트 -18461
▁사무엘 -18462
▁시흥시 -18463
▁제이크 -18464
▁1799 -18465
▁라이온스 -18466
▁밀리미터 -18467
▁Edward -18468
데일 -18469
사회 -18470
▁노다 -18471
▁대열 -18472
▁성내 -18473
▁송광 -18474
▁스틱 -18475
▁역행 -18476
▁지단 -18477
▁퇴화 -18478
▁한참 -18479
▁홍대 -18480
독립당 -18481
ruct -18482
▁217 -18483
▁757 -18484
▁공사관 -18485
▁다카시 -18486
▁러서는 -18487
▁로널드 -18488
▁리포트 -18489
▁수메르 -18490
▁와이드 -18491
▁트랜싯 -18492
▁1818 -18493
▁시라카와 -18494
▁네덜란드어 -18495
▁한국독립당 -18496
니코 -18497
래시 -18498
운전 -18499
▁Ol -18500
▁걸로 -18501
▁고갈 -18502
▁낙타 -18503
▁누에 -18504
▁대흥 -18505
▁두껍 -18506
▁딜런 -18507
▁라사 -18508
▁분양 -18509
▁역습 -18510
▁자락 -18511
▁찬탈 -18512
▁천정 -18513
▁크세 -18514
▁포진 -18515
▁228 -18516
▁갖가지 -18517
▁다닌다 -18518
▁돗토리 -18519
▁찾아온 -18520
▁1783 -18521
▁델라웨어 -18522
▁드레이크 -18523
▁Station -18524
그림 -18525
티보 -18526
▁PK -18527
▁no -18528
▁pe -18529
▁과부 -18530
▁남로 -18531
▁노화 -18532
▁누각 -18533
▁대적 -18534
▁스쿠 -18535
▁에인 -18536
▁윤선 -18537
▁쪼개 -18538
▁타키 -18539
▁프록 -18540
▁하순 -18541
▁홍백 -18542
트로피 -18543
▁Dom -18544
▁Fin -18545
▁Lin -18546
▁Mel -18547
▁구미시 -18548
▁절대로 -18549
▁창덕궁 -18550
velop -18551
▁리치먼드 -18552
▁프라이스 -18553
▁아미타여래 -18554
▁크리에이티브 -18555
xy -18556
▁ed -18557
▁갤러 -18558
▁고압 -18559
▁니콘 -18560
▁분개 -18561
▁습성 -18562
▁압송 -18563
▁양구 -18564
▁연좌 -18565
▁이덕 -18566
▁줄였 -18567
▁직제 -18568
하마드 -18569
▁720 -18570
▁950 -18571
▁Dem -18572
▁동북쪽 -18573
▁베르디 -18574
▁윤리학 -18575
▁취한다 -18576
츠부르크 -18577
▁경향신문 -18578
▁유럽연합 -18579
▁필리포스 -18580
▁먀 -18581
▁금광 -18582
▁끊이 -18583
▁동티 -18584
▁리온 -18585
▁매춘 -18586
▁머피 -18587
▁분쇄 -18588
▁쇼팽 -18589
▁우문 -18590
▁풋살 -18591
▁항모 -18592
▁헌제 -18593
▁황보 -18594
ique -18595
ters -18596
▁마그마 -18597
▁에버턴 -18598
▁엑스선 -18599
▁잇따라 -18600
▁Camp -18601
▁셀레우코스 -18602
니크 -18603
레토 -18604
메트 -18605
연료 -18606
이인 -18607
▁경멸 -18608
▁군위 -18609
▁단성 -18610
▁수찬 -18611
▁실습 -18612
▁장직 -18613
▁코레 -18614
▁특례 -18615
▁헤엄 -18616
▁호박 -18617
▁황성 -18618
▁410 -18619
▁가져갔 -18620
▁시게루 -18621
▁오미야 -18622
▁저작물 -18623
▁민족주의자 -18624
▁뛴 -18625
퍼트 -18626
III -18627
▁ob -18628
▁각별 -18629
▁내구 -18630
▁마로 -18631
▁불평 -18632
▁신숙 -18633
▁에반 -18634
▁으론 -18635
▁접착 -18636
▁하카 -18637
▁홀드 -18638
▁Gar -18639
▁동의어 -18640
▁라고도 -18641
▁민의원 -18642
▁베리아 -18643
▁봉수대 -18644
▁서북쪽 -18645
▁전년도 -18646
▁증명서 -18647
▁키워드 -18648
▁포위전 -18649
▁핵폭탄 -18650
▁1803 -18651
▁크리스틴 -18652
로프로세서 -18653
▁Corpor -18654
▁마이크로프로세서 -18655
▁궈 -18656
레프 -18657
일라 -18658
쿠젠 -18659
▁낭독 -18660
▁내수 -18661
▁도정 -18662
▁인피 -18663
▁무너졌 -18664
▁문화사 -18665
▁스나이 -18666
▁오우치 -18667
▁이완용 -18668
▁1593 -18669
▁플루오린 -18670
▁Saint -18671
▁Young -18672
▁그리스도교 -18673
ora -18674
▁김세 -18675
▁깜짝 -18676
▁데쓰 -18677
▁레르 -18678
▁몸집 -18679
▁묘법 -18680
▁박현 -18681
▁범용 -18682
▁볼륨 -18683
▁상권 -18684
▁유위 -18685
▁음소 -18686
▁제향 -18687
▁집적 -18688
▁청도 -18689
▁커리 -18690
▁해금 -18691
▁회부 -18692
▁히다 -18693
▁리차드 -18694
▁총생산 -18695
▁피드백 -18696
▁1100 -18697
▁1834 -18698
▁끌어들이 -18699
▁자유민주 -18700
▁동아프리카 -18701
HT -18702
반트 -18703
빼미 -18704
서구 -18705
지대 -18706
▁갑판 -18707
▁경이 -18708
▁괴뢰 -18709
▁괴팅 -18710
▁급습 -18711
▁로디 -18712
▁록맨 -18713
▁베아 -18714
▁상감 -18715
▁연사 -18716
▁잊혀 -18717
▁즉흥 -18718
▁촌락 -18719
▁Sol -18720
▁div -18721
▁루이즈 -18722
▁스텔스 -18723
▁쓰여졌 -18724
▁프리랜 -18725
▁플라자 -18726
▁1775 -18727
▁받아들인 -18728
▁하시모토 -18729
▁테러리스트 -18730
▁넉 -18731
스테 -18732
장식 -18733
토바 -18734
▁RD -18735
▁간디 -18736
▁간장 -18737
▁개간 -18738
▁김한 -18739
▁미묘 -18740
▁부원 -18741
▁비참 -18742
▁소홀 -18743
▁수서 -18744
▁식년 -18745
▁이견 -18746
▁재원 -18747
▁초중 -18748
▁최치 -18749
▁퇴사 -18750
▁투사 -18751
edia -18752
▁log -18753
▁낙하산 -18754
▁아쿠아 -18755
▁와이어 -18756
총리대신 -18757
▁내각총리대신 -18758
▁HK -18759
▁기시 -18760
▁냉방 -18761
▁바하 -18762
▁배설 -18763
▁열망 -18764
▁오기 -18765
▁존엄 -18766
▁추궁 -18767
▁포탈 -18768
▁회군 -18769
▁디아스 -18770
▁cent -18771
▁알베르토 -18772
▁중앙아프리카 -18773
▁킵 -18774
재기 -18775
투르 -18776
▁ra -18777
▁버거 -18778
▁수훈 -18779
▁위아 -18780
▁지병 -18781
▁찬스 -18782
▁추봉 -18783
▁폴로 -18784
쿠스틱 -18785
▁232 -18786
▁대학살 -18787
▁려다가 -18788
▁보나파 -18789
▁샌드위치 -18790
▁어쿠스틱 -18791
▁엔트로피 -18792
▁River -18793
▁보나파르트 -18794
▁통합진보당 -18795
슐리 -18796
적분 -18797
gen -18798
rum -18799
▁Av -18800
▁Ba -18801
▁마의 -18802
▁몰라 -18803
▁버릴 -18804
▁벅스 -18805
▁세브 -18806
▁시판 -18807
▁우성 -18808
▁우쓰 -18809
▁입안 -18810
▁장타 -18811
▁폐간 -18812
▁피질 -18813
onic -18814
▁Gen -18815
▁Jac -18816
▁글리코 -18817
▁언젠가 -18818
▁연구관 -18819
▁영등포 -18820
▁조제프 -18821
▁해설자 -18822
▁fe -18823
▁난간 -18824
▁당기 -18825
▁마거 -18826
▁사구 -18827
▁세탁 -18828
▁쓰리 -18829
▁조력 -18830
[...]
