[PAD]	0
[UNK]	0
[BOS]	0
[EOS]	0
[CLS]	0
[SEP]	0
[MASK]	0
▁1	-0
▁이	-1
으로	-2
에서	-3
▁있	-4
▁2	-5
▁그	-6
▁대	-7
▁사	-8
이다	-9
()	-10
었다	-11
▁지	-12
▁수	-13
▁시	-14
▁19	-15
▁가	-16
▁기	-17
▁20	-18
▁전	-19
▁아	-20
▁하	-21
▁있다	-22
▁다	-23
▁제	-24
했다	-25
▁일	-26
하였	-27
▁한	-28
▁정	-29
▁중	-30
▁주	-31
하는	-32
▁것	-33
▁자	-34
▁공	-35
되었다	-36
▁인	-37
▁경	-38
▁위	-39
▁유	-40
하고	-41
▁보	-42
▁3	-43
▁등	-44
▁부	-45
하였다	-46
▁조	-47
하여	-48
▁동	-49
▁나	-50
▁선	-51
▁미	-52
▁모	-53
으며	-54
▁연	-55
▁영	-56
▁오	-57
▁마	-58
▁의	-59
에는	-60
▁소	-61
▁발	-62
한다	-63
▁고	-64
▁개	-65
▁구	-66
▁세	-67
▁도	-68
▁201	-69
▁상	-70
▁스	-71
▁비	-72
▁서	-73
▁국	-74
▁후	-75
▁여	-76
▁200	-77
▁때	-78
▁4	-79
▁성	-80
▁해	-81
▁관	-82
▁신	-83
▁있는	-84
▁프	-85
▁대한	-86
부터	-87
▁5	-88
▁방	-89
▁역	-90
지만	-91
되어	-92
▁또	-93
▁만	-94
▁않	-95
▁"	-96
▁(	-97
▁장	-98
▁바	-99
▁남	-100
▁무	-101
▁현	-102
까지	-103
▁통	-104
▁교	-105
▁내	-106
▁같	-107
에게	-108
학교	-109
▁문	-110
▁출	-111
▁거	-112
▁포	-113
▁우	-114
된다	-115
▁결	-116
이라	-117
적인	-118
▁6	-119
▁원	-120
적으로	-121
▁불	-122
▁10	-123
▁최	-124
▁진	-125
▁생	-126
▁어	-127
▁작	-128
▁노	-129
국의	-130
▁강	-131
▁당	-132
▁알	-133
▁반	-134
▁7	-135
▁계	-136
▁8	-137
▁파	-138
▁따	-139
▁분	-140
▁받	-141
▁없	-142
▁말	-143
면서	-144
▁사용	-145
들이	-146
되었	-147
▁두	-148
▁'	-149
or	-150
▁실	-151
에서는	-152
▁리	-153
▁명	-154
들은	-155
▁단	-156
▁함	-157
00	-158
▁이후	-159
하기	-160
▁예	-161
년에	-162
▁일본	-163
▁한다	-164
▁안	-165
▁9	-166
하게	-167
▁재	-168
▁설	-169
▁차	-170
▁에	-171
▁배	-172
▁)	-173
er	-174
▁199	-175
▁다음	-176
▁요	-177
았다	-178
▁특	-179
였다	-180
▁18	-181
▁데	-182
▁종	-183
▁로	-184
▁군	-185
▁초	-186
으나	-187
▁독	-188
(,	-189
▁12	-190
▁김	-191
▁~	-192
▁그는	-193
la	-194
▁많	-195
▁대한민	-196
▁되었다	-197
▁추	-198
리아	-199
▁활	-200
▁라	-201
▁감	-202
▁카	-203
▁S	-204
이며	-205
는데	-206
▁타	-207
▁입	-208
▁건	-209
▁다른	-210
▁태	-211
▁형	-212
스트	-213
on	-214
▁참	-215
▁운	-216
▁매	-217
▁더	-218
▁같은	-219
▁양	-220
▁및	-221
▁그리	-222
▁평	-223
▁11	-224
▁위해	-225
▁음	-226
▁산	-227
▁행	-228
in	-229
▁본	-230
▁적	-231
▁열	-232
주의	-233
▁올	-234
▁왕	-235
▁과	-236
들어	-237
▁승	-238
▁북	-239
▁지역	-240
▁때문	-241
들의	-242
▁크	-243
▁번	-244
▁시작	-245
기도	-246
▁프로	-247
▁호	-248
▁피	-249
▁미국	-250
▁코	-251
an	-252
▁화	-253
들을	-254
레이	-255
라는	-256
▁목	-257
되는	-258
▁베	-259
▁회	-260
▁그러	-261
▁C	-262
▁임	-263
▁따라	-264
▁각	-265
▁198	-266
▁A	-267
▁또한	-268
▁변	-269
하며	-270
▁함께	-271
▁사람	-272
),	-273
▁표	-274
▁총	-275
▁속	-276
▁외	-277
▁처	-278
▁M	-279
▁물	-280
▁경우	-281
라고	-282
▁달	-283
▁f	-284
▁현재	-285
이나	-286
▁약	-287
시아	-288
▁자신	-289
▁이름	-290
▁민	-291
▁직	-292
▁위치	-293
▁선수	-294
▁학	-295
▁F	-296
▁새	-297
하지	-298
▁간	-299
mu	-300
▁그의	-301
▁게	-302
▁드	-303
하다	-304
19	-305
▁한국	-306
▁기록	-307
▁집	-308
되고	-309
▁당시	-310
▁저	-311
기에	-312
▁세계	-313
▁영화	-314
▁항	-315
▁가장	-316
▁하나	-317
▁때문에	-318
▁사이	-319
▁for	-320
▁그러나	-321
에도	-322
기를	-323
▁메	-324
en	-325
▁체	-326
▁존	-327
mula	-328
▁점	-329
▁박	-330
▁뒤	-331
▁조선	-332
▁T	-333
ar	-334
▁15	-335
▁것을	-336
▁했다	-337
▁확	-338
▁있으며	-339
▁formula	-340
스의	-341
▁197	-342
▁국가	-343
▁된다	-344
▁것으로	-345
▁있었다	-346
▁청	-347
이라고	-348
▁축	-349
▁레	-350
▁의해	-351
▁또는	-352
▁복	-353
▁16	-354
▁천	-355
▁토	-356
▁것이	-357
▁광	-358
리는	-359
▁투	-360
▁못	-361
▁필	-362
지는	-363
▁브	-364
일에	-365
▁그리고	-366
▁법	-367
▁통해	-368
▁프랑	-369
▁활동	-370
▁철	-371
졌다	-372
▁합	-373
▁삼	-374
▁17	-375
▁야	-376
▁B	-377
등학교	-378
▁판	-379
▁근	-380
▁196	-381
▁창	-382
▁금	-383
▁디	-384
▁편	-385
al	-386
▁증	-387
했고	-388
▁살	-389
▁언	-390
▁치	-391
리를	-392
▁많은	-393
▁첫	-394
▁들어	-395
at	-396
▁것이다	-397
▁돌	-398
이라는	-399
▁D	-400
▁버	-401
▁심	-402
▁대한민국	-403
▁다음과	-404
▁높	-405
▁아니	-406
▁뜻	-407
하였고	-408
▁쓰	-409
스는	-410
▁황	-411
▁경기	-412
▁하는	-413
랜드	-414
▁충	-415
하면서	-416
▁서울	-417
▁다시	-418
▁플	-419
▁P	-420
는다	-421
es	-422
▁I	-423
▁포함	-424
▁대해	-425
▁가지	-426
▁할	-427
▁194	-428
▁있었	-429
▁애	-430
▁네	-431
▁여러	-432
▁K	-433
이었다	-434
▁완	-435
▁트	-436
▁대한민국의	-437
사를	-438
▁14	-439
20	-440
대로	-441
▁되	-442
▁페	-443
▁병	-444
로서	-445
▁백	-446
▁독일	-447
km	-448
ic	-449
▁죽	-450
상을	-451
▁큰	-452
이고	-453
이는	-454
개의	-455
▁용	-456
되었고	-457
▁패	-458
▁하였다	-459
▁순	-460
▁루	-461
▁팀	-462
▁모두	-463
▁도시	-464
보다	-465
▁연구	-466
▁은	-467
▁클	-468
▁L	-469
▁13	-470
▁권	-471
▁히	-472
▁195	-473
▁사회	-474
▁채	-475
위를	-476
장을	-477
▁모든	-478
▁취	-479
지를	-480
▁처음	-481
▁알려	-482
성을	-483
▁친	-484
▁규	-485
▁이루	-486
▁시즌	-487
is	-488
니아	-489
▁일부	-490
he	-491
▁중국	-492
대의	-493
이었	-494
▁전쟁	-495
▁등의	-496
▁등이	-497
▁대표	-498
▁제작	-499
라이	-500
▁이용	-501
▁축구	-502
리에	-503
▁손	-504
▁아이	-505
▁R	-506
(),	-507
▁정부	-508
▁식	-509
▁감독	-510
자가	-511
회의	-512
년부터	-513
▁존재	-514
▁위한	-515
▁-	-516
▁구성	-517
▁있어	-518
▁끝	-519
도의	-520
▁G	-521
▁허	-522
▁프랑스	-523
했으며	-524
부분	-525
▁즉	-526
it	-527
▁테	-528
▁영국	-529
▁정치	-530
▁이상	-531
력을	-532
도로	-533
▁이어	-534
나라	-535
▁것은	-536
▁중심	-537
년에는	-538
거나	-539
▁월	-540
이자	-541
▁일반	-542
▁같다	-543
▁길	-544
▁문제	-545
▁N	-546
▁자신의	-547
▁맡	-548
▁러	-549
기의	-550
▁온	-551
▁나타	-552
▁뉴	-553
▁가능	-554
▁논	-555
▁앞	-556
▁게임	-557
▁작품	-558
▁인구	-559
000	-560
▁환	-561
▁걸	-562
▁H	-563
▁리그	-564
▁개발	-565
▁맞	-566
▁갖	-567
▁193	-568
▁이러	-569
▁별	-570
▁곳	-571
▁동안	-572
▁발견	-573
▁U	-574
▁캐	-575
▁E	-576
▁이러한	-577
▁준	-578
▁접	-579
▁새로	-580
리스	-581
▁등을	-582
▁면	-583
▁향	-584
▁30	-585
▁발표	-586
▁밀	-587
▁이는	-588
▁하지만	-589
년대	-590
▁주장	-591
▁국제	-592
하면	-593
▁방송	-594
▁되어	-595
다는	-596
(1	-597
되었으며	-598
le	-599
통령	-600
기는	-601
▁농	-602
로부터	-603
▁지방	-604
다고	-605
▁협	-606
도록	-607
로는	-608
▁볼	-609
위원	-610
자의	-611
▁검	-612
시키	-613
들과	-614
▁섬	-615
▁잘	-616
서는	-617
▁이를	-618
▁기준	-619
기가	-620
▁전투	-621
re	-622
▁대부분	-623
리가	-624
▁사건	-625
란드	-626
▁의미	-627
▁공격	-628
▁대회	-629
▁육	-630
▁번째	-631
▁담	-632
▁폭	-633
▁하고	-634
월에	-635
군의	-636
▁위치한	-637
사가	-638
▁귀	-639
▁밝	-640
에서도	-641
시에	-642
났다	-643
▁문화	-644
▁대학	-645
▁음악	-646
▁홍	-647
하였으며	-648
리카	-649
▁W	-650
어진	-651
ion	-652
▁영향	-653
▁막	-654
리그	-655
쪽으로	-656
▁대통령	-657
스를	-658
정을	-659
▁얻	-660
▁최초	-661
년까지	-662
이트	-663
▁2010	-664
세기	-665
▁석	-666
명의	-667
▁미국의	-668
했던	-669
▁키	-670
▁프로그	-671
▁참여	-672
▁극	-673
▁날	-674
▁우승	-675
▁설립	-676
▁설치	-677
인의	-678
자를	-679
us	-680
자는	-681
성이	-682
▁진행	-683
와의	-684
▁이에	-685
도를	-686
들에게	-687
▁앨	-688
▁줄	-689
▁효	-690
▁,	-691
ro	-692
▁특히	-693
▁관계	-694
▁결과	-695
▁역사	-696
림픽	-697
▁곡	-698
10	-699
▁2008	-700
▁관련	-701
▁그녀	-702
▁봉	-703
리의	-704
▁일어	-705
▁책	-706
▁발생	-707
el	-708
▁배우	-709
▁된	-710
▁유럽	-711
▁절	-712
▁<	-713
▁25	-714
디오	-715
▁발매	-716
자로	-717
▁만들어	-718
대를	-719
▁독립	-720
▁사망	-721
▁다양	-722
▁암	-723
가지	-724
▁같이	-725
렸다	-726
▁이전	-727
▁러시아	-728
(19	-729
▁부분	-730
스가	-731
▁형태	-732
▁생각	-733
▁태어	-734
므로	-735
▁시간	-736
▁갈	-737
▁헤	-738
▁블	-739
요한	-740
스터	-741
▁교육	-742
▁사실	-743
▁글	-744
▁폐	-745
▁2007	-746
▁인해	-747
▁이것	-748
▁이탈	-749
▁와	-750
▁자유	-751
▁새로운	-752
▁주로	-753
▁소속	-754
▁2011	-755
▁좋	-756
▁2009	-757
▁경제	-758
▁지원	-759
▁올림픽	-760
▁받아	-761
▁측	-762
▁있고	-763
▁받았다	-764
▁수도	-765
르는	-766
▁2012	-767
▁질	-768
▁기술	-769
▁중앙	-770
식을	-771
▁침	-772
▁계속	-773
과의	-774
라마	-775
▁엔	-776
▁출신	-777
이스	-778
▁머	-779
▁프로그램	-780
▁지정	-781
▁로마	-782
▁잡	-783
▁참가	-784
▁t	-785
도는	-786
▁등장	-787
▁커	-788
화국	-789
▁송	-790
▁구조	-791
번째	-792
▁누	-793
▁범	-794
▁상태	-795
▁데뷔	-796
ol	-797
▁192	-798
▁탄	-799
-1	-800
▁있던	-801
▁골	-802
as	-803
▁2014	-804
사의	-805
▁벌	-806
▁매우	-807
▁결정	-808
다가	-809
학자	-810
▁난	-811
▁아버	-812
ch	-813
대학교	-814
▁탈	-815
인이	-816
부의	-817
프트	-818
▁고려	-819
리즈	-820
▁운영	-821
▁J	-822
이지	-823
▁혼	-824
▁이탈리아	-825
▁니	-826
▁성공	-827
▁슈	-828
▁않았다	-829
▁아들	-830
▁O	-831
전을	-832
▁2013	-833
으로서	-834
am	-835
om	-836
이션	-837
르크	-838
▁타이	-839
드는	-840
▁21	-841
▁가지고	-842
▁넘	-843
,000	-844
▁일본의	-845
기로	-846
▁윤	-847
▁돌아	-848
명을	-849
비아	-850
et	-851
▁몇	-852
▁급	-853
대에	-854
하기도	-855
▁아니라	-856
▁들	-857
▁찾	-858
il	-859
처럼	-860
▁없다	-861
에서의	-862
▁터	-863
ou	-864
▁100	-865
장이	-866
해서	-867
▁차지	-868
도가	-869
▁선거	-870
▁만들	-871
▁24	-872
▁악	-873
ing	-874
했지만	-875
▁싱	-876
▁한편	-877
▁없는	-878
되지	-879
▁운동	-880
▁2015	-881
▁2006	-882
▁0	-883
▁행정	-884
왔다	-885
▁생산	-886
▁결국	-887
▁떨	-888
▁해당	-889
▁최고	-890
▁23	-891
▁않고	-892
남도	-893
운데	-894
▁조직	-895
▁22	-896
하자	-897
▁아래	-898
▁케	-899
FA	-900
▁출연	-901
사는	-902
▁좌	-903
▁앨범	-904
▁업	-905
권을	-906
▁라이	-907
간의	-908
▁전체	-909
▁계획	-910
▁쿠	-911
▁내용	-912
▁가리	-913
▁많이	-914
▁이유	-915
부에	-916
원을	-917
▁여성	-918
▁폴	-919
냈다	-920
명이	-921
▁2016	-922
화를	-923
▁유명	-924
군은	-925
수를	-926
▁둘	-927
선의	-928
▁따르	-929
수의	-930
▁방법	-931
")	-932
초등학교	-933
▁가운데	-934
스크	-935
일부터	-936
▁팔	-937
▁음반	-938
▁힘	-939
스타	-940
▁스타	-941
스템	-942
▁하여	-943
으로써	-944
원의	-945
▁주요	-946
▁떠	-947
▁빠	-948
▁대학교	-949
스와	-950
▁데이	-951
▁남아	-952
▁제공	-953
음을	-954
▁역할	-955
▁월드	-956
of	-957
어로	-958
장으로	-959
장은	-960
▁묘	-961
사로	-962
지의	-963
▁국민	-964
▁다양한	-965
▁28	-966
진다	-967
▁몸	-968
▁콘	-969
▁컴	-970
▁26	-971
▁이루어	-972
▁2017	-973
▁않는다	-974
▁표현	-975
였던	-976
▁각각	-977
▁인터	-978
대학	-979
▁헌	-980
이의	-981
하던	-982
▁2018	-983
전에	-984
▁드라마	-985
자인	-986
수가	-987
▁잠	-988
리고	-989
▁스페	-990
▁27	-991
▁수상	-992
지가	-993
▁졸	-994
st	-995
했으나	-996
("	-997
▁모습	-998
▁거의	-999
운동	-1000
머니	-1001
▁연결	-1002
인다	-1003
▁V	-1004
▁191	-1005
▁마지	-1006
나는	-1007
BS	-1008
하려	-1009
▁칼	-1010
▁붙	-1011
스로	-1012
으로는	-1013
▁이름을	-1014
de	-1015
▁190	-1016
▁출전	-1017
▁얼	-1018
▁경상	-1019
▁공식	-1020
▁이미	-1021
▁2005	-1022
▁마이	-1023
▁임명	-1024
문화	-1025
인민	-1026
▁격	-1027
됐다	-1028
▁시리즈	-1029
▁필요	-1030
▁알려져	-1031
원이	-1032
성의	-1033
우스	-1034
_1	-1035
▁작은	-1036
ac	-1037
▁따라서	-1038
▁지구	-1039
가는	-1040
▁높은	-1041
▁몰	-1042
지에	-1043
▁마지막	-1044
▁뛰	-1045
으로부터	-1046
▁빌	-1047
위원회	-1048
점을	-1049
▁열린	-1050
대표	-1051
▁정보	-1052
력이	-1053
▁시스템	-1054
▁능	-1055
▁인정	-1056
▁2000	-1057
▁공개	-1058
시켰	-1059
제로	-1060
▁직접	-1061
▁영향을	-1062
어를	-1063
▁과정	-1064
▁따르면	-1065
▁기원	-1066
상의	-1067
▁대전	-1068
▁대신	-1069
200	-1070
▁후보	-1071
▁2004	-1072
▁진출	-1073
이가	-1074
▁이야	-1075
▁활약	-1076
었고	-1077
▁자연	-1078
▁엘	-1079
▁풍	-1080
▁항공	-1081
▁of	-1082
▁센	-1083
▁보고	-1084
북도	-1085
대한	-1086
지고	-1087
▁개최	-1088
있다	-1089
▁추가	-1090
▁그리스	-1091
▁쇼	-1092
▁기능	-1093
▁[	-1094
▁눈	-1095
제를	-1096
민주	-1097
▁홈	-1098
군이	-1099
▁않은	-1100
▁오스트	-1101
▁졸업	-1102
해야	-1103
▁되는	-1104
▁시대	-1105
사에	-1106
▁평가	-1107
▁그룹	-1108
▁브라	-1109
▁29	-1110
▁정의	-1111
▁녹	-1112
▁그가	-1113
▁있는데	-1114
▁생활	-1115
▁정도	-1116
▁인구는	-1117
갔다	-1118
▁유지	-1119
▁말한다	-1120
▁상황	-1121
▁철도	-1122
▁건물	-1123
시의	-1124
▁변경	-1125
▁비롯	-1126
선을	-1127
▁지금	-1128
▁후에	-1129
수로	-1130
▁먹	-1131
▁아르	-1132
▁서로	-1133
▁민주	-1134
▁퍼	-1135
▁프리	-1136
▁노래	-1137
▁31	-1138
이드	-1139
▁바이	-1140
▁역시	-1141
ed	-1142
▁발전	-1143
위에	-1144
르트	-1145
▁제국	-1146
▁크게	-1147
▁관한	-1148
전에서	-1149
▁응	-1150
▁핵	-1151
▁보여	-1152
▁결혼	-1153
▁인도	-1154
적은	-1155
ent	-1156
인을	-1157
▁레이	-1158
▁중요한	-1159
▁않았	-1160
▁압	-1161
▁울	-1162
▁뜻은	-1163
지로	-1164
세의	-1165
인은	-1166
▁학교	-1167
▁거쳐	-1168
▁여자	-1169
▁건설	-1170
▁뿐	-1171
▁그것	-1172
들에	-1173
부를	-1174
▁c	-1175
▁인물	-1176
▁FC	-1177
▁분류	-1178
▁사업	-1179
▁하였	-1180
▁나라	-1181
일까지	-1182
계를	-1183
어는	-1184
▁관리	-1185
▁낮	-1186
▁부산	-1187
치는	-1188
▁경기도	-1189
원은	-1190
▁희	-1191
▁상대	-1192
식으로	-1193
▁딸	-1194
문을	-1195
▁플레이	-1196
50	-1197
▁이론	-1198
특별	-1199
▁반대	-1200
니다	-1201
▁공동	-1202
▁혹	-1203
킨다	-1204
▁요구	-1205
▁가진	-1206
임을	-1207
▁연합	-1208
원으로	-1209
▁완전	-1210
ig	-1211
▁만든	-1212
▁원래	-1213
▁일으	-1214
▁티	-1215
▁형성	-1216
치를	-1217
부는	-1218
▁밴	-1219
트로	-1220
되면서	-1221
▁2002	-1222
▁놓	-1223
광역	-1224
수는	-1225
▁모델	-1226
).	-1227
ra	-1228
▁기업	-1229
▁시절	-1230
른다	-1231
▁않는	-1232
▁색	-1233
제가	-1234
레스	-1235
▁이르	-1236
▁군사	-1237
▁m	-1238
리오	-1239
▁지하	-1240
▁동시에	-1241
▁사이에	-1242
▁중화	-1243
▁시작했다	-1244
▁기본	-1245
군을	-1246
▁겸	-1247
▁싱글	-1248
장의	-1249
▁실시	-1250
역이다	-1251
▁2003	-1252
▁느	-1253
▁워	-1254
▁승강	-1255
대는	-1256
하였으나	-1257
▁어떤	-1258
운드	-1259
▁노동	-1260
회를	-1261
상이	-1262
▁현대	-1263
▁아닌	-1264
▁긴	-1265
▁계약	-1266
▁운행	-1267
▁비판	-1268
이었던	-1269
▁제외	-1270
제의	-1271
▁학생	-1272
▁잉	-1273
▁:	-1274
대가	-1275
▁민족	-1276
프리카	-1277
▁야구	-1278
▁명칭	-1279
▁소련	-1280
상으로	-1281
▁싸	-1282
정한	-1283
▁역할을	-1284
▁자동	-1285
▁사랑	-1286
인민공	-1287
▁50	-1288
▁189	-1289
un	-1290
하는데	-1291
이기도	-1292
ur	-1293
명은	-1294
iv	-1295
▁지도	-1296
▁최초의	-1297
주는	-1298
▁전통	-1299
▁처음으로	-1300
▁망	-1301
▁전라	-1302
▁휴	-1303
▁여기	-1304
▁공간	-1305
체의	-1306
▁콜	-1307
▁교황	-1308
장에	-1309
▁보통	-1310
▁2019	-1311
id	-1312
나다	-1313
스탄	-1314
▁판매	-1315
▁이동	-1316
ot	-1317
이를	-1318
▁이때	-1319
▁특징	-1320
있는	-1321
린다	-1322
and	-1323
호로	-1324
되며	-1325
▁영화이다	-1326
▁넓	-1327
▁의한	-1328
▁수행	-1329
▁특별	-1330
12	-1331
▁있을	-1332
▁도입	-1333
▁도쿄	-1334
▁비슷	-1335
▁있다고	-1336
▁나오	-1337
단의	-1338
▁인간	-1339
▁견	-1340
▁기간	-1341
자와	-1342
▁되고	-1343
서를	-1344
▁달리	-1345
소를	-1346
▁그래	-1347
카이	-1348
▁옮	-1349
▁전문	-1350
키는	-1351
▁푸	-1352
▁다이	-1353
적을	-1354
▁기반	-1355
관은	-1356
▁마을	-1357
과는	-1358
▁초기	-1359
▁개인	-1360
호를	-1361
▁슬	-1362
▁하며	-1363
18	-1364
▁궁	-1365
▁월드컵	-1366
▁애니	-1367
▁퇴	-1368
▁지나	-1369
▁기존	-1370
▁서비	-1371
성은	-1372
▁혁	-1373
▁종교	-1374
▁훈	-1375
연구	-1376
▁개의	-1377
▁엄	-1378
▁역임	-1379
시마	-1380
격을	-1381
▁과학	-1382
▁탑	-1383
▁모양	-1384
▁웨	-1385
▁태양	-1386
체를	-1387
▁바로	-1388
장에서	-1389
▁빈	-1390
BC	-1391
독교	-1392
▁어머니	-1393
가와	-1394
중에	-1395
▁1990	-1396
▁벨	-1397
ation	-1398
.5	-1399
▁위하여	-1400
▁출시	-1401
▁혹은	-1402
▁기타	-1403
물을	-1404
드의	-1405
트를	-1406
고등학교	-1407
▁아버지	-1408
▁컴퓨	-1409
ter	-1410
무를	-1411
드로	-1412
▁지배	-1413
시간	-1414
▁s	-1415
▁유일	-1416
15	-1417
os	-1418
▁정책	-1419
um	-1420
▁국내	-1421
동안	-1422
▁이끌	-1423
▁목록	-1424
▁경기에서	-1425
▁전국	-1426
혔다	-1427
▁일반적으로	-1428
텔레	-1429
30	-1430
어의	-1431
리로	-1432
▁소설	-1433
리와	-1434
▁될	-1435
도에	-1436
▁맥	-1437
▁지휘	-1438
▁주변	-1439
▁과거	-1440
od	-1441
▁샤	-1442
했는데	-1443
트의	-1444
."	-1445
▁연방	-1446
화가	-1447
하지만	-1448
▁기관	-1449
▁동일	-1450
광역시	-1451
▁기원전	-1452
학과	-1453
기관	-1454
▁경찰	-1455
▁공연	-1456
▁부르	-1457
어가	-1458
16	-1459
방송	-1460
▁FI	-1461
▁탐	-1462
▁이적	-1463
▁2001	-1464
▁중심으로	-1465
드를	-1466
마다	-1467
쪽에	-1468
▁이것은	-1469
호는	-1470
시켰다	-1471
▁보내	-1472
ad	-1473
▁p	-1474
▁산업	-1475
▁그를	-1476
스코	-1477
▁40	-1478
의를	-1479
▁가수	-1480
▁지정되었다	-1481
▁풀	-1482
▁뮤	-1483
▁흔	-1484
▁적용	-1485
▁속하는	-1486
▁받은	-1487
▁비교	-1488
▁곧	-1489
▁먼	-1490
위로	-1491
메이션	-1492
▁있다는	-1493
▁클럽	-1494
경기	-1495
피언	-1496
▁1,	-1497
▁획	-1498
▁밖	-1499
▁컴퓨터	-1500
▁충청	-1501
▁옥	-1502
▁분야	-1503
구의	-1504
동에	-1505
군에	-1506
류의	-1507
▁건축	-1508
▁담당	-1509
▁추정	-1510
▁작업	-1511
▁국가대표	-1512
▁받았	-1513
▁숙	-1514
▁받고	-1515
▁가까	-1516
쳤다	-1517
▁열차	-1518
▁방영	-1519
▁노선	-1520
▁되었고	-1521
▁선정	-1522
▁찾아	-1523
▁착	-1524
▁확인	-1525
▁떨어	-1526
▁없이	-1527
▁너	-1528
▁설명	-1529
▁기독교	-1530
트는	-1531
체가	-1532
▁방향	-1533
년의	-1534
▁때문이다	-1535
▁작곡	-1536
사와	-1537
스에	-1538
▁규모	-1539
im	-1540
리지	-1541
▁배우이다	-1542
-2	-1543
비전	-1544
▁피해	-1545
▁자기	-1546
▁환경	-1547
▁통합	-1548
▁우주	-1549
세는	-1550
▁염	-1551
▁어느	-1552
야마	-1553
▁the	-1554
▁차량	-1555
▁두고	-1556
▁증가	-1557
14	-1558
▁낙	-1559
ct	-1560
▁그녀는	-1561
▁챔	-1562
조의	-1563
▁실패	-1564
글랜드	-1565
단을	-1566
인으로	-1567
▁넣	-1568
▁가족	-1569
ia	-1570
ow	-1571
▁개념	-1572
▁멤	-1573
op	-1574
▁기념	-1575
▁오늘	-1576
하거나	-1577
▁활동을	-1578
▁대부분의	-1579
ir	-1580
▁상당	-1581
크로	-1582
▁올라	-1583
▁지지	-1584
▁뉴욕	-1585
60	-1586
종의	-1587
르게	-1588
▁기준으로	-1589
▁늘	-1590
▁수록	-1591
인이다	-1592
회는	-1593
▁FIFA	-1594
부가	-1595
▁이런	-1596
이로	-1597
중학교	-1598
▁TV	-1599
제는	-1600
▁이름은	-1601
나무	-1602
▁이와	-1603
트남	-1604
▁보호	-1605
11	-1606
▁캐나다	-1607
▁어린	-1608
동을	-1609
▁애니메이션	-1610
▁걸쳐	-1611
▁사상	-1612
▁1980	-1613
일에는	-1614
▁있지만	-1615
▁자신이	-1616
▁서울특별	-1617
▁데이터	-1618
▁최대	-1619
▁하나이다	-1620
시켜	-1621
em	-1622
▁이상의	-1623
면에	-1624
.2	-1625
당의	-1626
▁사고	-1627
교육	-1628
▁윌	-1629
]]	-1630
ut	-1631
▁1999	-1632
▁대체	-1633
관을	-1634
▁태어났다	-1635
학적	-1636
원에	-1637
했다고	-1638
▁갑	-1639
▁챔피언	-1640
기와	-1641
계의	-1642
적이	-1643
▁있어서	-1644
▁등에	-1645
▁(19	-1646
▁예정	-1647
식의	-1648
▁스페인	-1649
▁없었다	-1650
▁1998	-1651
▁최초로	-1652
▁멤버	-1653
움을	-1654
▁득	-1655
▁나가	-1656
으면	-1657
▁흐	-1658
▁최근	-1659
▁하다	-1660
겼다	-1661
▁대하여	-1662
cm	-1663
치가	-1664
▁등으로	-1665
▁뛰어	-1666
세가	-1667
렇게	-1668
▁언어	-1669
▁자료	-1670
메리카	-1671
▁땅	-1672
▁윈	-1673
드리	-1674
▁공화국	-1675
.)	-1676
▁획득	-1677
식은	-1678
성과	-1679
▁잉글랜드	-1680
▁위원	-1681
스카	-1682
심을	-1683
이란	-1684
▁구간	-1685
일을	-1686
▁불가	-1687
80	-1688
▁텔레	-1689
▁있었던	-1690
▁[[	-1691
자들은	-1692
▁내려	-1693
▁더욱	-1694
▁최종	-1695
식이	-1696
13	-1697
▁개봉	-1698
▁베이	-1699
▁선출	-1700
▁흑	-1701
▁선택	-1702
단은	-1703
정에	-1704
▁다음을	-1705
▁지역에	-1706
▁잔	-1707
▁솔	-1708
▁맺	-1709
_2	-1710
세를	-1711
지역	-1712
했을	-1713
어서	-1714
리에서	-1715
▁인천	-1716
학을	-1717
17	-1718
성에	-1719
▁시민	-1720
ag	-1721
▁평균	-1722
▁조건	-1723
▁조사	-1724
▁물리	-1725
▁런	-1726
▁부족	-1727
▁연주	-1728
한다는	-1729
널리	-1730
되었으나	-1731
▁선발	-1732
▁보인다	-1733
▁흥	-1734
▁d	-1735
▁변화	-1736
▁대구	-1737
▁b	-1738
▁선언	-1739
▁Y	-1740
▁어려	-1741
▁에너	-1742
▁1997	-1743
덜란드	-1744
▁결승	-1745
▁명령	-1746
▁앤	-1747
40	-1748
시키는	-1749
▁연속	-1750
▁조지	-1751
▁점령	-1752
▁이름으로	-1753
▁도로	-1754
트리	-1755
▁서울특별시	-1756
렀다	-1757
.0	-1758
만을	-1759
▁공산	-1760
▁좋은	-1761
가의	-1762
▁가리킨다	-1763
▁옛	-1764
▁관할	-1765
개월	-1766
▁X	-1767
▁표준	-1768
소가	-1769
▁칭	-1770
▁전기	-1771
▁있게	-1772
시대	-1773
명으로	-1774
▁1995	-1775
▁스포	-1776
▁헌법	-1777
함으로써	-1778
▁선수이다	-1779
▁잃	-1780
프로	-1781
년간	-1782
▁움	-1783
▁팬	-1784
▁우리	-1785
난다	-1786
▁국립	-1787
과에	-1788
호선	-1789
정부	-1790
상에	-1791
이에	-1792
▁컨	-1793
쪽으로는	-1794
▁몽	-1795
▁동물	-1796
▁교통	-1797
▁거주	-1798
인민공화국	-1799
▁1996	-1800
▁불구	-1801
만이	-1802
▁이들은	-1803
▁아시아	-1804
라도	-1805
회에서	-1806
▁정당	-1807
▁덴	-1808
▁이유로	-1809
내는	-1810
▁현재는	-1811
▁예를	-1812
▁것이라고	-1813
oc	-1814
▁국가대표팀	-1815
▁덕	-1816
하도록	-1817
자들이	-1818
▁고대	-1819
▁반응	-1820
▁왜	-1821
▁이해	-1822
학의	-1823
▁후반	-1824
▁지역의	-1825
▁메이	-1826
▁겨	-1827
이지만	-1828
▁주의	-1829
▁사무	-1830
▁익	-1831
▁네덜란드	-1832
구를	-1833
▁그들의	-1834
▁언급	-1835
▁베트남	-1836
▁마르	-1837
▁조약	-1838
▁전자	-1839
▁징	-1840
비를	-1841
▁정규	-1842
▁전에	-1843
▁면적은	-1844
▁액	-1845
레일	-1846
웠다	-1847
상은	-1848
▁폴란드	-1849
▁공립	-1850
▁소유	-1851
▁목표	-1852
▁출판	-1853
▁단체	-1854
역을	-1855
▁승리	-1856
▁휘	-1857
▁밤	-1858
모토	-1859
▁유사	-1860
으므로	-1861
인데	-1862
라의	-1863
▁현재의	-1864
진을	-1865
▁북한	-1866
▁예술	-1867
스턴	-1868
▁188	-1869
었으며	-1870
▁명의	-1871
▁1994	-1872
▁입단	-1873
▁맡았다	-1874
▁하나의	-1875
▁돈	-1876
▁쌍	-1877
▁시설	-1878
▁이듬	-1879
▁효과	-1880
월에는	-1881
▁주민	-1882
▁깊	-1883
▁지상	-1884
랐다	-1885
▁구분	-1886
▁버전	-1887
▁영국의	-1888
▁하지	-1889
▁이곳	-1890
▁정확	-1891
▁하나로	-1892
일랜드	-1893
▁소프트	-1894
▁씨	-1895
정이	-1896
▁모습을	-1897
th	-1898
▁지속	-1899
▁1970	-1900
▁사용하는	-1901
ce	-1902
▁그림	-1903
▁소비	-1904
되기	-1905
▁대중	-1906
▁육군	-1907
▁드러	-1908
사카	-1909
▁정신	-1910
▁실제	-1911
▁페르	-1912
▁1992	-1913
계에	-1914
▁끌	-1915
▁크리스	-1916
▁실험	-1917
▁강화	-1918
▁밝혔다	-1919
ay	-1920
▁쓴	-1921
▁아직	-1922
▁핀	-1923
▁가문	-1924
▁유래	-1925
▁이듬해	-1926
스키	-1927
▁포르	-1928
단에	-1929
지와	-1930
▁오늘날	-1931
메달	-1932
관이	-1933
▁분리	-1934
▁St	-1935
▁불구하고	-1936
원에서	-1937
▁세워	-1938
▁고등학교	-1939
베이	-1940
치고	-1941
70	-1942
▁제한	-1943
스테	-1944
mm	-1945
스에서	-1946
▁믿	-1947
지지	-1948
▁거두	-1949
▁말했다	-1950
회에	-1951
▁웹	-1952
소의	-1953
부르크	-1954
ers	-1955
▁은퇴	-1956
직을	-1957
▁언론	-1958
금을	-1959
골을	-1960
▁꽃	-1961
시코	-1962
▁사이의	-1963
회가	-1964
▁세포	-1965
월부터	-1966
나이	-1967
▁통과	-1968
▁불리	-1969
▁찬	-1970
▁위에	-1971
▁그런	-1972
지방	-1973
구에	-1974
▁알려진	-1975
▁비해	-1976
▁헬	-1977
▁국회의	-1978
▁남자	-1979
▁그들은	-1980
▁작가	-1981
형을	-1982
주시	-1983
▁널리	-1984
단이	-1985
톨릭	-1986
▁제품	-1987
로의	-1988
민주주의	-1989
nd	-1990
▁물질	-1991
▁등과	-1992
▁포함한	-1993
▁분석	-1994
법을	-1995
▁펼	-1996
라스	-1997
▁방문	-1998
▁회사	-1999
베르	-2000
▁움직	-2001
▁자치	-2002
들로	-2003
▁발달	-2004
▁홀	-2005
▁비행	-2006
철도	-2007
▁제조	-2008
▁차례	-2009
▁괴	-2010
▁중에	-2011
▁이사	-2012
드가	-2013
하의	-2014
장과	-2015
-0	-2016
ul	-2017
▁1991	-2018
▁나온	-2019
자리	-2020
이어	-2021
▁칸	-2022
체는	-2023
▁1993	-2024
▁프로젝	-2025
정의	-2026
▁바탕	-2027
▁시에	-2028
▁빛	-2029
▁전해	-2030
▁설계	-2031
스티	-2032
아의	-2033
▁요청	-2034
▁맨	-2035
▁마음	-2036
▁경험	-2037
▁결합	-2038
▁못했다	-2039
▁친구	-2040
▁완전히	-2041
▁사람이	-2042
▁부여	-2043
▁여겨	-2044
▁것에	-2045
▁갖고	-2046
르고	-2047
▁브라질	-2048
▁통일	-2049
▁프랑스의	-2050
▁소재	-2051
▁자주	-2052
ri	-2053
▁독일의	-2054
버스	-2055
▁크로	-2056
점이	-2057
사업	-2058
▁배치	-2059
▁연기	-2060
▁이들	-2061
▁스웨	-2062
▁비롯한	-2063
▁초등학교	-2064
▁때까지	-2065
▁1960	-2066
▁멸	-2067
▁오른	-2068
▁멀	-2069
시는	-2070
▁알렉	-2071
경을	-2072
▁런던	-2073
EFA	-2074
소는	-2075
트가	-2076
▁목적으로	-2077
▁깨	-2078
로를	-2079
▁수준	-2080
▁그대로	-2081
▁1988	-2082
산을	-2083
안을	-2084
바이	-2085
▁인터넷	-2086
▁오래	-2087
찬가지	-2088
▁파괴	-2089
스토	-2090
▁자리	-2091
지에서	-2092
▁영토	-2093
관으로	-2094
ov	-2095
▁마찬가지	-2096
선에	-2097
(200	-2098
웨어	-2099
▁바뀌	-2100
▁쉽	-2101
릭터	-2102
▁아프리카	-2103
▁남부	-2104
▁요시	-2105
▁중요	-2106
▁스스로	-2107
▁정도로	-2108
▁주인	-2109
가를	-2110
위는	-2111
▁외국	-2112
▁유명한	-2113
▁주연	-2114
▁텔레비전	-2115
▁만나	-2116
위가	-2117
▁오스트리아	-2118
▁않아	-2119
문에	-2120
▁나머	-2121
▁60	-2122
▁이로	-2123
기술	-2124
▁하이	-2125
▁칠	-2126
인과	-2127
▁확장	-2128
▁유전	-2129
▁아마	-2130
TV	-2131
(20	-2132
▁식민	-2133
▁성장	-2134
",	-2135
루스	-2136
▁추진	-2137
▁우승을	-2138
▁많다	-2139
▁있도록	-2140
선이	-2141
▁스웨덴	-2142
일의	-2143
▁사라	-2144
정은	-2145
▁존재한다	-2146
▁의미한다	-2147
부로	-2148
▁밝혀	-2149
거리	-2150
▁감독의	-2151
▁몬	-2152
▁광주	-2153
었던	-2154
▁UEFA	-2155
위의	-2156
르의	-2157
▁스포츠	-2158
들도	-2159
물의	-2160
▁불교	-2161
▁패배	-2162
▁법률	-2163
종이다	-2164
▁가르	-2165
▁달러	-2166
▁하계	-2167
.3	-2168
되기도	-2169
주를	-2170
▁복귀	-2171
받았다	-2172
ap	-2173
▁사람들이	-2174
감을	-2175
지게	-2176
▁습	-2177
▁1989	-2178
당은	-2179
우는	-2180
▁가톨릭	-2181
▁근처	-2182
▁짧	-2183
▁초대	-2184
▁기여	-2185
▁살아	-2186
▁경쟁	-2187
▁경우가	-2188
▁일어나	-2189
▁있으나	-2190
신을	-2191
▁영어	-2192
▁일제	-2193
▁캐릭터	-2194
▁KBS	-2195
▁강력	-2196
▁공항	-2197
▁먼저	-2198
▁되었	-2199
▁집합	-2200
▁해석	-2201
▁의하여	-2202
멕시코	-2203
많은	-2204
▁주도	-2205
없이	-2206
▁과정에서	-2207
레일리아	-2208
전의	-2209
▁선수로	-2210
▁이외	-2211
조는	-2212
▁접근	-2213
▁폐지	-2214
▁관측	-2215
▁혈	-2216
선거	-2217
ie	-2218
카와	-2219
▁품	-2220
회사	-2221
영화	-2222
명이다	-2223
력은	-2224
도와	-2225
48	-2226
▁밴드	-2227
▁가능하다	-2228
규모	-2229
▁불리는	-2230
▁것이었다	-2231
▁선수권	-2232
▁잇	-2233
▁그녀의	-2234
▁들어가	-2235
▁서식	-2236
NA	-2237
▁스위	-2238
▁알고	-2239
군과	-2240
▁십	-2241
라인	-2242
러스	-2243
▁수용	-2244
▁슈퍼	-2245
정보	-2246
▁왕국	-2247
ist	-2248
▁단순	-2249
일본	-2250
▁작용	-2251
▁필리	-2252
이기	-2253
▁치료	-2254
오는	-2255
▁촉	-2256
▁개혁	-2257
▁구성되어	-2258
행을	-2259
▁노르	-2260
디어	-2261
구는	-2262
▁여객	-2263
▁특정	-2264
▁을	-2265
형의	-2266
▁때는	-2267
하다가	-2268
▁비슷한	-2269
주로	-2270
▁기초	-2271
▁결성	-2272
크의	-2273
화국의	-2274
▁제국의	-2275
▁여기서	-2276
하라	-2277
▁The	-2278
자이다	-2279
▁않다	-2280
▁술	-2281
▁가져	-2282
▁성립	-2283
▁록	-2284
25	-2285
▁스테	-2286
▁교수	-2287
▁70	-2288
▁궤	-2289
▁도착	-2290
량이	-2291
▁186	-2292
과학	-2293
▁강원	-2294
수한	-2295
▁경영	-2296
▁자동차	-2297
▁앙	-2298
▁조각	-2299
▁제작된	-2300
▁떨어진	-2301
▁수많은	-2302
고를	-2303
▁해결	-2304
간다	-2305
▁지난	-2306
하였는데	-2307
졌고	-2308
og	-2309
▁인민	-2310
선은	-2311
▁거부	-2312
▁여름	-2313
▁사용한다	-2314
▁삼성	-2315
했다는	-2316
▁라디오	-2317
▁파견	-2318
▁반란	-2319
▁아무	-2320
▁동맹	-2321
▁지냈다	-2322
▁히로	-2323
▁황제	-2324
▁더불	-2325
▁상대로	-2326
_3	-2327
속도로	-2328
▁디자인	-2329
▁바꾸	-2330
▁아시	-2331
▁지하철	-2332
ab	-2333
▁의하면	-2334
▁북쪽	-2335
전이	-2336
하이	-2337
▁보다	-2338
▁발행	-2339
▁상호	-2340
▁승강장	-2341
▁187	-2342
▁기록했다	-2343
▁놀	-2344
▁빅	-2345
▁프레	-2346
▁제시	-2347
▁중간	-2348
▁임시	-2349
소년	-2350
▁남쪽	-2351
▁/	-2352
▁공작	-2353
▁표시	-2354
▁나무	-2355
▁지역에서	-2356
▁이루어진	-2357
전은	-2358
아가	-2359
웨이	-2360
▁겪	-2361
▁그린	-2362
▁다르	-2363
▁생성	-2364
▁더불어	-2365
▁아카	-2366
▁오스트레일리아	-2367
센터	-2368
▁시행	-2369
▁외교	-2370
▁대표적인	-2371
자에	-2372
▁이야기	-2373
어나	-2374
▁대해서	-2375
▁훈련	-2376
함을	-2377
▁행동	-2378
량을	-2379
▁분포	-2380
▁위해서	-2381
▁1945	-2382
▁근거	-2383
▁부정	-2384
구가	-2385
관의	-2386
하기로	-2387
90	-2388
▁타이틀	-2389
▁조선민주주의	-2390
▁만에	-2391
미터	-2392
▁형태로	-2393
▁마찬가지로	-2394
▁번역	-2395
▁것과	-2396
▁상징	-2397
▁제주	-2398
트워	-2399
▁이주	-2400
▁엔진	-2401
한다고	-2402
▁흡	-2403
부에서	-2404
▁논란	-2405
▁위험	-2406
▁이렇게	-2407
The	-2408
▁중에서	-2409
br	-2410
▁처리	-2411
왕의	-2412
▁계열	-2413
촬영	-2414
▁시도	-2415
▁대응	-2416
와는	-2417
▁야마	-2418
▁등록	-2419
▁미국에서	-2420
▁캠	-2421
▁방어	-2422
▁1987	-2423
▁제안	-2424
▁디지	-2425
▁1986	-2426
▁다만	-2427
▁일을	-2428
▁멕시코	-2429
▁스트	-2430
만의	-2431
▁1950	-2432
▁벽	-2433
▁꾸	-2434
▁출생	-2435
▁개통	-2436
낸다	-2437
▁부른다	-2438
▁?	-2439
사에서	-2440
ard	-2441
▁투표	-2442
▁끝에	-2443
년을	-2444
성으로	-2445
▁윌리	-2446
▁교회	-2447
▁시작하였다	-2448
▁한국의	-2449
면을	-2450
▁값	-2451
지션	-2452
업을	-2453
▁바다	-2454
▁즉위	-2455
아시아	-2456
인트	-2457
ht	-2458
았고	-2459
▁n	-2460
▁유니	-2461
였고	-2462
▁곤	-2463
▁재판	-2464
시즌	-2465
▁곳에	-2466
▁숨	-2467
나가	-2468
▁체포	-2469
으면서	-2470
▁사용된다	-2471
교회	-2472
▁in	-2473
▁붕	-2474
▁이름이	-2475
시를	-2476
크라	-2477
화된	-2478
▁준비	-2479
조를	-2480
평양	-2481
▁다카	-2482
▁있기	-2483
▁삶	-2484
점으로	-2485
▁규정	-2486
▁벤	-2487
▁해안	-2488
디아	-2489
▁좋아	-2490
▁아일랜드	-2491
▁체결	-2492
▁있었고	-2493
▁쌓	-2494
▁통치	-2495
▁1984	-2496
▁적이	-2497
화의	-2498
▁사용할	-2499
요일	-2500
문화재	-2501
▁윈도	-2502
▁따른	-2503
est	-2504
▁몇몇	-2505
▁제기	-2506
▁대해서는	-2507
학생	-2508
▁중단	-2509
▁조성	-2510
▁보유	-2511
23	-2512
▁카를	-2513
▁낳	-2514
어졌다	-2515
오카	-2516
▁활용	-2517
▁80	-2518
대와	-2519
.1	-2520
▁회의	-2521
▁의원	-2522
▁유로	-2523
▁밑	-2524
▁종합	-2525
▁안정	-2526
.4	-2527
▁가정	-2528
▁종류	-2529
▁있지	-2530
▁다루	-2531
▁계승	-2532
▁그렇	-2533
▁귀족	-2534
▁경상북도	-2535
▁직후	-2536
▁보존	-2537
',	-2538
▁본래	-2539
86	-2540
▁시험	-2541
▁표기	-2542
▁미사	-2543
가이다	-2544
수이다	-2545
▁당선	-2546
▁동생	-2547
량은	-2548
해졌다	-2549
▁뇌	-2550
▁년	-2551
물이	-2552
▁문학	-2553
부와	-2554
국이	-2555
▁경상남도	-2556
주에	-2557
인들이	-2558
▁얼마	-2559
▁완성	-2560
▁살해	-2561
가로	-2562
24	-2563
▁못하고	-2564
▁관련된	-2565
▁나타나	-2566
▁캘	-2567
▁주인공	-2568
▁수비	-2569
▁천황	-2570
▁지적	-2571
▁하루	-2572
트에서	-2573
.6	-2574
로가	-2575
▁In	-2576
▁동쪽	-2577
사회	-2578
▁사진	-2579
▁1985	-2580
▁내각	-2581
▁떠나	-2582
연합	-2583
▁혁명	-2584
▁옮겨	-2585
▁나머지	-2586
▁것도	-2587
니는	-2588
력의	-2589
▁센터	-2590
▁젊	-2591
▁위치하고	-2592
..	-2593
▁이스	-2594
▁오후	-2595
되자	-2596
하에	-2597
▁팀의	-2598
▁엘리	-2599
▁못한	-2600
▁대륙	-2601
▁촬영	-2602
역으로	-2603
도시	-2604
권의	-2605
▁이루어져	-2606
였으며	-2607
▁친일	-2608
러운	-2609
ine	-2610
▁서비스	-2611
▁가능한	-2612
▁대사	-2613
35	-2614
av	-2615
▁왼	-2616
▁바르	-2617
▁홍콩	-2618
ess	-2619
▁취임	-2620
▁둔	-2621
▁유일한	-2622
.7	-2623
리포	-2624
▁베르	-2625
▁르	-2626
소로	-2627
▁시기	-2628
시키고	-2629
서로	-2630
▁금지	-2631
주교	-2632
나라의	-2633
▁해외	-2634
내고	-2635
▁유대	-2636
선에서	-2637
롭게	-2638
▁비디오	-2639
▁혐	-2640
▁스코	-2641
▁종료	-2642
체로	-2643
소에	-2644
▁이집	-2645
▁강한	-2646
▁빨	-2647
시킨	-2648
▁이용하여	-2649
자들의	-2650
▁각종	-2651
▁and	-2652
▁디지털	-2653
▁안에	-2654
▁달성	-2655
▁윌리엄	-2656
▁의견	-2657
▁중의	-2658
▁파이	-2659
▁포르투	-2660
21	-2661
▁싶	-2662
▁지명	-2663
습니다	-2664
인지	-2665
▁오브	-2666
려고	-2667
나의	-2668
치의	-2669
▁류	-2670
계가	-2671
▁묘사	-2672
력으로	-2673
▁위치해	-2674
▁충돌	-2675
▁경우에는	-2676
▁베네	-2677
▁시의	-2678
▁오사카	-2679
ec	-2680
▁승격	-2681
▁남북	-2682
▁벗	-2683
art	-2684
▁관광	-2685
▁아내	-2686
▁도시로	-2687
세에	-2688
▁정부는	-2689
▁인근	-2690
89	-2691
ak	-2692
헝가	-2693
▁소개	-2694
국은	-2695
▁사이에서	-2696
▁읽	-2697
▁필요한	-2698
▁근무	-2699
▁스튜	-2700
▁문제가	-2701
▁전달	-2702
▁에이	-2703
▁보수	-2704
▁물론	-2705
피아	-2706
▁죄	-2707
▁경기를	-2708
▁일어난	-2709
ity	-2710
▁이슬	-2711
로로	-2712
▁35	-2713
전히	-2714
▁뮤직	-2715
▁간의	-2716
▁폰	-2717
▁제거	-2718
민족	-2719
▁말을	-2720
▁2,	-2721
적으로는	-2722
▁가까운	-2723
조가	-2724
▁1982	-2725
▁낮은	-2726
분을	-2727
▁관계를	-2728
치로	-2729
▁발사	-2730
▁억	-2731
티아	-2732
▁듣	-2733
▁32	-2734
▁명예	-2735
▁위의	-2736
▁km	-2737
▁만화	-2738
▁해군	-2739
ip	-2740
량의	-2741
▁나누	-2742
▁가입	-2743
▁주목	-2744
▁아니다	-2745
단으로	-2746
고로	-2747
분에	-2748
▁서쪽	-2749
▁둘러	-2750
▁지역을	-2751
▁중국의	-2752
▁알렉산	-2753
45	-2754
▁썼	-2755
▁합류	-2756
월까지	-2757
론을	-2758
▁뒤에	-2759
▁Ch	-2760
▁만들어진	-2761
▁문제를	-2762
▁전환	-2763
▁굴	-2764
▁후쿠	-2765
▁만들었다	-2766
.(	-2767
▁즐	-2768
92	-2769
▁빼	-2770
▁이래	-2771
▁구조를	-2772
▁불린다	-2773
▁꼬	-2774
승을	-2775
당을	-2776
▁신라	-2777
▁주는	-2778
▁되었으며	-2779
당이	-2780
▁계산	-2781
▁미술	-2782
▁평화	-2783
작용	-2784
▁종목	-2785
▁참여하였다	-2786
▁출신의	-2787
▁비밀	-2788
▁갖추	-2789
라고도	-2790
라우	-2791
▁수는	-2792
▁1983	-2793
▁제도	-2794
▁건너	-2795
▁그려	-2796
▁안전	-2797
▁정식	-2798
▁옆	-2799
▁수가	-2800
▁네트워	-2801
물관	-2802
▁북부	-2803
그룹	-2804
▁실행	-2805
상과	-2806
임스	-2807
▁만약	-2808
워드	-2809
니스	-2810
즈의	-2811
기업	-2812
ne	-2813
▁멜	-2814
▁전반	-2815
▁오르	-2816
▁바탕으로	-2817
프는	-2818
일은	-2819
준다	-2820
종이	-2821
▁재직	-2822
▁기존의	-2823
계는	-2824
▁MBC	-2825
▁최고의	-2826
▁그해	-2827
권이	-2828
▁전라남도	-2829
▁맹	-2830
▁신문	-2831
▁제목	-2832
te	-2833
▁마련	-2834
▁너무	-2835
▁실제로	-2836
▁부문	-2837
▁천문	-2838
▁전시	-2839
▁사실을	-2840
▁펜	-2841
되었던	-2842
▁저항	-2843
만에	-2844
▁기록을	-2845
상에서	-2846
▁정치적	-2847
▁반면	-2848
▁납	-2849
▁스토	-2850
비가	-2851
메달을	-2852
▁가는	-2853
ill	-2854
▁주었다	-2855
산의	-2856
▁아키	-2857
이던	-2858
▁기후	-2859
인들은	-2860
지도	-2861
if	-2862
먼트	-2863
메이	-2864
▁넘어	-2865
ub	-2866
▁배경	-2867
▁사령	-2868
▁연장	-2869
▁강조	-2870
85	-2871
▁던	-2872
▁사람은	-2873
시가	-2874
▁부모	-2875
▁집중	-2876
ge	-2877
미널	-2878
점에서	-2879
이라고도	-2880
all	-2881
리어	-2882
▁전략	-2883
산업	-2884
▁마이크로	-2885
했기	-2886
관리	-2887
버트	-2888
▁인식	-2889
크는	-2890
▁생물	-2891
-3	-2892
▁무렵	-2893
신의	-2894
▁작성	-2895
라노	-2896
▁혜	-2897
(:	-2898
시대의	-2899
▁적극	-2900
장이다	-2901
▁객	-2902
▁불러	-2903
▁상업	-2904
▁셀	-2905
▁로스	-2906
▁정착	-2907
생활	-2908
석을	-2909
▁기능을	-2910
▁w	-2911
차를	-2912
년대에	-2913
해를	-2914
▁성격	-2915
▁케이	-2916
▁이다	-2917
▁대회에서	-2918
▁끼	-2919
CA	-2920
▁바람	-2921
▁보여주	-2922
공항	-2923
에게는	-2924
은행	-2925
▁입학	-2926
▁유형	-2927
▁내부	-2928
질을	-2929
▁올랐다	-2930
▁영역	-2931
▁하기	-2932
▁확대	-2933
▁족	-2934
▁통하여	-2935
▁제외한	-2936
단체	-2937
▁아우	-2938
졌으며	-2939
교의	-2940
▁공급	-2941
▁사회주의	-2942
원과	-2943
▁뿐만	-2944
▁일이	-2945
파의	-2946
▁인한	-2947
사이	-2948
로스	-2949
▁전투에서	-2950
ph	-2951
▁헨	-2952
프가	-2953
▁터키	-2954
▁이후에	-2955
▁오스	-2956
▁사람을	-2957
ob	-2958
▁이슬람	-2959
ell	-2960
▁허용	-2961
▁나중에	-2962
두고	-2963
▁국방	-2964
▁1979	-2965
▁부근	-2966
▁1981	-2967
▁항상	-2968
래프트	-2969
▁일반적인	-2970
보다는	-2971
가가	-2972
▁뒷	-2973
▁최소	-2974
르타	-2975
▁생활을	-2976
▁인디	-2977
▁포지션	-2978
▁정부의	-2979
▁사용하여	-2980
▁v	-2981
▁왔다	-2982
▁받아들	-2983
▁시대의	-2984
▁선의	-2985
▁의사	-2986
▁마리아	-2987
▁만드는	-2988
계에서	-2989
물로	-2990
▁핀란드	-2991
47	-2992
▁원자	-2993
▁제정	-2994
▁출발	-2995
▁겨울	-2996
▁젊은	-2997
밖에	-2998
전쟁	-2999
▁보면	-3000
▁동료	-3001
적이고	-3002
▁가리키는	-3003
▁덴마	-3004
▁관찰	-3005
▁판단	-3006
년과	-3007
▁여전히	-3008
▁1972	-3009
▁동계	-3010
리포니아	-3011
시오	-3012
▁있었지만	-3013
면의	-3014
▁동부	-3015
되었는데	-3016
27	-3017
▁보이	-3018
▁보도	-3019
▁국왕	-3020
▁그래서	-3021
▁매년	-3022
기고	-3023
▁연극	-3024
과를	-3025
로운	-3026
▁편집	-3027
개발	-3028
.8	-3029
주가	-3030
▁춘	-3031
까지의	-3032
호가	-3033
법원	-3034
비는	-3035
사령	-3036
▁뒤를	-3037
▁사용되는	-3038
ran	-3039
.9	-3040
▁마사	-3041
qu	-3042
▁채널	-3043
▁위협	-3044
세이	-3045
서관	-3046
▁쉽게	-3047
▁이승	-3048
세기에	-3049
▁등은	-3050
▁일종이다	-3051
▁높이	-3052
실을	-3053
▁포르투갈	-3054
▁유리	-3055
▁채택	-3056
▁세운	-3057
26	-3058
끄는	-3059
▁확보	-3060
▁de	-3061
▁500	-3062
▁경우도	-3063
▁다섯	-3064
▁정리	-3065
▁말이다	-3066
▁90	-3067
▁전개	-3068
▁흰	-3069
력에	-3070
▁교체	-3071
▁1973	-3072
▁블랙	-3073
▁문서	-3074
▁지진	-3075
▁붕괴	-3076
▁시작되었다	-3077
▁남동	-3078
로도	-3079
▁남편	-3080
▁범죄	-3081
았으며	-3082
동차	-3083
▁시기에	-3084
조선	-3085
▁합병	-3086
▁모스크	-3087
구려	-3088
▁장기	-3089
화에	-3090
드와	-3091
▁아나	-3092
▁득점	-3093
ST	-3094
▁방식	-3095
배우	-3096
▁충분	-3097
▁II	-3098
▁승리를	-3099
력과	-3100
36	-3101
▁외에도	-3102
ice	-3103
▁본관은	-3104
▁끊	-3105
▁탑재	-3106
▁공격을	-3107
▁귀국	-3108
▁중학교	-3109
▁척	-3110
▁측정	-3111
▁떨어져	-3112
로서의	-3113
FC	-3114
▁계약을	-3115
▁전사	-3116
▁없어	-3117
▁의해서	-3118
라운드	-3119
▁밖에	-3120
시로	-3121
ik	-3122
▁자리를	-3123
▁하자	-3124
▁수학	-3125
up	-3126
▁마쓰	-3127
▁갖춘	-3128
▁등에서	-3129
▁사용한	-3130
46	-3131
▁냉	-3132
테인	-3133
▁얼굴	-3134
대에서	-3135
▁옹	-3136
37	-3137
▁성우	-3138
▁미래	-3139
▁감소	-3140
▁구축	-3141
▁강력한	-3142
▁수립	-3143
▁사람들은	-3144
▁그곳	-3145
▁헝가	-3146
▁설립된	-3147
▁당시의	-3148
모리	-3149
다이	-3150
까지는	-3151
▁2020	-3152
▁g	-3153
▁강원도	-3154
▁울산	-3155
설을	-3156
▁점차	-3157
문이	-3158
의로	-3159
▁충청남도	-3160
▁시청	-3161
하려는	-3162
▁에드	-3163
▁해체	-3164
계로	-3165
▁책임	-3166
▁필리핀	-3167
▁관심을	-3168
87	-3169
▁잠시	-3170
▁흘	-3171
▁하게	-3172
▁민간	-3173
경제	-3174
22	-3175
▁서부	-3176
세포	-3177
▁봄	-3178
▁구역	-3179
▁정보를	-3180
대전	-3181
▁통신	-3182
▁해방	-3183
▁45	-3184
▁변호	-3185
협회	-3186
▁인수	-3187
일보	-3188
▁파일	-3189
당한	-3190
▁a	-3191
▁침공	-3192
▁주장했다	-3193
해의	-3194
리기	-3195
트에	-3196
하다고	-3197
▁녹음	-3198
▁구단	-3199
붉은	-3200
▁에스	-3201
라엘	-3202
▁캘리포니아	-3203
▁185	-3204
▁나폴	-3205
▁1974	-3206
▁화학	-3207
▁엑	-3208
▁만족	-3209
"(	-3210
▁이번	-3211
▁평양	-3212
▁알아	-3213
ian	-3214
정으로	-3215
▁하면서	-3216
▁()	-3217
음악	-3218
▁기획	-3219
▁잎	-3220
되었지만	-3221
▁시내	-3222
체에	-3223
당에	-3224
후의	-3225
▁아름	-3226
면에서	-3227
▁증거	-3228
받아	-3229
▁길이	-3230
▁소프트웨어	-3231
▁왔	-3232
구로	-3233
트라	-3234
▁델	-3235
▁인간의	-3236
용으로	-3237
▁루이	-3238
▁음력	-3239
틀랜드	-3240
▁경향	-3241
95	-3242
▁건강	-3243
▁요리	-3244
네시아	-3245
약을	-3246
사키	-3247
▁게이	-3248
▁편입	-3249
▁나뉘	-3250
같은	-3251
▁여행	-3252
개를	-3253
▁균	-3254
▁간주	-3255
▁발표했다	-3256
▁좀	-3257
▁예선	-3258
▁라이브	-3259
스케	-3260
▁이끄는	-3261
▁쇠	-3262
▁태어난	-3263
▁임명되었다	-3264
▁블루	-3265
▁쓰인다	-3266
자치	-3267
▁개봉한	-3268
리스트	-3269
▁꿈	-3270
▁죽은	-3271
▁이란	-3272
류를	-3273
무원	-3274
▁세르	-3275
학년	-3276
▁레코	-3277
일러	-3278
▁한다는	-3279
티브	-3280
▁개편	-3281
▁설치되어	-3282
초등학교는	-3283
)"	-3284
▁1976	-3285
▁회원	-3286
▁태평양	-3287
티나	-3288
레이션	-3289
▁종종	-3290
98	-3291
▁1978	-3292
▁짓	-3293
▁불과	-3294
▁샌	-3295
▁때에는	-3296
▁를	-3297
▁컬	-3298
박쥐	-3299
▁사후	-3300
▁연맹	-3301
▁제임스	-3302
▁신경	-3303
▁나오는	-3304
▁신설	-3305
화는	-3306
ev	-3307
▁인기를	-3308
▁후손	-3309
▁폭발	-3310
▁둥	-3311
▁인사	-3312
▁찰	-3313
▁대형	-3314
▁정상	-3315
었는데	-3316
▁초등학교이다	-3317
▁특수	-3318
데미	-3319
▁고구려	-3320
▁비교적	-3321
명한	-3322
키아	-3323
▁속에	-3324
▁집단	-3325
▁한다고	-3326
our	-3327
▁라틴	-3328
▁메이저	-3329
▁피아	-3330
▁위치한다	-3331
▁전차	-3332
▁방식으로	-3333
▁자신을	-3334
▁받는	-3335
▁힘을	-3336
▁1920	-3337
다운	-3338
▁사람의	-3339
▁쪽	-3340
점에	-3341
▁자본	-3342
하고자	-3343
▁수정	-3344
▁뛰어난	-3345
자들을	-3346
국을	-3347
▁공공	-3348
종은	-3349
▁이것이	-3350
▁회복	-3351
었으나	-3352
적이다	-3353
▁대립	-3354
자에게	-3355
▁남성	-3356
▁조정	-3357
▁주연으로	-3358
▁고양	-3359
▁이스라엘	-3360
▁대상	-3361
▁180	-3362
▁1971	-3363
▁형식	-3364
▁숲	-3365
▁함수	-3366
▁저장	-3367
▁파리	-3368
▁장애	-3369
▁홈런	-3370
라비아	-3371
▁문화재	-3372
룬다	-3373
▁어떻	-3374
75	-3375
▁기계	-3376
▁프로듀	-3377
▁1975	-3378
▁발견된다	-3379
▁불가능	-3380
▁1963	-3381
▁노력	-3382
▁네트워크	-3383
▁수입	-3384
▁1968	-3385
▁대규모	-3386
족의	-3387
▁복잡	-3388
43	-3389
kg	-3390
음이의	-3391
료로	-3392
▁1930	-3393
▁부터	-3394
▁아르헨	-3395
하나	-3396
▁편성	-3397
▁&	-3398
서에	-3399
어져	-3400
다른	-3401
데스	-3402
▁텍	-3403
▁나카	-3404
▁흔히	-3405
▁에피	-3406
▁농업	-3407
▁원칙	-3408
군으로	-3409
▁시대에	-3410
니어	-3411
65	-3412
형이	-3413
▁보이는	-3414
▁죽음	-3415
▁했지만	-3416
▁내용을	-3417
차례	-3418
▁초반	-3419
▁우선	-3420
▁1940	-3421
소에서	-3422
▁몽골	-3423
▁털	-3424
▁발매되었다	-3425
▁근대	-3426
종으로	-3427
▁중화민	-3428
신이	-3429
▁북서	-3430
▁쉬	-3431
▁세이	-3432
▁외에	-3433
▁본격	-3434
▁카메	-3435
▁내에서	-3436
▁콩	-3437
▁부인	-3438
전으로	-3439
동의	-3440
정책	-3441
▁조금	-3442
법에	-3443
터테인	-3444
32	-3445
▁않을	-3446
▁링	-3447
구역	-3448
▁윈도우	-3449
ive	-3450
▁에서	-3451
▁팀은	-3452
▁기억	-3453
▁300	-3454
▁모스크바	-3455
크라이나	-3456
▁1969	-3457
▁아주	-3458
▁사례	-3459
▁사실상	-3460
▁유명하다	-3461
▁오리	-3462
▁원작	-3463
▁Z	-3464
프의	-3465
제에	-3466
▁삼국	-3467
스포	-3468
이었고	-3469
▁구성된	-3470
▁열대	-3471
▁아랍	-3472
▁트리	-3473
▁무역	-3474
▁과정을	-3475
▁이전에	-3476
드에서	-3477
49	-3478
▁나서	-3479
▁있었으나	-3480
▁있었으며	-3481
▁고전	-3482
여자	-3483
▁암살	-3484
▁지역은	-3485
▁어떻게	-3486
분의	-3487
유럽	-3488
리트	-3489
품을	-3490
▁행사	-3491
▁철도역이다	-3492
셔널	-3493
▁잘못	-3494
▁참석	-3495
▁설정	-3496
▁대상으로	-3497
▁형태의	-3498
▁때에	-3499
▁스파	-3500
▁사용되었다	-3501
▁물러	-3502
▁스튜디오	-3503
겠다고	-3504
▁속에서	-3505
▁본선	-3506
▁증명	-3507
▁l	-3508
예술	-3509
▁비난	-3510
어와	-3511
법의	-3512
▁숫	-3513
▁잭	-3514
지기	-3515
려는	-3516
▁도움을	-3517
▁섭	-3518
료를	-3519
▁구체	-3520
▁탄생	-3521
리학	-3522
▁공부	-3523
▁는	-3524
년이	-3525
▁전혀	-3526
▁뜻이	-3527
▁식물	-3528
한국	-3529
▁1948	-3530
▁사는	-3531
▁인하여	-3532
미디	-3533
▁캄	-3534
인에	-3535
▁하는데	-3536
권은	-3537
▁통한	-3538
지면서	-3539
었지만	-3540
▁창설	-3541
권에	-3542
▁짧은	-3543
▁항복	-3544
▁되면서	-3545
▁현실	-3546
▁등장하는	-3547
▁박사	-3548
▁조선민주주의인민공화국	-3549
▁보급	-3550
라가	-3551
▁했고	-3552
▁개선	-3553
▁머리	-3554
▁기사	-3555
▁정도의	-3556
공업	-3557
76	-3558
▁하늘	-3559
▁옷	-3560
경에	-3561
▁은행	-3562
아버	-3563
▁확정	-3564
동음이의	-3565
▁국회의원	-3566
인들의	-3567
▁플로	-3568
국에	-3569
▁수여	-3570
슈타	-3571
▁스피	-3572
▁태어나	-3573
라크	-3574
받은	-3575
▁에너지	-3576
▁묻	-3577
▁브랜드	-3578
▁하였고	-3579
▁검은	-3580
오프	-3581
대회	-3582
싱턴	-3583
▁문자	-3584
▁시장	-3585
88	-3586
하려고	-3587
▁장착	-3588
▁뿌	-3589
▁했으나	-3590
▁중화인민공화국	-3591
형은	-3592
▁그에	-3593
▁붉은	-3594
42	-3595
▁사회적	-3596
▁한때	-3597
트와	-3598
▁마리	-3599
▁되지	-3600
▁시각	-3601
어도	-3602
▁중반	-3603
해진	-3604
▁1977	-3605
▁업무	-3606
▁재정	-3607
▁가격	-3608
▁비용	-3609
▁애플	-3610
▁클래	-3611
도르	-3612
▁1964	-3613
▁우크라이나	-3614
▁띠	-3615
▁주교	-3616
▁유도	-3617
▁내에	-3618
테르	-3619
이었으나	-3620
수와	-3621
▁데이비	-3622
바르	-3623
▁시티	-3624
시킬	-3625
▁북동	-3626
▁비율	-3627
▁추측	-3628
▁답	-3629
▁개정	-3630
▁세우	-3631
유의	-3632
▁세웠다	-3633
▁1946	-3634
경찰	-3635
문의	-3636
▁뜻을	-3637
ry	-3638
▁전역	-3639
점은	-3640
▁맡고	-3641
▁선고	-3642
문학	-3643
산은	-3644
았던	-3645
▁토론	-3646
도에서	-3647
OS	-3648
경의	-3649
96	-3650
▁가로	-3651
▁교토	-3652
▁적은	-3653
▁세종	-3654
io	-3655
▁타고	-3656
▁아시안	-3657
▁현재까지	-3658
▁오히	-3659
▁=	-3660
▁핵심	-3661
▁오전	-3662
▁추정된다	-3663
ud	-3664
▁오픈	-3665
▁33	-3666
서가	-3667
▁동일한	-3668
▁셰	-3669
▁있었는데	-3670
▁형제	-3671
함에	-3672
▁36	-3673
▁고향	-3674
▁없고	-3675
▁노예	-3676
ong	-3677
▁역사상	-3678
로나	-3679
▁협력	-3680
간에	-3681
)'	-3682
를린	-3683
▁일본에서	-3684
마스	-3685
▁얻었다	-3686
▁오랜	-3687
▁태풍	-3688
▁자체	-3689
▁공포	-3690
▁1962	-3691
서의	-3692
기에는	-3693
드에	-3694
▁투입	-3695
BO	-3696
▁산맥	-3697
▁덮	-3698
▁e	-3699
법은	-3700
▁이끌고	-3701
소프트	-3702
▁넓은	-3703
시설	-3704
가에	-3705
▁뽑	-3706
중앙	-3707
으로도	-3708
▁포지션은	-3709
자이	-3710
▁버스	-3711
세대	-3712
▁수원	-3713
시와	-3714
안에	-3715
▁신앙	-3716
▁유엔	-3717
▁펠	-3718
▁듯	-3719
▁확실	-3720
어들	-3721
여서	-3722
SA	-3723
축구	-3724
,5	-3725
▁무장	-3726
▁뜻한다	-3727
다면	-3728
스럽	-3729
지원	-3730
▁요새	-3731
▁요한	-3732
▁대항	-3733
▁구별	-3734
▁h	-3735
▁경기에	-3736
하마	-3737
▁낭	-3738
▁단백	-3739
▁CD	-3740
▁투수	-3741
당했다	-3742
의의	-3743
▁LG	-3744
▁1967	-3745
93	-3746
▁자는	-3747
▁첨	-3748
▁지닌	-3749
▁북아	-3750
세계	-3751
ss	-3752
▁나는	-3753
우리	-3754
▁글로	-3755
for	-3756
▁나이	-3757
면이	-3758
▁활발	-3759
83	-3760
항공	-3761
▁고정	-3762
▁그에게	-3763
▁이탈리아의	-3764
▁듀	-3765
호의	-3766
하다는	-3767
▁권한	-3768
▁마드리	-3769
▁베이징	-3770
▁보였다	-3771
▁했으며	-3772
97	-3773
▁만큼	-3774
스리그	-3775
등을	-3776
제국	-3777
41	-3778
▁아카데미	-3779
무라	-3780
▁남서	-3781
▁단일	-3782
▁생겨	-3783
번의	-3784
▁전후	-3785
ea	-3786
▁전설	-3787
▁공유	-3788
▁150	-3789
▁관할한다	-3790
▁세계에서	-3791
리게	-3792
▁기자	-3793
▁SBS	-3794
자기	-3795
▁이후에는	-3796
▁오히려	-3797
슨은	-3798
▁마침	-3799
ight	-3800
▁건립	-3801
마이	-3802
▁기반으로	-3803
경기에	-3804
▁1949	-3805
▁예상	-3806
▁사용하고	-3807
브리	-3808
▁발표한	-3809
▁짐	-3810
받고	-3811
▁방출	-3812
▁멸망	-3813
생의	-3814
▁저지	-3815
▁삭	-3816
일이	-3817
▁창립	-3818
ant	-3819
▁지금의	-3820
년에서	-3821
▁튀	-3822
▁거절	-3823
로드	-3824
▁제작에	-3825
타이	-3826
▁지낸	-3827
색을	-3828
▁끝나	-3829
▁정부가	-3830
▁훨	-3831
교통	-3832
▁플랫	-3833
▁무기	-3834
▁솔로	-3835
-19	-3836
▁광고	-3837
▁헤이	-3838
보드	-3839
▁나와	-3840
수에	-3841
니의	-3842
▁스코틀랜드	-3843
에르	-3844
▁절대	-3845
▁만주	-3846
▁강의	-3847
94	-3848
▁됐다	-3849
기원	-3850
▁목적	-3851
▁1965	-3852
▁수출	-3853
▁롤	-3854
▁앞서	-3855
ber	-3856
▁약간	-3857
▁통해서	-3858
▁은하	-3859
▁훨씬	-3860
동이	-3861
▁제출	-3862
▁점에서	-3863
▁팀이	-3864
28	-3865
신은	-3866
▁원정	-3867
▁판결	-3868
▁역대	-3869
▁살고	-3870
▁작전	-3871
사인	-3872
구와	-3873
나와	-3874
▁계급	-3875
▁인공	-3876
사건	-3877
로그	-3878
ang	-3879
▁오토	-3880
▁어렵	-3881
▁이중	-3882
▁시간이	-3883
▁융	-3884
▁금융	-3885
▁정복	-3886
▁도움	-3887
▁서양	-3888
비의	-3889
리노	-3890
▁감염	-3891
언을	-3892
조에	-3893
판을	-3894
▁러시아의	-3895
▁다니	-3896
씨는	-3897
▁차지했다	-3898
즈는	-3899
▁간단	-3900
▁반복	-3901
화로	-3902
▁부활	-3903
저우	-3904
▁스크	-3905
▁전용	-3906
▁시작한	-3907
이었으며	-3908
▁프란	-3909
▁가능성이	-3910
▁관심	-3911
▁린	-3912
타를	-3913
▁차이가	-3914
▁1961	-3915
▁심각	-3916
▁출입	-3917
더라도	-3918
▁발생한	-3919
리케	-3920
▁행성	-3921
▁욕	-3922
관에	-3923
▁지원을	-3924
▁뉴스	-3925
▁취급	-3926
지인	-3927
▁머물	-3928
▁1966	-3929
▁계획을	-3930
▁건국	-3931
음에도	-3932
▁되면	-3933
▁보는	-3934
▁국가의	-3935
면은	-3936
▁전쟁이	-3937
_5	-3938
▁위해서는	-3939
▁아침	-3940
▁해당하는	-3941
▁이르는	-3942
▁다음은	-3943
▁역을	-3944
차원	-3945
▁그것은	-3946
▁주식	-3947
추어	-3948
▁병사	-3949
▁숭	-3950
▁400	-3951
▁아테	-3952
에게서	-3953
쿠라	-3954
지이다	-3955
ue	-3956
▁고등	-3957
▁율	-3958
▁오래된	-3959
▁경성	-3960
나이티	-3961
체육	-3962
▁워싱턴	-3963
▁전쟁을	-3964
▁인터뷰	-3965
▁말레이	-3966
▁이른	-3967
▁전라북도	-3968
▁주어	-3969
일로	-3970
▁찍	-3971
전문	-3972
▁이야기를	-3973
▁카이	-3974
▁길이는	-3975
버그	-3976
렸고	-3977
▁생명	-3978
▁높이는	-3979
▁아메리카	-3980
노동	-3981
▁독자	-3982
▁장악	-3983
인민공화국의	-3984
▁이용해	-3985
ens	-3986
보를	-3987
▁한번	-3988
▁결과를	-3989
익을	-3990
였으나	-3991
▁조합	-3992
차로	-3993
▁프로그램이다	-3994
ain	-3995
ly	-3996
▁트레이	-3997
▁포함되어	-3998
술을	-3999
▁지식	-4000
▁해서	-4001
▁거대한	-4002
▁합의	-4003
▁유나이티	-4004
▁처음에는	-4005
▁에피소	-4006
▁모리	-4007
▁청나라	-4008
마의	-4009
▁이용한	-4010
분이	-4011
세와	-4012
▁신인	-4013
령을	-4014
▁강제	-4015
▁보아	-4016
▁개시	-4017
리아의	-4018
▁공산주의	-4019
▁장식	-4020
▁주고	-4021
▁활동하였다	-4022
▁얻어	-4023
▁하드	-4024
▁공개된	-4025
▁취득	-4026
▁이유는	-4027
만큼	-4028
케이	-4029
ich	-4030
▁건조	-4031
문은	-4032
▁투자	-4033
류가	-4034
▁대비	-4035
▁없다고	-4036
Ch	-4037
▁롯	-4038
스러운	-4039
▁연재	-4040
▁대수	-4041
▁히데	-4042
소와	-4043
형으로	-4044
44	-4045
▁운용	-4046
▁금속	-4047
▁비록	-4048
안의	-4049
▁속한다	-4050
▁슬로	-4051
▁원주	-4052
병을	-4053
▁하면	-4054
▁대표팀	-4055
지며	-4056
▁붙여	-4057
▁기록하였다	-4058
▁전주	-4059
▁그것을	-4060
▁후에는	-4061
▁때부터	-4062
의회	-4063
▁대성	-4064
▁점을	-4065
nt	-4066
현재	-4067
▁플랫폼	-4068
▁양성	-4069
▁철학	-4070
기압	-4071
▁팀을	-4072
▁랭	-4073
▁박정	-4074
▁두었다	-4075
▁이것을	-4076
물은	-4077
ate	-4078
ort	-4079
▁때의	-4080
▁상당히	-4081
▁좁	-4082
▁약속	-4083
(15	-4084
▁번째로	-4085
▁자격	-4086
▁소비에	-4087
▁백작	-4088
▁장치	-4089
▁코미디	-4090
▁도달	-4091
▁육상	-4092
▁앞두고	-4093
▁사망하였다	-4094
국에서	-4095
▁대공	-4096
아이	-4097
▁거리	-4098
드시	-4099
▁군의	-4100
▁혼란	-4101
▁그런데	-4102
행위	-4103
[]	-4104
▁사단	-4105
▁소수	-4106
수록	-4107
▁빠른	-4108
▁이제	-4109
통신	-4110
히는	-4111
▁베를린	-4112
▁진화	-4113
산이	-4114
▁아파	-4115
선으로	-4116
▁방향으로	-4117
▁힐	-4118
아서	-4119
▁벨기에	-4120
▁타이완	-4121
31	-4122
▁써	-4123
▁논쟁	-4124
▁일으켰	-4125
▁영입	-4126
▁시즌을	-4127
▁의회	-4128
▁받지	-4129
▁보냈다	-4130
▁Q	-4131
개가	-4132
ER	-4133
▁반발	-4134
▁경계	-4135
▁알게	-4136
91	-4137
조판	-4138
▁출마	-4139
▁시작하여	-4140
프리	-4141
▁김영	-4142
▁도중	-4143
자들	-4144
시티	-4145
당과	-4146
▁식민지	-4147
생을	-4148
▁도망	-4149
리우	-4150
법이	-4151
▁지붕	-4152
▁의료	-4153
▁청년	-4154
니아의	-4155
▁강점	-4156
▁호텔	-4157
▁방법을	-4158
▁청소년	-4159
67	-4160
보는	-4161
▁미드	-4162
▁합격	-4163
▁후지	-4164
음이	-4165
▁노부	-4166
▁시간을	-4167
▁엔터테인	-4168
▁벼	-4169
▁겐	-4170
▁흡수	-4171
▁이민	-4172
ew	-4173
지자	-4174
본을	-4175
▁시작으로	-4176
▁발표하였다	-4177
이와	-4178
해도	-4179
▁삼각	-4180
▁잇는	-4181
▁포위	-4182
▁각각의	-4183
주와	-4184
▁승진	-4185
▁반영	-4186
▁에어	-4187
▁체계	-4188
나미	-4189
▁상륙	-4190
리즘	-4191
씨의	-4192
▁채용	-4193
38	-4194
▁빠져	-4195
네스	-4196
세로	-4197
▁1944	-4198
▁고속	-4199
SS	-4200
▁소장	-4201
석이	-4202
조합	-4203
▁사건을	-4204
▁규칙	-4205
▁38	-4206
▁아들이	-4207
기에서	-4208
연맹	-4209
훗날	-4210
▁꼭	-4211
▁벡	-4212
▁그러한	-4213
비치	-4214
▁무엇	-4215
▁받게	-4216
▁포기	-4217
▁온라인	-4218
▁공을	-4219
▁넘는	-4220
▁생긴	-4221
▁요코	-4222
▁에도	-4223
▁역임했다	-4224
화와	-4225
▁통제	-4226
▁1941	-4227
공사	-4228
실은	-4229
▁탈출	-4230
물이다	-4231
▁곳에서	-4232
▁부상	-4233
▁경주	-4234
▁신성	-4235
▁선보	-4236
만은	-4237
▁보낸	-4238
▁종류의	-4239
▁단백질	-4240
BA	-4241
▁프리미	-4242
▁부임	-4243
▁사용되고	-4244
ON	-4245
▁플라	-4246
▁사망했다	-4247
시킨다	-4248
▁경우는	-4249
▁지니	-4250
교를	-4251
▁동남	-4252
프레	-4253
▁1958	-4254
▁응용	-4255
▁프로세	-4256
페이	-4257
▁공식적으로	-4258
국민	-4259
부인	-4260
고속도로	-4261
▁니콜	-4262
▁이하	-4263
▁맛	-4264
▁작품을	-4265
▁PC	-4266
▁앞에	-4267
조사	-4268
▁55	-4269
모를	-4270
▁명이	-4271
▁1956	-4272
플레이	-4273
29	-4274
▁수상했다	-4275
▁등급	-4276
▁지키	-4277
왕이	-4278
▁수사	-4279
▁해에	-4280
▁다르다	-4281
▁전공	-4282
▁왼쪽	-4283
포르	-4284
▁프로젝트	-4285
▁동의	-4286
▁자살	-4287
크를	-4288
▁미니	-4289
▁선수가	-4290
기간	-4291
단과	-4292
▁인도네시아	-4293
▁층	-4294
▁총독	-4295
▁이들의	-4296
ys	-4297
▁마이클	-4298
▁킹	-4299
▁진입	-4300
▁아들로	-4301
▁로버트	-4302
하였지만	-4303
치아	-4304
▁보컬	-4305
▁높아	-4306
▁대략	-4307
베르크	-4308
▁k	-4309
▁기록한	-4310
▁이전의	-4311
▁챔피언스리그	-4312
▁가서	-4313
▁렌	-4314
▁거래	-4315
▁동작	-4316
▁것처럼	-4317
▁않았고	-4318
▁구속	-4319
▁1947	-4320
▁임진	-4321
▁37	-4322
▁법칙	-4323
▁달라	-4324
oh	-4325
▁쫓	-4326
▁효율	-4327
▁나치	-4328
▁FA	-4329
▁보조	-4330
ep	-4331
등이	-4332
에만	-4333
증을	-4334
▁국경	-4335
▁수송	-4336
라를	-4337
▁했던	-4338
상태	-4339
▁좌우	-4340
님의	-4341
▁소녀	-4342
▁개최된	-4343
33	-4344
▁주둔	-4345
▁하나는	-4346
▁논란이	-4347
▁내의	-4348
들이다	-4349
론의	-4350
▁공통	-4351
ont	-4352
▁지방의	-4353
마트	-4354
▁변환	-4355
2,	-4356
▁방사	-4357
▁장관	-4358
▁갈라	-4359
uc	-4360
되면	-4361
▁한반	-4362
end	-4363
▁발견된	-4364
▁탁	-4365
▁명명	-4366
▁불법	-4367
동으로	-4368
▁죽었다	-4369
66	-4370
▁SK	-4371
▁탈락	-4372
번째로	-4373
▁셋	-4374
미야	-4375
▁장군	-4376
티노	-4377
▁이뤄	-4378
▁여기에	-4379
ng	-4380
▁쓰는	-4381
▁미디어	-4382
▁국도	-4383
▁어떠	-4384
▁말았다	-4385
▁변경되었다	-4386
▁라인	-4387
▁학문	-4388
▁반드시	-4389
▁1919	-4390
▁베이스	-4391
▁그레	-4392
▁전철	-4393
세한	-4394
ect	-4395
▁최다	-4396
▁오른쪽	-4397
▁킬	-4398
차가	-4399
▁방영된	-4400
▁콘서	-4401
▁늦	-4402
▁돌아가	-4403
르가	-4404
틀러	-4405
▁경기는	-4406
▁오페	-4407
▁논의	-4408
▁역이다	-4409
▁동원	-4410
▁레드	-4411
▁리더	-4412
▁검찰	-4413
기원전	-4414
산에	-4415
▁출연하였고	-4416
자료	-4417
식에	-4418
▁공군	-4419
▁후속	-4420
▁가을	-4421
▁보장	-4422
▁중이다	-4423
재를	-4424
▁운동을	-4425
▁운전	-4426
▁집행	-4427
▁세인트	-4428
▁특별한	-4429
▁쥐	-4430
▁진압	-4431
바라	-4432
터를	-4433
▁존재하는	-4434
▁체코	-4435
eg	-4436
데이	-4437
▁국무	-4438
천시	-4439
%,	-4440
'(	-4441
▁출신으로	-4442
▁댄	-4443
▁맡아	-4444
▁맞이	-4445
▁둘째	-4446
...	-4447
▁.	-4448
▁양자	-4449
▁나타내는	-4450
▁끝난	-4451
▁군대를	-4452
▁열렸다	-4453
▁분쟁	-4454
▁올리	-4455
미를	-4456
패를	-4457
▁형태를	-4458
▁1954	-4459
▁대학교에서	-4460
▁수집	-4461
▁컵	-4462
국제	-4463
적의	-4464
▁깊은	-4465
▁지냈	-4466
▁이집트	-4467
▁덧	-4468
▁하였으나	-4469
▁소년	-4470
▁출간	-4471
▁롯데	-4472
이므로	-4473
국으로	-4474
▁이룬다	-4475
▁홋	-4476
▁배출	-4477
▁서버	-4478
▁독립운동	-4479
▁공화	-4480
▁기술을	-4481
▁지급	-4482
산시	-4483
▁예측	-4484
▁저작	-4485
▁들어서	-4486
▁1939	-4487
게임	-4488
▁고용	-4489
▁중세	-4490
ok	-4491
▁되자	-4492
▁무덤	-4493
▁총리	-4494
카이도	-4495
▁이성	-4496
▁피해를	-4497
면으로	-4498
▁주관	-4499
▁소비에트	-4500
명에	-4501
▁사법	-4502
▁문헌	-4503
바로	-4504
▁헨리	-4505
▁그와	-4506
터는	-4507
▁사건이	-4508
▁독특	-4509
▁해산	-4510
없는	-4511
▁것이며	-4512
ast	-4513
키스탄	-4514
석은	-4515
통을	-4516
▁남은	-4517
▁지어	-4518
AT	-4519
▁목소	-4520
▁요소	-4521
▁1959	-4522
▁목표로	-4523
AR	-4524
▁1952	-4525
등의	-4526
전과	-4527
()'	-4528
▁Al	-4529
▁김일	-4530
▁창단	-4531
▁파악	-4532
▁작품이다	-4533
났으며	-4534
▁계기로	-4535
리나	-4536
미는	-4537
▁유사한	-4538
▁성인	-4539
▁제대로	-4540
▁의존	-4541
▁제어	-4542
▁이후로	-4543
68	-4544
▁닥	-4545
종을	-4546
프를	-4547
▁선교	-4548
▁코드	-4549
▁복합	-4550
▁생존	-4551
▁꺾	-4552
▁대기	-4553
39	-4554
▁다수의	-4555
▁사립	-4556
▁참전	-4557
▁일찍	-4558
항을	-4559
겠다는	-4560
사관	-4561
▁알려졌다	-4562
▁Th	-4563
▁승인	-4564
▁자이	-4565
▁트랙	-4566
▁개발한	-4567
▁세력	-4568
▁파라	-4569
시스	-4570
▁않으며	-4571
▁베스트	-4572
▁콘스탄	-4573
프랑	-4574
64	-4575
▁전파	-4576
▁받았고	-4577
▁평가를	-4578
▁국제공항	-4579
▁합성	-4580
▁빼앗	-4581
▁아사	-4582
▁마지막으로	-4583
분류	-4584
▁75	-4585
▁서비스를	-4586
▁아미	-4587
▁정확한	-4588
▁진보	-4589
▁트로	-4590
▁웨스트	-4591
방을	-4592
정치	-4593
▁제외하고	-4594
▁여객철도	-4595
▁신뢰	-4596
메리	-4597
고는	-4598
마르	-4599
▁개신	-4600
섰다	-4601
▁마케	-4602
뿐만	-4603
▁지상역이다	-4604
▁어떠한	-4605
▁능력을	-4606
곡을	-4607
▁풍부	-4608
▁회전	-4609
▁항성	-4610
▁아버지는	-4611
▁상승	-4612
▁빠르게	-4613
리히	-4614
▁글을	-4615
▁농민	-4616
▁켄	-4617
산으로	-4618
▁기대	-4619
▁엄청	-4620
▁사태	-4621
▁급제	-4622
34	-4623
▁늘어	-4624
▁모여	-4625
▁포함하고	-4626
▁반도	-4627
▁원년	-4628
▁세르비아	-4629
▁활동했다	-4630
기까지	-4631
▁덴마크	-4632
▁되며	-4633
▁잡아	-4634
주의를	-4635
▁둘러싸	-4636
▁흉	-4637
▁썼다	-4638
▁외부	-4639
▁모양의	-4640
▁올려	-4641
▁완공	-4642
▁포도	-4643
▁까	-4644
▁한국에서	-4645
▁묶	-4646
로마	-4647
▁틀	-4648
국가	-4649
▁나뉜	-4650
라와	-4651
▁밀도는	-4652
개로	-4653
▁발매된	-4654
▁갖는	-4655
선수	-4656
기념	-4657
▁대개	-4658
▁1942	-4659
▁래	-4660
▁천연	-4661
▁학술	-4662
락을	-4663
▁스티	-4664
▁정책을	-4665
▁관료	-4666
▁연출	-4667
▁교환	-4668
원이다	-4669
▁가졌다	-4670
▁자녀	-4671
78	-4672
▁새겨	-4673
▁것이라	-4674
부터는	-4675
했었다	-4676
▁스위스	-4677
조직	-4678
▁군주	-4679
▁충청북도	-4680
▁1955	-4681
▁미군	-4682
▁브리	-4683
▁성능	-4684
▁동아	-4685
▁흘러	-4686
▁일정	-4687
▁차트	-4688
겠다	-4689
마을	-4690
▁뜻하는	-4691
▁하였으며	-4692
대장	-4693
성군	-4694
▁실질	-4695
▁카르	-4696
▁인접	-4697
으니	-4698
▁위반	-4699
▁분할	-4700
▁포함한다	-4701
▁해양	-4702
▁대부분은	-4703
▁도쿠	-4704
▁지은	-4705
이센	-4706
▁34	-4707
▁출장	-4708
▁오스만	-4709
▁김정	-4710
▁받을	-4711
▁1000	-4712
▁예정이다	-4713
▁왕국의	-4714
▁특이	-4715
▁훗날	-4716
주에서	-4717
▁기록이	-4718
▁창조	-4719
▁향상	-4720
학에서	-4721
▁연구를	-4722
미의	-4723
IA	-4724
재판	-4725
토리	-4726
▁보안	-4727
▁미야	-4728
동은	-4729
▁지내	-4730
ure	-4731
▁없다는	-4732
man	-4733
타르	-4734
▁인기	-4735
▁작품은	-4736
누스	-4737
▁형사	-4738
-5	-4739
▁검사	-4740
▁조작	-4741
▁보관	-4742
건을	-4743
터리	-4744
▁극장	-4745
▁간행	-4746
▁노벨	-4747
▁동성	-4748
▁연산	-4749
▁1943	-4750
천군	-4751
현의	-4752
▁당시에는	-4753
iz	-4754
제와	-4755
▁영화는	-4756
▁쓸	-4757
ae	-4758
▁택	-4759
머스	-4760
▁차별	-4761
인도	-4762
▁국회	-4763
으로서의	-4764
주었다	-4765
▁의미를	-4766
▁유형문화재	-4767
▁프로그램을	-4768
▁있음을	-4769
▁삽	-4770
▁성을	-4771
▁1953	-4772
(2	-4773
▁이시	-4774
▁마치	-4775
지컬	-4776
요시	-4777
▁뜻으로	-4778
▁크고	-4779
▁반대로	-4780
▁띄	-4781
▁받는다	-4782
경이	-4783
▁단독	-4784
▁모아	-4785
▁마침내	-4786
났고	-4787
▁사운드	-4788
▁나이로	-4789
▁일부는	-4790
화되어	-4791
▁우려	-4792
▁조별	-4793
▁점점	-4794
▁테이	-4795
부장	-4796
▁명확	-4797
조로	-4798
▁한정	-4799
▁내용은	-4800
▁쓰이는	-4801
▁갔다	-4802
▁그들이	-4803
▁브루	-4804
▁시즌에	-4805
▁플레이오프	-4806
77	-4807
금의	-4808
질랜드	-4809
▁160	-4810
ld	-4811
선과	-4812
99	-4813
리다	-4814
연히	-4815
▁처형	-4816
▁불렀다	-4817
▁대한민국에서는	-4818
▁불안	-4819
▁오랫	-4820
▁함락	-4821
▁부르는	-4822
▁기둥	-4823
▁전통적인	-4824
▁일치	-4825
▁관계가	-4826
▁1957	-4827
▁방법으로	-4828
▁개막	-4829
▁쓰고	-4830
▁것이라는	-4831
▁갤	-4832
임이	-4833
책을	-4834
▁부산광역시	-4835
▁당초	-4836
▁그레이	-4837
무늬	-4838
▁출범	-4839
▁문제로	-4840
구에서	-4841
▁올랐	-4842
▁조선의	-4843
름을	-4844
one	-4845
▁하나인	-4846
하였다고	-4847
리적	-4848
81	-4849
▁횡	-4850
복을	-4851
▁마이크로소프트	-4852
▁졸업하고	-4853
미가	-4854
퍼드	-4855
▁골을	-4856
▁없으며	-4857
공화국	-4858
하였던	-4859
▁활동하고	-4860
▁신청	-4861
▁헤르	-4862
▁명칭은	-4863
▁오랫동안	-4864
▁공업	-4865
▁구현	-4866
▁그때	-4867
되었을	-4868
▁제작한	-4869
▁3,	-4870
총독	-4871
토의	-4872
▁역으로	-4873
ust	-4874
▁지금까지	-4875
EC	-4876
~19	-4877
82	-4878
▁메인	-4879
사우	-4880
오스	-4881
▁니시	-4882
▁라고	-4883
라이언	-4884
▁감독을	-4885
되었다가	-4886
▁말에	-4887
▁예비	-4888
질이	-4889
▁바라	-4890
▁학위를	-4891
표를	-4892
▁대통령이	-4893
▁테러	-4894
▁대표하는	-4895
▁다다	-4896
▁수영	-4897
▁트랜	-4898
온은	-4899
▁to	-4900
▁KBO	-4901
▁꼽	-4902
야구	-4903
율을	-4904
장인	-4905
▁메시	-4906
▁주장하였다	-4907
▁스미	-4908
▁향해	-4909
▁자신들의	-4910
▁잉글랜드의	-4911
망을	-4912
▁분열	-4913
▁등장한다	-4914
▁아르헨티나	-4915
시험	-4916
▁직업	-4917
▁펼쳐	-4918
▁피아노	-4919
해가	-4920
개혁	-4921
신으로	-4922
▁시리아	-4923
▁페르시아	-4924
왜란	-4925
일과	-4926
진의	-4927
▁만들어졌다	-4928
▁편찬	-4929
▁Com	-4930
▁교육을	-4931
▁학습	-4932
▁가지는	-4933
▁이후의	-4934
▁선정되었다	-4935
디션	-4936
▁쳐	-4937
산화	-4938
▁추천	-4939
▁합쳐	-4940
였지만	-4941
▁로켓	-4942
▁보병	-4943
▁느끼	-4944
▁이름의	-4945
우주	-4946
텐츠	-4947
▁번의	-4948
▁포함하여	-4949
▁프로그래	-4950
ib	-4951
계획	-4952
▁바깥	-4953
브라	-4954
▁언제	-4955
▁예수	-4956
▁역사적	-4957
▁이루어졌다	-4958
▁누구	-4959
▁고유	-4960
1,	-4961
▁위성	-4962
자로서	-4963
▁성적	-4964
시키기	-4965
▁팝	-4966
▁경우에	-4967
▁무게	-4968
▁레오	-4969
▁톰	-4970
▁의무	-4971
▁훌	-4972
▁시카	-4973
보살	-4974
거운	-4975
니가	-4976
▁음식	-4977
▁나왔다	-4978
▁나타난다	-4979
▁연대	-4980
방의	-4981
그라	-4982
▁Un	-4983
▁일본에	-4984
판이	-4985
향을	-4986
ord	-4987
▁알파	-4988
터가	-4989
▁분위	-4990
▁완료	-4991
주의의	-4992
▁작업을	-4993
▁터미널	-4994
▁고문	-4995
▁뉴질랜드	-4996
▁상품	-4997
▁조절	-4998
고의	-4999
▁재배	-5000
▁엠	-5001
▁적절	-5002
경은	-5003
▁(20	-5004
치에	-5005
▁주전	-5006
▁소송	-5007
▁명을	-5008
▁후기	-5009
▁주어진	-5010
▁켈	-5011
진이	-5012
이었지만	-5013
크가	-5014
▁실현	-5015
▁릴	-5016
▁임진왜란	-5017
▁왕조	-5018
▁평안	-5019
▁영상	-5020
▁저서	-5021
▁이르러	-5022
▁데이비드	-5023
해져	-5024
ith	-5025
▁녹색	-5026
▁1936	-5027
평가	-5028
▁장교	-5029
▁시작된	-5030
84	-5031
▁역은	-5032
들목	-5033
시리즈	-5034
레옹	-5035
루가	-5036
VD	-5037
▁가스	-5038
▁제일	-5039
▁주지	-5040
▁출시되었다	-5041
▁아스	-5042
행정	-5043
▁발견되었다	-5044
내에	-5045
씨가	-5046
▁준우	-5047
▁가담	-5048
▁스카	-5049
고등	-5050
▁방정	-5051
사무	-5052
사이트	-5053
▁섞	-5054
▁앉	-5055
▁발굴	-5056
들로부터	-5057
론은	-5058
▁나들목	-5059
각을	-5060
▁연관	-5061
▁잡지	-5062
▁어린이	-5063
▁침략	-5064
▁이루고	-5065
▁망명	-5066
▁무너	-5067
▁그렇게	-5068
▁음악을	-5069
▁단위	-5070
▁조선시대	-5071
▁현역	-5072
▁스페인의	-5073
▁부하	-5074
▁해당한다	-5075
라며	-5076
소송	-5077
▁감독으로	-5078
▁발발	-5079
▁후보로	-5080
▁등판	-5081
▁가치가	-5082
▁민주당	-5083
타는	-5084
▁부대	-5085
▁활약을	-5086
▁바뀌었다	-5087
ert	-5088
앤젤	-5089
▁군인	-5090
▁정차	-5091
▁규모의	-5092
St	-5093
▁취소	-5094
▁받아들여	-5095
▁도와	-5096
▁라는	-5097
체스터	-5098
▁뜨	-5099
화한	-5100
▁가나	-5101
▁지켜	-5102
치게	-5103
▁속한	-5104
▁샤를	-5105
▁정치인이다	-5106
▁안에서	-5107
▁길을	-5108
▁거두었다	-5109
ug	-5110
▁시작한다	-5111
▁저술	-5112
▁도시이다	-5113
▁공헌	-5114
▁신호	-5115
▁승객	-5116
▁화물	-5117
▁유일하게	-5118
▁정비	-5119
▁1938	-5120
▁데뷔하였다	-5121
터의	-5122
▁기울	-5123
▁뚜	-5124
▁정지	-5125
▁연결하는	-5126
▁혼합	-5127
▁사람들의	-5128
▁놓고	-5129
▁통산	-5130
안은	-5131
-20	-5132
▁무시	-5133
▁제공한다	-5134
▁아라	-5135
▁아테네	-5136
▁활성	-5137
▁프리미어	-5138
▁아이돌	-5139
▁1910	-5140
▁DNA	-5141
▁침입	-5142
▁박물관	-5143
령이	-5144
▁많아	-5145
리그의	-5146
▁중에는	-5147
▁콤	-5148
▁확률	-5149
▁중인	-5150
▁마무	-5151
▁목록이다	-5152
▁중화민국	-5153
▁희생	-5154
▁독특한	-5155
레오	-5156
사단	-5157
에이	-5158
뮤니	-5159
▁성적을	-5160
▁올렸다	-5161
▁일부를	-5162
화되었다	-5163
▁박정희	-5164
ack	-5165
ial	-5166
우수	-5167
▁거듭	-5168
동과	-5169
▁상위	-5170
▁다르게	-5171
ind	-5172
▁황금	-5173
▁나폴레옹	-5174
▁도모	-5175
▁이기	-5176
61	-5177
▁갔	-5178
▁곽	-5179
▁부분을	-5180
72	-5181
▁얻은	-5182
명과	-5183
▁자리잡	-5184
▁사냥	-5185
74	-5186
her	-5187
▁행위	-5188
▁근본	-5189
▁감독이	-5190
중의	-5191
▁차이	-5192
▁입장을	-5193
▁스탠	-5194
네이	-5195
파는	-5196
▁정기	-5197
▁한글	-5198
▁새롭게	-5199
▁주택	-5200
▁확립	-5201
드라마	-5202
▁제이	-5203
▁장남	-5204
어이다	-5205
▁미드필	-5206
▁부상을	-5207
▁설치된	-5208
에른	-5209
▁소방	-5210
▁않게	-5211
▁어깨	-5212
▁나뉜다	-5213
▁편이다	-5214
▁로스앤젤	-5215
▁프로이센	-5216
▁페이	-5217
▁상당한	-5218
년경	-5219
▁플래	-5220
▁하위	-5221
▁주최	-5222
양의	-5223
소설	-5224
진은	-5225
▁빅토	-5226
▁사용된	-5227
▁창원	-5228
▁캔	-5229
론이	-5230
▁의혹	-5231
▁다스	-5232
▁지시	-5233
▁한국어	-5234
▁묵	-5235
▁세계의	-5236
▁유기	-5237
스럽게	-5238
▁나타내	-5239
▁안동	-5240
▁어디	-5241
▁한나라	-5242
자들에게	-5243
실의	-5244
▁전직	-5245
▁이들을	-5246
▁챔피언십	-5247
공원	-5248
양을	-5249
함과	-5250
▁유행	-5251
입니다	-5252
▁도요	-5253
▁사임	-5254
▁120	-5255
62	-5256
▁단편	-5257
▁조종	-5258
▁크기	-5259
▁그래픽	-5260
▁상태로	-5261
비스	-5262
왕은	-5263
▁개입	-5264
▁대리	-5265
▁치러	-5266
레인	-5267
체와	-5268
▁리처	-5269
▁개신교	-5270
▁법정	-5271
하지는	-5272
▁1937	-5273
▁처벌	-5274
▁전형	-5275
▁앞에서	-5276
차는	-5277
▁영업	-5278
ational	-5279
들에서	-5280
▁어려운	-5281
▁빙	-5282
생물	-5283
▁진주	-5284
▁다음의	-5285
▁서울대학교	-5286
▁변화를	-5287
▁미드필더	-5288
▁원소	-5289
▁곡을	-5290
ff	-5291
▁사우	-5292
▁추구	-5293
▁헝가리	-5294
부대	-5295
▁따로	-5296
▁들고	-5297
어야	-5298
▁준다	-5299
▁인디언	-5300
▁혐의로	-5301
차전	-5302
▁철수	-5303
▁넓이는	-5304
▁소속으로	-5305
관계	-5306
▁영웅	-5307
▁1951	-5308
가타	-5309
▁멀리	-5310
▁1914	-5311
▁시리즈의	-5312
63	-5313
▁특정한	-5314
기록	-5315
투스	-5316
ary	-5317
고가	-5318
▁Ar	-5319
▁카드	-5320
▁프라	-5321
▁만들고	-5322
▁네이	-5323
▁시인	-5324
▁Pro	-5325
▁다운	-5326
▁분명	-5327
▁인쇄	-5328
▁가문의	-5329
▁팽	-5330
▁단지	-5331
슬러	-5332
하므로	-5333
영은	-5334
되는데	-5335
▁공연을	-5336
▁기회를	-5337
▁받았으며	-5338
▁상황에서	-5339
▁설립되었다	-5340
드라	-5341
▁1935	-5342
▁체제	-5343
▁작품으로	-5344
▁벌어	-5345
색의	-5346
자키	-5347
▁인종	-5348
▁닛	-5349
격한	-5350
▁다리	-5351
▁맡은	-5352
역의	-5353
-4	-5354
▁프린	-5355
히고	-5356
▁개칭	-5357
▁일으키	-5358
▁매일	-5359
▁유한	-5360
▁드라이	-5361
류는	-5362
영의	-5363
▁바이에른	-5364
▁1918	-5365
층의	-5366
▁포켓	-5367
▁닌	-5368
▁계통	-5369
▁지역으로	-5370
▁곡은	-5371
동생	-5372
대부	-5373
▁저녁	-5374
▁제공하는	-5375
우의	-5376
▁중부	-5377
석의	-5378
▁절반	-5379
▁선생	-5380
▁임대	-5381
▁다수	-5382
▁후계	-5383
▁샘	-5384
평균	-5385
▁지위를	-5386
▁다소	-5387
▁대부분이	-5388
고기	-5389
▁광복	-5390
▁김대	-5391
▁개설	-5392
루는	-5393
▁일컫	-5394
▁선거에서	-5395
▁듣고	-5396
▁시나	-5397
▁통상	-5398
▁다케	-5399
▁신학	-5400
▁인구가	-5401
▁말레이시아	-5402
함이	-5403
▁이혼	-5404
파를	-5405
ock	-5406
▁지금은	-5407
▁병합	-5408
▁세력을	-5409
71	-5410
포를	-5411
ment	-5412
69	-5413
▁현상	-5414
▁텍사	-5415
▁유럽의	-5416
▁경제적	-5417
▁개조	-5418
▁가진다	-5419
▁못하였다	-5420
재로	-5421
▁해도	-5422
스트로	-5423
▁금메달을	-5424
▁조선총독	-5425
ide	-5426
▁고속도로	-5427
▁이름이다	-5428
▁탈퇴	-5429
▁초기의	-5430
▁단계	-5431
▁접촉	-5432
▁질병	-5433
▁미사일	-5434
▁나누어	-5435
▁상하이	-5436
▁상대적으로	-5437
식과	-5438
▁자극	-5439
▁존재하지	-5440
▁재건	-5441
토니	-5442
별로	-5443
주고	-5444
▁승려	-5445
드레	-5446
▁공사	-5447
▁알바	-5448
ory	-5449
자유	-5450
▁민법	-5451
안이	-5452
▁뮤지컬	-5453
79	-5454
문제	-5455
▁아티	-5456
구치	-5457
었기	-5458
장군	-5459
▁발탁	-5460
eb	-5461
▁사업을	-5462
▁참여했다	-5463
▁곳으로	-5464
▁1932	-5465
▁루마	-5466
▁무한	-5467
에서만	-5468
▁반란을	-5469
▁나아가	-5470
타카	-5471
▁연예	-5472
▁하에	-5473
▁+	-5474
▁설득	-5475
▁내렸다	-5476
ore	-5477
55	-5478
▁돕	-5479
로와	-5480
▁액션	-5481
감독	-5482
주의적	-5483
▁운영하고	-5484
▁궤도	-5485
▁변형	-5486
▁보유하고	-5487
▁시위	-5488
▁타임	-5489
MA	-5490
▁돼	-5491
▁크로아	-5492
서울	-5493
치지	-5494
되었다고	-5495
▁해야	-5496
아르	-5497
연을	-5498
▁기다	-5499
법으로	-5500
▁픽	-5501
베르트	-5502
▁사람들을	-5503
미니	-5504
▁기상	-5505
▁나고	-5506
▁히틀러	-5507
동맹	-5508
▁심지	-5509
▁돈을	-5510
▁징역	-5511
▁프로토	-5512
▁겹	-5513
루를	-5514
▁돌아와	-5515
pe	-5516
▁기록은	-5517
▁이른다	-5518
▁소련의	-5519
▁필요가	-5520
73	-5521
▁갖추고	-5522
▁가게	-5523
▁동해	-5524
▁리버	-5525
메리칸	-5526
▁작곡가	-5527
▁벌어진	-5528
▁해상	-5529
▁웅	-5530
▁스마트	-5531
▁자리에	-5532
sh	-5533
▁두려	-5534
▁조카	-5535
▁호는	-5536
색으로	-5537
▁지도자	-5538
▁가와	-5539
▁보았다	-5540
▁속해	-5541
▁아름다운	-5542
부사	-5543
▁김성	-5544
▁번호는	-5545
▁임의의	-5546
르기	-5547
▁사실이	-5548
보고	-5549
▁한일	-5550
점의	-5551
▁행렬	-5552
▁촌	-5553
▁마르크	-5554
▁노래를	-5555
▁않지만	-5556
족이	-5557
▁진행되었다	-5558
ond	-5559
▁있었기	-5560
▁와이	-5561
▁찰스	-5562
▁후원	-5563
▁가치	-5564
▁심각한	-5565
▁접한다	-5566
년도	-5567
▁IS	-5568
▁분노	-5569
▁이로써	-5570
▁교향	-5571
▁필요하다	-5572
▁1.	-5573
▁맞아	-5574
▁폐쇄	-5575
자동차	-5576
▁엄청난	-5577
ove	-5578
▁NH	-5579
▁내용이	-5580
▁비롯하여	-5581
▁연고	-5582
▁일어났다	-5583
▁뮌	-5584
▁일정한	-5585
▁깃	-5586
▁왕이	-5587
례를	-5588
▁이전에는	-5589
▁사마	-5590
▁벗어나	-5591
▁1933	-5592
▁동안에	-5593
▁통계	-5594
▁남쪽으로	-5595
▁몰아	-5596
▁참조	-5597
▁있었다고	-5598
야의	-5599
▁대체로	-5600
▁도시의	-5601
또는	-5602
역이	-5603
▁전까지	-5604
▁섬의	-5605
▁나타나는	-5606
▁춤	-5607
비로	-5608
▁바닥	-5609
강의	-5610
▁Sh	-5611
▁점이	-5612
▁굳	-5613
타운	-5614
▁그로	-5615
▁주간	-5616
혁명	-5617
▁인권	-5618
▁마크	-5619
▁오직	-5620
린은	-5621
▁연구에	-5622
▁선전	-5623
▁되는데	-5624
▁미국과	-5625
▁행동을	-5626
▁전력	-5627
▁포항	-5628
남도의	-5629
▁여러가지	-5630
▁스키	-5631
▁프랑크	-5632
슨의	-5633
▁추기	-5634
사람	-5635
▁얻을	-5636
타로	-5637
100	-5638
▁나타낸다	-5639
▁일어나는	-5640
(-	-5641
쿠스	-5642
학자이다	-5643
▁1924	-5644
었을	-5645
▁김종	-5646
▁쓰여	-5647
▁전부	-5648
▁시스템을	-5649
▁프리드리	-5650
▁출연하였다	-5651
▁부담	-5652
▁소멸	-5653
▁1900	-5654
▁곳이다	-5655
▁브라운	-5656
▁효과를	-5657
사전	-5658
sp	-5659
박물관	-5660
▁상을	-5661
▁나온다	-5662
▁메이지	-5663
▁안드로	-5664
▁여겨진다	-5665
나카	-5666
▁세상을	-5667
IN	-5668
계약	-5669
트릭	-5670
▁일시	-5671
▁못하는	-5672
▁사용하였다	-5673
▁여섯	-5674
▁골든	-5675
▁속의	-5676
▁로드	-5677
▁벡터	-5678
▁싱가	-5679
었다고	-5680
▁1934	-5681
▁퀸	-5682
▁AFC	-5683
BM	-5684
보호	-5685
▁적합	-5686
무부	-5687
▁st	-5688
▁선임	-5689
▁조지아	-5690
질의	-5691
▁정교	-5692
한의	-5693
▁만다	-5694
격으로	-5695
과정	-5696
듯이	-5697
▁투쟁	-5698
▁부분이	-5699
직에	-5700
ical	-5701
▁역사를	-5702
비에	-5703
▁1928	-5704
▁자전	-5705
▁지니고	-5706
▁내셔널	-5707
련의	-5708
민주당	-5709
▁오프	-5710
▁왕의	-5711
▁의심	-5712
▁수상하였다	-5713
com	-5714
ies	-5715
▁홍보	-5716
론에	-5717
▁노르웨이	-5718
▁정권	-5719
(16	-5720
▁전송	-5721
▁올림픽에	-5722
피스	-5723
▁관여	-5724
▁어머니는	-5725
▁학살	-5726
속에	-5727
티오	-5728
▁탐사	-5729
▁위로	-5730
▁인지	-5731
▁라이트	-5732
▁불렸다	-5733
▁특징이다	-5734
▁집권	-5735
▁남겼다	-5736
▁사망한	-5737
마는	-5738
▁협회	-5739
▁종사	-5740
ey	-5741
느냐	-5742
산군	-5743
ass	-5744
▁향토	-5745
ark	-5746
파가	-5747
▁높다	-5748
▁문을	-5749
▁성공을	-5750
▁발생하는	-5751
▁완전한	-5752
▁참가했다	-5753
▁구입	-5754
▁천주교	-5755
▁아들인	-5756
▁노출	-5757
▁지구의	-5758
타의	-5759
▁유학	-5760
▁책임을	-5761
▁공화국의	-5762
원군	-5763
▁개체	-5764
▁드래프트	-5765
▁북쪽으로	-5766
▁파르	-5767
▁긍	-5768
▁동북	-5769
▁이르렀다	-5770
▁힙	-5771
▁코르	-5772
▁중학교이다	-5773
ire	-5774
디움	-5775
▁표면	-5776
백만	-5777
▁사퇴	-5778
인들을	-5779
▁장수	-5780
▁세계적으로	-5781
▁AT	-5782
▁이후에도	-5783
▁빚	-5784
즈가	-5785
▁아이디	-5786
▁대회에	-5787
▁일부가	-5788
공산	-5789
▁You	-5790
미르	-5791
▁커뮤니	-5792
루의	-5793
▁논문	-5794
▁지지를	-5795
▁세웠	-5796
▁크다	-5797
▁떠났다	-5798
act	-5799
▁말하는	-5800
이상	-5801
년부터는	-5802
페르	-5803
▁복원	-5804
다란	-5805
▁눈에	-5806
▁고종	-5807
라에	-5808
▁임금	-5809
▁해리	-5810
▁대통령의	-5811
▁재학	-5812
만으로	-5813
Pa	-5814
▁관련이	-5815
활동을	-5816
▁똑	-5817
▁선박	-5818
▁유효	-5819
▁전신	-5820
▁명나라	-5821
▁끌어	-5822
▁전면	-5823
▁비상	-5824
▁순간	-5825
▁대한민국에서	-5826
▁전쟁에	-5827
▁윗	-5828
AM	-5829
물에	-5830
▁부친	-5831
▁그리하여	-5832
▁블라	-5833
▁대의	-5834
▁화산	-5835
▁잠수	-5836
▁후쿠오카	-5837
▁부진	-5838
tern	-5839
IC	-5840
당시	-5841
▁65	-5842
▁가수이다	-5843
ood	-5844
▁AP	-5845
▁명령을	-5846
강에	-5847
▁동양	-5848
▁위치를	-5849
법인	-5850
▁재개	-5851
▁로봇	-5852
▁돌려	-5853
▁인용	-5854
▁한자	-5855
가시	-5856
▁게임을	-5857
키가	-5858
중한	-5859
▁유치	-5860
▁의학	-5861
비디오	-5862
▁다음날	-5863
▁이명	-5864
ivers	-5865
과대학	-5866
▁유배	-5867
공신	-5868
독립	-5869
키의	-5870
▁알고리즘	-5871
우가	-5872
▁십자	-5873
인에게	-5874
▁부분은	-5875
▁패션	-5876
▁희망	-5877
▁닫	-5878
▁느낌	-5879
▁만든다	-5880
▁첼	-5881
▁화려	-5882
행성	-5883
▁동방	-5884
▁연습	-5885
▁대통령은	-5886
mer	-5887
▁달려	-5888
만한	-5889
▁태양의	-5890
▁창작	-5891
처를	-5892
lat	-5893
▁상속	-5894
신문	-5895
▁무사	-5896
▁격파	-5897
▁기록되어	-5898
▁올림픽에서	-5899
했다가	-5900
▁에르	-5901
▁화성	-5902
리안	-5903
위와	-5904
▁호소	-5905
▁아래와	-5906
▁행정구	-5907
오의	-5908
▁즈	-5909
▁덧붙	-5910
▁초에	-5911
▁전쟁에서	-5912
코스	-5913
▁전쟁의	-5914
▁양의	-5915
공의	-5916
호에	-5917
▁즉시	-5918
▁포켓몬	-5919
▁완벽	-5920
▁내세	-5921
▁밀려	-5922
▁없을	-5923
▁국민의	-5924
AN	-5925
실이	-5926
▁근처에	-5927
▁도서관	-5928
아는	-5929
유가	-5930
▁싸우	-5931
베스	-5932
포로	-5933
▁터널	-5934
되어야	-5935
▁스케	-5936
목을	-5937
▁물을	-5938
▁위원회	-5939
▁주장한다	-5940
바일	-5941
영을	-5942
▁말이	-5943
▁42	-5944
▁발음	-5945
OR	-5946
▁짜	-5947
▁끝내	-5948
▁주장을	-5949
▁39	-5950
마를	-5951
서와	-5952
크래프트	-5953
▁들어갔다	-5954
▁선출되었다	-5955
중국	-5956
iss	-5957
▁갖는다	-5958
▁가슴	-5959
▁히로시마	-5960
▁들면	-5961
받는	-5962
▁않으면	-5963
▁갑자기	-5964
▁이상이	-5965
▁발언	-5966
▁IC	-5967
▁살인	-5968
▁임무	-5969
▁역임하였다	-5970
데르	-5971
▁책을	-5972
▁초기에	-5973
▁하기도	-5974
츠의	-5975
▁따서	-5976
▁사용자	-5977
해군	-5978
▁사용했다	-5979
▁수리	-5980
▁파트	-5981
하여야	-5982
▁1931	-5983
ah	-5984
▁분기	-5985
▁자이언	-5986
리며	-5987
▁차지하고	-5988
▁i	-5989
중을	-5990
▁수요	-5991
▁상대식	-5992
▁열차가	-5993
▁핑	-5994
▁역에서	-5995
▁발간	-5996
타마	-5997
ric	-5998
▁노스	-5999
베리아	-6000
▁이른바	-6001
▁운영하는	-6002
▁이루는	-6003
▁언덕	-6004
▁측면	-6005
1)	-6006
▁상태에서	-6007
관광	-6008
왕후	-6009
▁연간	-6010
▁시카고	-6011
▁개국	-6012
전자	-6013
▁개찰	-6014
▁데에	-6015
▁연결되어	-6016
▁내놓	-6017
학자들은	-6018
▁특성	-6019
▁이끌었다	-6020
역은	-6021
연대	-6022
▁비트	-6023
▁이들이	-6024
평을	-6025
분으로	-6026
▁게다가	-6027
▁남아있	-6028
IS	-6029
▁기병	-6030
▁남아프리카	-6031
▁되돌	-6032
▁만한	-6033
▁주에	-6034
▁칠레	-6035
▁의식	-6036
▁맞서	-6037
로써	-6038
▁한성	-6039
▁타이거	-6040
▁가이	-6041
▁분해	-6042
▁서술	-6043
▁후임	-6044
▁미국은	-6045
▁당시에	-6046
이닝	-6047
▁DVD	-6048
▁더블	-6049
▁천안	-6050
▁루트	-6051
▁회장	-6052
▁보여준다	-6053
게는	-6054
▁보스	-6055
하시	-6056
▁싸움	-6057
▁쿠데	-6058
동물	-6059
▁보물	-6060
▁최대의	-6061
조참	-6062
▁상황을	-6063
▁분야에서	-6064
▁성남	-6065
▁서쪽으로	-6066
되게	-6067
비트	-6068
왕을	-6069
▁나왔	-6070
▁히트	-6071
▁방식을	-6072
▁빌보드	-6073
▁쾌	-6074
공을	-6075
달러	-6076
▁시상	-6077
▁조선시대의	-6078
▁48	-6079
land	-6080
▁복잡한	-6081
▁작동	-6082
oy	-6083
ost	-6084
이치	-6085
판은	-6086
▁도덕	-6087
▁큐	-6088
▁농구	-6089
▁단어	-6090
▁이라크	-6091
민의	-6092
어버	-6093
▁소식을	-6094
되지만	-6095
▁r	-6096
▁꾸준	-6097
▁앵	-6098
▁기소	-6099
ex	-6100
월의	-6101
▁복무	-6102
▁참가한	-6103
▁미쓰	-6104
▁해발	-6105
▁추가로	-6106
▁전투를	-6107
▁동쪽으로	-6108
아나	-6109
렸으며	-6110
리우스	-6111
▁1929	-6112
▁단순한	-6113
▁티베	-6114
▁파워	-6115
▁뮌헨	-6116
▁디스크	-6117
▁수석	-6118
역에서	-6119
▁1925	-6120
천만	-6121
▁오페라	-6122
ence	-6123
슬링	-6124
사이다	-6125
▁방해	-6126
▁없게	-6127
▁에드워드	-6128
▁CP	-6129
▁프리드리히	-6130
▁방지	-6131
▁일으켜	-6132
▁양쪽	-6133
▁그것이	-6134
가인	-6135
▁겉	-6136
lan	-6137
▁신체	-6138
▁공중	-6139
▁우수	-6140
▁직전	-6141
▁가깝	-6142
▁시사	-6143
▁입고	-6144
그램	-6145
▁장소	-6146
▁기록하며	-6147
▁SS	-6148
▁170	-6149
▁마무리	-6150
▁외국인	-6151
▁조건을	-6152
▁1923	-6153
단이다	-6154
▁대상이	-6155
▁밝혀졌다	-6156
가락	-6157
학교를	-6158
▁명칭을	-6159
유를	-6160
▁재임	-6161
▁권력을	-6162
▁뛰고	-6163
목에	-6164
▁상관	-6165
았으나	-6166
▁화이트	-6167
▁시드	-6168
환으로	-6169
▁태국	-6170
▁루이스	-6171
amp	-6172
▁총선	-6173
▁문제에	-6174
▁함경	-6175
린의	-6176
▁로마의	-6177
▁1921	-6178
ear	-6179
▁중추	-6180
▁강릉	-6181
▁하여금	-6182
미술	-6183
리언	-6184
주군	-6185
펙트	-6186
▁그곳에서	-6187
▁HD	-6188
▁배포	-6189
▁코치	-6190
름이	-6191
에선	-6192
▁곱	-6193
모가	-6194
중인	-6195
▁벼슬	-6196
▁하느	-6197
시스코	-6198
▁아버지의	-6199
▁화장	-6200
▁구매	-6201
발을	-6202
양이	-6203
▁장비	-6204
▁올스타	-6205
▁레알	-6206
▁사건으로	-6207
▁홋카이도	-6208
▁입단하였다	-6209
우를	-6210
▁암컷	-6211
▁걸친	-6212
스트를	-6213
▁프로듀서	-6214
거래	-6215
▁사랑을	-6216
age	-6217
▁탄핵	-6218
▁그들을	-6219
▁게임이다	-6220
▁크리	-6221
▁왕조의	-6222
코의	-6223
▁수의	-6224
즈를	-6225
▁브레	-6226
▁랜	-6227
▁주기	-6228
▁현지	-6229
▁1922	-6230
▁캠퍼	-6231
▁받아들이	-6232
로서는	-6233
감이	-6234
렬한	-6235
▁텍사스	-6236
관과	-6237
▁투어	-6238
레나	-6239
▁후인	-6240
▁미리	-6241
▁특징을	-6242
조차	-6243
▁수소	-6244
▁출전하여	-6245
▁검토	-6246
▁뻗	-6247
▁문신	-6248
▁나라의	-6249
▁지속적으로	-6250
▁로스앤젤레스	-6251
ern	-6252
▁폭탄	-6253
▁확산	-6254
교는	-6255
3,	-6256
▁의미하는	-6257
▁츠	-6258
종합	-6259
▁업무를	-6260
▁문제는	-6261
▁64	-6262
▁능력	-6263
▁방법은	-6264
는지	-6265
다의	-6266
폴리스	-6267
▁체육	-6268
니스탄	-6269
▁영화의	-6270
ath	-6271
▁형식으로	-6272
▁상실	-6273
▁있으므로	-6274
▁노선을	-6275
▁위에서	-6276
▁최우수	-6277
특별자치	-6278
▁이온	-6279
키퍼	-6280
▁모토	-6281
▁항의	-6282
주의자	-6283
▁대표로	-6284
56	-6285
투아	-6286
범위	-6287
▁추방	-6288
▁가까이	-6289
▁포함하는	-6290
="	-6291
▁화합	-6292
aw	-6293
정과	-6294
Al	-6295
본부	-6296
형에	-6297
▁성직	-6298
환을	-6299
▁re	-6300
호와	-6301
▁선포	-6302
▁직원	-6303
▁사건은	-6304
▁신화	-6305
2)	-6306
▁거짓	-6307
odice	-6308
무네	-6309
조건	-6310
▁독립을	-6311
PS	-6312
▁도전	-6313
▁이웃	-6314
▁피터	-6315
▁기본적으로	-6316
▁권력	-6317
▁청주	-6318
▁게임의	-6319
▁캐나다의	-6320
파로	-6321
▁번주	-6322
▁사우스	-6323
▁이적하였다	-6324
▁사전	-6325
▁참여한	-6326
AC	-6327
▁강남	-6328
▁일은	-6329
▁시가	-6330
▁별도의	-6331
▁고위	-6332
▁재능	-6333
▁몸을	-6334
▁개명	-6335
▁토지	-6336
노스	-6337
▁손을	-6338
공간	-6339
기인	-6340
▁밝은	-6341
▁Me	-6342
▁긍정	-6343
▁참고	-6344
▁청구	-6345
▁구글	-6346
▁대량	-6347
중이다	-6348
▁프랭	-6349
▁개념을	-6350
열을	-6351
▁등장인	-6352
시장	-6353
().	-6354
und	-6355
▁개별	-6356
마가	-6357
▁개방	-6358
▁포트	-6359
대신	-6360
▁교류	-6361
▁분자	-6362
▁리처드	-6363
▁거느	-6364
▁스트리	-6365
▁멘	-6366
▁디스	-6367
집을	-6368
▁순위	-6369
▁신도	-6370
▁질량	-6371
▁경기가	-6372
▁드래	-6373
▁앞으로	-6374
▁계속해서	-6375
하기를	-6376
▁Sp	-6377
▁WW	-6378
▁환승	-6379
▁비례	-6380
층에	-6381
▁되기	-6382
▁오키	-6383
▁상하	-6384
▁암호	-6385
▁폴리	-6386
▁1926	-6387
▁넷	-6388
▁오카	-6389
ID	-6390
됨에	-6391
▁위상	-6392
▁했는데	-6393
학은	-6394
▁쌀	-6395
▁서서	-6396
▁구성하는	-6397
친다	-6398
▁지향	-6399
▁힌	-6400
ann	-6401
▁본격적으로	-6402
▁배경으로	-6403
▁좋지	-6404
_4	-6405
클리	-6406
▁아래에	-6407
▁그녀가	-6408
▁강등	-6409
▁주력	-6410
▁롱	-6411
▁연료	-6412
서양	-6413
▁넣어	-6414
▁수십	-6415
▁출신이다	-6416
족은	-6417
▁속도	-6418
▁원인이	-6419
▁인천광역시	-6420
▁말로	-6421
▁웨일	-6422
▁현존	-6423
제도	-6424
▁아오	-6425
▁충분히	-6426
▁북아메리카	-6427
같이	-6428
씨를	-6429
인인	-6430
▁정체	-6431
▁소프트웨	-6432
▁입장	-6433
▁나타났다	-6434
▁보건	-6435
▁골키퍼	-6436
▁심리	-6437
스트라	-6438
▁교회의	-6439
▁탄압	-6440
▁웃	-6441
재가	-6442
▁멀티	-6443
per	-6444
▁단순히	-6445
인조	-6446
지마	-6447
▁타격	-6448
▁조선민주주의인민공화국의	-6449
▁최근에는	-6450
▁권리를	-6451
였는데	-6452
라면	-6453
-10	-6454
▁공주	-6455
▁크레	-6456
▁프로그래밍	-6457
▁스탈	-6458
가능	-6459
orld	-6460
▁임무를	-6461
니즘	-6462
▁보험	-6463
▁돌아온	-6464
▁요코하마	-6465
▁대장	-6466
▁수술	-6467
스팅	-6468
▁스프	-6469
▁열매	-6470
▁유통	-6471
▁가상	-6472
▁보이지	-6473
▁그렇다면	-6474
방향	-6475
▁토착	-6476
▁대동	-6477
▁철거	-6478
>,	-6479
차의	-6480
▁개척	-6481
슬로	-6482
▁진학	-6483
▁맨체스터	-6484
59	-6485
▁동일본	-6486
▁이외의	-6487
▁백제	-6488
▁1927	-6489
▁텐	-6490
▁틈	-6491
비히	-6492
▁시조	-6493
▁이재	-6494
▁도쿠가와	-6495
▁사람들에게	-6496
58	-6497
▁열리는	-6498
▁이벤	-6499
▁입력	-6500
▁세계대전	-6501
▁멈	-6502
▁아버지가	-6503
54	-6504
▁앤드	-6505
▁영국에서	-6506
지면	-6507
▁?)	-6508
▁지중	-6509
재위	-6510
ction	-6511
▁보여주는	-6512
ee	-6513
▁사찰	-6514
▁그리스의	-6515
실로	-6516
▁특별히	-6517
환경	-6518
▁제도를	-6519
now	-6520
▁고급	-6521
▁사도	-6522
▁세부	-6523
▁힙합	-6524
기구	-6525
▁오다	-6526
▁상태를	-6527
▁일종의	-6528
대문	-6529
▁약칭	-6530
▁인기가	-6531
▁미국으로	-6532
등급	-6533
▁고객	-6534
▁내가	-6535
▁본질	-6536
▁자랑	-6537
▁전화	-6538
▁콜롬	-6539
▁토론토	-6540
▁이용할	-6541
▁일으켰다	-6542
▁자원	-6543
▁전문가	-6544
▁1912	-6545
▁엑스	-6546
▁1908	-6547
기지	-6548
마뱀	-6549
▁제후	-6550
▁할아버	-6551
▁(200	-6552
▁부르기도	-6553
▁마음을	-6554
▁1907	-6555
▁유나이티드	-6556
▁출연했다	-6557
▁남극	-6558
▁글로벌	-6559
▁메달	-6560
▁집에	-6561
되거나	-6562
▁가난	-6563
▁전동차	-6564
▁연평균	-6565
▁낸	-6566
▁서구	-6567
▁신의	-6568
▁진격	-6569
에서부터	-6570
▁필수	-6571
즈니	-6572
하기에	-6573
테이	-6574
▁드물	-6575
▁이외에도	-6576
▁이상을	-6577
▁덩	-6578
arl	-6579
▁가설	-6580
치오	-6581
역에	-6582
▁마주	-6583
군에게	-6584
▁스타디움	-6585
▁밥	-6586
▁이어지는	-6587
▁복음	-6588
▁대다	-6589
▁작사	-6590
▁엔터테인먼트	-6591
결승	-6592
▁쓰러	-6593
57	-6594
▁1917	-6595
학에	-6596
ile	-6597
OM	-6598
▁포함되었다	-6599
▁원래는	-6600
▁강을	-6601
▁부동	-6602
카가	-6603
▁부속	-6604
▁검색	-6605
▁백성	-6606
▁삶을	-6607
▁클레	-6608
▁노동자	-6609
▁모바일	-6610
▁지리	-6611
53	-6612
▁핫	-6613
▁사막	-6614
▁상주	-6615
▁성경	-6616
▁스티븐	-6617
이게	-6618
▁란	-6619
▁풋	-6620
son	-6621
▁대법	-6622
▁원시	-6623
▁구멍	-6624
▁논리	-6625
▁여성의	-6626
▁원주민	-6627
▁성향	-6628
년까지는	-6629
▁기구	-6630
▁위키	-6631
▁하나가	-6632
강을	-6633
▁수호	-6634
목으로	-6635
▁방송을	-6636
▁정부에	-6637
▁커다란	-6638
▁선조	-6639
▁영구	-6640
▁나고야	-6641
▁주장하는	-6642
코는	-6643
▁가마	-6644
후에	-6645
▁결의	-6646
▁죽음을	-6647
로지	-6648
▁바둑	-6649
▁유고	-6650
▁소속의	-6651
▁1905	-6652
▁줄어들	-6653
베리	-6654
▁기도	-6655
운동을	-6656
▁역사가	-6657
▁나뉘어	-6658
▁사회의	-6659
름은	-6660
수도	-6661
용을	-6662
▁용인	-6663
▁수컷	-6664
▁실천	-6665
▁지칭	-6666
▁아메리칸	-6667
▁개량	-6668
▁남녀	-6669
▁달하는	-6670
원숭	-6671
ame	-6672
▁코파	-6673
너스	-6674
▁유력	-6675
▁중성	-6676
문이다	-6677
▁지불	-6678
로에	-6679
▁멸종	-6680
In	-6681
▁반응을	-6682
▁루마니아	-6683
율이	-6684
▁46	-6685
▁석유	-6686
▁위치에	-6687
▁정식으로	-6688
▁대부분을	-6689
슬라	-6690
▁담고	-6691
▁성의	-6692
▁차단	-6693
▁파크	-6694
▁의정부	-6695
(17	-6696
▁소리	-6697
▁순환	-6698
▁갖게	-6699
▁붙어	-6700
▁비판을	-6701
▁혼자	-6702
▁|	-6703
▁산화	-6704
▁인상	-6705
▁입은	-6706
▁주된	-6707
▁명단	-6708
▁일단	-6709
▁보스턴	-6710
▁음반이다	-6711
침을	-6712
▁그러므로	-6713
해에	-6714
▁자금	-6715
관에서	-6716
▁사람이다	-6717
치기	-6718
▁변호사	-6719
▁구성된다	-6720
▁짝	-6721
츠는	-6722
▁4,	-6723
▁일련의	-6724
▁포함된다	-6725
계와	-6726
▁140	-6727
안전	-6728
무장	-6729
현은	-6730
▁알레	-6731
(18	-6732
▁흑인	-6733
▁바르셀	-6734
▁소집	-6735
▁43	-6736
▁보편	-6737
▁장르	-6738
호선의	-6739
▁사람들	-6740
용의	-6741
힌다	-6742
▁44	-6743
▁뚜렷	-6744
▁오는	-6745
▁재위	-6746
▁발표된	-6747
▁편의	-6748
▁부르고	-6749
여래	-6750
▁민중	-6751
▁집필	-6752
파이	-6753
▁시작했고	-6754
▁하와	-6755
▁병원	-6756
보험	-6757
▁당나라	-6758
▁마드리드	-6759
ace	-6760
ous	-6761
▁이어서	-6762
▁안내	-6763
▁이익	-6764
▁초청	-6765
▁쿠바	-6766
▁홈런을	-6767
▁사건의	-6768
▁하인	-6769
▁개인의	-6770
판에	-6771
튜브	-6772
▁정수	-6773
▁훌륭	-6774
더스	-6775
하를	-6776
보통	-6777
▁구사	-6778
▁1906	-6779
▁전작	-6780
시에서	-6781
인가	-6782
AS	-6783
▁생태	-6784
▁늑	-6785
▁비잔	-6786
령의	-6787
▁본명은	-6788
▁프라이	-6789
ier	-6790
▁자라	-6791
▁후에도	-6792
파와	-6793
▁무대	-6794
▁초기에는	-6795
▁교차	-6796
▁매주	-6797
하라는	-6798
▁그려져	-6799
항은	-6800
당으로	-6801
IT	-6802
살이	-6803
▁대화	-6804
▁광범위	-6805
▁덜	-6806
▁마감	-6807
속의	-6808
▁감독은	-6809
▁불가리아	-6810
▁끝으로	-6811
▁클라	-6812
yst	-6813
리티	-6814
▁목숨	-6815
시스템	-6816
▁되기도	-6817
▁대학교의	-6818
산과	-6819
ohn	-6820
▁카라	-6821
▁입법	-6822
▁물려	-6823
▁다이묘	-6824
rom	-6825
▁가속	-6826
▁카운	-6827
연구소	-6828
작으로	-6829
▁대학의	-6830
▁세리에	-6831
▁정확히	-6832
▁비공	-6833
베이스	-6834
마에	-6835
이면	-6836
▁놓여	-6837
▁어두	-6838
▁경남	-6839
▁이즈	-6840
▁적극적으로	-6841
▁좁은	-6842
정도	-6843
▁600	-6844
▁맺고	-6845
▁해협	-6846
▁강요	-6847
▁코믹	-6848
▁x	-6849
▁칼리	-6850
▁47	-6851
▁구에	-6852
▁새벽	-6853
면과	-6854
코프	-6855
▁권리	-6856
▁베네치아	-6857
▁우에	-6858
식에서	-6859
▁탓	-6860
근혜	-6861
▁오버	-6862
▁영향으로	-6863
▁집안	-6864
계열	-6865
▁행복	-6866
▁데이터를	-6867
보다도	-6868
▁영화제	-6869
▁명칭으로	-6870
스피	-6871
▁미국에	-6872
int	-6873
▁사다	-6874
카의	-6875
▁대대	-6876
▁북미	-6877
▁콘스탄티노	-6878
▁보냈	-6879
▁하던	-6880
클레	-6881
▁본다	-6882
▁연안	-6883
▁상호작용	-6884
▁윤치	-6885
대사	-6886
▁관객	-6887
▁말해	-6888
▁모터	-6889
▁적도	-6890
▁위대한	-6891
ver	-6892
▁국정	-6893
한다면	-6894
▁가고	-6895
▁섬에	-6896
▁열었다	-6897
상이다	-6898
▁구성원	-6899
미아	-6900
▁공장	-6901
▁몬테	-6902
▁주재	-6903
오로	-6904
▁자매	-6905
▁득표	-6906
▁화가	-6907
드리아	-6908
애를	-6909
▁공원	-6910
▁허락	-6911
ite	-6912
MS	-6913
내의	-6914
▁센트	-6915
체이다	-6916
브로	-6917
▁승부	-6918
▁혼인	-6919
▁공산당	-6920
▁영토를	-6921
▁주변의	-6922
▁갈색	-6923
▁일상	-6924
러는	-6925
▁크루	-6926
▁경향이	-6927
▁톱	-6928
olog	-6929
▁혈액	-6930
프란	-6931
▁식품	-6932
까지도	-6933
▁남아메리카	-6934
▁대칭	-6935
▁살아남	-6936
본은	-6937
▁첫째	-6938
▁많았다	-6939
▁반대하는	-6940
▁800	-6941
▁엘리자	-6942
국과	-6943
▁방언	-6944
▁스웨덴의	-6945
▁웹사이트	-6946
편의	-6947
▁군대	-6948
▁발표되었다	-6949
lar	-6950
▁미나	-6951
▁사가	-6952
▁명으로	-6953
▁축소	-6954
경기에서	-6955
▁막기	-6956
도니아	-6957
▁전형적인	-6958
▁새끼	-6959
▁싱어	-6960
▁산하	-6961
ET	-6962
▁상태가	-6963
예를	-6964
▁그만	-6965
▁발휘	-6966
▁블록	-6967
▁으로	-6968
▁소화	-6969
ck	-6970
▁후퇴	-6971
▁퀘	-6972
머리	-6973
▁OS	-6974
▁이은	-6975
▁인도의	-6976
말로	-6977
▁수를	-6978
▁발전을	-6979
다시	-6980
▁성공했다	-6981
▁개장	-6982
▁집을	-6983
보이	-6984
▁죽자	-6985
▁강하게	-6986
▁메모리	-6987
청년	-6988
크스	-6989
▁종이	-6990
▁골드	-6991
▁싱가포르	-6992
발전	-6993
▁소스	-6994
▁정통	-6995
▁단선	-6996
▁접속	-6997
▁건물은	-6998
▁도쿄도	-6999
▁뜻이다	-7000
구조	-7001
담을	-7002
보로	-7003
행이	-7004
▁JR	-7005
▁군사를	-7006
곡은	-7007
▁일원	-7008
크와	-7009
▁북극	-7010
▁이념	-7011
▁크로아티아	-7012
▁팔레	-7013
당하고	-7014
▁참가하였다	-7015
▁랩	-7016
▁올해의	-7017
폴리	-7018
▁감시	-7019
▁닮	-7020
▁서명	-7021
▁토벌	-7022
자이자	-7023
▁일본은	-7024
대상	-7025
시대에	-7026
절을	-7027
▁감옥	-7028
▁모임	-7029
▁보이고	-7030
권과	-7031
▁공기	-7032
▁대결	-7033
나르	-7034
우라	-7035
▁마법	-7036
▁스크린	-7037
▁포스트	-7038
51	-7039
레는	-7040
모델	-7041
▁판타	-7042
▁리이다	-7043
▁작품의	-7044
래의	-7045
▁~)	-7046
▁유적	-7047
▁이끌어	-7048
관계를	-7049
▁가치를	-7050
▁드라마이다	-7051
se	-7052
제르	-7053
프라	-7054
▁시를	-7055
다이라	-7056
의가	-7057
▁잡고	-7058
▁이론을	-7059
ish	-7060
▁1,000	-7061
받침	-7062
중이	-7063
▁2.	-7064
▁목포	-7065
▁부드	-7066
▁비틀	-7067
▁양산	-7068
▁데뷔했다	-7069
▁또다른	-7070
▁우리는	-7071
모의	-7072
학회	-7073
▁가끔	-7074
▁관해	-7075
오고	-7076
체인	-7077
▁영혼	-7078
졌으나	-7079
▁다큐	-7080
▁올라가	-7081
모는	-7082
▁와서	-7083
▁착용	-7084
국인	-7085
▁대변	-7086
▁불렀	-7087
▁오이	-7088
바키아	-7089
▁나타난	-7090
▁대원	-7091
▁동경	-7092
▁철저	-7093
▁거리에	-7094
전한	-7095
▁MS	-7096
▁US	-7097
▁사이트	-7098
▁구원	-7099
토미	-7100
▁41	-7101
▁사건에	-7102
ork	-7103
▁꼬리	-7104
▁전한	-7105
.'	-7106
ED	-7107
▁발매한	-7108
▁무릎	-7109
▁입사	-7110
▁재생	-7111
하에서	-7112
▁맺었다	-7113
▁로렌	-7114
▁당사	-7115
▁레벨	-7116
▁부탁	-7117
▁랑	-7118
니와	-7119
▁삽입	-7120
▁않기	-7121
▁Sch	-7122
▁유전자	-7123
란색	-7124
▁동서	-7125
았는데	-7126
▁재료	-7127
전에서는	-7128
카드	-7129
ool	-7130
▁본선에	-7131
보기	-7132
▁땅을	-7133
▁소득	-7134
▁끈	-7135
배를	-7136
하면서도	-7137
▁멜로	-7138
페이지	-7139
▁전체를	-7140
▁회사의	-7141
▁되었는데	-7142
▁콜롬비아	-7143
령으로	-7144
▁도시는	-7145
▁이미지	-7146
▁도서	-7147
▁종로	-7148
각형	-7149
▁선호	-7150
▁실내	-7151
▁운항	-7152
천의	-7153
▁메탈	-7154
▁마틴	-7155
▁삼았다	-7156
▁현상을	-7157
▁부상으로	-7158
▁뮤직비디오	-7159
▁쏘	-7160
▁농촌	-7161
▁아동	-7162
타가	-7163
▁구로	-7164
심이	-7165
▁일곱	-7166
▁행위를	-7167
청은	-7168
았지만	-7169
▁규슈	-7170
▁동반	-7171
▁마그	-7172
북도의	-7173
▁의견을	-7174
▁지었다	-7175
▁압축	-7176
▁예전	-7177
▁핸	-7178
앨범	-7179
프와	-7180
▁모습이	-7181
▁세워진	-7182
청의	-7183
▁힘들	-7184
▁처음에	-7185
고리	-7186
문과	-7187
▁공개되었다	-7188
▁1/	-7189
▁코너	-7190
▁정도이다	-7191
500	-7192
▁상황에	-7193
cl	-7194
▁베어	-7195
▁에너지를	-7196
▁손에	-7197
▁운송	-7198
ick	-7199
▁이정	-7200
▁1904	-7201
판의	-7202
리브	-7203
▁세력이	-7204
▁주목을	-7205
되던	-7206
▁폭력	-7207
▁관계에	-7208
DP	-7209
att	-7210
▁그라	-7211
▁말라	-7212
▁카자	-7213
▁설립한	-7214
▁일본인	-7215
ox	-7216
▁영원	-7217
함은	-7218
▁레지	-7219
▁해설	-7220
밀한	-7221
우스는	-7222
▁앨범을	-7223
ung	-7224
▁Re	-7225
▁아래의	-7226
▁자가	-7227
▁중시	-7228
▁재산	-7229
▁특허	-7230
이라면	-7231
비와	-7232
주년	-7233
▁고안	-7234
▁크라	-7235
지구	-7236
▁전북	-7237
▁허가	-7238
▁알렉산더	-7239
▁영향력을	-7240
▁망원	-7241
▁리그에서	-7242
▁노무	-7243
▁알리	-7244
▁순서	-7245
▁증언	-7246
▁세계를	-7247
호쿠	-7248
▁약탈	-7249
▁성격을	-7250
▁행정구역이다	-7251
▁수직	-7252
▁든	-7253
are	-7254
실에서	-7255
▁콘서트	-7256
플로	-7257
훼손	-7258
▁예로	-7259
지방법원	-7260
(3	-7261
갔고	-7262
▁기반을	-7263
▁수준의	-7264
▁중에서도	-7265
▁서일본	-7266
▁극복	-7267
▁안양	-7268
▁오케	-7269
▁110	-7270
건설	-7271
투표	-7272
조판서	-7273
족을	-7274
치와	-7275
▁관계는	-7276
▁원하는	-7277
▁자신은	-7278
▁시게	-7279
▁커버	-7280
az	-7281
pt	-7282
꼬리	-7283
릭스	-7284
슨이	-7285
▁단행	-7286
▁섬식	-7287
▁우리가	-7288
▁닉	-7289
▁심지어	-7290
</	-7291
▁신고	-7292
프가니스탄	-7293
됐고	-7294
▁않았지만	-7295
오리	-7296
▁외계	-7297
▁아무런	-7298
▁포함된	-7299
훈련	-7300
▁주변에	-7301
▁금강	-7302
▁만들기	-7303
▁모양으로	-7304
사랑	-7305
▁기하	-7306
▁남겨	-7307
물과	-7308
▁지대	-7309
▁방송된	-7310
▁콘텐츠	-7311
▁대해서도	-7312
그래	-7313
▁감사	-7314
▁황제의	-7315
▁유키	-7316
▁인구의	-7317
미사	-7318
브레	-7319
old	-7320
▁인물로	-7321
마루	-7322
▁플로리다	-7323
토는	-7324
▁명시	-7325
▁비롯해	-7326
세기의	-7327
▁꺼	-7328
라이터	-7329
나게	-7330
어에	-7331
트랙	-7332
▁압도	-7333
▁소요	-7334
▁차지하였다	-7335
▁초상	-7336
▁준결승	-7337
▁용어는	-7338
▁영화를	-7339
▁("	-7340
▁타워	-7341
▁토너	-7342
어에서	-7343
▁박근혜	-7344
지니아	-7345
▁예외	-7346
▁WWE	-7347
▁사람으로	-7348
▁며	-7349
교도	-7350
▁가야	-7351
▁르네	-7352
▁발레	-7353
▁포유	-7354
▁없지만	-7355
▁넥	-7356
▁받으며	-7357
▁세우고	-7358
▁일으킨	-7359
▁De	-7360
▁현급	-7361
군에서	-7362
적이며	-7363
OC	-7364
▁운동에	-7365
▁가시	-7366
드르	-7367
▁지원하는	-7368
ica	-7369
▁맞추	-7370
▁싫	-7371
▁있다가	-7372
▁교사	-7373
▁근육	-7374
▁성과	-7375
▁몸무	-7376
였다고	-7377
▁역의	-7378
▁정치인	-7379
▁빌딩	-7380
▁나이에	-7381
차에	-7382
▁이행	-7383
▁요미	-7384
▁미국인	-7385
▁했	-7386
▁곤충	-7387
▁의미가	-7388
▁이어져	-7389
▁뱀	-7390
우고	-7391
▁게르	-7392
▁타율	-7393
▁원인	-7394
▁밀라노	-7395
,0	-7396
▁곳은	-7397
▁보르	-7398
▁에피소드	-7399
▁무산	-7400
▁창간	-7401
▁그녀를	-7402
TC	-7403
▁상의	-7404
▁수백	-7405
▁유용	-7406
▁인터뷰에서	-7407
▁필라	-7408
▁유대인	-7409
▁AC	-7410
▁담은	-7411
▁생기	-7412
▁파울	-7413
▁상태에	-7414
즈와	-7415
토를	-7416
▁이종	-7417
▁오늘날의	-7418
▁필립	-7419
▁실제로는	-7420
▁An	-7421
▁등도	-7422
▁성질	-7423
▁거리를	-7424
버드	-7425
▁고리	-7426
▁아들이다	-7427
현을	-7428
▁경유	-7429
주의는	-7430
▁차지한다	-7431
나마	-7432
비행	-7433
▁1896	-7434
52	-7435
▁셔	-7436
든지	-7437
도서관	-7438
▁교수로	-7439
▁기능이	-7440
▁있어야	-7441
▁자체가	-7442
▁크기가	-7443
▁서울시	-7444
란다	-7445
II	-7446
법과	-7447
▁세월	-7448
▁공간을	-7449
▁빅토리아	-7450
▁뼈	-7451
나고	-7452
비시	-7453
che	-7454
▁독재	-7455
▁사촌	-7456
석으로	-7457
쳤고	-7458
당에서	-7459
▁천체	-7460
▁공무원	-7461
▁레인	-7462
주의와	-7463
티스	-7464
▁수감	-7465
▁태조	-7466
▁영양	-7467
▁적응	-7468
▁휴대	-7469
자였던	-7470
▁불리며	-7471
리코	-7472
▁소형	-7473
▁다루는	-7474
필드	-7475
▁크기는	-7476
▁강수	-7477
▁주제	-7478
▁졸업한	-7479
▁수록되어	-7480
▁아티스트	-7481
연의	-7482
▁부처	-7483
총리	-7484
▁책은	-7485
에게도	-7486
▁역사는	-7487
▁대선	-7488
▁하사	-7489
개국	-7490
▁그들	-7491
▁맞춰	-7492
ML	-7493
▁KT	-7494
게이	-7495
▁시모	-7496
▁배열	-7497
▁전남	-7498
▁기본적인	-7499
▁읍	-7500
마저	-7501
▁사제	-7502
▁전술	-7503
▁옵	-7504
▁결승전에서	-7505
ime	-7506
▁요금	-7507
VP	-7508
일리	-7509
▁람	-7510
이라며	-7511
▁도중에	-7512
ach	-7513
▁까지	-7514
로미터	-7515
▁이었다	-7516
단에서	-7517
▁지역이	-7518
▁삭제	-7519
▁기부	-7520
▁발명	-7521
▁학사	-7522
▁꾸준히	-7523
▁주식회사	-7524
▁넘겨	-7525
▁사로	-7526
▁일대	-7527
▁소규모	-7528
▁이하의	-7529
기능	-7530
▁내는	-7531
▁사이를	-7532
▁별로	-7533
▁He	-7534
우스의	-7535
▁이용하는	-7536
▁억제	-7537
▁주니어	-7538
▁문화재자료	-7539
▁이날	-7540
▁클리	-7541
▁음반은	-7542
▁데려	-7543
▁펑	-7544
▁그럼	-7545
▁돌아왔다	-7546
소수	-7547
▁모험	-7548
▁비정	-7549
▁Con	-7550
▁레이다	-7551
▁돔	-7552
집합	-7553
▁갈등	-7554
▁계곡	-7555
▁창당	-7556
▁대한제국	-7557
▁전해진다	-7558
성도	-7559
▁야스	-7560
▁이세	-7561
▁곧바로	-7562
▁먹는다	-7563
▁옛날	-7564
▁죽고	-7565
학과를	-7566
▁살았다	-7567
위원회가	-7568
ala	-7569
▁아울	-7570
▁체험	-7571
▁명성을	-7572
바다	-7573
유산	-7574
▁석사	-7575
▁호흡	-7576
▁조기	-7577
▁주요한	-7578
▁봉해졌다	-7579
ium	-7580
▁겨우	-7581
▁지나지	-7582
▁지방에	-7583
%)	-7584
▁무리	-7585
▁대구광역시	-7586
▁우라	-7587
▁접하고	-7588
▁탑승	-7589
▁성과를	-7590
아웃	-7591
▁개성	-7592
▁김해	-7593
문으로	-7594
▁마치고	-7595
▁레이블	-7596
co	-7597
사상	-7598
▁도메	-7599
▁실수	-7600
▁소리를	-7601
▁한국인	-7602
▁감각	-7603
▁폐지되었다	-7604
건의	-7605
트롤	-7606
▁석방	-7607
▁유발	-7608
▁익스	-7609
▁셋째	-7610
▁패러	-7611
▁브라질의	-7612
▁동굴	-7613
▁옮겼다	-7614
▁적어도	-7615
▁기용	-7616
률을	-7617
▁찬성	-7618
기이다	-7619
민족행위	-7620
AP	-7621
▁걷	-7622
카는	-7623
▁콜로	-7624
▁수밖에	-7625
▁이르기까지	-7626
마쓰	-7627
공학	-7628
▁매장	-7629
▁웨이	-7630
해지고	-7631
ign	-7632
▁고시	-7633
▁살펴	-7634
▁클로	-7635
▁무관	-7636
▁음성	-7637
▁중국에서	-7638
▁NHK	-7639
▁하다가	-7640
▁병력을	-7641
▁y	-7642
▁심사	-7643
생활을	-7644
▁딴	-7645
점과	-7646
▁테마	-7647
▁현의	-7648
▁BBC	-7649
디는	-7650
▁문재	-7651
▁이수	-7652
▁중지	-7653
▁추대	-7654
진흥	-7655
▁거둔	-7656
▁매니	-7657
카미	-7658
티움	-7659
_10	-7660
▁남양	-7661
▁모노	-7662
▁코스	-7663
▁쇠퇴	-7664
▁얻게	-7665
되었다는	-7666
▁잠재	-7667
우에	-7668
▁흙	-7669
류에	-7670
▁방위	-7671
▁한반도	-7672
▁1911	-7673
▁대회이다	-7674
장애	-7675
ase	-7676
▁일어난다	-7677
(6	-7678
레이드	-7679
영이	-7680
자나	-7681
▁보기	-7682
▁사형	-7683
▁파키스탄	-7684
▁젠	-7685
▁곳을	-7686
▁라이벌	-7687
▁고등학교이다	-7688
▁첩	-7689
기획	-7690
▁돌파	-7691
▁추락	-7692
유한	-7693
졌지만	-7694
▁현대의	-7695
▁이어졌다	-7696
끼리	-7697
▁130	-7698
▁다큐멘	-7699
▁쿼	-7700
▁의미로	-7701
▁아프가니스탄	-7702
▁놀라	-7703
▁붙잡	-7704
▁명칭이	-7705
▁!	-7706
토가	-7707
▁모래	-7708
▁수반	-7709
현재의	-7710
데스리가	-7711
역과	-7712
▁타입	-7713
▁국가가	-7714
▁56	-7715
▁광역	-7716
▁전의	-7717
탄을	-7718
▁무인	-7719
▁촉진	-7720
▁장례	-7721
▁못하게	-7722
▁정권을	-7723
▁섹	-7724
보병	-7725
▁몸길	-7726
▁예산	-7727
▁아르메	-7728
▁서쪽으로는	-7729
▁호주	-7730
▁다음으로	-7731
▁되찾	-7732
▁삼아	-7733
졌는데	-7734
▁없었고	-7735
사지	-7736
▁54	-7737
▁영광	-7738
▁보이며	-7739
▁codice	-7740
▁주거	-7741
▁결심	-7742
ll	-7743
방에	-7744
▁거대	-7745
▁신분	-7746
슬라비아	-7747
,6	-7748
SP	-7749
졌던	-7750
▁대승	-7751
▁물이	-7752
자들과	-7753
▁리그의	-7754
▁없었던	-7755
▁차지하는	-7756
고에	-7757
▁급격	-7758
올린	-7759
▁사용하지	-7760
))	-7761
▁낱	-7762
▁모음	-7763
▁서북	-7764
▁순수	-7765
▁참모	-7766
▁바람에	-7767
▁방법이	-7768
▁남쪽으로는	-7769
▁고가	-7770
▁최상	-7771
▁레코드	-7772
▁영국과	-7773
▁동쪽으로는	-7774
▁변화가	-7775
▁서기	-7776
▁덕분에	-7777
▁풍부한	-7778
▁들여	-7779
▁박쥐	-7780
지기도	-7781
리케이션	-7782
노의	-7783
률이	-7784
▁색깔	-7785
▁도시를	-7786
▁동영	-7787
▁의거	-7788
▁시절에	-7789
▁약간의	-7790
광역시의	-7791
▁되었다고	-7792
플러	-7793
▁걸려	-7794
▁러브	-7795
▁대단	-7796
▁스톤	-7797
▁아리	-7798
▁국경을	-7799
▁지내고	-7800
황후	-7801
▁고고	-7802
▁대회는	-7803
이었는데	-7804
▁매각	-7805
▁심장	-7806
▁지정되어	-7807
▁지역에서는	-7808
▁빵	-7809
기서	-7810
루미	-7811
▁양식	-7812
▁유성	-7813
니에	-7814
▁공정	-7815
▁발렌	-7816
▁선형	-7817
피를	-7818
병원	-7819
▁Be	-7820
▁유닛	-7821
▁밖으로	-7822
▁""	-7823
▁반면에	-7824
▁모습으로	-7825
▁주와	-7826
▁오리지	-7827
졌을	-7828
중심	-7829
▁거친	-7830
▁테크	-7831
병으로	-7832
▁도움이	-7833
문관	-7834
보면	-7835
작가	-7836
니스트	-7837
▁안토니	-7838
()"	-7839
▁쓴다	-7840
론과	-7841
즈키	-7842
▁배급	-7843
▁타원	-7844
▁뚫	-7845
식물	-7846
▁스승	-7847
▁지바	-7848
실에	-7849
르바	-7850
▁미분	-7851
▁역이	-7852
실한	-7853
터와	-7854
▁말은	-7855
▁명단에	-7856
▁상황이	-7857
▁카메라	-7858
▁갱	-7859
센트	-7860
▁가면	-7861
▁과도	-7862
▁카페	-7863
카스	-7864
▁공룡	-7865
지사	-7866
▁빨간	-7867
▁하노	-7868
▁항구	-7869
▁결과로	-7870
▁부분에	-7871
대원	-7872
우옌	-7873
▁아웃	-7874
▁준우승	-7875
메르	-7876
▁올린	-7877
▁중동	-7878
▁않았던	-7879
▁설치되었다	-7880
▁획득하였다	-7881
▁습격	-7882
▁블라디	-7883
▁이루어진다	-7884
▁띤	-7885
▁시달	-7886
▁의도	-7887
▁전승	-7888
▁감정	-7889
▁시간에	-7890
전투	-7891
▁사양	-7892
루살	-7893
야는	-7894
▁계층	-7895
▁등장한	-7896
▁클라우	-7897
▁필요로	-7898
▁SF	-7899
▁흰색	-7900
▁아이스	-7901
▁유입	-7902
▁계기가	-7903
습을	-7904
타나	-7905
-15	-7906
▁흐르는	-7907
▁비로	-7908
▁각본	-7909
▁파생	-7910
▁권한을	-7911
▁가쓰	-7912
소리	-7913
▁퍼져	-7914
▁획득했다	-7915
ES	-7916
년만에	-7917
▁전체적으로	-7918
프스	-7919
ron	-7920
▁작전을	-7921
안군	-7922
편을	-7923
▁해병	-7924
▁동성애	-7925
▁드래곤	-7926
▁세계에	-7927
들인	-7928
청이	-7929
▁리눅	-7930
▁테오	-7931
자이너	-7932
펙트럼	-7933
▁두려워	-7934
▁크기의	-7935
▁Love	-7936
교가	-7937
▁왕위	-7938
▁점성	-7939
▁지원한다	-7940
▁졸업했다	-7941
▁서방	-7942
▁그리스도	-7943
▁빗	-7944
▁EP	-7945
▁파티	-7946
루살렘	-7947
▁먹는	-7948
데이트	-7949
▁프랑스는	-7950
,7	-7951
▁향년	-7952
▁그랜드	-7953
류로	-7954
치며	-7955
▁당해	-7956
▁생각을	-7957
▁싱어송	-7958
수산	-7959
▁규모가	-7960
▁제공하고	-7961
노는	-7962
류와	-7963
ism	-7964
▁1909	-7965
▁북쪽으로는	-7966
▁타이틀을	-7967
▁자세	-7968
하겠다고	-7969
▁실업	-7970
▁페이스	-7971
▁세계적인	-7972
긴다	-7973
화학	-7974
300	-7975
▁경전	-7976
▁합동	-7977
▁평론	-7978
스테이션	-7979
▁테스트	-7980
▁만난	-7981
▁입대	-7982
▁때문이었다	-7983
▁유아	-7984
▁주도는	-7985
활동	-7986
▁la	-7987
▁혁신	-7988
▁SC	-7989
▁것이고	-7990
▁들었다	-7991
▁않았으며	-7992
타와	-7993
▁범주	-7994
▁아틀	-7995
▁방향을	-7996
▁칙	-7997
▁발족	-7998
▁라이프	-7999
▁클래식	-8000
▁선두	-8001
▁정부를	-8002
임은	-8003
▁51	-8004
▁라이온	-8005
▁발생한다	-8006
▁49	-8007
법인이다	-8008
▁되었으나	-8009
rist	-8010
▁브레이	-8011
hy	-8012
카르	-8013
▁시호는	-8014
▁후기의	-8015
나를	-8016
▁모로	-8017
▁보살	-8018
▁유인	-8019
▁공동으로	-8020
▁on	-8021
▁동시	-8022
돌프	-8023
▁다룬	-8024
▁지표	-8025
▁구간은	-8026
▁아니고	-8027
▁이명박	-8028
▁딱	-8029
가수	-8030
연한	-8031
팀이	-8032
▁납치	-8033
▁출현	-8034
페이스	-8035
▁뿐이다	-8036
령은	-8037
▁자바	-8038
▁과거에	-8039
령에	-8040
부문	-8041
▁닌텐	-8042
▁모듈	-8043
▁방면	-8044
▁일본어	-8045
▁화폐	-8046
▁뒤로	-8047
▁집에서	-8048
▁대학에서	-8049
▁우루	-8050
▁탄소	-8051
대학원	-8052
▁간섭	-8053
▁내용의	-8054
닉스	-8055
▁파트너	-8056
▁탐험	-8057
성에서	-8058
▁못한다	-8059
▁심한	-8060
▁주말	-8061
▁겸임	-8062
주의에	-8063
ix	-8064
▁고통	-8065
▁독점	-8066
▁마카	-8067
▁연락	-8068
▁들어간	-8069
▁이곳에	-8070
▁어드	-8071
▁황태	-8072
노미야	-8073
▁호남	-8074
▁유럽에서	-8075
해는	-8076
▁우수한	-8077
초의	-8078
면서도	-8079
▁자료를	-8080
▁눈을	-8081
▁모양을	-8082
▁장갑	-8083
나라를	-8084
▁사유	-8085
▁중립	-8086
작은	-8087
▁사과	-8088
▁신사	-8089
▁패턴	-8090
▁법적	-8091
고자	-8092
▁크로스	-8093
CD	-8094
▁게시	-8095
나라는	-8096
▁시대에는	-8097
▁이야기가	-8098
▁싱어송라이터	-8099
▁굽	-8100
▁탱	-8101
파에	-8102
▁대지	-8103
▁원자력	-8104
마리	-8105
히로	-8106
▁소위	-8107
▁개발을	-8108
▁존재를	-8109
800	-8110
브를	-8111
▁빨리	-8112
곡이	-8113
▁메트로	-8114
▁우익	-8115
▁했다고	-8116
▁마쓰다이라	-8117
formula	-8118
▁동치	-8119
▁하우스	-8120
▁동아시아	-8121
복지	-8122
▁회색	-8123
TA	-8124
이사	-8125
▁선제	-8126
▁입증	-8127
▁그랑	-8128
▁전두	-8129
화하는	-8130
프란시스코	-8131
▁프리미어리그	-8132
실록	-8133
▁두드	-8134
▁성균	-8135
▁아직도	-8136
▁Sc	-8137
▁변신	-8138
▁아케	-8139
▁토마스	-8140
칸센	-8141
▁폭격	-8142
▁호환	-8143
▁센트럴	-8144
▁아나운	-8145
미디어	-8146
직에서	-8147
▁적색	-8148
▁추적	-8149
▁마시	-8150
▁정류	-8151
권으로	-8152
▁오리지널	-8153
▁유고슬라비아	-8154
린이	-8155
▁고교	-8156
▁전원	-8157
▁때마다	-8158
▁스펙트럼	-8159
테스	-8160
▁냈다	-8161
▁밀접	-8162
도사	-8163
오가	-8164
▁상영	-8165
▁대회를	-8166
▁입었다	-8167
ps	-8168
▁뷰	-8169
러리	-8170
▁직무	-8171
▁말하며	-8172
▁모델로	-8173
▁이곳에서	-8174
▁툴	-8175
다니	-8176
▁사령관	-8177
▁앨범은	-8178
▁종교적	-8179
▁차트에서	-8180
족과	-8181
▁인조	-8182
▁특성을	-8183
급의	-8184
하라고	-8185
▁노선이	-8186
▁추가되었다	-8187
▁가요	-8188
하였을	-8189
되었기	-8190
▁기록하고	-8191
▁스타크래프트	-8192
토스	-8193
▁리드	-8194
▁마라	-8195
▁플레	-8196
▁서독	-8197
▁확인할	-8198
▁활약하고	-8199
번호	-8200
ina	-8201
▁산악	-8202
▁재단	-8203
▁Mar	-8204
현이	-8205
▁다녔	-8206
▁스마트폰	-8207
(5	-8208
림을	-8209
▁동맹을	-8210
PC	-8211
▁내지	-8212
▁레닌	-8213
프랑스	-8214
▁사진을	-8215
3)	-8216
▁도구	-8217
▁어릴	-8218
▁전향	-8219
▁작품이	-8220
▁모르	-8221
사이드	-8222
▁케이블	-8223
▁가능성을	-8224
4)	-8225
둥이	-8226
▁날개	-8227
▁예방	-8228
▁밝히	-8229
▁설이	-8230
▁료	-8231
▁적절한	-8232
▁목숨을	-8233
▁브라우	-8234
▁옆에	-8235
▁잃고	-8236
▁참가하여	-8237
보의	-8238
고속	-8239
재의	-8240
▁들어와	-8241
▁조선총독부	-8242
ree	-8243
▁본토	-8244
▁관심이	-8245
▁라운드	-8246
▁별도로	-8247
▁이승만	-8248
▁활동에	-8249
▁락	-8250
스톤	-8251
으려	-8252
▁깊이	-8253
▁아마추어	-8254
▁밸	-8255
애나	-8256
▁구간이	-8257
구리	-8258
▁빛을	-8259
▁원형	-8260
▁경기장	-8261
▁사항	-8262
▁전망	-8263
▁있으면	-8264
하르트	-8265
▁마스터	-8266
▁잊	-8267
▁분산	-8268
디스	-8269
클럽	-8270
▁랭킹	-8271
▁인증	-8272
▁전임	-8273
▁나라를	-8274
▁한국에서는	-8275
▁발효	-8276
▁운반	-8277
▁중심지	-8278
▁예루살렘	-8279
▁간에	-8280
▁막아	-8281
럼비아	-8282
▁문화를	-8283
▁네덜란드의	-8284
▁일로	-8285
▁벌였다	-8286
▁일본이	-8287
▁소속되어	-8288
▁한신	-8289
▁열차는	-8290
▁오디션	-8291
▁간단한	-8292
▁버리고	-8293
등에	-8294
전기	-8295
▁250	-8296
보가	-8297
▁후의	-8298
▁경계를	-8299
▁자유를	-8300
▁효과가	-8301
▁초래	-8302
▁계획이	-8303
▁남한	-8304
▁플루	-8305
▁과학자	-8306
▁분야의	-8307
iversity	-8308
▁주파	-8309
▁포맷	-8310
▁못했고	-8311
이후	-8312
제품	-8313
▁가득	-8314
▁공식적인	-8315
▁업데이트	-8316
▁청동	-8317
▁인근에	-8318
▁일본에서는	-8319
▁기재	-8320
▁아울러	-8321
▁1913	-8322
▁1915	-8323
iki	-8324
▁메가	-8325
▁측은	-8326
된다는	-8327
▁스토리	-8328
포스	-8329
▁52	-8330
▁내륙	-8331
▁인류	-8332
▁Man	-8333
NS	-8334
▁적을	-8335
▁점은	-8336
▁홀로	-8337
▁뤼	-8338
▁긴급	-8339
▁애국	-8340
iel	-8341
▁활동한	-8342
▁벗어	-8343
▁영주	-8344
▁램	-8345
티는	-8346
▁관광객	-8347
▁최근에	-8348
ton	-8349
▁왕립	-8350
▁관하여	-8351
▁히어로	-8352
▁1895	-8353
▁불리기도	-8354
▁펄	-8355
▁흩	-8356
▁리듬	-8357
▁일환으로	-8358
▁지연	-8359
▁아니었다	-8360
편이	-8361
▁반사	-8362
판으로	-8363
▁계획은	-8364
▁애플리케이션	-8365
▁데리고	-8366
도서	-8367
Hz	-8368
▁95	-8369
▁가해	-8370
▁김동	-8371
▁여왕	-8372
자였다	-8373
▁자전거	-8374
▁딜	-8375
통일	-8376
▁근로	-8377
▁문화의	-8378
▁활동이	-8379
▁유지하고	-8380
고한	-8381
▁보좌	-8382
▁성벽	-8383
▁압박	-8384
▁이지	-8385
▁낳았다	-8386
▁없기	-8387
▁역전	-8388
방이	-8389
▁당했다	-8390
▁미국이	-8391
▁이외에	-8392
▁안드로이드	-8393
▁준공	-8394
단계	-8395
율은	-8396
▁은퇴한	-8397
▁나의	-8398
▁재즈	-8399
▁조약을	-8400
이즈	-8401
▁스페셜	-8402
석에	-8403
▁승차	-8404
기관이다	-8405
_6	-8406
▁본선의	-8407
▁지질	-8408
ai	-8409
등한	-8410
▁가공	-8411
▁고립	-8412
▁인간이	-8413
▁인물이다	-8414
과도	-8415
마자	-8416
작을	-8417
▁그럼에도	-8418
년은	-8419
오와	-8420
▁가미	-8421
▁연계	-8422
년으로	-8423
스티벌	-8424
▁목록은	-8425
▁토머스	-8426
▁원산	-8427
▁형성된	-8428
▁이복	-8429
체에서	-8430
▁게임은	-8431
▁고베	-8432
▁학교를	-8433
편성	-8434
홈런	-8435
▁복수	-8436
▁우리나라	-8437
지대	-8438
▁AM	-8439
▁관련하여	-8440
시절	-8441
회로	-8442
▁국토	-8443
▁자손	-8444
▁쪽으로	-8445
▁시마	-8446
▁임신	-8447
▁당선되었다	-8448
▁바르셀로나	-8449
액을	-8450
토시	-8451
▁피난	-8452
▁주장이	-8453
▁디자이너	-8454
▁지역이다	-8455
금융	-8456
▁막을	-8457
▁행정구역	-8458
▁값을	-8459
▁달아	-8460
▁여의	-8461
▁중력	-8462
▁원래의	-8463
님이	-8464
미국	-8465
하가	-8466
▁제네	-8467
등록	-8468
▁많고	-8469
▁피렌	-8470
▁한양	-8471
▁데뷔전을	-8472
IP	-8473
au	-8474
리크	-8475
▁신칸센	-8476
리자	-8477
▁나선	-8478
▁무선	-8479
▁용어	-8480
▁유물	-8481
▁좌익	-8482
▁친선	-8483
▁벨라	-8484
시스트	-8485
▁요구하는	-8486
IV	-8487
▁유니버	-8488
▁샌프란시스코	-8489
▁법무	-8490
▁위기에	-8491
▁독자적인	-8492
간을	-8493
▁앨런	-8494
▁오염	-8495
▁돌아오	-8496
▁활약하였다	-8497
AD	-8498
군사	-8499
변을	-8500
▁총선에서	-8501
▁MVP	-8502
출을	-8503
▁수천	-8504
▁제도의	-8505
▁상태이다	-8506
우치	-8507
ult	-8508
▁서남	-8509
▁나이트	-8510
▁교향곡	-8511
▁아들을	-8512
pr	-8513
▁달의	-8514
▁없애	-8515
▁친일반	-8516
▁퓨	-8517
관찰	-8518
▁대로	-8519
타임	-8520
▁구상	-8521
▁생애	-8522
yn	-8523
▁얇	-8524
발의	-8525
▁된다는	-8526
▁일본군	-8527
▁졸업하였다	-8528
▁연고로	-8529
▁싱글이다	-8530
▁자리에서	-8531
합니다	-8532
▁담당하는	-8533
▁수익	-8534
반의	-8535
▁정의할	-8536
▁극단	-8537
▁메모	-8538
▁지배를	-8539
유키	-8540
티의	-8541
편에	-8542
▁열어	-8543
▁찾을	-8544
▁아우구	-8545
주인	-8546
▁기호	-8547
▁배제	-8548
▁이순	-8549
▁이치	-8550
분은	-8551
쪽의	-8552
▁마산	-8553
▁티베트	-8554
▁항공기	-8555
▁태어났으며	-8556
IM	-8557
▁때도	-8558
중에서	-8559
▁댄스	-8560
▁브로	-8561
▁대신에	-8562
뱅크	-8563
석탑	-8564
▁FM	-8565
▁무신	-8566
시켰고	-8567
▁결과는	-8568
▁주에서	-8569
▁현존하는	-8570
있고	-8571
▁베이스볼	-8572
ram	-8573
▁가라	-8574
▁비스	-8575
▁해제	-8576
▁성공적으로	-8577
▁못해	-8578
▁월간	-8579
테쓰	-8580
▁바티	-8581
위에서	-8582
▁발전에	-8583
▁에스파	-8584
▁전체의	-8585
온의	-8586
▁내장	-8587
들과의	-8588
▁영화로	-8589
▁차이를	-8590
말을	-8591
▁뒤인	-8592
▁빌헬	-8593
위원회는	-8594
▁결과적으로	-8595
▁하천	-8596
▁700	-8597
▁Col	-8598
▁무늬	-8599
▁용산	-8600
▁인텔	-8601
▁대학원	-8602
▁수도권	-8603
악의	-8604
▁동기	-8605
▁트라	-8606
▁계열의	-8607
▁가질	-8608
▁사직	-8609
ru	-8610
▁곁	-8611
▁성씨	-8612
▁책봉	-8613
▁곳곳	-8614
▁그동안	-8615
▁위치하며	-8616
해진다	-8617
왔고	-8618
▁정원	-8619
▁경험을	-8620
▁노르웨	-8621
▁등이다	-8622
//	-8623
그로	-8624
가루	-8625
▁사장	-8626
▁이자	-8627
▁경북	-8628
▁퍼시	-8629
▁가지게	-8630
▁엔진을	-8631
금은	-8632
환의	-8633
▁최신	-8634
수엘	-8635
▁모집	-8636
함으로	-8637
▁말하고	-8638
▁목적은	-8639
▁북쪽에	-8640
▁중이던	-8641
롤라	-8642
션을	-8643
▁디젤	-8644
▁충격	-8645
▁이익을	-8646
▁웰	-8647
하니	-8648
:00	-8649
▁SM	-8650
▁스틸	-8651
▁역과	-8652
▁착공	-8653
▁바이러스	-8654
재는	-8655
▁지목	-8656
▁크림	-8657
▁훈련을	-8658
▁친일반민족행위	-8659
▁깔	-8660
▁축제	-8661
▁트위	-8662
▁사이클	-8663
▁1500	-8664
▁얼마나	-8665
본이	-8666
▁장편	-8667
경으로	-8668
▁올림	-8669
명인	-8670
병이	-8671
스컵	-8672
▁Le	-8673
▁구름	-8674
▁통칭	-8675
▁힘이	-8676
▁머리를	-8677
▁박영	-8678
Ar	-8679
공동	-8680
▁개업	-8681
▁선거에	-8682
▁전투는	-8683
ystem	-8684
▁퀴	-8685
▁말할	-8686
▁번뇌	-8687
▁휩	-8688
리타	-8689
▁구마	-8690
▁무료	-8691
▁예언	-8692
▁온도	-8693
스테르	-8694
▁1916	-8695
▁덴마크의	-8696
양군	-8697
음에	-8698
▁쏟	-8699
▁정벌	-8700
인명	-8701
▁메디	-8702
▁숙종	-8703
▁에릭	-8704
▁사로잡	-8705
▁이르고	-8706
▁지어진	-8707
▁스트라이	-8708
조와	-8709
▁상무	-8710
▁조용	-8711
▁첫번째	-8712
▁바꾸었다	-8713
▁여동생	-8714
바나	-8715
EN	-8716
니를	-8717
런스	-8718
▁여덟	-8719
보에	-8720
석과	-8721
▁찾는	-8722
▁김대중	-8723
▁운동의	-8724
▁공략	-8725
▁아비	-8726
▁DJ	-8727
▁라틴어	-8728
▁버지니아	-8729
▁페이지	-8730
민이	-8731
업이	-8732
형과	-8733
▁호수	-8734
널드	-8735
조정	-8736
▁편지를	-8737
▁동지	-8738
▁사격	-8739
▁비잔티움	-8740
▁짙	-8741
률은	-8742
▁평생	-8743
아를	-8744
▁메르	-8745
▁제휴	-8746
▁국가에서	-8747
▁Bl	-8748
▁공전	-8749
▁Ex	-8750
▁Pr	-8751
▁간접	-8752
▁적대	-8753
▁길이가	-8754
▁스카이	-8755
▁남아있다	-8756
▁꺾고	-8757
▁메리	-8758
검찰	-8759
성한	-8760
▁결정을	-8761
▁언어로	-8762
▁중화인민공화국의	-8763
ax	-8764
▁개념은	-8765
▁결과가	-8766
▁결혼을	-8767
▁기온은	-8768
건은	-8769
랑이	-8770
신과	-8771
▁손자	-8772
▁청와	-8773
라이더	-8774
▁두번째	-8775
▁마케도니아	-8776
티에	-8777
orn	-8778
▁성은	-8779
:1	-8780
▁대답	-8781
▁예능	-8782
▁응우옌	-8783
▁않는다는	-8784
바시	-8785
사추	-8786
Mar	-8787
▁바이러	-8788
청을	-8789
팩트	-8790
음의	-8791
▁Te	-8792
▁연설	-8793
▁굵	-8794
▁교과	-8795
렸던	-8796
분야	-8797
▁도심	-8798
▁항일	-8799
▁경력을	-8800
▁군대가	-8801
▁뒤에는	-8802
용이	-8803
▁페루	-8804
▁사용해	-8805
▁법학	-8806
▁옹호	-8807
▁구조의	-8808
▁다루고	-8809
▁않도록	-8810
규칙	-8811
▁맞게	-8812
▁근거로	-8813
▁능력이	-8814
▁캡	-8815
▁보잉	-8816
▁곰	-8817
▁82	-8818
▁아가	-8819
된다고	-8820
▁과학적	-8821
~3	-8822
하러	-8823
▁추증	-8824
▁발생하였다	-8825
▁최종적으로	-8826
▁꾀	-8827
불교	-8828
▁있다면	-8829
▁Cl	-8830
▁반환	-8831
▁법원	-8832
▁이원	-8833
▁이토	-8834
▁중앙에	-8835
▁원작으로	-8836
▁좋아하는	-8837
져서	-8838
▁머무	-8839
▁서서히	-8840
erv	-8841
▁당한	-8842
▁불만을	-8843
▁가능하며	-8844
로동	-8845
산성	-8846
현악	-8847
▁발생했다	-8848
▁주어졌다	-8849
AL	-8850
▁막부	-8851
▁일어났	-8852
▁전투가	-8853
▁화려한	-8854
▁라트	-8855
▁맞는	-8856
▁면역	-8857
▁황후	-8858
▁제목으로	-8859
▁튜	-8860
▁시로	-8861
경기를	-8862
▁내부의	-8863
바의	-8864
ose	-8865
▁당의	-8866
▁백인	-8867
▁미나미	-8868
▁판타지	-8869
▁칩	-8870
결을	-8871
▁모순	-8872
▁아베	-8873
스트는	-8874
있으며	-8875
▁결승전	-8876
▁아르메니아	-8877
니치	-8878
400	-8879
▁5,	-8880
▁차남	-8881
▁방식의	-8882
▁사무실은	-8883
▁약한	-8884
▁없으나	-8885
▁해군의	-8886
▁론	-8887
였기	-8888
▁이적했다	-8889
-16	-8890
▁부장	-8891
,500	-8892
▁귀환	-8893
▁밀양	-8894
▁발라	-8895
▁서경	-8896
▁신장	-8897
곡으로	-8898
산에서	-8899
▁물리학	-8900
▁충분한	-8901
▁57	-8902
▁건의	-8903
▁급행	-8904
▁떠난	-8905
▁주제로	-8906
▁지역과	-8907
내에서	-8908
소한	-8909
▁이글	-8910
▁호르	-8911
속으로	-8912
▁다음이	-8913
그는	-8914
▁착수	-8915
▁오스트레일리아의	-8916
온다	-8917
▁특수한	-8918
▁생각했다	-8919
▁고조	-8920
▁미시	-8921
▁이영	-8922
▁콩고	-8923
▁문화적	-8924
▁결정했다	-8925
▁프로토콜	-8926
터로	-8927
▁자격을	-8928
▁맡았으며	-8929
▁방영되었다	-8930
ale	-8931
▁특급	-8932
▁대우	-8933
▁한강	-8934
▁성질을	-8935
▁유튜브	-8936
▁하나를	-8937
▁시스템은	-8938
▁연루	-8939
▁트럼	-8940
TS	-8941
▁원로	-8942
▁후한	-8943
▁크리스티	-8944
▁군대는	-8945
▁훌륭한	-8946
너는	-8947
형태	-8948
ley	-8949
▁가즈	-8950
▁커피	-8951
▁푸른	-8952
됐으며	-8953
▁잘못된	-8954
▁한국방송	-8955
▁전통적으로	-8956
색이	-8957
투아니아	-8958
▁대만	-8959
▁피고	-8960
민당	-8961
▁천황의	-8962
▁프로그램의	-8963
받지	-8964
▁일렉	-8965
▁막대한	-8966
▁운행하는	-8967
Th	-8968
용은	-8969
▁목조	-8970
▁향을	-8971
▁적의	-8972
▁진술	-8973
클라	-8974
▁직접적인	-8975
슬림	-8976
org	-8977
▁곳이	-8978
▁장면	-8979
란을	-8980
▁경고	-8981
▁기생	-8982
▁대주교	-8983
▁보여주고	-8984
▁본격적인	-8985
An	-8986
▁88	-8987
▁공용	-8988
▁퇴각	-8989
▁프랜	-8990
-6	-8991
란의	-8992
물질	-8993
▁al	-8994
▁부른	-8995
▁합계	-8996
▁국가를	-8997
미와	-8998
▁입문	-8999
세츠	-9000
▁트윈	-9001
▁호칭	-9002
▁정도가	-9003
▁지중해	-9004
▁분포한다	-9005
▁연구하는	-9006
▁일찍이	-9007
▁후반에	-9008
인들에게	-9009
▁사이에는	-9010
목의	-9011
▁반지	-9012
▁험	-9013
▁CPU	-9014
▁아니며	-9015
▁기타리스트	-9016
enn	-9017
▁99	-9018
▁아파트	-9019
여객	-9020
투쟁	-9021
▁기동	-9022
▁죽을	-9023
▁포인	-9024
▁남긴	-9025
▁전투에	-9026
아프리카	-9027
▁감독이다	-9028
금이	-9029
열한	-9030
▁야기	-9031
▁받기도	-9032
▁사람에게	-9033
ft	-9034
▁각기	-9035
▁끝이	-9036
▁박물	-9037
▁가능하게	-9038
▁굉	-9039
▁탕	-9040
때로	-9041
통합	-9042
▁에스토	-9043
▁이처럼	-9044
▁일원으로	-9045
▁World	-9046
_7	-9047
▁군을	-9048
▁과학기술	-9049
▁사용자가	-9050
▁실용	-9051
▁치렀다	-9052
만원	-9053
▁보인	-9054
▁김영삼	-9055
▁어두운	-9056
▁선수이자	-9057
니까	-9058
반을	-9059
▁체제를	-9060
측의	-9061
▁53	-9062
버스터	-9063
대교	-9064
▁오렌	-9065
▁비슷하다	-9066
▁가사	-9067
디의	-9068
세스	-9069
업에	-9070
터에	-9071
▁고성	-9072
▁포함해	-9073
▁크리스토	-9074
론적	-9075
소스	-9076
▁종전	-9077
▁형태가	-9078
▁자유롭게	-9079
트르	-9080
▁김태	-9081
▁연구소	-9082
상으로는	-9083
음력	-9084
▁My	-9085
▁강이	-9086
▁말한	-9087
▁명문	-9088
▁몰락	-9089
안으로	-9090
▁플라스	-9091
고종	-9092
과이	-9093
조약	-9094
츠와	-9095
▁비가	-9096
▁코리아	-9097
년대부터	-9098
다리	-9099
지붕	-9100
▁목격	-9101
▁풋볼	-9102
▁서울에서	-9103
그러	-9104
켰다	-9105
▁목적을	-9106
▁마찰	-9107
▁강점기	-9108
▁별의	-9109
▁끝났다	-9110
▁리메이	-9111
▁선수단	-9112
▁언어를	-9113
▁구체적인	-9114
실과	-9115
▁피에	-9116
▁해적	-9117
▁디즈니	-9118
▁스프링	-9119
▁요소를	-9120
▁펴	-9121
oci	-9122
▁협상	-9123
▁프로그램은	-9124
▁젖	-9125
바야	-9126
▁미네	-9127
▁바위	-9128
▁자식	-9129
▁제국이	-9130
사령부	-9131
▁게재	-9132
▁노선은	-9133
▁따르는	-9134
▁승리로	-9135
▁윙	-9136
파크	-9137
▁UN	-9138
▁에우	-9139
▁와카	-9140
▁친척	-9141
▁항해	-9142
▁기술이	-9143
▁속도를	-9144
▁필라델	-9145
밀리	-9146
▁교섭	-9147
▁로빈	-9148
▁모시	-9149
▁늘어나	-9150
▁연구가	-9151
▁아르헨티	-9152
▁엔터테인먼	-9153
▁세로	-9154
▁부통령	-9155
▁시작해	-9156
▁신라의	-9157
▁슐	-9158
대한민	-9159
▁거슬러	-9160
자리에	-9161
▁상임	-9162
▁간다	-9163
▁찾아가	-9164
르드	-9165
자연	-9166
후보	-9167
▁동독	-9168
▁출력	-9169
▁시에서	-9170
▁알바니아	-9171
란트	-9172
음은	-9173
▁근접	-9174
▁맡게	-9175
▁중구	-9176
▁폐기	-9177
▁연구는	-9178
▁시작했으며	-9179
▁살던	-9180
이었다고	-9181
OP	-9182
산맥	-9183
▁소관의	-9184
▁복사	-9185
▁아트	-9186
▁초창	-9187
▁남쪽에	-9188
블로	-9189
▁또다시	-9190
▁폴란드의	-9191
회와	-9192
'()	-9193
▁안의	-9194
▁양도	-9195
▁이인	-9196
중에는	-9197
즈니스	-9198
수아	-9199
억원	-9200
▁다가	-9201
▁분광	-9202
▁기여했다	-9203
OL	-9204
리스토	-9205
▁아이템	-9206
▁발견되는	-9207
▁미하	-9208
▁근처의	-9209
▁두드러	-9210
▁어렵다	-9211
▁토대로	-9212
▁하와이	-9213
▁떼	-9214
좌상	-9215
커스	-9216
▁대조	-9217
▁베타	-9218
▁폼	-9219
미에	-9220
▁병력	-9221
▁해임	-9222
▁사상을	-9223
▁코무네	-9224
건이	-9225
▁복구	-9226
▁미치는	-9227
▁세워졌다	-9228
▁마르크스	-9229
-17	-9230
▁시대를	-9231
▁연방의	-9232
경영	-9233
▁시간은	-9234
▁줄여서	-9235
▁현상이	-9236
코가	-9237
▁무력	-9238
▁풀려	-9239
▁한동안	-9240
▁권유	-9241
▁밖의	-9242
▁시와	-9243
▁타운	-9244
▁얘	-9245
겼고	-9246
장한	-9247
▁서브	-9248
▁전성	-9249
서이다	-9250
▁곡으로	-9251
▁홈페이지	-9252
▁진영	-9253
▁태종	-9254
▁사용하며	-9255
레의	-9256
▁제약	-9257
▁실험을	-9258
패로	-9259
희는	-9260
ance	-9261
▁임명되어	-9262
▁출전했다	-9263
▁다큐멘터리	-9264
Un	-9265
▁무효	-9266
▁특유의	-9267
▁모델이다	-9268
▁플레이어	-9269
▁주문	-9270
▁실시된	-9271
글로	-9272
리시	-9273
▁갤럭	-9274
▁재발	-9275
▁명예의	-9276
▁후보에	-9277
사우루스	-9278
연이	-9279
▁기록에	-9280
▁시기의	-9281
ii	-9282
▁유신	-9283
▁융합	-9284
▁음악가	-9285
▁루트비히	-9286
렸을	-9287
ude	-9288
▁흥행	-9289
교회의	-9290
▁건너가	-9291
▁북한의	-9292
▁스파이	-9293
▁창건	-9294
▁그림을	-9295
▁프레임	-9296
▁내외	-9297
▁마친	-9298
▁화면	-9299
▁발견한	-9300
▁미카	-9301
▁채로	-9302
▁브라이언	-9303
글라	-9304
▁MC	-9305
▁군은	-9306
▁땅에	-9307
▁비극	-9308
▁야생	-9309
▁쟁	-9310
▁김용	-9311
▁로맨	-9312
▁오세	-9313
▁면에서	-9314
▁포인트	-9315
▁배정	-9316
▁안타	-9317
▁New	-9318
▁그룹의	-9319
▁코로나	-9320
▁취약	-9321
▁조사를	-9322
▁소재로	-9323
민은	-9324
▁관계로	-9325
▁사고로	-9326
▁바그	-9327
▁착륙	-9328
▁한화	-9329
▁형식을	-9330
▁베네수엘	-9331
▁시스템의	-9332
▁친일인명	-9333
초에	-9334
▁기요	-9335
▁무대에	-9336
▁카자흐	-9337
▁규정하고	-9338
▁스파르타	-9339
색은	-9340
즈에	-9341
▁털이	-9342
▁속도로	-9343
▁왕위를	-9344
▁발견했다	-9345
▁일본으로	-9346
▁프랑스에서	-9347
sk	-9348
증이	-9349
클린	-9350
팀은	-9351
▁섬을	-9352
▁짓고	-9353
▁수신	-9354
▁사용을	-9355
▁형식의	-9356
▁5000	-9357
▁사기	-9358
▁수록된	-9359
▁지지하는	-9360
▁삼고	-9361
▁사실은	-9362
▁중기의	-9363
▁히가시	-9364
▁대전광역시	-9365
아와	-9366
▁부품	-9367
▁고도	-9368
▁교구	-9369
▁구미	-9370
▁내내	-9371
▁아서	-9372
층석탑	-9373
▁그러자	-9374
▁방식은	-9375
▁운동이	-9376
톤의	-9377
▁개발된	-9378
▁부르며	-9379
내기	-9380
iam	-9381
▁58	-9382
▁부흥	-9383
▁일부로	-9384
▁전부터	-9385
▁군에	-9386
▁사카	-9387
▁생각된다	-9388
라미	-9389
▁다녀	-9390
▁학자	-9391
ound	-9392
▁민속	-9393
▁무슬림	-9394
▁버전은	-9395
견을	-9396
▁관통	-9397
▁일관	-9398
▁비공식	-9399
▁우리의	-9400
톨레	-9401
▁순천	-9402
▁훼손	-9403
▁컸	-9404
▁고분	-9405
▁들은	-9406
▁미스	-9407
▁작고	-9408
▁성립한다	-9409
▁급진	-9410
▁의지	-9411
▁역사적으로	-9412
▁구조는	-9413
▁왕으로	-9414
직한	-9415
▁모니	-9416
▁의병	-9417
치면서	-9418
▁만화가	-9419
▁사용이	-9420
▁주립	-9421
▁캘리포니아주	-9422
강점	-9423
일간	-9424
out	-9425
▁언제나	-9426
▁나가사키	-9427
ome	-9428
▁거기에	-9429
▁돌아갔다	-9430
▁서식한다	-9431
▁3.	-9432
가에서	-9433
▁지금도	-9434
▁후지와	-9435
생이	-9436
ics	-9437
▁활성화	-9438
년대에는	-9439
▁때때로	-9440
▁항공모	-9441
▁정확하게	-9442
▁껍	-9443
▁공무	-9444
▁중계	-9445
▁멤버로	-9446
▁아니면	-9447
▁중심의	-9448
▁회의에서	-9449
▁롬	-9450
범죄	-9451
현에	-9452
-7	-9453
▁무라	-9454
▁마리오	-9455
▁보내는	-9456
▁싫어	-9457
▁보한다	-9458
▁쿨	-9459
플라	-9460
해주	-9461
▁이마	-9462
형이다	-9463
사추세츠	-9464
▁동남아시아	-9465
▁엘리자베스	-9466
온이	-9467
▁선진	-9468
▁통화	-9469
▁트럭	-9470
▁기념물	-9471
▁오디오	-9472
▁MP	-9473
▁하버드	-9474
▁구체적으로	-9475
▁대서양	-9476
▁죽이고	-9477
▁거주하는	-9478
▁설립하였다	-9479
예프	-9480
ons	-9481
▁PD	-9482
▁이오	-9483
▁출토	-9484
▁3000	-9485
능력	-9486
백을	-9487
신라	-9488
열이	-9489
▁좌파	-9490
생으로	-9491
성이다	-9492
▁설치류의	-9493
row	-9494
▁시집	-9495
▁보충	-9496
▁위안	-9497
▁관점에서	-9498
▁동화	-9499
▁별칭	-9500
ount	-9501
▁특징은	-9502
CC	-9503
우드	-9504
▁디아	-9505
▁우승에	-9506
_8	-9507
모로	-9508
▁줄어	-9509
▁끝나고	-9510
▁스테이지	-9511
의에	-9512
▁기업의	-9513
ius	-9514
▁조직의	-9515
▁오키나와	-9516
있던	-9517
▁전에는	-9518
디에	-9519
▁좋다	-9520
▁팽창	-9521
▁하였는데	-9522
▁배를	-9523
▁손상	-9524
▁현장	-9525
▁밴드의	-9526
▁음반을	-9527
▁의원이	-9528
▁컨트롤	-9529
▁사용하기	-9530
▁악화	-9531
▁측근	-9532
서에서	-9533
▁다이아	-9534
▁역임한	-9535
▁실패했다	-9536
▁삿	-9537
수수	-9538
▁뜻의	-9539
▁경우를	-9540
▁철학자	-9541
▁파운드	-9542
▁갑작	-9543
▁마천	-9544
▁얻기	-9545
▁앱	-9546
▁진출하였다	-9547
▁얻는	-9548
▁충족	-9549
▁빌헬름	-9550
▁진정한	-9551
▁차례로	-9552
▁알려지지	-9553
nowiki	-9554
이라도	-9555
주년을	-9556
가고	-9557
연속	-9558
▁대폭	-9559
▁브래	-9560
▁스릴	-9561
▁써서	-9562
때문에	-9563
안타	-9564
자원	-9565
진과	-9566
▁무죄	-9567
▁뿌리	-9568
▁제수	-9569
▁창시	-9570
▁이론은	-9571
그리	-9572
▁공학	-9573
철도의	-9574
▁중심이	-9575
우며	-9576
택을	-9577
▁빌리	-9578
▁빛의	-9579
▁펜실	-9580
▁후일	-9581
▁리버풀	-9582
HE	-9583
▁믹	-9584
▁85	-9585
▁사적	-9586
동에서	-9587
▁르네상	-9588
▁생기는	-9589
▁특이한	-9590
심한	-9591
았을	-9592
▁삶의	-9593
세에게	-9594
▁때로는	-9595
▁시드니	-9596
▁출시된	-9597
▁지냈으며	-9598
공이	-9599
▁못할	-9600
▁바가	-9601
▁평소	-9602
▁이라는	-9603
▁기갑	-9604
▁학부	-9605
항으로	-9606
▁운행을	-9607
기준	-9608
누리	-9609
▁포괄	-9610
▁(18	-9611
한을	-9612
▁시작하는	-9613
▁달린	-9614
▁이화	-9615
▁프랑스와	-9616
▁응답	-9617
론에서	-9618
어진다	-9619
▁건물을	-9620
고도	-9621
백과	-9622
▁Co	-9623
▁두루	-9624
▁아즈	-9625
태평양	-9626
▁도호쿠	-9627
란이	-9628
▁공채	-9629
▁박탈	-9630
▁안티	-9631
▁전한다	-9632
"("	-9633
▁외무	-9634
▁풀어	-9635
ise	-9636
▁잃은	-9637
▁추모	-9638
▁개최되었다	-9639
▁연애	-9640
▁친정	-9641
▁피부	-9642
차전에서	-9643
편으로	-9644
▁달러를	-9645
▁원자로	-9646
▁최저	-9647
스트의	-9648
▁아이를	-9649
▁영감을	-9650
수사	-9651
심의	-9652
igh	-9653
~20	-9654
▁둘은	-9655
▁거리가	-9656
독일	-9657
시타	-9658
시피	-9659
▁급속	-9660
▁섭취	-9661
▁의장	-9662
▁점유	-9663
▁군사적	-9664
▁금메달	-9665
개는	-9666
제이	-9667
▁강경	-9668
▁석조	-9669
▁수치	-9670
▁외의	-9671
▁이리	-9672
htt	-9673
▁수수	-9674
▁침몰	-9675
▁플레이스테이션	-9676
오르	-9677
▁초점을	-9678
▁이듬해인	-9679
~)	-9680
금으로	-9681
학위를	-9682
▁의견이	-9683
-8	-9684
님을	-9685
▁정찰	-9686
▁창업	-9687
▁피어	-9688
▁캐스팅	-9689
▁젤	-9690
식품	-9691
▁미얀	-9692
▁석탄	-9693
▁왕족	-9694
▁흐름	-9695
▁방송국	-9696
▁우연히	-9697
▁행성의	-9698
선조	-9699
층은	-9700
교로	-9701
▁건물이	-9702
▁리그에	-9703
▁들어가는	-9704
▁라트비아	-9705
▁닿	-9706
레를	-9707
역사	-9708
▁관직	-9709
▁죄를	-9710
슬란드	-9711
▁일제강점	-9712
회장	-9713
▁),	-9714
메라	-9715
바는	-9716
▁둘러싼	-9717
▁발매했다	-9718
uk	-9719
우와	-9720
츠키	-9721
enc	-9722
▁산타	-9723
▁이광	-9724
▁희극	-9725
▁동메달을	-9726
▁66	-9727
▁72	-9728
▁드림	-9729
▁바꿔	-9730
점이다	-9731
▁어워드	-9732
▁전쟁은	-9733
▁학생들이	-9734
()>	-9735
▁신흥	-9736
▁노래는	-9737
▁미스터	-9738
▁공의	-9739
▁파리에서	-9740
PG	-9741
보도	-9742
열의	-9743
▁닥터	-9744
▁수단	-9745
▁침해	-9746
받는다	-9747
▁황제가	-9748
카라	-9749
▁정교회	-9750
▁화제가	-9751
▁물에	-9752
위원회의	-9753
▁제외하고는	-9754
▁인정받아	-9755
▁1894	-9756
▁트레이드	-9757
자책	-9758
차별	-9759
▁몰려	-9760
▁사르	-9761
▁2)	-9762
▁낮아	-9763
▁따뜻	-9764
▁조반	-9765
▁득점을	-9766
▁은메달을	-9767
▁여수	-9768
▁장의	-9769
▁연속으로	-9770
숙한	-9771
▁중순	-9772
▁유소년	-9773
▁리메이크	-9774
식이다	-9775
▁1.5	-9776
▁럭	-9777
해방	-9778
▁된다고	-9779
▁선언했다	-9780
▁관중	-9781
▁실종	-9782
▁자발	-9783
▁촉구	-9784
스에게	-9785
▁영역을	-9786
▁샬	-9787
▁스핀	-9788
▁편리	-9789
▁성공한	-9790
▁일했다	-9791
▁성공적인	-9792
▁노비	-9793
▁사헌	-9794
▁포크	-9795
소송법	-9796
연구원	-9797
▁룩	-9798
작품	-9799
▁외야	-9800
▁주축	-9801
▁점이다	-9802
가스	-9803
▁말하였다	-9804
ild	-9805
▁연호	-9806
▁이바	-9807
▁테일러	-9808
▁회사는	-9809
▁오가	-9810
▁합리	-9811
▁페스티벌	-9812
(4	-9813
://	-9814
▁둥근	-9815
▁조직을	-9816
곡의	-9817
반응	-9818
▁주한	-9819
▁한국에	-9820
▁감지	-9821
▁교외	-9822
▁반박	-9823
▁비단	-9824
▁선을	-9825
lass	-9826
▁남부의	-9827
하였다는	-9828
▁제작되었다	-9829
아키	-9830
▁IT	-9831
▁심판	-9832
▁액체	-9833
▁조치를	-9834
스부르크	-9835
▁뿔	-9836
▁햄	-9837
주식	-9838
▁평행	-9839
▁독일은	-9840
▁집으로	-9841
▁출연한	-9842
▁독일에서	-9843
▁있습니다	-9844
▁리얼	-9845
▁양키	-9846
▁하야	-9847
▁의원은	-9848
런트	-9849
▁사육	-9850
▁의사를	-9851
산면	-9852
ake	-9853
itt	-9854
▁김상	-9855
▁기록하여	-9856
버러	-9857
케이션	-9858
▁하거나	-9859
▁되었지만	-9860
고쿠	-9861
▁하얀	-9862
▁본사는	-9863
▁않았기	-9864
ata	-9865
▁제갈	-9866
박스	-9867
▁신하	-9868
▁포로	-9869
▁합법	-9870
▁흔들	-9871
▁보스니아	-9872
서원	-9873
▁사료	-9874
▁쌓아	-9875
▁여론	-9876
▁할당	-9877
▁전자기	-9878
과로	-9879
오를	-9880
▁공간의	-9881
▁과거의	-9882
▁코치로	-9883
간이	-9884
▁기체	-9885
▁무려	-9886
▁전진	-9887
▁화살	-9888
라이트	-9889
▁부문에	-9890
스와의	-9891
음으로	-9892
▁영국은	-9893
의원	-9894
▁시나리오	-9895
▁끊임	-9896
▁건물의	-9897
▁맡았고	-9898
▁레논	-9899
▁소닉	-9900
▁유니폼	-9901
▁분데스리가	-9902
▁대외	-9903
쥐과에	-9904
▁시작된다	-9905
네의	-9906
만명	-9907
▁경력	-9908
▁보상	-9909
▁부패	-9910
▁형태는	-9911
▁조건으로	-9912
타케	-9913
▁부착	-9914
▁들어오	-9915
▁민주주의	-9916
▁두산	-9917
▁술탄	-9918
GC	-9919
▁헐	-9920
▁아벨	-9921
트리올	-9922
▁노력을	-9923
월드	-9924
챌린	-9925
▁77	-9926
▁강과	-9927
▁바뀐	-9928
제국의	-9929
▁상징하는	-9930
~2	-9931
인들	-9932
량으로	-9933
리면서	-9934
▁조문이다	-9935
ha	-9936
yl	-9937
슈타인	-9938
▁레이저	-9939
▁작품에	-9940
▁투르크	-9941
아메리카	-9942
▁당대	-9943
▁동구	-9944
▁조치	-9945
▁나갔다	-9946
▁일요일	-9947
▁전쟁으로	-9948
▁팩	-9949
▁제주특별자치	-9950
바닥	-9951
▁사천	-9952
▁우즈	-9953
▁영화에	-9954
▁재산을	-9955
▁승강장은	-9956
▁이미지를	-9957
ternational	-9958
목이	-9959
시까지	-9960
▁스릴러	-9961
▁작위를	-9962
▁김진	-9963
▁안산	-9964
▁트레	-9965
▁분리되어	-9966
▁오스트리아의	-9967
▁가벼	-9968
▁김재	-9969
▁왕자	-9970
▁pro	-9971
인치	-9972
▁꿈을	-9973
▁끌려	-9974
▁세균	-9975
▁시칠	-9976
문제연구	-9977
ere	-9978
▁아폴	-9979
▁네이션	-9980
▁속도가	-9981
own	-9982
▁시라	-9983
▁분야에	-9984
▁정책에	-9985
▁입단했다	-9986
르노	-9987
생산	-9988
페인	-9989
(10	-9990
▁진단	-9991
기관으로	-9992
▁분류된다	-9993
격이	-9994
▁경부	-9995
▁팀에	-9996
▁1890	-9997
▁움직이는	-9998
▁커뮤니티	-9999
▁마케팅	-10000
바이러스	-10001
하였다가	-10002
제프	-10003
ade	-10004
▁무용	-10005
▁라이선	-10006
▁일어날	-10007
▁판결을	-10008
번을	-10009
석기	-10010
▁1)	-10011
▁아이슬란드	-10012
스러	-10013
카를	-10014
▁일도	-10015
우주연	-10016
▁식으로	-10017
경과	-10018
위대	-10019
lic	-10020
▁Wh	-10021
▁길고	-10022
▁쉬운	-10023
▁시그	-10024
▁약화	-10025
▁꼴	-10026
풍을	-10027
▁캄보	-10028
▁필름	-10029
바흐	-10030
유는	-10031
▁안장	-10032
▁외곽	-10033
▁향한	-10034
적이었다	-10035
▁셈	-10036
프에	-10037
▁군수	-10038
▁남해	-10039
▁법을	-10040
▁보니	-10041
▁참여하여	-10042
▁기지	-10043
▁소총	-10044
▁채권	-10045
▁화재	-10046
브리지	-10047
▁일컫는	-10048
▁엘리베이	-10049
설이	-10050
▁내린	-10051
베트남	-10052
▁달러의	-10053
디가	-10054
범한	-10055
진에	-10056
▁리눅스	-10057
▁총선거	-10058
▁주를	-10059
▁각본을	-10060
▁사용될	-10061
돌이	-10062
_9	-10063
▁걱	-10064
▁김씨	-10065
▁면적	-10066
자리를	-10067
ward	-10068
▁이스트	-10069
▁제조업	-10070
▁관리하고	-10071
▁광주광역시	-10072
행은	-10073
▁고지	-10074
▁교도	-10075
▁신비	-10076
▁무거운	-10077
▁이루었다	-10078
▁프랑스어	-10079
함의	-10080
▁손해	-10081
▁작센	-10082
▁정면	-10083
▁좌표	-10084
▁힌두	-10085
▁서해	-10086
▁세미	-10087
▁수평	-10088
▁쓰이고	-10089
▁잦	-10090
마치	-10091
▁했다는	-10092
▁멕시코의	-10093
르를	-10094
▁관장	-10095
▁날짜	-10096
▁단종	-10097
▁부천	-10098
▁이틀	-10099
▁위협을	-10100
▁전두환	-10101
▁있어서는	-10102
▁Mus	-10103
▁과정은	-10104
▁문재인	-10105
▁꽤	-10106
모니	-10107
▁곡의	-10108
▁느낀	-10109
▁등재	-10110
▁명백	-10111
▁모드	-10112
▁요르	-10113
▁이슈	-10114
나라에	-10115
▁북부에	-10116
▁바이올린	-10117
각이	-10118
목은	-10119
▁개관	-10120
▁닛폰	-10121
▁용이	-10122
▁형법	-10123
▁구조로	-10124
▁발생할	-10125
▁시기는	-10126
▁필라델피아	-10127
▁리스	-10128
▁염색	-10129
▁전례	-10130
하였기	-10131
▁성모	-10132
▁세대	-10133
▁신용	-10134
▁일에	-10135
▁토마	-10136
▁제국은	-10137
▁지점에	-10138
▁국가대표팀의	-10139
▁객관	-10140
▁멈추	-10141
▁영의	-10142
▁차지한	-10143
▁어려움을	-10144
네는	-10145
방법	-10146
▁실려	-10147
▁시설이	-10148
▁활동은	-10149
▁일으키는	-10150
▁ST	-10151
▁정부와	-10152
▁치료를	-10153
▁수행하는	-10154
▁종의	-10155
▁진동	-10156
타리오	-10157
▁개그	-10158
▁지명을	-10159
▁나라에서	-10160
▁도움으로	-10161
▁목사	-10162
▁싶어	-10163
▁전인	-10164
▁총괄	-10165
▁성균관	-10166
▁우승하였다	-10167
▁내야	-10168
▁아래로	-10169
▁자신에게	-10170
▁듯한	-10171
르와	-10172
투를	-10173
▁It	-10174
▁내보	-10175
▁For	-10176
▁모두가	-10177
▁넣었다	-10178
▁네이버	-10179
▁조선인	-10180
주일	-10181
코드	-10182
▁왕비	-10183
목적	-10184
병의	-10185
ple	-10186
▁IP	-10187
화하여	-10188
▁후보가	-10189
▁아니지만	-10190
FM	-10191
▁훔	-10192
마사	-10193
시민	-10194
책임	-10195
천을	-10196
▁동래	-10197
▁이곳은	-10198
▁설립했다	-10199
▁지방에서	-10200
▁하인리히	-10201
▁회담	-10202
▁덧붙여	-10203
▁피에르	-10204
▁앨범이다	-10205
아리	-10206
전도	-10207
▁어울	-10208
▁않았으나	-10209
카트	-10210
▁ch	-10211
▁그렇지	-10212
▁십자가	-10213
▁정부로부터	-10214
항에	-10215
▁관람	-10216
▁규제	-10217
▁바닷	-10218
▁동명의	-10219
▁자율	-10220
▁공사가	-10221
▁비즈니스	-10222
▁송시	-10223
학교에	-10224
▁1898	-10225
sc	-10226
처리	-10227
▁탓에	-10228
정부의	-10229
▁나타낼	-10230
▁진출에	-10231
▁몬트리올	-10232
▁중심기압	-10233
디아라비아	-10234
▁굿	-10235
무기	-10236
▁병행	-10237
▁애틀	-10238
▁카탈	-10239
▁컴파	-10240
네스코	-10241
▁민주화	-10242
▁비평가	-10243
▁체계를	-10244
장관	-10245
▁간부	-10246
▁로저	-10247
▁배틀	-10248
▁장난	-10249
▁대회의	-10250
▁미국에서는	-10251
▁불을	-10252
▁전당	-10253
▁대법원	-10254
▁몸무게는	-10255
▁받았으나	-10256
▁소속이다	-10257
▁참가하고	-10258
수인	-10259
자도	-10260
카타	-10261
▁68	-10262
▁비오	-10263
▁텔	-10264
박사	-10265
퍼스	-10266
▁영문	-10267
▁디비전	-10268
▁활발한	-10269
▁엉	-10270
▁템	-10271
▁밝혔	-10272
▁열고	-10273
▁전선	-10274
▁찾기	-10275
▁코트	-10276
▁소수의	-10277
길을	-10278
▁정에	-10279
▁중도	-10280
▁평등	-10281
▁드러나	-10282
▁CE	-10283
▁th	-10284
▁부과	-10285
▁유출	-10286
▁추상	-10287
▁남아있는	-10288
헤이	-10289
내셔널	-10290
스포츠	-10291
▁끝까지	-10292
포는	-10293
▁발원	-10294
▁나섰다	-10295
당하였다	-10296
▁요미우리	-10297
▁되었을	-10298
▁아버지와	-10299
▁안쪽	-10300
▁가난한	-10301
▁카이사	-10302
▁선수들이	-10303
▁Ph	-10304
▁받기	-10305
▁언더	-10306
▁사단법인이다	-10307
▁김수	-10308
▁날아	-10309
▁내고	-10310
▁종결	-10311
▁샹	-10312
▁챌린	-10313
▁폐위	-10314
▁새겨져	-10315
▁1902	-10316
lo	-10317
ve	-10318
슨과	-10319
화하고	-10320
▁리비아	-10321
▁별다른	-10322
▁선교사	-10323
▁이에야	-10324
▁주장하고	-10325
▁j	-10326
에너	-10327
▁구릉	-10328
▁쓰인	-10329
▁알제	-10330
▁둘러싸고	-10331
각의	-10332
미로	-10333
스틴	-10334
▁증기	-10335
일에서	-10336
▁만나게	-10337
▁담당하고	-10338
속을	-10339
열대	-10340
▁(,	-10341
▁놓은	-10342
이었기	-10343
▁에스파냐	-10344
주쿠	-10345
▁걸어	-10346
▁막내	-10347
▁미치	-10348
▁여행을	-10349
▁그리스어	-10350
▁계절	-10351
▁지혜	-10352
▁클린	-10353
▁조금씩	-10354
▁비슷하게	-10355
▁눈이	-10356
▁백악	-10357
▁유격	-10358
▁해인	-10359
학자인	-10360
▁개혁을	-10361
▁봐	-10362
▁방법이다	-10363
▁부정적인	-10364
▁갓	-10365
몬드	-10366
▁Is	-10367
▁광산	-10368
▁쇼핑	-10369
▁남부에	-10370
▁대학을	-10371
▁시즌에는	-10372
▁톈	-10373
lay	-10374
▁며칠	-10375
▁쫓겨	-10376
▁곡이다	-10377
▁조상	-10378
▁칼리지	-10379
▁대통령을	-10380
▁일어나자	-10381
▁바실	-10382
▁실시간	-10383
▁맞추어	-10384
▁아사히	-10385
▁1899	-10386
▁소유하고	-10387
▁하드웨어	-10388
결합	-10389
벤처	-10390
피는	-10391
▁다중	-10392
▁IBM	-10393
▁ISO	-10394
▁여기에는	-10395
▁지어졌다	-10396
▁깨달	-10397
▁원내	-10398
▁것에서	-10399
하겠다는	-10400
▁밟	-10401
▁것인	-10402
▁오빠	-10403
▁첨가	-10404
▁귀중한	-10405
▁전체가	-10406
DS	-10407
포의	-10408
▁59	-10409
▁복지	-10410
▁구조가	-10411
▁누르고	-10412
놓은	-10413
받을	-10414
▁개화	-10415
려서	-10416
▁미토	-10417
▁낼	-10418
▁붓	-10419
소방	-10420
포트	-10421
▁고무	-10422
▁관습	-10423
▁누군	-10424
▁스쿨	-10425
하려면	-10426
▁문화체육	-10427
▁매사추세츠	-10428
자본	-10429
롤라이나	-10430
▁생각하고	-10431
▁지나치게	-10432
"()	-10433
▁영조	-10434
▁공사를	-10435
▁다리를	-10436
▁디스플레이	-10437
▁소환	-10438
▁숨겨	-10439
▁전압	-10440
케이팅	-10441
▁건물로	-10442
리그에서	-10443
▁경기에서는	-10444
▁번호	-10445
▁국가에	-10446
▁시절부터	-10447
▁격퇴	-10448
▁차기	-10449
▁NBA	-10450
▁나이가	-10451
US	-10452
me	-10453
너의	-10454
마와	-10455
하우	-10456
▁이나	-10457
reat	-10458
▁모델을	-10459
▁수록곡	-10460
▁출전해	-10461
▁있었다는	-10462
층이	-10463
eth	-10464
▁검증	-10465
▁부사	-10466
▁성당	-10467
▁옷을	-10468
▁입자	-10469
▁타카	-10470
원숭이	-10471
러가	-10472
마일	-10473
지나	-10474
▁왕실	-10475
▁측면에서	-10476
야가	-10477
▁길게	-10478
▁나아	-10479
라디오	-10480
렸으나	-10481
원의원	-10482
▁퍼시픽	-10483
▁보여주었다	-10484
▁얀	-10485
렀고	-10486
턴은	-10487
▁Bo	-10488
▁봉사	-10489
▁서쪽에	-10490
타니	-10491
▁AS	-10492
▁요크	-10493
▁공동체	-10494
▁바꾸어	-10495
▁후쿠시마	-10496
▁동년	-10497
▁볼리	-10498
▁상수	-10499
▁소실	-10500
▁동아일보	-10501
▁63	-10502
▁들이	-10503
▁여신	-10504
▁목표를	-10505
▁얻는다	-10506
▁시작되어	-10507
▁참가하는	-10508
▁사우디아라비아	-10509
단위	-10510
▁매달	-10511
▁통근	-10512
▁관현악	-10513
▁교수가	-10514
▁대학에	-10515
4,	-10516
▁어항	-10517
▁연세	-10518
▁활약한	-10519
▁여기에서	-10520
▁민족문제연구	-10521
▁University	-10522
?"	-10523
권에서	-10524
▁거리는	-10525
▁허리케	-10526
▁에버	-10527
▁주소	-10528
▁진행된	-10529
▁이노	-10530
도마뱀	-10531
▁시즌의	-10532
▁En	-10533
▁총대	-10534
UN	-10535
두는	-10536
▁PS	-10537
▁대처	-10538
▁데이터베이스	-10539
▁솟	-10540
정원	-10541
초를	-10542
▁버튼	-10543
▁영남	-10544
이거나	-10545
▁교수는	-10546
to	-10547
보안	-10548
▁권위	-10549
▁분배	-10550
으로의	-10551
▁양식을	-10552
▁확인되었다	-10553
▁거행	-10554
▁찌	-10555
려면	-10556
사기	-10557
▁먹고	-10558
▁수업	-10559
스카야	-10560
▁강제로	-10561
▁갤럭시	-10562
▁고양이	-10563
▁98	-10564
▁극히	-10565
▁알라	-10566
▁기록된	-10567
▁맞지	-10568
▁교차로	-10569
▁정치가	-10570
십자	-10571
▁민사	-10572
▁총재	-10573
▁한쪽	-10574
▁은퇴를	-10575
▁끓	-10576
외선	-10577
▁이반	-10578
▁탈환	-10579
▁평면	-10580
ames	-10581
▁진짜	-10582
▁데뷔를	-10583
▁작곡한	-10584
▁결혼했다	-10585
▁옐	-10586
▁거론	-10587
▁두어	-10588
위원장	-10589
▁사이가	-10590
▁생각해	-10591
▁최후의	-10592
9)	-10593
▁라우	-10594
▁부를	-10595
▁서사	-10596
▁일컬	-10597
ition	-10598
극장	-10599
란히	-10600
망이	-10601
▁시켜	-10602
▁그레고	-10603
▁오렌지	-10604
뉴스	-10605
팀인	-10606
년간의	-10607
러의	-10608
전선	-10609
▁DS	-10610
▁급격히	-10611
▁김포	-10612
▁부호	-10613
▁잎은	-10614
▁마쳤다	-10615
▁문화방송	-10616
시노	-10617
▁힘입	-10618
년동안	-10619
도이다	-10620
▁모델은	-10621
▁부대를	-10622
▁이상으로	-10623
▁경사	-10624
▁장로	-10625
마르크	-10626
▁문서는	-10627
▁앨범의	-10628
▁범위	-10629
▁선구	-10630
▁해주	-10631
푸르트	-10632
▁동물의	-10633
▁인생	-10634
▁참고로	-10635
질로	-10636
▁나눌	-10637
▁몸에	-10638
▁엔지	-10639
▁안드레	-10640
▁시절에는	-10641
▁변경하였다	-10642
▁식별	-10643
▁채무	-10644
▁자이언츠	-10645
터스	-10646
-11	-10647
▁그중	-10648
▁해를	-10649
▁물리적	-10650
▁에티오	-10651
▁페르디	-10652
red	-10653
▁스콧	-10654
▁속으로	-10655
▁1901	-10656
.<	-10657
비나	-10658
포구	-10659
▁이내	-10660
▁부대는	-10661
▁생겼다	-10662
▁어려움	-10663
▁요소가	-10664
교수	-10665
▁의뢰	-10666
▁전염	-10667
ans	-10668
왔으며	-10669
▁다음에	-10670
▁소설을	-10671
됨으로써	-10672
기기	-10673
예정	-10674
▁대관	-10675
▁전념	-10676
▁정사	-10677
류이다	-10678
▁선수이며	-10679
선언	-10680
▁무승	-10681
▁영동	-10682
▁왜냐	-10683
원들이	-10684
진으로	-10685
▁유네스코	-10686
▁제외하면	-10687
서도	-10688
연은	-10689
▁수렴	-10690
▁전세	-10691
▁팀인	-10692
포가	-10693
▁난이	-10694
▁사회에	-10695
▁선수를	-10696
▁쓰였다	-10697
▁주제가	-10698
열차	-10699
▁신속	-10700
지역의	-10701
▁나이지	-10702
▁황해도	-10703
▁브라우저	-10704
▁실질적인	-10705
▁개발에	-10706
▁월드컵에서	-10707
▁일시적으로	-10708
레아	-10709
짜리	-10710
해지는	-10711
▁영어로	-10712
▁히데요	-10713
ement	-10714
▁고발	-10715
▁고려의	-10716
▁노무현	-10717
▁일본을	-10718
▁비서	-10719
▁사자	-10720
시부터	-10721
▁중간에	-10722
▁마음작용	-10723
▁영화배우	-10724
▁조선일보	-10725
▁진행된다	-10726
▁식량	-10727
▁주차	-10728
스파	-10729
▁신생	-10730
▁학위	-10731
프로그램	-10732
▁인정하지	-10733
작의	-10734
황을	-10735
▁중소	-10736
▁콘크	-10737
▁단위로	-10738
▁동쪽에	-10739
▁Or	-10740
▁딸을	-10741
▁매개	-10742
▁거느리고	-10743
(7	-10744
MP	-10745
민을	-10746
▁앞면	-10747
▁마이너	-10748
TP	-10749
▁62	-10750
▁말기	-10751
▁위기	-10752
▁제사	-10753
년이다	-10754
▁경제학	-10755
▁시내버스	-10756
채를	-10757
▁진정	-10758
시에는	-10759
▁자세한	-10760
▁대신하여	-10761
여자고등학교	-10762
▁친일인명사전	-10763
대구	-10764
희의	-10765
▁라스	-10766
▁배웠다	-10767
▁자리잡고	-10768
▁김기	-10769
▁모방	-10770
▁알코	-10771
이면서	-10772
▁칭호를	-10773
ology	-10774
▁토너먼트	-10775
▁개발되었다	-10776
일체	-10777
▁Ad	-10778
▁리가	-10779
▁왕은	-10780
▁태어났	-10781
HO	-10782
▁휠	-10783
공은	-10784
▁두개	-10785
▁허브	-10786
되지는	-10787
▁충격을	-10788
▁결정적인	-10789
▁중심지는	-10790
▁앓	-10791
▁모으	-10792
▁시즈	-10793
ener	-10794
▁스피드	-10795
▁제품을	-10796
▁매출	-10797
▁받침	-10798
▁공로로	-10799
▁시즌이	-10800
RA	-10801
▁추격	-10802
달라고	-10803
▁시흥	-10804
▁팔레스타	-10805
▁울산광역시	-10806
▁갇	-10807
노프	-10808
르지	-10809
.25	-10810
▁나쁜	-10811
▁줄기	-10812
▁계획에	-10813
▁1903	-10814
▁턱	-10815
세트	-10816
▁섬유	-10817
▁주석	-10818
해왔다	-10819
▁있으면서	-10820
▁하나님의	-10821
▁하더라도	-10822
▁링컨	-10823
▁전제	-10824
▁과정에	-10825
중은	-10826
▁경비	-10827
▁역설	-10828
▁투구	-10829
▁댐	-10830
▁구의	-10831
▁상반	-10832
▁해운	-10833
▁기간에	-10834
▁밑에서	-10835
▁생각하는	-10836
▁고려대학교	-10837
▁협의	-10838
러시아	-10839
▁의회는	-10840
▁하나이며	-10841
▁성공하였다	-10842
erm	-10843
▁드럼	-10844
▁신호를	-10845
▁시뮬	-10846
▁활동하는	-10847
지휘	-10848
▁곡이	-10849
▁공인	-10850
▁취재	-10851
▁알렸다	-10852
▁돋	-10853
▁공직	-10854
▁그다	-10855
▁얻고	-10856
▁이진	-10857
▁제자	-10858
▁진출했다	-10859
누엘	-10860
림이	-10861
번에	-10862
▁몰래	-10863
결정	-10864
티모	-10865
▁요구했다	-10866
▁지폐	-10867
순위	-10868
▁가도	-10869
▁법조	-10870
▁서재	-10871
▁쇼와	-10872
▁야간	-10873
▁육성	-10874
▁시호를	-10875
▁의미의	-10876
▁특징이	-10877
란은	-10878
번뇌	-10879
위안	-10880
▁신규	-10881
idae	-10882
▁보완	-10883
▁장학	-10884
과정을	-10885
▁우라늄	-10886
▁지정된	-10887
▁한국전쟁	-10888
▁무소	-10889
거리는	-10890
▁기반의	-10891
▁연결된	-10892
▁출전하였다	-10893
유적	-10894
질은	-10895
채널	-10896
어지는	-10897
▁불교의	-10898
▁전세계	-10899
▁질량은	-10900
▁거주하고	-10901
▁사건이다	-10902
▁탤	-10903
▁차가	-10904
▁광범위한	-10905
▁중에서는	-10906
KB	-10907
로니	-10908
일드	-10909
-12	-10910
▁대웅	-10911
▁사사	-10912
▁어휘	-10913
▁놓았다	-10914
▁2,000	-10915
양은	-10916
▁다항	-10917
▁에디	-10918
▁시점에서	-10919
▁톨	-10920
▁2.0	-10921
▁부수	-10922
공산당	-10923
▁경험이	-10924
▁대상을	-10925
▁자신과	-10926
▁종으로	-10927
~4	-10928
실험	-10929
▁난징	-10930
▁문장	-10931
▁존중	-10932
▁펀	-10933
▁햇	-10934
▁직선	-10935
▁영향력	-10936
▁||	-10937
▁배구	-10938
▁지정하여	-10939
▁변수	-10940
▁부족한	-10941
▁스튜어	-10942
▁승리한	-10943
▁사이타마	-10944
박한	-10945
▁음식을	-10946
▁땄	-10947
▁실린	-10948
▁조건이	-10949
▁스케이팅	-10950
▁사원	-10951
▁역에	-10952
▁좌절	-10953
▁진흥	-10954
▁결과에	-10955
▁트라이	-10956
▁회사를	-10957
▁기록하는	-10958
▁가톨릭교회	-10959
나우	-10960
풍의	-10961
▁제독	-10962
▁진군	-10963
▁치명	-10964
▁함유	-10965
▁향후	-10966
▁마을의	-10967
▁웨일스	-10968
▁존재하며	-10969
▁업적을	-10970
▁경상남도의	-10971
,9	-10972
▁개교	-10973
▁고쳐	-10974
▁초반에	-10975
주기	-10976
청에	-10977
▁게오	-10978
▁낱말	-10979
▁뜨거운	-10980
▁인물을	-10981
고래	-10982
▁평택	-10983
▁해변	-10984
놓고	-10985
만여	-10986
붙이	-10987
▁그날	-10988
▁슬라	-10989
학적으로	-10990
벌레	-10991
여성	-10992
▁높고	-10993
▁입체	-10994
▁중추원	-10995
쟁이	-10996
주곡	-10997
▁앉아	-10998
베이니아	-10999
▁리투아니아	-11000
▁갈아	-11001
▁이의	-11002
▁문화체육관광	-11003
층을	-11004
▁위탁	-11005
▁유언	-11006
시키며	-11007
▁찾아볼	-11008
▁지속적인	-11009
8)	-11010
▁봤	-11011
니시	-11012
▁낙선	-11013
▁밑에	-11014
▁쇼군	-11015
▁일명	-11016
▁마을을	-11017
▁인물이	-11018
▁테이블	-11019
▁학교에서	-11020
리온	-11021
▁이름인	-11022
▁이산화	-11023
▁편입되었다	-11024
내어	-11025
작전	-11026
▁계몽	-11027
▁빠진	-11028
▁상원	-11029
▁임기	-11030
RE	-11031
▁구동	-11032
▁종은	-11033
▁회고	-11034
▁잃어버	-11035
▁펼쳤다	-11036
rit	-11037
▁관념	-11038
▁업그	-11039
▁철도의	-11040
▁토요일	-11041
▁사라졌다	-11042
치현	-11043
▁원수	-11044
▁현저	-11045
▁김일성	-11046
▁방식이	-11047
▁왜냐하면	-11048
해와	-11049
John	-11050
▁되었다가	-11051
▁이후부터	-11052
▁추정되는	-11053
▁억압	-11054
▁장치를	-11055
▁설탕	-11056
▁재활	-11057
▁지고	-11058
일이다	-11059
▁자체는	-11060
▁비판했다	-11061
▁마오	-11062
기독교	-11063
▁군대의	-11064
▁배치되어	-11065
MC	-11066
올로	-11067
▁아인	-11068
▁이긴	-11069
▁순수한	-11070
▁준우승을	-11071
▁승인을	-11072
(2011	-11073
▁정렬	-11074
▁준비를	-11075
▁않았다고	-11076
▁지구에서	-11077
▁멋	-11078
사태	-11079
야를	-11080
ife	-11081
▁공민	-11082
▁돌연	-11083
▁물고	-11084
▁바른	-11085
▁번식	-11086
▁붙은	-11087
▁야당	-11088
래스카	-11089
▁영상을	-11090
▁1884	-11091
▁넣고	-11092
▁몬스터	-11093
▁일종으로	-11094
▁중요하다	-11095
▁왓	-11096
대왕	-11097
▁76	-11098
▁굉장	-11099
▁기습	-11100
▁전도	-11101
▁자신도	-11102
▁최상위	-11103
ink	-11104
▁구리	-11105
▁추출	-11106
▁생각할	-11107
▁섬으로	-11108
▁이래로	-11109
풍속	-11110
hPa	-11111
▁담겨	-11112
▁조명	-11113
▁지방을	-11114
▁선보였다	-11115
스런	-11116
운영	-11117
▁오라	-11118
▁가수로	-11119
▁주장한	-11120
▁태도를	-11121
▁서식하는	-11122
▁이후로는	-11123
▁보지	-11124
하우스	-11125
▁간단히	-11126
황제	-11127
▁모형	-11128
▁미주	-11129
베르토	-11130
▁오하이	-11131
▁왕위에	-11132
▁활약했다	-11133
▁시계	-11134
▁시초	-11135
ream	-11136
▁구간을	-11137
▁위기를	-11138
▁제사를	-11139
▁자본주의	-11140
▁엽	-11141
▁만의	-11142
▁임용	-11143
▁북부의	-11144
▁1897	-11145
▁가나가와	-11146
▁대통령에	-11147
▁소니	-11148
▁초등	-11149
▁시설을	-11150
▁이야기는	-11151
구성	-11152
씨와	-11153
▁헤드	-11154
갔으며	-11155
IL	-11156
기사	-11157
자이며	-11158
▁도시가	-11159
▁에이스	-11160
▁대한민국은	-11161
▁에스토니아	-11162
▁67	-11163
▁통틀	-11164
▁들어온	-11165
▁음악의	-11166
코쿠	-11167
▁로즈	-11168
▁통행	-11169
▁도착한	-11170
▁프로레	-11171
▁기점으로	-11172
감에	-11173
냈고	-11174
턴의	-11175
▁느껴	-11176
▁오리콘	-11177
▁시스템이	-11178
!"	-11179
라톱	-11180
▁나눠	-11181
▁시키	-11182
▁하우	-11183
작이다	-11184
▁기술의	-11185
▁아마도	-11186
▁우주의	-11187
▁지식을	-11188
▁시작하였고	-11189
멘트	-11190
셰비	-11191
ute	-11192
▁남원	-11193
▁내리	-11194
▁지점	-11195
▁기능은	-11196
▁호평을	-11197
학이	-11198
▁논문을	-11199
▁되돌아	-11200
▁밀접한	-11201
▁슬로베	-11202
대회에서	-11203
음과	-11204
▁양주	-11205
▁않는다고	-11206
척의	-11207
바이트	-11208
▁최근의	-11209
르며	-11210
▁기름	-11211
▁시점	-11212
▁적고	-11213
▁처녀	-11214
▁긍정적인	-11215
먼은	-11216
rad	-11217
▁어긋	-11218
▁밴드는	-11219
▁관리하는	-11220
회담	-11221
oul	-11222
▁독일어	-11223
▁여름에	-11224
▁최대한	-11225
▁사망하고	-11226
도어	-11227
매치	-11228
서야	-11229
▁도주	-11230
▁성주	-11231
▁홈구	-11232
▁실패로	-11233
▁반해	-11234
▁진도	-11235
▁한미	-11236
▁독립된	-11237
▁상태였다	-11238
터널	-11239
▁가짜	-11240
▁갈릴	-11241
▁단단	-11242
▁밤에	-11243
▁힘든	-11244
▁바티칸	-11245
정당	-11246
▁구제	-11247
▁온천	-11248
▁위임	-11249
▁정한	-11250
▁증손	-11251
▁일본과	-11252
통이	-11253
rop	-11254
▁상상	-11255
▁이경	-11256
화에서	-11257
▁만났다	-11258
▁밴드이다	-11259
▁체포되어	-11260
훈장	-11261
%),	-11262
▁드문	-11263
▁리치	-11264
▁플랑	-11265
▁국내외	-11266
▁조선로동	-11267
년대의	-11268
▁말기의	-11269
▁힘입어	-11270
전문학교	-11271
▁이루어지고	-11272
▁뉘	-11273
통의	-11274
anc	-11275
▁보전	-11276
▁스리	-11277
라이어	-11278
▁물질을	-11279
OV	-11280
▁신한	-11281
▁일조	-11282
▁무기를	-11283
▁96	-11284
▁게이트	-11285
▁국방부	-11286
▁다음해	-11287
▁유래한	-11288
▁잃었다	-11289
▁트랜스	-11290
▁깨닫	-11291
▁서초	-11292
사령관	-11293
▁그러던	-11294
▁온타리오	-11295
▁실패하였다	-11296
▁셸	-11297
약성	-11298
▁SP	-11299
▁김경	-11300
▁담긴	-11301
▁산소	-11302
▁올바	-11303
lect	-11304
▁사이드	-11305
위원으로	-11306
ank	-11307
net	-11308
▁동명	-11309
▁총칭	-11310
▁칭찬	-11311
▁문제의	-11312
과학기술	-11313
리라	-11314
▁산다	-11315
▁제곱	-11316
▁하락	-11317
▁국가로	-11318
▁와중에	-11319
▁장군의	-11320
▁참여하는	-11321
봉을	-11322
약품	-11323
▁마루	-11324
▁내부에	-11325
▁추기경	-11326
▁생산하는	-11327
▁함으로써	-11328
작이	-11329
▁아는	-11330
▁후궁	-11331
▁Cent	-11332
▁것으로서	-11333
널티	-11334
브의	-11335
허가	-11336
▁국소	-11337
▁태평	-11338
▁의회의	-11339
▁자동으로	-11340
버스터미널	-11341
ail	-11342
▁애덤	-11343
▁인문	-11344
▁진급	-11345
▁케네	-11346
▁평창	-11347
▁아름다	-11348
국어	-11349
-18	-11350
▁시는	-11351
ject	-11352
▁이벤트	-11353
▁지적했다	-11354
oph	-11355
▁상용	-11356
▁춘천	-11357
▁겪었다	-11358
▁사회를	-11359
▁움직임	-11360
,3	-11361
모와	-11362
준은	-11363
▁신이	-11364
▁선거를	-11365
테르부르크	-11366
▁대한민국에	-11367
▁5.	-11368
▁불리게	-11369
▁학교에	-11370
▁그냥	-11371
▁사랑의	-11372
▁수술을	-11373
▁파이어	-11374
▁펜실베이니아	-11375
▁맏	-11376
무스	-11377
▁아예	-11378
▁한계	-11379
▁교황의	-11380
▁기상청	-11381
▁치러진	-11382
▁등장했다	-11383
▁도입되었다	-11384
커는	-11385
▁최적	-11386
▁투옥	-11387
▁부동산	-11388
▁종로구	-11389
▁진출을	-11390
▁참여하고	-11391
▁닭	-11392
▁고수	-11393
▁색을	-11394
▁스톡	-11395
▁원리	-11396
▁증권	-11397
가지의	-11398
▁국가는	-11399
▁부분적으로	-11400
OD	-11401
사리	-11402
체제	-11403
▁루스	-11404
▁미루	-11405
▁호세	-11406
▁키프로	-11407
▁회사가	-11408
구나	-11409
▁노리	-11410
▁명성	-11411
선이다	-11412
소이다	-11413
원들은	-11414
▁뛰어나	-11415
▁먹이를	-11416
▁비용을	-11417
▁횟	-11418
▁감정을	-11419
▁개발이	-11420
▁그쳤다	-11421
▁중국어	-11422
▁월드컵에	-11423
▁조선인민	-11424
미쓰	-11425
▁닌텐도	-11426
▁블랙홀	-11427
▁장관을	-11428
▁도로이다	-11429
▁평균자책	-11430
▁얹	-11431
해양	-11432
▁권고	-11433
▁춘추	-11434
▁희귀	-11435
임에도	-11436
▁비난을	-11437
그레	-11438
분석	-11439
▁코어	-11440
등으로	-11441
▁승부차	-11442
보통학교	-11443
▁순교	-11444
▁모르는	-11445
▁의식을	-11446
▁일컫는다	-11447
각은	-11448
더는	-11449
도리	-11450
테면	-11451
▁미노	-11452
▁복제	-11453
▁봉안	-11454
▁정신적	-11455
▁출전한	-11456
▁데뷔하였고	-11457
▁자연스럽게	-11458
LS	-11459
que	-11460
▁선이	-11461
▁임상	-11462
Sh	-11463
~5	-11464
▁구출	-11465
▁아랫	-11466
▁폭스	-11467
▁거기서	-11468
▁굉장히	-11469
▁소속된	-11470
▁발매하였다	-11471
IG	-11472
영어	-11473
종과	-11474
▁부부	-11475
▁시트	-11476
▁쫓아	-11477
▁표명	-11478
사업을	-11479
운동에	-11480
▁경찰은	-11481
림의	-11482
칼라	-11483
▁Ed	-11484
▁기록해	-11485
하루	-11486
oll	-11487
pen	-11488
▁라파	-11489
▁헤라	-11490
▁흥선	-11491
▁관할하는	-11492
▁카자흐스탄	-11493
Co	-11494
▁닐	-11495
▁새누리	-11496
▁위험한	-11497
▁자체를	-11498
▁잠수함	-11499
▁믿고	-11500
▁수습	-11501
▁만나는	-11502
▁베트남의	-11503
▁하나였다	-11504
로이	-11505
참모	-11506
평군	-11507
(13	-11508
▁인접한	-11509
▁엿	-11510
▁양호	-11511
▁트루	-11512
▁환원	-11513
증으로	-11514
▁감독과	-11515
▁지구와	-11516
▁분당	-11517
불교의	-11518
▁가리키	-11519
▁학자들은	-11520
공주	-11521
손은	-11522
운트	-11523
▁강도	-11524
▁서정	-11525
▁장려	-11526
▁컬러	-11527
▁등지에서	-11528
위해	-11529
▁제압	-11530
▁측의	-11531
▁프로그램이	-11532
my	-11533
철의	-11534
크에	-11535
▁넣은	-11536
▁부딪	-11537
▁근처에서	-11538
▁다양하다	-11539
항이	-11540
▁NA	-11541
▁부적	-11542
▁불이	-11543
▁종류가	-11544
▁생각한다	-11545
▁이름에서	-11546
▁컬럼비아	-11547
▁구할	-11548
▁360	-11549
▁복귀하였다	-11550
▁순회	-11551
강에서	-11552
▁사고가	-11553
가족	-11554
종인	-11555
▁발트	-11556
▁부분의	-11557
▁블로그	-11558
▁강수량은	-11559
디언	-11560
방은	-11561
▁61	-11562
▁북쪽의	-11563
▁수도인	-11564
람쥐	-11565
리조	-11566
측에	-11567
플렉	-11568
환이	-11569
▁대피	-11570
▁시외	-11571
▁재무	-11572
▁사람과	-11573
▁섬에서	-11574
▁세상에	-11575
▁경우에도	-11576
▁불어	-11577
▁오고	-11578
▁유죄	-11579
방에서	-11580
협의회	-11581
▁자치구	-11582
▁직접적으로	-11583
소득	-11584
▁결코	-11585
▁연꽃	-11586
▁이룬	-11587
▁저택	-11588
▁즉각	-11589
▁할머니	-11590
5)	-11591
산리	-11592
이하	-11593
▁밀어	-11594
▁반경	-11595
▁잭슨	-11596
바이잔	-11597
책으로	-11598
▁승격되었다	-11599
장치	-11600
▁거제	-11601
나갔다	-11602
▁제안을	-11603
▁Comp	-11604
▁프로리그	-11605
▁인터페이스	-11606
상규	-11607
▁왕복	-11608
▁페어	-11609
인들과	-11610
클랜드	-11611
▁안에는	-11612
▁않으나	-11613
▁운동은	-11614
아파	-11615
액의	-11616
츠가	-11617
▁도는	-11618
▁숭배	-11619
▁야쿠	-11620
▁용어를	-11621
▁옌	-11622
▁규모는	-11623
▁전라도	-11624
▁is	-11625
▁광장	-11626
▁성격이	-11627
▁외교관	-11628
▁물건	-11629
▁커널	-11630
게이머	-11631
쳤으며	-11632
omys	-11633
▁규모로	-11634
▁마이크	-11635
▁연기를	-11636
▁등장인물	-11637
▁깎	-11638
_11	-11639
ict	-11640
▁경신	-11641
▁발을	-11642
▁보일	-11643
▁초록	-11644
▁포획	-11645
▁합창	-11646
▁환경을	-11647
▁그룹이다	-11648
돌을	-11649
▁Se	-11650
▁석가	-11651
▁이유를	-11652
Ph	-11653
시즌을	-11654
▁III	-11655
▁요청을	-11656
제르바이잔	-11657
라기	-11658
ola	-11659
▁궁극	-11660
▁바오로	-11661
▁스티브	-11662
▁지휘관	-11663
▁카를로	-11664
▁부문에서	-11665
▁어머니의	-11666
▁지휘하는	-11667
▁체코슬로	-11668
자스	-11669
les	-11670
way	-11671
▁CF	-11672
▁생략	-11673
▁예배	-11674
ower	-11675
▁버전의	-11676
▁계속되었다	-11677
6)	-11678
학원	-11679
▁골프	-11680
▁일러	-11681
▁초과	-11682
▁비로소	-11683
ott	-11684
▁''	-11685
▁별은	-11686
▁숫자	-11687
▁최하	-11688
▁협박	-11689
▁급제하여	-11690
▁결성된	-11691
▁음반의	-11692
▁하나님	-11693
▁냄	-11694
▁명에	-11695
▁캠프	-11696
▁있었을	-11697
▁페르난	-11698
▁과거에는	-11699
▁문명	-11700
▁재혼	-11701
▁일이다	-11702
▁아니라고	-11703
말라	-11704
▁관직을	-11705
▁나폴리	-11706
▁수상한	-11707
(2002	-11708
루션	-11709
아들	-11710
▁정조	-11711
▁중국과	-11712
▁가지며	-11713
▁이어진다	-11714
▁존재했던	-11715
고려	-11716
▁김현	-11717
▁카스	-11718
까지만	-11719
▁자금을	-11720
▁이집트의	-11721
▁콘스탄티노폴리스	-11722
▁냉각	-11723
▁존속	-11724
▁충주	-11725
▁패키	-11726
▁것인데	-11727
▁스미스	-11728
▁표현을	-11729
▁꽃은	-11730
▁만남	-11731
▁아부	-11732
▁초연	-11733
▁여부를	-11734
▁팀으로	-11735
▁아버지를	-11736
소녀	-11737
▁말의	-11738
▁카롤	-11739
파이어	-11740
▁베네딕	-11741
▁오프닝	-11742
▁한성부	-11743
▁문법	-11744
▁선종	-11745
▁유저	-11746
▁기업이다	-11747
EL	-11748
ual	-11749
▁미즈	-11750
▁오오	-11751
▁이윤	-11752
군이다	-11753
▁세계대	-11754
▁여성이	-11755
▁전투기	-11756
▁직전에	-11757
▁후보를	-11758
▁연세대학교	-11759
▁마약	-11760
▁메타	-11761
▁신임	-11762
▁주류	-11763
▁RNA	-11764
▁속도는	-11765
▁전체에	-11766
▁대회에서는	-11767
제작	-11768
▁바꾼	-11769
▁베니	-11770
▁사토	-11771
▁시범	-11772
▁아바	-11773
검찰청	-11774
정신	-11775
▁용의	-11776
▁중기	-11777
▁피트	-11778
▁군단	-11779
▁나눈	-11780
▁뒤집	-11781
▁장성	-11782
▁남쪽의	-11783
▁언어의	-11784
▁아홉	-11785
▁책의	-11786
▁것보다	-11787
▁물고기	-11788
Sp	-11789
항의	-11790
▁에미	-11791
방으로	-11792
▁2.5	-11793
▁코스타	-11794
▁방송되었다	-11795
cc	-11796
대손	-11797
디나	-11798
욕을	-11799
res	-11800
▁DC	-11801
▁로열	-11802
▁상트	-11803
▁별명을	-11804
▁이론의	-11805
▁차원에서	-11806
▁타이틀곡	-11807
고등학교를	-11808
국사	-11809
거리를	-11810
▁민족의	-11811
▁주도로	-11812
~6	-11813
▁방패	-11814
▁우울	-11815
▁이케	-11816
▁정밀	-11817
▁중독	-11818
▁천도	-11819
▁극장판	-11820
▁나오지	-11821
▁시칠리아	-11822
▁선언하였다	-11823
UC	-11824
▁제노	-11825
▁조조	-11826
▁했을	-11827
그라드	-11828
▁문과에	-11829
▁스타일	-11830
▁테니스	-11831
▁회사이다	-11832
▁프랑크푸르트	-11833
7)	-11834
액은	-11835
▁매입	-11836
▁불편	-11837
▁신중	-11838
rans	-11839
▁2-1	-11840
▁강점기의	-11841
▁지방자치	-11842
바논	-11843
▁광둥	-11844
▁붙인	-11845
▁조달	-11846
▁다룬다	-11847
▁존재가	-11848
the	-11849
▁김규	-11850
▁쇼트	-11851
▁제트	-11852
▁어머니가	-11853
▁움직임을	-11854
▁추측된다	-11855
we	-11856
▁맑	-11857
▁바퀴	-11858
▁집계	-11859
▁가마쿠라	-11860
▁알려져있다	-11861
▁옴	-11862
▁낭만	-11863
▁우편	-11864
▁이식	-11865
본으로	-11866
▁느낌을	-11867
▁도미니	-11868
▁중의원	-11869
▁민족주의	-11870
▁직결	-11871
렸는데	-11872
행의	-11873
▁디오	-11874
▁토니	-11875
▁총대주교	-11876
축을	-11877
측은	-11878
▁분화	-11879
▁뻗어	-11880
▁엄격한	-11881
:0	-11882
▁부서	-11883
▁쓰기	-11884
▁이가	-11885
▁해밀	-11886
터미널	-11887
-200	-11888
▁속하며	-11889
감과	-11890
▁딸인	-11891
▁옹립	-11892
▁협약	-11893
▁화석	-11894
▁회계	-11895
▁애틀랜	-11896
▁향하는	-11897
▁달성했다	-11898
▁그리스도의	-11899
값을	-11900
국장	-11901
▁고백	-11902
▁싱글로	-11903
▁인근의	-11904
악한	-11905
~18	-11906
▁독일이	-11907
let	-11908
▁mm	-11909
▁기아	-11910
▁방식이다	-11911
▁주민들이	-11912
다르	-11913
버리	-11914
인간	-11915
특히	-11916
▁유교	-11917
▁니콜라	-11918
(2010	-11919
▁들어간다	-11920
MI	-11921
▁후안	-11922
form	-11923
거는	-11924
▁감행	-11925
▁시장에	-11926
▁태양을	-11927
아일랜드	-11928
▁기록했고	-11929
시즘	-11930
▁개원	-11931
▁채워	-11932
▁어려워	-11933
▁전통을	-11934
▁승강장이	-11935
▁킨	-11936
irl	-11937
▁던져	-11938
▁수동	-11939
▁존경	-11940
▁물러났다	-11941
▁존재하고	-11942
ash	-11943
▁안보	-11944
프라이	-11945
▁대학교에	-11946
▁디자인을	-11947
나리	-11948
▁가량	-11949
▁파스	-11950
▁오하이오	-11951
▁헌법재판	-11952
도비	-11953
부산	-11954
적에	-11955
절한	-11956
▁띠고	-11957
▁신념	-11958
▁관련한	-11959
▁주장은	-11960
▁됐	-11961
무역	-11962
제한	-11963
▁모친	-11964
▁다운로드	-11965
▁독립운동가	-11966
번은	-11967
▁상처	-11968
▁원인은	-11969
▁적합한	-11970
▁노동조합	-11971
▁4.	-11972
▁노태	-11973
▁비평	-11974
▁자문	-11975
▁중종	-11976
▁폭넓	-11977
겼으며	-11978
적이지	-11979
▁자회사	-11980
▁1885	-11981
▁이용한다	-11982
▁산림	-11983
▁정해	-11984
▁컨셉	-11985
▁피신	-11986
화이다	-11987
▁소설가	-11988
▁의미에서	-11989
네가	-11990
릴라	-11991
야만	-11992
차와	-11993
▁기리기	-11994
▁다니엘	-11995
▁수학자	-11996
▁아일랜드의	-11997
도바	-11998
세종	-11999
▁간호	-12000
▁농림	-12001
▁가지가	-12002
▁본인의	-12003
▁수도원	-12004
▁최악의	-12005
▁휴스턴	-12006
▁적극적인	-12007
eng	-12008
▁가죽	-12009
▁달이	-12010
▁스폰	-12011
KBS	-12012
▁게이지	-12013
▁비판이	-12014
.,	-12015
▁공모	-12016
▁이남	-12017
▁조리	-12018
▁카타	-12019
▁공격에	-12020
▁베드로	-12021
▁프톨레	-12022
따라	-12023
전사	-12024
▁떠올	-12025
▁리우	-12026
▁백색	-12027
▁하마	-12028
▁합작	-12029
▁관리를	-12030
▁나가는	-12031
링을	-12032
매매	-12033
준의	-12034
총장	-12035
▁두는	-12036
▁따온	-12037
▁밀집	-12038
▁버려	-12039
▁축출	-12040
▁철도가	-12041
▁진행되고	-12042
천여	-12043
▁날에	-12044
▁법인	-12045
▁편곡	-12046
▁공화당	-12047
그의	-12048
덕션	-12049
아래	-12050
col	-12051
레이터	-12052
▁차이는	-12053
▁캄보디아	-12054
녀를	-12055
▁글리	-12056
▁선사	-12057
▁성취	-12058
▁축하	-12059
▁평일	-12060
루미늄	-12061
▁All	-12062
▁마음이	-12063
▁저명한	-12064
▁아래에서	-12065
재단	-12066
ald	-12067
▁말씀	-12068
▁칼라	-12069
즈에서	-12070
캐롤라이나	-12071
변이	-12072
학부	-12073
▁리틀	-12074
▁쓰지	-12075
동이다	-12076
▁101	-12077
▁스스로를	-12078
검사	-12079
블리	-12080
▁일방	-12081
▁재현	-12082
풍으로	-12083
▁변화에	-12084
▁선거구	-12085
▁장거리	-12086
▁협상을	-12087
▁한나라당	-12088
▁맵	-12089
연수	-12090
왕조	-12091
▁부의	-12092
▁빌려	-12093
▁성분	-12094
▁요구를	-12095
▁장면을	-12096
로부터의	-12097
▁인정하고	-12098
▁딘	-12099
▁BC	-12100
▁보호를	-12101
▁임시정부	-12102
▁뭉	-12103
▁마스	-12104
▁상류	-12105
▁세자	-12106
▁연금	-12107
▁연쇄	-12108
▁라이언	-12109
▁분명히	-12110
▁줄무늬	-12111
▁결정되었다	-12112
▁딸로	-12113
▁쏟아	-12114
▁어른	-12115
▁오타	-12116
▁말기에	-12117
▁위치하는	-12118
▁신설되었다	-12119
▁팜	-12120
족에	-12121
암으로	-12122
ever	-12123
▁그다지	-12124
▁연고지로	-12125
▁슬로바키아	-12126
판과	-12127
▁설도	-12128
공무원	-12129
▁기사를	-12130
▁성공회	-12131
▁시기를	-12132
▁정신을	-12133
차량	-12134
ene	-12135
▁무상	-12136
▁시종	-12137
▁블라디미르	-12138
▁지정되었다가	-12139
GB	-12140
일으	-12141
ble	-12142
▁디렉	-12143
▁불확	-12144
▁주가	-12145
▁노란색	-12146
에다	-12147
▁On	-12148
▁봉쇄	-12149
▁엔딩	-12150
▁지각	-12151
있었다	-12152
▁독일과	-12153
▁물질의	-12154
▁우승한	-12155
▁학교의	-12156
것을	-12157
밴드	-12158
수용	-12159
종교	-12160
▁응원	-12161
▁CON	-12162
▁많으며	-12163
▁1860	-12164
감한	-12165
대책	-12166
버린	-12167
지는데	-12168
▁가까워	-12169
▁도카이	-12170
▁중앙위원회	-12171
타우	-12172
ana	-12173
▁승계	-12174
▁약물	-12175
▁지주	-12176
올림픽	-12177
▁사이버	-12178
▁시장을	-12179
급을	-12180
판매	-12181
▁규격	-12182
▁성종	-12183
▁버렸다	-12184
▁가고시마	-12185
▁역임하고	-12186
▁자격으로	-12187
Le	-12188
▁김창	-12189
▁누가	-12190
▁탐지	-12191
교육을	-12192
▁설명했다	-12193
▁프랑수아	-12194
노가	-12195
월한	-12196
즈카	-12197
▁기술은	-12198
▁톤	-12199
푸아	-12200
▁기자회	-12201
▁선정한	-12202
▁이어진	-12203
▁부분으로	-12204
▁설명한다	-12205
▁중단되었다	-12206
빌딩	-12207
저지	-12208
hel	-12209
▁거울	-12210
▁때인	-12211
▁엄격	-12212
▁설치한	-12213
▁드라이버	-12214
군단	-12215
열에	-12216
▁아기	-12217
▁이씨	-12218
▁적혀	-12219
커니즘	-12220
▁산하에	-12221
▁선수는	-12222
▁육군의	-12223
▁넬	-12224
히메	-12225
▁사면	-12226
▁앙리	-12227
▁개념이	-12228
▁교육의	-12229
▁문서를	-12230
▁바이오	-12231
▁밝히고	-12232
▁황제로	-12233
▁옳	-12234
▁펌	-12235
산동	-12236
"),	-12237
▁최후	-12238
▁스탈린	-12239
▁있기도	-12240
▁프레스	-12241
(8	-12242
더니	-12243
파인	-12244
ins	-12245
▁난다	-12246
▁미터	-12247
▁호위	-12248
가들은	-12249
▁용도로	-12250
▁벌어졌다	-12251
▁시리즈를	-12252
▁프랑스에	-12253
▁대거	-12254
▁동국	-12255
▁섬은	-12256
▁대표적	-12257
태후	-12258
▁AR	-12259
▁단기	-12260
▁띤다	-12261
▁비유	-12262
▁업체	-12263
▁에콰	-12264
able	-12265
우지	-12266
제학	-12267
fer	-12268
▁NC	-12269
▁입성	-12270
▁최연	-12271
▁위치는	-12272
ris	-12273
▁불상	-12274
▁손꼽	-12275
▁애칭	-12276
▁인플	-12277
하자는	-12278
▁게르만	-12279
▁확실히	-12280
▁핀란드의	-12281
달아	-12282
ett	-12283
▁CJ	-12284
▁지형	-12285
▁필사	-12286
▁진나라	-12287
줬다	-12288
▁본거	-12289
경찰서	-12290
층으로	-12291
▁지냈고	-12292
회의에서	-12293
▁구분된다	-12294
▁자유로운	-12295
▁포르투갈의	-12296
▁림	-12297
골로	-12298
나스	-12299
▁모용	-12300
▁오바	-12301
▁트래	-12302
그리스	-12303
▁루이지	-12304
▁아열대	-12305
▁알코올	-12306
▁환경에	-12307
▁대교	-12308
▁맥스	-12309
▁먹을	-12310
▁목을	-12311
▁벌인	-12312
▁아야	-12313
버렸다	-12314
▁제주도	-12315
▁현재에	-12316
▁해상에서	-12317
▁오를	-12318
▁표방	-12319
▁호의	-12320
▁차량은	-12321
▁패배를	-12322
▁주민들은	-12323
▁아제르바이잔	-12324
평화	-12325
▁본부	-12326
▁선수들을	-12327
▁자유주의	-12328
공격	-12329
신경	-12330
▁CC	-12331
▁위장	-12332
▁주오	-12333
리아는	-12334
▁무료로	-12335
▁어려서	-12336
▁프랭크	-12337
▁불러일으	-12338
기계	-12339
번지	-12340
▁빛이	-12341
▁연령	-12342
▁정도였다	-12343
▁지능	-12344
▁모델이	-12345
▁정해진	-12346
▁평범한	-12347
▁형태이다	-12348
▁쓰촨	-12349
▁되지만	-12350
▁코드를	-12351
▁나머지는	-12352
▁프로레슬링	-12353
결과	-12354
집이	-12355
▁효고	-12356
▁그래프	-12357
▁그들에게	-12358
▁노르웨이의	-12359
브는	-12360
창을	-12361
ini	-12362
▁꼭짓	-12363
▁나올	-12364
▁전속	-12365
서비스	-12366
orea	-12367
La	-12368
발이	-12369
환은	-12370
▁것임을	-12371
▁아래는	-12372
▁용어로	-12373
▁1880	-12374
▁크리스마스	-12375
?)	-12376
na	-12377
▁대니	-12378
▁상장	-12379
▁이끈	-12380
▁해수	-12381
▁장군이	-12382
▁행사를	-12383
▁School	-12384
▁HT	-12385
▁랜드	-12386
▁점프	-12387
▁충남	-12388
자들에	-12389
▁기독교의	-12390
(14	-12391
ner	-12392
▁미국을	-12393
▁아나키	-12394
▁유래된	-12395
▁일리노	-12396
▁제도가	-12397
▁터키의	-12398
술의	-12399
▁78	-12400
▁실전	-12401
▁이유가	-12402
▁정부에서	-12403
리야	-12404
▁내전	-12405
▁죽이	-12406
▁짙은	-12407
고와	-12408
왕에	-12409
▁신시	-12410
▁차량이	-12411
▁런던에서	-12412
▁마일	-12413
▁모서	-12414
▁술을	-12415
▁부유한	-12416
▁피하기	-12417
▁헝가리의	-12418
▁프로젝트를	-12419
강이	-12420
였을	-12421
현과	-12422
▁슈팅	-12423
▁존스	-12424
▁척추	-12425
▁불리고	-12426
▁제국을	-12427
아과	-12428
에의	-12429
▁고체	-12430
▁오쿠	-12431
▁런던의	-12432
▁일대에	-12433
▁회의를	-12434
▁도시철도	-12435
▁할아버지	-12436
▁결론	-12437
▁밖에도	-12438
부르	-12439
▁사간	-12440
▁10%	-12441
▁시절의	-12442
▁떨어지는	-12443
사나	-12444
홀름	-12445
▁포병	-12446
▁가벼운	-12447
▁배우로	-12448
▁결혼하였다	-12449
▁수련	-12450
▁병으로	-12451
▁본사를	-12452
▁이루며	-12453
▁중국에	-12454
▁개발하고	-12455
페테르부르크	-12456
▁군이	-12457
▁마블	-12458
▁양이	-12459
어지고	-12460
▁메시지를	-12461
양함	-12462
▁이관	-12463
▁주행	-12464
▁초신	-12465
▁토르	-12466
▁건축물이다	-12467
보르	-12468
하자면	-12469
▁일대를	-12470
▁닦	-12471
지능	-12472
▁</	-12473
▁신부	-12474
▁중장	-12475
▁부근에	-12476
▁파일을	-12477
▁곳의	-12478
▁몸이	-12479
▁보헤	-12480
▁선물	-12481
▁성사	-12482
▁이준	-12483
▁1-0	-12484
▁벼슬을	-12485
▁고구려의	-12486
▁중일	-12487
크에서	-12488
▁삿포로	-12489
▁알려지게	-12490
▁역사적인	-12491
▁주어진다	-12492
▁삼촌	-12493
▁여운	-12494
▁차량을	-12495
▁3,000	-12496
ma	-12497
하임	-12498
▁나열	-12499
▁노트	-12500
▁대합	-12501
▁디자	-12502
▁북위	-12503
▁신선	-12504
▁안성	-12505
▁보유한	-12506
▁전력을	-12507
▁통틀어	-12508
▁문화체육관광부	-12509
갈색	-12510
길이	-12511
융합	-12512
▁담배	-12513
▁둥글	-12514
▁해소	-12515
▁버전이	-12516
▁취하고	-12517
▁내용으로	-12518
▁평가된다	-12519
▁프톨레마이	-12520
EP	-12521
FL	-12522
노리	-12523
▁조약에	-12524
왕과	-12525
▁86	-12526
▁리만	-12527
▁브뤼	-12528
▁사범	-12529
▁얻지	-12530
▁정무	-12531
▁광저우	-12532
▁기초를	-12533
▁문자를	-12534
▁접하며	-12535
▁아버지인	-12536
▁전체적인	-12537
인구	-12538
파르	-12539
▁잡혀	-12540
▁증후	-12541
▁피겨	-12542
▁아무도	-12543
oo	-12544
레타	-12545
▁완벽한	-12546
▁회장을	-12547
해온	-12548
▁사살	-12549
▁유년	-12550
▁자를	-12551
▁협정	-12552
▁그려진	-12553
▁기초로	-12554
▁잡았다	-12555
▁출시한	-12556
푸스	-12557
▁공익	-12558
▁적지	-12559
▁니가타	-12560
▁진행하고	-12561
▁형성한다	-12562
▁강연	-12563
▁연결된다	-12564
보건	-12565
열은	-12566
▁원더	-12567
▁자택	-12568
▁경상도	-12569
▁물러나	-12570
▁시위를	-12571
문자	-12572
▁소매	-12573
▁쌓은	-12574
스트리	-12575
▁목표는	-12576
가요	-12577
라트	-12578
어요	-12579
▁난민	-12580
▁네팔	-12581
▁당일	-12582
▁배신	-12583
▁단어는	-12584
▁아미노	-12585
▁시베리아	-12586
▁포켓몬스터	-12587
주얼	-12588
팀의	-12589
희가	-12590
▁97	-12591
▁옥스	-12592
스카르	-12593
▁섬이다	-12594
▁우즈베	-12595
▁구마모토	-12596
숙종	-12597
해주는	-12598
▁따른다	-12599
▁발견하였다	-12600
GM	-12601
기게	-12602
품이	-12603
▁바빌	-12604
▁올랐고	-12605
-9	-12606
냐는	-12607
마로	-12608
즈로	-12609
▁날카	-12610
▁낸다	-12611
▁봉건	-12612
▁남기고	-12613
▁소행성	-12614
▁달한다	-12615
▁더욱이	-12616
▁없었기	-12617
▁재능을	-12618
▁투표를	-12619
▁스트리트	-12620
▁69	-12621
▁고민	-12622
▁만일	-12623
▁아크	-12624
▁것들이	-12625
▁계획이다	-12626
▁그렇지만	-12627
레가	-12628
인한	-12629
▁소지	-12630
▁우호	-12631
▁주위	-12632
▁주체	-12633
▁테레	-12634
▁패한	-12635
▁매니저	-12636
▁엔진은	-12637
▁대통령으로	-12638
▁아르헨티나의	-12639
▁구스타	-12640
▁존재할	-12641
▁함수의	-12642
▁with	-12643
▁지나면서	-12644
▁흔한	-12645
▁사망하자	-12646
▁처음부터	-12647
풍이	-12648
혹은	-12649
▁대치	-12650
▁침투	-12651
들과는	-12652
▁조정에	-12653
▁페널티	-12654
셈부르크	-12655
▁1871	-12656
▁시장에서	-12657
미노	-12658
주어	-12659
피의	-12660
▁문예	-12661
▁이라	-12662
▁Part	-12663
▁아리스토	-12664
▁인터내셔널	-12665
께서	-12666
아스	-12667
지리	-12668
협력	-12669
▁금성	-12670
▁래퍼	-12671
▁하남	-12672
학적인	-12673
수리	-12674
시나	-12675
위인	-12676
주간	-12677
▁기단	-12678
▁기간을	-12679
▁이론에	-12680
▁즉위한	-12681
▁파이널	-12682
EG	-12683
월과	-12684
함마	-12685
▁기각	-12686
▁창의	-12687
▁갈등을	-12688
▁환경에서	-12689
▁도입하였다	-12690
!!	-12691
▁왕세	-12692
▁용병	-12693
▁입각	-12694
▁토요	-12695
▁마음에	-12696
▁유학을	-12697
▁시리즈에서	-12698
▁꼭대	-12699
▁네오	-12700
▁소금	-12701
▁싶은	-12702
▁잡은	-12703
운동의	-12704
세기부터	-12705
▁통일신라	-12706
▁플레이어는	-12707
대륙	-12708
출판	-12709
▁대두	-12710
▁항소	-12711
▁공부를	-12712
▁교육과	-12713
▁죽였다	-12714
▁타격을	-12715
▁결혼하여	-12716
컨대	-12717
▁아담	-12718
▁태극	-12719
▁통영	-12720
▁아시안컵	-12721
▁에티오피아	-12722
웠고	-12723
잡이	-12724
▁담아	-12725
▁알루미늄	-12726
ke	-12727
▁$	-12728
▁응시	-12729
월에서	-12730
▁손으로	-12731
▁야마토	-12732
▁국제적인	-12733
렸다고	-12734
▁기존에	-12735
▁온도가	-12736
▁지키는	-12737
▁기저	-12738
▁등용	-12739
▁이병	-12740
▁제목의	-12741
학교에서	-12742
기나	-12743
동성	-12744
색과	-12745
▁JT	-12746
▁만세	-12747
▁석탑	-12748
▁오노	-12749
▁왕을	-12750
▁조르	-12751
▁축적	-12752
▁군대에	-12753
▁독립적인	-12754
▁이를테면	-12755
▁양반	-12756
▁일체	-12757
▁카디	-12758
▁차량의	-12759
▁기록하면서	-12760
▁얽	-12761
▁구와	-12762
▁까닭	-12763
▁출산	-12764
ater	-12765
▁차례의	-12766
▁출신인	-12767
▁표면에	-12768
미즈	-12769
▁로이	-12770
▁롤링	-12771
▁에밀	-12772
시키지	-12773
▁경찰에	-12774
▁의미는	-12775
▁카리브	-12776
▁덤	-12777
불을	-12778
팀을	-12779
평론	-12780
▁밝힌	-12781
▁세속	-12782
▁심의	-12783
▁한스	-12784
▁안으로	-12785
▁학문을	-12786
철은	-12787
▁게임이	-12788
▁뒷받침	-12789
▁뚜렷한	-12790
▁획득한	-12791
▁1800	-12792
▁유지하는	-12793
▁페르디난	-12794
Pro	-12795
▁부설	-12796
▁북구	-12797
▁청춘	-12798
▁호조	-12799
▁플라스틱	-12800
▁만족시키는	-12801
탄의	-12802
화물	-12803
▁사모	-12804
▁역까지	-12805
▁각자	-12806
▁부지	-12807
▁불명	-12808
▁펠리	-12809
▁해의	-12810
면에는	-12811
▁레바논	-12812
▁무대를	-12813
▁이루어지는	-12814
받게	-12815
투자	-12816
할때	-12817
▁불꽃	-12818
▁5,000	-12819
글리	-12820
미트	-12821
집에	-12822
토르	-12823
▁대가	-12824
으려고	-12825
▁서유럽	-12826
▁센다이	-12827
▁얼굴을	-12828
위원회를	-12829
▁주어졌다고	-12830
ym	-12831
▁솜	-12832
▁쇄	-12833
나오	-12834
언어	-12835
uro	-12836
▁입원	-12837
▁한층	-12838
▁com	-12839
▁견해를	-12840
▁경기의	-12841
▁공간이	-12842
▁드물게	-12843
▁일하는	-12844
▁질량이	-12845
변에	-12846
▁지옥	-12847
▁사람도	-12848
▁목소리를	-12849
▁인터페이	-12850
반에	-12851
▁GS	-12852
▁궁정	-12853
▁시골	-12854
▁직면	-12855
▁뮤지션	-12856
▁발언을	-12857
▁아미타	-12858
▁역사의	-12859
▁올리고	-12860
병에	-12861
조한	-12862
oss	-12863
▁EC	-12864
▁SN	-12865
▁기슭	-12866
▁발현	-12867
▁조언	-12868
▁지름	-12869
▁케임	-12870
▁손가락	-12871
▁쳐들어	-12872
기니	-12873
▁높게	-12874
▁누르	-12875
▁종족	-12876
▁중대	-12877
▁중산	-12878
▁카트	-12879
▁더글	-12880
▁선과	-12881
▁죽어	-12882
▁즐겨	-12883
▁파나	-12884
계약을	-12885
▁나가노	-12886
거를	-12887
통제	-12888
-21	-12889
▁여진	-12890
▁같은해	-12891
▁리그를	-12892
▁오피스	-12893
▁왕국을	-12894
ution	-12895
▁킬로미터	-12896
생명	-12897
▁거뒀	-12898
▁놀이	-12899
▁지장	-12900
▁살았던	-12901
▁승무원	-12902
▁압력을	-12903
▁자료가	-12904
(;	-12905
금지	-12906
들여	-12907
▁	-12908
이	-12909
다	-12910
.	-12911
에	-12912
의	-12913
는	-12914
로	-12915
,	-12916
하	-12917
1	-12918
을	-12919
가	-12920
고	-12921
지	-12922
서	-12923
한	-12924
은	-12925
기	-12926
0	-12927
)	-12928
(	-12929
으	-12930
2	-12931
사	-12932
대	-12933
리	-12934
시	-12935
를	-12936
년	-12937
도	-12938
스	-12939
인	-12940
일	-12941
아	-12942
자	-12943
9	-12944
어	-12945
있	-12946
라	-12947
수	-12948
나	-12949
부	-12950
그	-12951
전	-12952
되	-12953
정	-12954
국	-12955
과	-12956
해	-12957
주	-12958
었	-12959
제	-12960
들	-12961
성	-12962
장	-12963
3	-12964
구	-12965
여	-12966
상	-12967
e	-12968
적	-12969
동	-12970
했	-12971
5	-12972
8	-12973
월	-12974
위	-12975
와	-12976
a	-12977
4	-12978
원	-12979
선	-12980
게	-12981
공	-12982
였	-12983
6	-12984
보	-12985
마	-12986
만	-12987
조	-12988
트	-12989
중	-12990
며	-12991
드	-12992
7	-12993
o	-12994
화	-12995
경	-12996
학	-12997
교	-12998
소	-12999
미	-13000
유	-13001
우	-13002
r	-13003
세	-13004
비	-13005
i	-13006
신	-13007
오	-13008
문	-13009
르	-13010
치	-13011
개	-13012
명	-13013
n	-13014
면	-13015
계	-13016
연	-13017
후	-13018
역	-13019
관	-13020
등	-13021
회	-13022
된	-13023
진	-13024
것	-13025
터	-13026
영	-13027
모	-13028
용	-13029
"	-13030
t	-13031
프	-13032
발	-13033
군	-13034
l	-13035
무	-13036
러	-13037
당	-13038
산	-13039
작	-13040
재	-13041
방	-13042
타	-13043
니	-13044
민	-13045
음	-13046
m	-13047
단	-13048
데	-13049
거	-13050
레	-13051
s	-13052
간	-13053
통	-13054
카	-13055
분	-13056
반	-13057
바	-13058
생	-13059
안	-13060
체	-13061
차	-13062
포	-13063
행	-13064
크	-13065
내	-13066
호	-13067
현	-13068
식	-13069
본	-13070
운	-13071
노	-13072
남	-13073
u	-13074
'	-13075
종	-13076
할	-13077
파	-13078
물	-13079
양	-13080
요	-13081
때	-13082
출	-13083
속	-13084
임	-13085
실	-13086
야	-13087
두	-13088
S	-13089
함	-13090
-	-13091
형	-13092
던	-13093
토	-13094
강	-13095
결	-13096
설	-13097
루	-13098
려	-13099
A	-13100
표	-13101
C	-13102
c	-13103
히	-13104
키	-13105
각	-13106
코	-13107
법	-13108
초	-13109
승	-13110
독	-13111
태	-13112
업	-13113
직	-13114
까	-13115
건	-13116
디	-13117
불	-13118
입	-13119
래	-13120
h	-13121
d	-13122
배	-13123
력	-13124
버	-13125
록	-13126
합	-13127
점	-13128
또	-13129
최	-13130
예	-13131
않	-13132
번	-13133
받	-13134
매	-13135
같	-13136
피	-13137
았	-13138
약	-13139
른	-13140
천	-13141
권	-13142
왕	-13143
말	-13144
베	-13145
메	-13146
M	-13147
T	-13148
티	-13149
판	-13150
심	-13151
립	-13152
격	-13153
알	-13154
청	-13155
목	-13156
브	-13157
금	-13158
감	-13159
B	-13160
더	-13161
투	-13162
북	-13163
처	-13164
항	-13165
없	-13166
추	-13167
란	-13168
~	-13169
달	-13170
평	-13171
f	-13172
활	-13173
F	-13174
외	-13175
네	-13176
열	-13177
따	-13178
I	-13179
린	-13180
특	-13181
저	-13182
집	-13183
g	-13184
편	-13185
언	-13186
P	-13187
석	-13188
복	-13189
준	-13190
D	-13191
테	-13192
즈	-13193
향	-13194
광	-13195
병	-13196
류	-13197
변	-13198
k	-13199
p	-13200
름	-13201
질	-13202
령	-13203
족	-13204
근	-13205
E	-13206
난	-13207
랑	-13208
y	-13209
급	-13210
황	-13211
람	-13212
송	-13213
축	-13214
페	-13215
김	-13216
존	-13217
올	-13218
많	-13219
쪽	-13220
능	-13221
총	-13222
박	-13223
술	-13224
참	-13225
철	-13226
울	-13227
별	-13228
론	-13229
살	-13230
R	-13231
환	-13232
L	-13233
N	-13234
온	-13235
창	-13236
악	-13237
증	-13238
품	-13239
육	-13240
O	-13241
절	-13242
및	-13243
곡	-13244
쿠	-13245
료	-13246
백	-13247
쓰	-13248
:	-13249
새	-13250
K	-13251
져	-13252
플	-13253
순	-13254
G	-13255
돌	-13256
량	-13257
졌	-13258
필	-13259
께	-13260
b	-13261
확	-13262
든	-13263
애	-13264
망	-13265
림	-13266
규	-13267
머	-13268
케	-13269
글	-13270
패	-13271
색	-13272
팀	-13273
탈	-13274
워	-13275
범	-13276
날	-13277
견	-13278
극	-13279
쟁	-13280
련	-13281
클	-13282
H	-13283
삼	-13284
탄	-13285
너	-13286
친	-13287
충	-13288
V	-13289
째	-13290
손	-13291
랜	-13292
봉	-13293
막	-13294
_	-13295
책	-13296
접	-13297
v	-13298
뒤	-13299
못	-13300
완	-13301
협	-13302
션	-13303
U	-13304
퍼	-13305
담	-13306
/	-13307
밀	-13308
채	-13309
런	-13310
츠	-13311
녀	-13312
길	-13313
습	-13314
골	-13315
측	-13316
블	-13317
혼	-13318
취	-13319
곳	-13320
럽	-13321
W	-13322
칭	-13323
엔	-13324
험	-13325
귀	-13326
겨	-13327
암	-13328
누	-13329
벌	-13330
슬	-13331
찰	-13332
씨	-13333
갈	-13334
커	-13335
앙	-13336
높	-13337
뜻	-13338
웨	-13339
첫	-13340
슈	-13341
쳐	-13342
침	-13343
즌	-13344
허	-13345
죽	-13346
효	-13347
w	-13348
획	-13349
볼	-13350
널	-13351
뉴	-13352
센	-13353
응	-13354
났	-13355
착	-13356
큰	-13357
락	-13358
헌	-13359
잡	-13360
희	-13361
례	-13362
렸	-13363
폭	-13364
검	-13365
징	-13366
움	-13367
득	-13368
논	-13369
J	-13370
농	-13371
섬	-13372
걸	-13373
홍	-13374
캐	-13375
풍	-13376
틀	-13377
럼	-13378
%	-13379
좌	-13380
느	-13381
퇴	-13382
택	-13383
폴	-13384
끝	-13385
왔	-13386
즉	-13387
층	-13388
엘	-13389
폐	-13390
압	-13391
픽	-13392
될	-13393
줄	-13394
헤	-13395
덕	-13396
윤	-13397
념	-13398
먼	-13399
]	-13400
싱	-13401
맞	-13402
[	-13403
앞	-13404
맡	-13405
찬	-13406
>	-13407
긴	-13408
갖	-13409
혁	-13410
늘	-13411
킨	-13412
<	-13413
써	-13414
익	-13415
율	-13416
릭	-13417
턴	-13418
잘	-13419
램	-13420
묘	-13421
얼	-13422
냈	-13423
벨	-13424
빈	-13425
링	-13426
흥	-13427
슨	-13428
객	-13429
억	-13430
궁	-13431
델	-13432
앨	-13433
균	-13434
콘	-13435
닌	-13436
맹	-13437
밝	-13438
휘	-13439
염	-13440
엄	-13441
빌	-13442
몇	-13443
훈	-13444
팔	-13445
옥	-13446
숙	-13447
얻	-13448
컵	-13449
렌	-13450
갔	-13451
칸	-13452
텔	-13453
쇼	-13454
므	-13455
칼	-13456
됐	-13457
괴	-13458
넘	-13459
뷔	-13460
X	-13461
콜	-13462
맥	-13463
좋	-13464
푸	-13465
몰	-13466
붙	-13467
덴	-13468
찾	-13469
흐	-13470
낸	-13471
핵	-13472
혹	-13473
둘	-13474
빠	-13475
떠	-13476
템	-13477
켰	-13478
x	-13479
컴	-13480
샤	-13481
액	-13482
혀	-13483
릴	-13484
몬	-13485
쥐	-13486
률	-13487
놓	-13488
룹	-13489
뿐	-13490
탑	-13491
굴	-13492
떨	-13493
z	-13494
끌	-13495
롯	-13496
십	-13497
욕	-13498
잠	-13499
힘	-13500
싸	-13501
칙	-13502
죄	-13503
핀	-13504
벽	-13505
졸	-13506
척	-13507
갑	-13508
풀	-13509
략	-13510
춘	-13511
눈	-13512
몸	-13513
먹	-13514
맨	-13515
켜	-13516
잉	-13517
끼	-13518
휴	-13519
촌	-13520
Y	-13521
홈	-13522
잔	-13523
쳤	-13524
벤	-13525
칠	-13526
밖	-13527
렉	-13528
컬	-13529
뛰	-13530
틴	-13531
녹	-13532
렇	-13533
몽	-13534
곤	-13535
탁	-13536
뮤	-13537
폰	-13538
!	-13539
륙	-13540
꾸	-13541
털	-13542
혜	-13543
멸	-13544
둥	-13545
탕	-13546
겼	-13547
밴	-13548
웠	-13549
솔	-13550
겸	-13551
딸	-13552
돈	-13553
렀	-13554
톤	-13555
혈	-13556
쿄	-13557
셀	-13558
팅	-13559
넷	-13560
혔	-13561
?	-13562
홀	-13563
낮	-13564
컨	-13565
앤	-13566
퓨	-13567
둔	-13568
냐	-13569
윈	-13570
님	-13571
텐	-13572
랐	-13573
톨	-13574
겠	-13575
욱	-13576
롤	-13577
탐	-13578
꽃	-13579
헨	-13580
넓	-13581
떤	-13582
촉	-13583
읍	-13584
낙	-13585
왜	-13586
킬	-13587
렬	-13588
셔	-13589
콩	-13590
붕	-13591
펜	-13592
슷	-13593
옹	-13594
덜	-13595
융	-13596
랙	-13597
흔	-13598
옮	-13599
=	-13600
뇌	-13601
듬	-13602
섭	-13603
넣	-13604
빛	-13605
멘	-13606
깨	-13607
놀	-13608
곧	-13609
땅	-13610
킹	-13611
닝	-13612
룬	-13613
헬	-13614
팬	-13615
딩	-13616
쌍	-13617
겐	-13618
흑	-13619
켓	-13620
힌	-13621
답	-13622
값	-13623
롭	-13624
멤	-13625
룡	-13626
튜	-13627
젤	-13628
챔	-13629
짓	-13630
큐	-13631
즘	-13632
릉	-13633
쉬	-13634
쇄	-13635
윌	-13636
렵	-13637
밤	-13638
뢰	-13639
웅	-13640
닉	-13641
흡	-13642
씩	-13643
튼	-13644
젠	-13645
납	-13646
옛	-13647
듀	-13648
궤	-13649
맺	-13650
닥	-13651
짜	-13652
숭	-13653
쉽	-13654
랭	-13655
듯	-13656
랫	-13657
+	-13658
섯	-13659
잃	-13660
Z	-13661
숨	-13662
&	-13663
젝	-13664
j	-13665
웃	-13666
깊	-13667
빙	-13668
꼬	-13669
멜	-13670
멀	-13671
롱	-13672
쓴	-13673
펠	-13674
캠	-13675
웹	-13676
핑	-13677
잇	-13678
끄	-13679
즐	-13680
큼	-13681
믿	-13682
뜨	-13683
잎	-13684
찍	-13685
텍	-13686
Q	-13687
덤	-13688
셰	-13689
펼	-13690
밍	-13691
짐	-13692
;	-13693
틱	-13694
빅	-13695
뷰	-13696
돼	-13697
멕	-13698
빨	-13699
뀌	-13700
엽	-13701
짧	-13702
|	-13703
쇠	-13704
틸	-13705
곱	-13706
삭	-13707
롬	-13708
첨	-13709
폼	-13710
릿	-13711
힐	-13712
럭	-13713
럴	-13714
랍	-13715
촬	-13716
혐	-13717
낭	-13718
썼	-13719
q	-13720
곽	-13721
겪	-13722
옆	-13723
켈	-13724
밑	-13725
딘	-13726
쌓	-13727
캘	-13728
콤	-13729
흘	-13730
삶	-13731
켄	-13732
뉘	-13733
헝	-13734
벗	-13735
낳	-13736
첩	-13737
젊	-13738
꿈	-13739
닐	-13740
싶	-13741
옷	-13742
왼	-13743
냥	-13744
빼	-13745
랄	-13746
컷	-13747
듣	-13748
읽	-13749
됨	-13750
얀	-13751
닛	-13752
톱	-13753
냉	-13754
셜	-13755
룩	-13756
믹	-13757
엑	-13758
픈	-13759
벡	-13760
낼	-13761
봄	-13762
뒷	-13763
섰	-13764
숲	-13765
퀴	-13766
흰	-13767
묵	-13768
띠	-13769
엇	-13770
벼	-13771
셋	-13772
튀	-13773
붉	-13774
뤄	-13775
븐	-13776
뱅	-13777
괄	-13778
잭	-13779
캄	-13780
좀	-13781
앗	-13782
쿨	-13783
뿌	-13784
끊	-13785
샌	-13786
슴	-13787
맛	-13788
덮	-13789
팽	-13790
녕	-13791
륜	-13792
찌	-13793
숫	-13794
씬	-13795
넬	-13796
댄	-13797
늬	-13798
뱀	-13799
떻	-13800
첼	-13801
묻	-13802
팩	-13803
짝	-13804
둑	-13805
춤	-13806
웰	-13807
쾌	-13808
뤼	-13809
늄	-13810
셈	-13811
톰	-13812
탱	-13813
쓸	-13814
렴	-13815
엠	-13816
뽑	-13817
앵	-13818
깔	-13819
꼽	-13820
캔	-13821
늦	-13822
샘	-13823
렐	-13824
옌	-13825
닫	-13826
쫓	-13827
밥	-13828
꺼	-13829
횡	-13830
훨	-13831
꼭	-13832
앉	-13833
팝	-13834
뼈	-13835
덩	-13836
좁	-13837
끈	-13838
륨	-13839
흉	-13840
겔	-13841
렘	-13842
봇	-13843
끔	-13844
훗	-13845
꾼	-13846
룸	-13847
뚜	-13848
멍	-13849
윗	-13850
깃	-13851
덧	-13852
룰	-13853
랩	-13854
펙	-13855
춰	-13856
홋	-13857
갤	-13858
햄	-13859
퀘	-13860
딕	-13861
듭	-13862
펴	-13863
쿼	-13864
삽	-13865
륭	-13866
싼	-13867
묶	-13868
뮌	-13869
꺾	-13870
궐	-13871
딜	-13872
탠	-13873
윙	-13874
꼴	-13875
쌀	-13876
뉜	-13877
섞	-13878
겹	-13879
빗	-13880
눌	-13881
킴	-13882
띄	-13883
훌	-13884
퀸	-13885
긍	-13886
첸	-13887
슐	-13888
셉	-13889
돔	-13890
깥	-13891
펄	-13892
녁	-13893
밭	-13894
녔	-13895
넥	-13896
넌	-13897
툰	-13898
펑	-13899
렛	-13900
낌	-13901
빵	-13902
*	-13903
깝	-13904
뿔	-13905
늑	-13906
돕	-13907
곰	-13908
똑	-13909
훼	-13910
엉	-13911
섹	-13912
펀	-13913
닷	-13914
틈	-13915
컫	-13916
딱	-13917
랴	-13918
힙	-13919
넨	-13920
흙	-13921
갱	-13922
툴	-13923
굳	-13924
핸	-13925
팡	-13926
콰	-13927
킥	-13928
셸	-13929
빚	-13930
킷	-13931
풋	-13932
톡	-13933
맷	-13934
겁	-13935
껍	-13936
닭	-13937
겉	-13938
뮬	-13939
룽	-13940
쏘	-13941
콥	-13942
옵	-13943
콕	-13944
푼	-13945
굽	-13946
멈	-13947
뇨	-13948
턱	-13949
뻗	-13950
콧	-13951
봐	-13952
핫	-13953
밸	-13954
딴	-13955
벳	-13956
럿	-13957
떼	-13958
꿀	-13959
렷	-13960
쯤	-13961
굿	-13962
퉁	-13963
탓	-13964
홉	-13965
쑤	-13966
닮	-13967
죠	-13968
샹	-13969
왈	-13970
릎	-13971
눅	-13972
붓	-13973
굉	-13974
줬	-13975
릇	-13976
캡	-13977
뚫	-13978
쁜	-13979
칩	-13980
낱	-13981
툼	-13982
댐	-13983
싫	-13984
샬	-13985
놈	-13986
닿	-13987
듈	-13988
띤	-13989
엣	-13990
걷	-13991
셨	-13992
삿	-13993
헐	-13994
낀	-13995
갓	-13996
흠	-13997
젖	-13998
냄	-13999
솟	-14000
펌	-14001
웬	-14002
봤	-14003
잊	-14004
쩌	-14005
걱	-14006
퐁	-14007
덟	-14008
쉐	-14009
옴	-14010
돋	-14011
솜	-14012
흩	-14013
쥬	-14014
쿤	-14015
톈	-14016
곁	-14017
얇	-14018
둠	-14019
긋	-14020
슘	-14021
굵	-14022
앱	-14023
륵	-14024
얄	-14025
얘	-14026
팜	-14027
휩	-14028
쏟	-14029
꾀	-14030
껴	-14031
짙	-14032
탤	-14033
맵	-14034
멋	-14035
$	-14036
#	-14037
쯔	-14038
렁	-14039
밟	-14040
꿔	-14041
훔	-14042
뭉	-14043
덱	-14044
캉	-14045
왓	-14046
뚝	-14047
뤘	-14048
챌	-14049
떡	-14050
컸	-14051
쁘	-14052
옐	-14053
{	-14054
끓	-14055
햇	-14056
휠	-14057
뀐	-14058
텀	-14059
핍	-14060
짱	-14061
댓	-14062
촨	-14063
슭	-14064
맘	-14065
`	-14066
씀	-14067
꽤	-14068
횟	-14069
잦	-14070
펫	-14071
괘	-14072
줌	-14073
픔	-14074
빔	-14075
뒀	-14076
앓	-14077
싯	-14078
밋	-14079
벅	-14080
엿	-14081
붐	-14082
땄	-14083
썬	-14084
갇	-14085
얹	-14086
눠	-14087
깎	-14088
딪	-14089
멧	-14090
땃	-14091
헥	-14092
맏	-14093
맑	-14094
팟	-14095
찐	-14096
샨	-14097
줘	-14098
벵	-14099
슛	-14100
몫	-14101
찔	-14102
텝	-14103
걀	-14104
꼈	-14105
곶	-14106
닦	-14107
깐	-14108
뭇	-14109
옳	-14110
씌	-14111
낫	-14112
끗	-14113
얽	-14114
팍	-14115
츄	-14116
랏	-14117
쟈	-14118
뻔	-14119
쭉	-14120
}	-14121
캅	-14122
윅	-14123
귄	-14124
뚱	-14125
튬	-14126
뱃	-14127
낚	-14128
뻐	-14129
뜬	-14130
쾰	-14131
볍	-14132
귤	-14133
엮	-14134
팰	-14135
렝	-14136
궈	-14137
찮	-14138
뫼	-14139
욘	-14140
뾰	-14141
쩔	-14142
앰	-14143
핏	-14144
엥	-14145
꿨	-14146
샐	-14147
챙	-14148
캣	-14149
훙	-14150
웍	-14151
탬	-14152
싹	-14153
삐	-14154
샀	-14155
섀	-14156
쉴	-14157
푹	-14158
얕	-14159
뭄	-14160
깜	-14161
낄	-14162
돗	-14163
싣	-14164
뮈	-14165
넛	-14166
늙	-14167
랬	-14168
쿡	-14169
꽂	-14170
헛	-14171
챈	-14172
믈	-14173
꽝	-14174
렙	-14175
뜸	-14176
껏	-14177
눔	-14178
냅	-14179
셴	-14180
쾨	-14181
갚	-14182
숀	-14183
촛	-14184
댈	-14185
큘	-14186
샵	-14187
짖	-14188
훤	-14189
탭	-14190
썩	-14191
즙	-14192
츰	-14193
몹	-14194
짚	-14195
췄	-14196
찢	-14197
갯	-14198
@	-14199
늪	-14200
딧	-14201
쪼	-14202
녜	-14203
뇽	-14204
뿜	-14205
룻	-14206
듐	-14207
릅	-14208
괌	-14209
뜰	-14210
빽	-14211
펭	-14212
굶	-14213
겟	-14214
쁨	-14215
딥	-14216
췌	-14217
깁	-14218
슌	-14219
숍	-14220
넉	-14221
맬	-14222
쩐	-14223
쿰	-14224
씻	-14225
엎	-14226
샷	-14227
퀼	-14228
퀄	-14229
엡	-14230
핼	-14231
펩	-14232
뮐	-14233
뭐	-14234
탔	-14235
롄	-14236
볶	-14237
벚	-14238
쵸	-14239
샴	-14240
껑	-14241
똥	-14242
꿰	-14243
벙	-14244
슝	-14245
젯	-14246
뜯	-14247
썰	-14248
윽	-14249
\	-14250
둡	-14251
퓌	-14252
튠	-14253
맴	-14254
땀	-14255
촘	-14256
잣	-14257
둬	-14258
뵈	-14259
잼	-14260
멩	-14261
쥘	-14262
낡	-14263
쑨	-14264
꼼	-14265
멱	-14266
촐	-14267
텅	-14268
댕	-14269
욤	-14270
괜	-14271
퓰	-14272
좡	-14273
낯	-14274
젓	-14275
켐	-14276
쥔	-14277
됩	-14278
뎀	-14279
킵	-14280
츨	-14281
팎	-14282
팻	-14283
훅	-14284
딤	-14285
캇	-14286
깅	-14287
뽀	-14288
웜	-14289
캥	-14290
몄	-14291
밧	-14292
띈	-14293
쉰	-14294
쏠	-14295
랠	-14296
밈	-14297
뇰	-14298
퀀	-14299
엌	-14300
^	-14301
왁	-14302
팥	-14303
썸	-14304
짠	-14305
칫	-14306
뱌	-14307
쑹	-14308
챠	-14309
쏜	-14310
꽁	-14311
쐐	-14312
윔	-14313
갸	-14314
쿵	-14315
폈	-14316
뭔	-14317
솥	-14318
헴	-14319
퍽	-14320
먀	-14321
넴	-14322
돛	-14323
잖	-14324
쨌	-14325
덥	-14326
쩍	-14327
욜	-14328
뺏	-14329
젬	-14330
댁	-14331
늠	-14332
딛	-14333
콴	-14334
깡	-14335
뛴	-14336
눕	-14337
얌	-14338
뎅	-14339
툭	-14340
찻	-14341
쑥	-14342
핌	-14343
웁	-14344
앳	-14345
놉	-14346
읊	-14347
힉	-14348
칵	-14349
뮴	-14350
뛸	-14351
땐	-14352
뺨	-14353
볕	-14354
옅	-14355
쉘	-14356
룀	-14357
뺀	-14358
캬	-14359
횃	-14360
팸	-14361
쭈	-14362
썹	-14363
엷	-14364
뀔	-14365
봅	-14366
뽕	-14367
웸	-14368
퀵	-14369
옙	-14370
샛	-14371
팁	-14372
춧	-14373
꿇	-14374
숄	-14375
꼰	-14376
텡	-14377
갠	-14378
땡	-14379
씹	-14380
뎌	-14381
깼	-14382
넵	-14383
뻘	-14384
쉼	-14385
튿	-14386
냇	-14387
짤	-14388
깬	-14389
긁	-14390
켤	-14391
텟	-14392
닙	-14393
찼	-14394
휼	-14395
꽉	-14396
쇤	-14397
뱉	-14398
눗	-14399
댑	-14400
펨	-14401
폄	-14402
홑	-14403
륄	-14404
깍	-14405
텃	-14406
꺽	-14407
윳	-14408
랗	-14409
솅	-14410
솝	-14411
됭	-14412
쏴	-14413
얏	-14414
줍	-14415
힝	-14416
쌈	-14417
웡	-14418
뢴	-14419
쎄	-14420
륀	-14421
쭤	-14422
뎃	-14423
챕	-14424
춥	-14425
뎬	-14426
젼	-14427
뜩	-14428
쩡	-14429
빴	-14430
땜	-14431
꿩	-14432
묀	-14433
꿉	-14434
찹	-14435
텁	-14436
놨	-14437
숱	-14438
헵	-14439
댜	-14440
놔	-14441
쫒	-14442
떴	-14443
젱	-14444
튕	-14445
뤽	-14446
뵤	-14447
잿	-14448
넋	-14449
뽐	-14450
찜	-14451
빡	-14452
맙	-14453
컹	-14454
숯	-14455
옻	-14456
쌌	-14457
씽	-14458
헹	-14459
볜	-14460
숏	-14461
썽	-14462
햐	-14463
잰	-14464
좇	-14465
귈	-14466
랸	-14467
얗	-14468
묄	-14469
셍	-14470
껌	-14471
꿋	-14472
탸	-14473
뻣	-14474
낵	-14475
댔	-14476
앎	-14477
푀	-14478
밌	-14479
흄	-14480
녘	-14481
볏	-14482
핥	-14483
뷸	-14484
굼	-14485
쌔	-14486
탯	-14487
툇	-14488
헷	-14489
똘	-14490
줏	-14491
듦	-14492
휜	-14493
짊	-14494
놋	-14495
쨩	-14496
덫	-14497
갬	-14498
챗	-14499
냑	-14500
탉	-14501
쳇	-14502
괭	-14503
눙	-14504
욧	-14505
갭	-14506
븀	-14507
젭	-14508
껀	-14509
첵	-14510
귓	-14511
넙	-14512
췬	-14513
뉠	-14514
앴	-14515
눴	-14516
쿱	-14517
쭝	-14518
넜	-14519
닳	-14520
긱	-14521
뺄	-14522
쁠	-14523
궂	-14524
뷜	-14525
튤	-14526
깟	-14527
늉	-14528
뚤	-14529
숴	-14530
콸	-14531
뵐	-14532
섣	-14533
넝	-14534
쥰	-14535
헉	-14536
쳅	-14537
겜	-14538
돤	-14539
솽	-14540
짬	-14541
펍	-14542
뎠	-14543
벰	-14544
꾹	-14545
뀜	-14546
윕	-14547
훠	-14548
껄	-14549
샥	-14550
셤	-14551
뗀	-14552
몐	-14553
텨	-14554
쟝	-14555
왠	-14556
믐	-14557
숟	-14558
쫄	-14559
떳	-14560
뭘	-14561
듄	-14562
뗏	-14563
뷴	-14564
빤	-14565
셧	-14566
푈	-14567
쬐	-14568
팠	-14569
겅	-14570
끽	-14571
닻	-14572
텼	-14573
맣	-14574
챘	-14575
씰	-14576
왑	-14577
괵	-14578
왐	-14579
켠	-14580
꼿	-14581
쏙	-14582
숑	-14583
팹	-14584
뎁	-14585
짼	-14586
햅	-14587
샅	-14588
꿍	-14589
쪄	-14590
넹	-14591
쥴	-14592
휨	-14593
뺑	-14594
챤	-14595
뭍	-14596
땔	-14597
갛	-14598
칡	-14599
넸	-14600
솁	-14601
짰	-14602
톳	-14603
껫	-14604
묽	-14605
륌	-14606
힛	-14607
쳄	-14608
냘	-14609
빳	-14610
횔	-14611
갉	-14612
욥	-14613
잽	-14614
톄	-14615
냔	-14616
뒬	-14617
쳉	-14618
퉈	-14619
폿	-14620
쩨	-14621
켁	-14622
빻	-14623
튈	-14624
뻑	-14625
쉔	-14626
씁	-14627
좨	-14628
녓	-14629
멎	-14630
윷	-14631
쭐	-14632
탰	-14633
찧	-14634
죤	-14635
섐	-14636
틋	-14637
꽈	-14638
셩	-14639
뗄	-14640
윰	-14641
츤	-14642
뢸	-14643
깰	-14644
뜀	-14645
뵙	-14646
솀	-14647
뺐	-14648
웩	-14649
밉	-14650
잴	-14651
훑	-14652
냠	-14653
웽	-14654
쿈	-14655
믄	-14656
쫑	-14657
홰	-14658
쐈	-14659
겊	-14660
퍄	-14661
꽌	-14662
섕	-14663
젋	-14664
쾡	-14665
깽	-14666
꽹	-14667
읜	-14668
퀜	-14669
셌	-14670
웻	-14671
햘	-14672
뼛	-14673
쟌	-14674
튄	-14675
옘	-14676
녠	-14677
쇳	-14678
홧	-14679
잤	-14680
쯩	-14681
틔	-14682
퓔	-14683
뻤	-14684
섶	-14685
켕	-14686
틍	-14687
룔	-14688
뻬	-14689
짭	-14690
찡	-14691
휫	-14692
땋	-14693
얍	-14694
퓸	-14695
볐	-14696
삯	-14697
켑	-14698
먄	-14699
뵘	-14700
혓	-14701
띵	-14702
묠	-14703
욀	-14704
헙	-14705
깻	-14706
뒹	-14707
똔	-14708
빕	-14709
쉥	-14710
쾅	-14711
쿳	-14712
둣	-14713
뷘	-14714
팃	-14715
멥	-14716
맸	-14717
뻥	-14718
쎈	-14719
푄	-14720
쌘	-14721
뱁	-14722
쭌	-14723
텄	-14724
굄	-14725
롼	-14726
쌩	-14727
쏭	-14728
큅	-14729
궬	-14730
낟	-14731
묜	-14732
씸	-14733
닢	-14734
떫	-14735
뚬	-14736
띌	-14737
붑	-14738
삵	-14739
쏨	-14740
숩	-14741
녤	-14742
뗐	-14743
뎐	-14744
띨	-14745
뿍	-14746
룝	-14747
빰	-14748
쑈	-14749
엾	-14750
찟	-14751
헀	-14752
껐	-14753
겡	-14754
툽	-14755
줴	-14756
츈	-14757
컥	-14758
퇘	-14759
괸	-14760
쉿	-14761
퓐	-14762
갗	-14763
낏	-14764
룅	-14765
쐬	-14766
큔	-14767
얉	-14768
낑	-14769
뽁	-14770
쌤	-14771
띔	-14772
밂	-14773
섄	-14774
뱐	-14775
짦	-14776
땠	-14777
똠	-14778
섈	-14779
솎	-14780
짹	-14781
툉	-14782
툠	-14783
푯	-14784
쮸	-14785
떄	-14786
짢	-14787
쯕	-14788
괼	-14789
귐	-14790
뉼	-14791
뒨	-14792
큄	-14793
틂	-14794
궜	-14795
뇬	-14796
됴	-14797
뒴	-14798
좆	-14799
쾃	-14800
퇼	-14801
툐	-14802
뱡	-14803
벱	-14804
뺌	-14805
갹	-14806
덞	-14807
슥	-14808
짇	-14809
쳔	-14810
츳	-14811
쉈	-14812
죈	-14813
큉	-14814
갰	-14815
옇	-14816
캑	-14817
궉	-14818
듸	-14819
떵	-14820
셱	-14821
옝	-14822
촙	-14823
귬	-14824
꾐	-14825
죌	-14826
캴	-14827
폽	-14828
넒	-14829
뮨	-14830
뼉	-14831
펏	-14832
햏	-14833
쇨	-14834
퉜	-14835
돠	-14836
붇	-14837
썻	-14838
옭	-14839
푤	-14840
훵	-14841
뵬	-14842
븡	-14843
삔	-14844
쌕	-14845
푁	-14846
껩	-14847
뵌	-14848
졔	-14849
흭	-14850
딨	-14851
땝	-14852
륑	-14853
벧	-14854
숌	-14855
쨋	-14856
쨍	-14857
횬	-14858
맟	-14859
벋	-14860
쓱	-14861
쟀	-14862
꿴	-14863
끙	-14864
쩜	-14865
쿌	-14866
퇀	-14867
곗	-14868
꿎	-14869
됸	-14870
뚠	-14871
묑	-14872
쇽	-14873
틉	-14874
겋	-14875
롸	-14876
몌	-14877
묏	-14878
쌉	-14879
왬	-14880
큇	-14881
곪	-14882
궃	-14883
삥	-14884
샾	-14885
솃	-14886
솨	-14887
졍	-14888
쳬	-14889
퀠	-14890
킁	-14891
휙	-14892
펐	-14893
긔	-14894
뎨	-14895
밞	-14896
얭	-14897
읗	-14898
쫀	-14899
걔	-14900
뭣	-14901
뼘	-14902
뽈	-14903
삑	-14904
슙	-14905
쒀	-14906
캰	-14907
퍌	-14908
걍	-14909
긷	-14910
덖	-14911
돝	-14912
똣	-14913
랖	-14914
몆	-14915
볘	-14916
샙	-14917
쎌	-14918
쳥	-14919
겍	-14920
뿅	-14921
쉑	-14922
쉭	-14923
얜	-14924
웟	-14925
윾	-14926
읏	-14927
젔	-14928
팼	-14929
풰	-14930
곬	-14931
꽥	-14932
끎	-14933
떰	-14934
뜷	-14935
멓	-14936
쁩	-14937
쪘	-14938
찿	-14939
큥	-14940
헸	-14941
굣	-14942
댠	-14943
됙	-14944
뤠	-14945
옯	-14946
젹	-14947
챵	-14948
춉	-14949
큭	-14950
퍈	-14951
놘	-14952
뉨	-14953
똬	-14954
랼	-14955
뭡	-14956
뱟	-14957
읻	-14958
잌	-14959
좐	-14960
쫌	-14961
쳰	-14962
큽	-14963
귁	-14964
늡	-14965
솬	-14966
쌋	-14967
죗	-14968
쬘	-14969
찝	-14970
춍	-14971
췐	-14972
햑	-14973
햣	-14974
휀	-14975
갼	-14976
긑	-14977
닯	-14978
붸	-14979
뿡	-14980
삘	-14981
셥	-14982
컽	-14983
풂	-14984
혠	-14985
흗	-14986
꺅	-14987
냣	-14988
뇩	-14989
늴	-14990
돐	-14991
릐	-14992
먁	-14993
쌰	-14994
앏	-14995
쥠	-14996
쫙	-14997
쬔	-14998
캤	-14999
탼	-15000
핬	-15001
귿	-15002
뀍	-15003
됬	-15004
뽄	-15005
샜	-15006
왱	-15007
죵	-15008
퇸	-15009
튐	-15010
틑	-15011
	-15012
굘	-15013
꿘	-15014
녬	-15015
뉙	-15016
뉵	-15017
뉸	-15018
룟	-15019
묫	-15020
붜	-15021
왝	-15022
읕	-15023
쟤	-15024
쥣	-15025
짯	-15026
쨔	-15027
큠	-15028
텬	-15029
햔	-15030
훕	-15031
꺄	-15032
낍	-15033
녈	-15034
녑	-15035
뎡	-15036
뚧	-15037
믕	-15038
밪	-15039
엹	-15040
잛	-15041
죔	-15042
쨰	-15043
쵤	-15044
켸	-15045
쾍	-15046
퀑	-15047
푠	-15048
횐	-15049
겝	-15050
껭	-15051
꾜	-15052
낢	-15053
떱	-15054
맻	-15055
밎	-15056
벛	-15057
볓	-15058
슉	-15059
쏱	-15060
앝	-15061
엊	-15062
윱	-15063
졋	-15064
쩬	-15065
쯧	-15066
챡	-15067
촤	-15068
쿽	-15069
푕	-15070
걲	-15071
겻	-15072
곯	-15073
궨	-15074
껸	-15075
꼳	-15076
땟	-15077
뢱	-15078
륍	-15079
륏	-15080
묾	-15081
믜	-15082
봬	-15083
븨	-15084
섥	-15085
슾	-15086
쑬	-15087
씐	-15088
왹	-15089
읒	-15090
읔	-15091
읖	-15092
읠	-15093
읺	-15094
쨈	-15095
쮠	-15096
콱	-15097
퀌	-15098
귑	-15099
깸	-15100
꼍	-15101
꾄	-15102
뀨	-15103
눞	-15104
눼	-15105
띡	-15106
륩	-15107
맽	-15108
멨	-15109
뱔	-15110
뺘	-15111
섁	-15112
슁	-15113
쎅	-15114
쒸	-15115
씼	-15116
얶	-15117
옉	-15118
잍	-15119
짫	-15120
쨘	-15121
쫏	-15122
챨	-15123
첬	-15124
츌	-15125
켯	-15126
턔	-15127
튁	-15128
햠	-15129
휭	-15130
겇	-15131
겯	-15132
꽛	-15133
뀀	-15134
뇸	-15135
늣	-15136
덪	-15137
돟	-15138
듁	-15139
듕	-15140
딫	-15141
뗑	-15142
뙈	-15143
럇	-15144
멉	-15145
묭	-15146
밷	-15147
빎	-15148
뺴	-15149
뻴	-15150
섦	-15151
솓	-15152
싀	-15153
썅	-15154
씃	-15155
얐	-15156
옜	-15157
욋	-15158
욺	-15159
웤	-15160
쟉	-15161
쟐	-15162
졘	-15163
쭘	-15164
츔	-15165
캪	-15166
쾬	-15167
퍙	-15168
픕	-15169
픙	-15170
햤	-15171
홥	-15172
겄	-15173
곂	-15174
꽅	-15175
꽆	-15176
꾿	-15177
낻	-15178
댛	-15179
땨	-15180
땸	-15181
뙡	-15182
뚯	-15183
뜽	-15184
렜	-15185
뫄	-15186
벴	-15187
봔	-15188
뵨	-15189
뷁	-15190
빋	-15191
쀼	-15192
쏸	-15193
얠	-15194
엤	-15195
엶	-15196
옸	-15197
욈	-15198
읃	-15199
읓	-15200
쟛	-15201
젇	-15202
졀	-15203
즁	-15204
쭙	-15205
챰	-15206
챱	-15207
켬	-15208
쿙	-15209
퀍	-15210
퀭	-15211
탘	-15212
폘	-15213
흴	-15214
겿	-15215
곈	-15216
깆	-15217
깩	-15218
껶	-15219
꿧	-15220
넢	-15221
뉩	-15222
닸	-15223
닽	-15224
댱	-15225
뎰	-15226
됫	-15227
뒈	-15228
뙤	-15229
럄	-15230
롐	-15231
뢨	-15232
룁	-15233
뤗	-15234
멂	-15235
몯	-15236
믾	-15237
뱄	-15238
빝	-15239
빱	-15240
뺵	-15241
뿟	-15242
셕	-15243
쇵	-15244
쉡	-15245
싻	-15246
쌴	-15247
쏫	-15248
쓔	-15249
앧	-15250
얆	-15251
얺	-15252
얾	-15253
옰	-15254
왯	-15255
욍	-15256
욷	-15257
윟	-15258
쟂	-15259
짔	-15260
쩄	-15261
쯘	-15262
쳑	-15263
쳣	-15264
촥	-15265
촹	-15266
쵼	-15267
츙	-15268
컁	-15269
콀	-15270
쾀	-15271
텦	-15272
튱	-15273
핱	-15274
헿	-15275
혤	-15276
홤	-15277
홱	-15278
횻	-15279
훓	-15280
휄	-15281
휑	-15282
힁	-15283
갣	-15284
걈	-15285
걘	-15286
걺	-15287
곙	-15288
깠	-15289
깯	-15290
꽐	-15291
꾕	-15292
꿸	-15293
냬	-15294
넀	-15295
넖	-15296
넗	-15297
뇻	-15298
늗	-15299
닜	-15300
덛	-15301
덝	-15302
돎	-15303
돴	-15304
돵	-15305
됀	-15306
됏	-15307
듫	-15308
딷	-15309
땁	-15310
뗬	-15311
띰	-15312
롹	-15313
맜	-15314
먕	-15315
몃	-15316
뮹	-15317
볻	-15318
뻡	-15319
삠	-15320
삡	-15321
섓	-15322
셖	-15323
숰	-15324
싲	-15325
쎙	-15326
앋	-15327
앟	-15328
얖	-15329
엵	-15330
옫	-15331
욯	-15332
읆	-15333
읭	-15334
잗	-15335
쟙	-15336
졉	-15337
좃	-15338
줫	-15339
즛	-15340
쩝	-15341
쩽	-15342
쫍	-15343
쬠	-15344
쮜	-15345
쵝	-15346
췰	-15347
츼	-15348
콛	-15349
쾽	-15350
탙	-15351
텉	-15352
톼	-15353
푱	-15354
핟	-15355
핶	-15356
햝	-15357
홛	-15358
횩	-15359
훽	-15360
갂	-15361
갘	-15362
걑	-15363
겆	-15364
곷	-15365
곹	-15366
괂	-15367
굑	-15368
굔	-15369
굥	-15370
귝	-15371
귯	-15372
깂	-15373
깉	-15374
깢	-15375
깹	-15376
꺠	-15377
껙	-15378
껜	-15379
꼇	-15380
꿏	-15381
뀝	-15382
끕	-15383
냡	-15384
넎	-15385
넚	-15386
넞	-15387
넡	-15388
놂	-15389
놰	-15390
뇐	-15391
뇔	-15392
뉫	-15393
뉻	-15394
늇	-15395
닏	-15396
닺	-15397
댚	-15398
댤	-15399
덣	-15400
뎦	-15401
돚	-15402
돽	-15403
됌	-15404
됮	-15405
둄	-15406
둰	-15407
둴	-15408
둿	-15409
뒁	-15410
뒥	-15411
뒸	-15412
딯	-15413
떙	-15414
떽	-15415
뗌	-15416
뗴	-15417
띳	-15418
랟	-15419
럅	-15420
럐	-15421
럔	-15422
렡	-15423
렫	-15424
롈	-15425
롑	-15426
롣	-15427
룐	-15428
뤈	-15429
뤌	-15430
맀	-15431
맄	-15432
먈	-15433
몀	-15434
묺	-15435
뭥	-15436
믠	-15437
밒	-15438
밨	-15439
밫	-15440
뱆	-15441
뱍	-15442
뱜	-15443
벉	-15444
볠	-15445
봍	-15446
봘	-15447
뵷	-15448
뷋	-15449
뷕	-15450
븥	-15451
빧	-15452
뺩	-15453
뻰	-15454
뼤	-15455
뽓	-15456
삣	-15457
삳	-15458
삻	-15459
샇	-15460
섡	-15461
셑	-15462
솦	-15463
숡	-15464
숳	-15465
숸	-15466
슯	-15467
슽	-15468
싈	-15469
싮	-15470
싰	-15471
싾	-15472
쌥	-15473
쎔	-15474
쎴	-15475
쏩	-15476
쏳	-15477
쐇	-15478
쓿	-15479
앃	-15480
얅	-15481
얬	-15482
엜	-15483
엳	-15484
옄	-15485
옲	-15486
옺	-15487
옾	-15488
왰	-15489
욌	-15490
웝	-15491
윘	-15492
윶	-15493
읁	-15494
읅	-15495
읿	-15496
잋	-15497
잏	-15498
잩	-15499
쟘	-15500
졜	-15501
졶	-15502
죕	-15503
짛	-15504
쨉	-15505
쩰	-15506
쫗	-15507
쬬	-15508
찓	-15509
찣	-15510
챦	-15511
첮	-15512
쳘	-15513
춭	-15514
츅	-15515
츕	-15516
츩	-15517
칰	-15518
칲	-15519
컈	-15520
쾩	-15521
퀔	-15522
턀	-15523
텥	-15524
텽	-15525
톺	-15526
퇌	-15527
툥	-15528
툿	-15529
튭	-15530
팈	-15531
팉	-15532
퍠	-15533
폔	-15534
폳	-15535
퐈	-15536
푣	-15537
핔	-15538
핮	-15539
핳	-15540
햋	-15541
혅	-15542
혱	-15543
혿	-15544
홅	-15545
홯	-15546
횄	-15547
횰	-15548
횽	-15549
훍	-15550
훝	-15551
휏	-15552
흝	-15553
흫	-15554
힜	-15555
갃	-15556
갏	-15557
갶	-15558
걋	-15559
겂	-15560
겣	-15561
겷	-15562
곌	-15563
곘	-15564
곲	-15565
곺	-15566
곻	-15567
괍	-15568
괏	-15569
괕	-15570
괗	-15571
굇	-15572
굦	-15573
궅	-15574
궇	-15575
궎	-15576
궘	-15577
궝	-15578
궡	-15579
궴	-15580
궷	-15581
긓	-15582
긘	-15583
긜	-15584
긾	-15585
깄	-15586
깓	-15587
깖	-15588
꺌	-15589
껠	-15590
껼	-15591
꼅	-15592
꼮	-15593
꽦	-15594
꾈	-15595
꿕	-15596
뀠	-15597
낛	-15598
낣	-15599
낧	-15600
낲	-15601
냤	-15602
넏	-15603
넑	-15604
넶	-15605
녅	-15606
녇	-15607
녋	-15608
녙	-15609
녝	-15610
놃	-15611
놄	-15612
놐	-15613
놧	-15614
놩	-15615
뇍	-15616
뇓	-15617
뇜	-15618
눋	-15619
늅	-15620
늚	-15621
늨	-15622
늰	-15623
늿	-15624
닞	-15625
닠	-15626
닾	-15627
댇	-15628
댖	-15629
댗	-15630
댸	-15631
덙	-15632
덨	-15633
덯	-15634
뎗	-15635
뎝	-15636
돍	-15637
돰	-15638
됢	-15639
됼	-15640
둏	-15641
둙	-15642
둚	-15643
둟	-15644
뒫	-15645
뒵	-15646
듥	-15647
듹	-15648
딈	-15649
딭	-15650
딲	-15651
땍	-15652
떘	-15653
떢	-15654
떥	-15655
떪	-15656
떯	-15657
뗘	-15658
뗼	-15659
뙨	-15660
뚸	-15661
뚼	-15662
뛔	-15663
뛱	-15664
뜁	-15665
뜹	-15666
뜼	-15667
띁	-15668
띅	-15669
랒	-15670
랕	-15671
랰	-15672
럈	-15673
럘	-15674
럲	-15675
럻	-15676
렂	-15677
렃	-15678
렆	-15679
렗	-15680
렣	-15681
롓	-15682
롲	-15683
뢀	-15684
룍	-15685
룯	-15686
뤀	-15687
뤨	-15688
뤰	-15689
뤳	-15690
뤵	-15691
륐	-15692
륫	-15693
륱	-15694
륻	-15695
릌	-15696
릍	-15697
릏	-15698
릘	-15699
릫	-15700
릳	-15701
맃	-15702
맆	-15703
맔	-15704
맕	-15705
맗	-15706
맠	-15707
맫	-15708
먓	-15709
먗	-15710
먾	-15711
멏	-15712
멪	-15713
멵	-15714
몉	-15715
몔	-15716
몪	-15717
몴	-15718
뫁	-15719
뫂	-15720
뫔	-15721
뫙	-15722
뭅	-15723
뭋	-15724
뭏	-15725
뭬	-15726
뭰	-15727
뭴	-15728
뮝	-15729
믁	-15730
믓	-15731
밓	-15732
밚	-15733
밠	-15734
밣	-15735
밯	-15736
뱓	-15737
벏	-15738
벢	-15739
벹	-15740
볈	-15741
볿	-15742
봌	-15743
봣	-15744
봥	-15745
뵀	-15746
뵉	-15747
뵛	-15748
붊	-15749
붏	-15750
붔	-15751
붖	-15752
붘	-15753
붛	-15754
붴	-15755
뷀	-15756
븃	-15757
븍	-15758
븜	-15759
븟	-15760
빩	-15761
뺙	-15762
뺢	-15763
뺸	-15764
뻇	-15765
뻠	-15766
뻩	-15767
뻿	-15768
뿝	-15769
삜	-15770
샆	-15771
샊	-15772
샏	-15773
샞	-15774
섧	-15775
섨	-15776
섵	-15777
섷	-15778
섻	-15779
섿	-15780
셒	-15781
솏	-15782
솑	-15783
솩	-15784
쇡	-15785
쇰	-15786
숔	-15787
숖	-15788
숮	-15789
쉅	-15790
쉉	-15791
쉣	-15792
슦	-15793
슳	-15794
슼	-15795
슿	-15796
싁	-15797
싄	-15798
싑	-15799
싡	-15800
싢	-15801
싦	-15802
싨	-15803
싪	-15804
싴	-15805
싵	-15806
싿	-15807
썌	-15808
쎕	-15809
쎘	-15810
쎼	-15811
쎾	-15812
쐉	-15813
쐑	-15814
쐰	-15815
쐼	-15816
쑴	-15817
쑷	-15818
쒜	-15819
쒼	-15820
쓘	-15821
쓩	-15822
씉	-15823
씜	-15824
앆	-15825
앖	-15826
앛	-15827
앜	-15828
앹	-15829
얊	-15830
얨	-15831
얫	-15832
엗	-15833
엩	-15834
옂	-15835
옽	-15836
왙	-15837
왿	-15838
욎	-15839
욨	-15840
욿	-15841
웆	-15842
웇	-15843
윁	-15844
윋	-15845
윛	-15846
윥	-15847
윧	-15848
윯	-15849
읋	-15850
읙	-15851
읨	-15852
읫	-15853
읳	-15854
읶	-15855
잂	-15856
잆	-15857
잓	-15858
잚	-15859
잟	-15860
잧	-15861
쟃	-15862
쟇	-15863
쟎	-15864
쟨	-15865
쟬	-15866
젃	-15867
젆	-15868
젏	-15869
젗	-15870
젙	-15871
졈	-15872
졩	-15873
졷	-15874
좍	-15875
좔	-15876
좧	-15877
좪	-15878
좽	-15879
죡	-15880
줃	-15881
줓	-15882
쥑	-15883
쥤	-15884
즑	-15885
즞	-15886
즤	-15887
짎	-15888
짗	-15889
짥	-15890
짮	-15891
쨀	-15892
쨴	-15893
쩃	-15894
쩟	-15895
쩩	-15896
쩸	-15897
쪗	-15898
쪤	-15899
쫃	-15900
쫘	-15901
쯊	-15902
찎	-15903
찯	-15904
찱	-15905
첀	-15906
첟	-15907
첯	-15908
쳠	-15909
쳡	-15910
촣	-15911
쵀	-15912
쵣	-15913
쵹	-15914
춈	-15915
춋	-15916
춛	-15917
췡	-15918
췩	-15919
췹	-15920
췽	-15921
츺	-15922
칞	-15923
칢	-15924
칯	-15925
칱	-15926
칳	-15927
캎	-15928
컀	-15929
컅	-15930
컺	-15931
컾	-15932
켔	-15933
켙	-15934
켱	-15935
콙	-15936
콭	-15937
쾁	-15938
쾻	-15939
쿸	-15940
쿹	-15941
퀏	-15942
퀩	-15943
큎	-15944
큣	-15945
큹	-15946
킈	-15947
킽	-15948
탖	-15949
탣	-15950
탶	-15951
텛	-15952
톹	-15953
퇻	-15954
툅	-15955
툘	-15956
퉤	-15957
튝	-15958
튻	-15959
튽	-15960
팑	-15961
팦	-15962
팯	-15963
퍁	-15964
퍅	-15965
폅	-15966
폏	-15967
폶	-15968
퐃	-15969
퐅	-15970
퐝	-15971
퐷	-15972
푓	-15973
푲	-15974
푷	-15975
풉	-15976
풔	-15977
퓬	-15978
픜	-15979
픝	-15980
픞	-15981
픠	-15982
핃	-15983
핒	-15984
핓	-15985
핛	-15986
핝	-15987
핞	-15988
핢	-15989
핦	-15990
핧	-15991
핲	-15992
