[PAD]	0
[UNK]	0
[BOS]	0
[EOS]	0
[CLS]	0
[SEP]	0
[MASK]	0
▁▃	-0
▁이	-1
▁.	-2
▁에	-3
▁다	-4
▁의	-5
▁는	-6
▁,	-7
▁하	-8
▁을	-9
▁1	-10
▁은	-11
▁가	-12
▁(	-13
▁)	-14
▁고	-15
▁를	-16
▁한	-17
▁년	-18
▁으	-19
▁로	-20
▁2	-21
▁으로	-22
▁있	-23
▁에서	-24
▁지	-25
▁대	-26
▁기	-27
▁되	-28
▁일	-29
▁사	-30
▁인	-31
▁었	-32
▁그	-33
▁도	-34
▁시	-35
▁과	-36
▁아	-37
▁들	-38
▁수	-39
▁월	-40
▁19	-41
▁어	-42
▁했	-43
▁전	-44
▁였	-45
▁여	-46
▁와	-47
▁자	-48
▁적	-49
▁20	-50
▁부	-51
▁제	-52
▁주	-53
▁라	-54
▁정	-55
▁중	-56
▁위	-57
▁된	-58
▁공	-59
▁해	-60
▁보	-61
▁경	-62
▁나	-63
▁3	-64
▁게	-65
▁세	-66
▁"	-67
▁개	-68
▁것	-69
▁유	-70
▁조	-71
▁등	-72
▁한다	-73
▁선	-74
▁성	-75
▁만	-76
▁동	-77
▁마	-78
▁스	-79
▁연	-80
▁미	-81
▁상	-82
▁오	-83
▁서	-84
▁소	-85
▁모	-86
▁구	-87
▁영	-88
▁면	-89
▁비	-90
▁며	-91
▁발	-92
▁4	-93
▁국	-94
▁'	-95
▁201	-96
▁5	-97
▁후	-98
▁명	-99
▁관	-100
▁200	-101
▁신	-102
▁때	-103
▁-	-104
▁프	-105
▁장	-106
▁할	-107
▁던	-108
▁방	-109
▁거	-110
▁교	-111
▁문	-112
▁대한	-113
▁바	-114
▁역	-115
▁당	-116
▁현	-117
▁6	-118
▁리	-119
▁차	-120
▁원	-121
▁무	-122
▁우	-123
▁내	-124
▁진	-125
▁계	-126
▁남	-127
▁통	-128
▁분	-129
▁또	-130
▁노	-131
▁포	-132
▁않	-133
▁학	-134
▁까	-135
▁화	-136
▁군	-137
▁7	-138
▁10	-139
▁같	-140
▁8	-141
▁생	-142
▁까지	-143
▁았	-144
▁강	-145
▁작	-146
▁출	-147
▁결	-148
▁불	-149
▁에게	-150
▁받	-151
▁함	-152
▁으며	-153
▁파	-154
▁번	-155
▁단	-156
▁최	-157
▁된다	-158
▁반	-159
▁호	-160
▁9	-161
▁알	-162
▁지만	-163
▁~	-164
▁안	-165
▁회	-166
▁실	-167
▁형	-168
▁초	-169
▁말	-170
▁두	-171
▁부터	-172
▁예	-173
▁재	-174
▁없	-175
▁데	-176
▁따	-177
▁배	-178
▁S	-179
▁라고	-180
▁사용	-181
▁종	-182
or	-183
▁타	-184
▁라는	-185
▁카	-186
▁음	-187
▁18	-188
▁설	-189
▁요	-190
▁이후	-191
▁일본	-192
▁199	-193
▁특	-194
▁면서	-195
▁산	-196
▁미국	-197
▁12	-198
▁C	-199
▁는데	-200
▁운	-201
▁A	-202
▁독	-203
▁권	-204
er	-205
▁다음	-206
▁행	-207
▁감	-208
▁코	-209
으며	-210
▁왕	-211
▁활	-212
민국	-213
▁처	-214
▁김	-215
▁M	-216
▁건	-217
▁레	-218
▁양	-219
▁간	-220
▁더	-221
▁추	-222
▁입	-223
▁11	-224
▁평	-225
▁베	-226
▁태	-227
▁매	-228
la	-229
▁많	-230
▁민	-231
▁대한민국	-232
▁본	-233
▁승	-234
▁크	-235
▁참	-236
▁피	-237
▁경기	-238
▁지역	-239
00	-240
▁임	-241
▁다른	-242
▁T	-243
▁속	-244
▁열	-245
▁다고	-246
▁대학	-247
▁드	-248
▁북	-249
▁그리	-250
▁올	-251
on	-252
▁및	-253
리아	-254
▁목	-255
▁위해	-256
▁프로	-257
▁198	-258
in	-259
▁때문	-260
▁총	-261
▁물	-262
스트	-263
▁각	-264
▁법	-265
▁집	-266
▁:	-267
▁천	-268
▁달	-269
▁F	-270
▁표	-271
▁변	-272
▁야	-273
▁외	-274
▁체	-275
▁시작	-276
▁직	-277
an	-278
▁그러	-279
▁f	-280
▁사람	-281
▁따라	-282
▁메	-283
▁토	-284
▁트	-285
▁점	-286
▁15	-287
▁B	-288
▁항	-289
▁박	-290
▁함께	-291
▁약	-292
▁또한	-293
▁한국	-294
▁현재	-295
▁저	-296
▁광	-297
▁팀	-298
▁선수	-299
▁청	-300
▁D	-301
▁경우	-302
▁투	-303
▁사이	-304
▁16	-305
▁판	-306
▁영화	-307
▁치	-308
▁P	-309
▁세계	-310
▁새	-311
▁용	-312
▁이름	-313
▁버	-314
▁위치	-315
▁자신	-316
▁브	-317
▁당시	-318
▁기록	-319
▁복	-320
▁하나	-321
▁_	-322
▁편	-323
mu	-324
▁축	-325
▁17	-326
▁for	-327
▁197	-328
▁조선	-329
▁존	-330
▁디	-331
시아	-332
▁m	-333
▁네	-334
▁다는	-335
▁가장	-336
▁국가	-337
▁확	-338
▁이나	-339
▁루	-340
▁학교	-341
▁뒤	-342
▁그러나	-343
▁철	-344
▁가지	-345
▁삼	-346
en	-347
mula	-348
▁합	-349
▁formula	-350
▁I	-351
▁필	-352
▁활동	-353
ar	-354
▁살	-355
▁또는	-356
▁K	-357
▁금	-358
주의	-359
▁테	-360
▁L	-361
▁언	-362
▁째	-363
▁심	-364
▁리그	-365
▁창	-366
▁백	-367
▁의해	-368
▁병	-369
▁196	-370
▁증	-371
▁플	-372
▁식	-373
▁k	-374
▁못	-375
▁프랑	-376
▁근	-377
▁쓰	-378
▁/	-379
▁14	-380
▁대표	-381
부터	-382
▁페	-383
레이	-384
▁그리고	-385
▁통해	-386
▁연구	-387
으나	-388
▁R	-389
▁G	-390
▁황	-391
▁돌	-392
▁0	-393
▁규	-394
▁13	-395
▁충	-396
▁순	-397
al	-398
▁니	-399
▁사회	-400
▁애	-401
▁서울	-402
▁194	-403
▁보다	-404
▁패	-405
▁첫	-406
▁다시	-407
▁높	-408
▁N	-409
at	-410
▁아니	-411
▁만들	-412
▁프랑스	-413
▁H	-414
▁완	-415
▁러	-416
▁히	-417
▁도시	-418
▁클	-419
▁뜻	-420
▁E	-421
▁시대	-422
▁협	-423
랜드	-424
학교	-425
▁중국	-426
▁채	-427
es	-428
▁정부	-429
▁는다	-430
▁영국	-431
▁시즌	-432
▁포함	-433
▁대해	-434
▁여러	-435
▁독일	-436
▁키	-437
▁다가	-438
▁으나	-439
▁죽	-440
▁195	-441
▁로서	-442
▁큰	-443
▁전쟁	-444
ic	-445
▁별	-446
▁친	-447
▁km	-448
▁취	-449
▁문화	-450
▁길	-451
▁모두	-452
▁손	-453
▁가능	-454
▁온	-455
▁축구	-456
▁위원	-457
▁이상	-458
▁대회	-459
▁모든	-460
▁곡	-461
▁아이	-462
▁방송	-463
▁U	-464
▁c	-465
▁석	-466
▁준	-467
▁엔	-468
▁정치	-469
▁동안	-470
▁지방	-471
▁일부	-472
▁이루	-473
▁처음	-474
▁문제	-475
▁감독	-476
▁환	-477
▁알려	-478
▁허	-479
▁%	-480
▁W	-481
▁구성	-482
▁대학교	-483
is	-484
▁제작	-485
he	-486
▁개발	-487
▁뉴	-488
▁였으며	-489
▁시간	-490
▁위한	-491
▁이용	-492
▁검	-493
▁세기	-494
▁30	-495
▁끝	-496
▁날	-497
▁즉	-498
▁골	-499
▁일반	-500
▁존재	-501
▁농	-502
▁씨	-503
▁게임	-504
▁될	-505
▁논	-506
▁향	-507
▁정도	-508
▁중심	-509
▁캐	-510
▁곳	-511
▁193	-512
▁밀	-513
▁급	-514
it	-515
▁섬	-516
▁국제	-517
▁걸	-518
▁]	-519
▁작품	-520
▁볼	-521
▁폭	-522
▁인구	-523
▁[	-524
▁J	-525
▁케	-526
니아	-527
▁주장	-528
라이	-529
▁운동	-530
▁교육	-531
▁앞	-532
▁려	-533
▁역사	-534
▁맡	-535
▁사건	-536
▁관계	-537
▁음악	-538
▁육	-539
▁접	-540
▁나타	-541
▁거나	-542
▁맞	-543
▁t	-544
▁효	-545
▁극	-546
▁발견	-547
▁s	-548
▁이러	-549
▁갖	-550
▁쿠	-551
▁담	-552
▁절	-553
▁>	-554
▁귀	-555
부분	-556
▁아들	-557
▁새로	-558
▁봉	-559
▁25	-560
▁티	-561
▁발표	-562
▁했으며	-563
▁O	-564
▁기술	-565
▁질	-566
▁홍	-567
▁줄	-568
▁<	-569
▁측	-570
▁전투	-571
▁기준	-572
▁192	-573
▁잘	-574
▁책	-575
▁시키	-576
▁들어	-577
▁막	-578
▁터	-579
le	-580
화국	-581
▁로부터	-582
▁공격	-583
000	-584
통령	-585
▁누	-586
▁도록	-587
▁암	-588
리스	-589
▁글	-590
▁경제	-591
▁2010	-592
▁대부분	-593
▁블	-594
이스	-595
re	-596
▁슈	-597
▁21	-598
▁우승	-599
▁민주	-600
▁앨	-601
▁잡	-602
▁송	-603
▁밝	-604
▁헤	-605
▁프로그	-606
▁대통령	-607
▁지원	-608
란드	-609
▁커	-610
▁탄	-611
▁영향	-612
ion	-613
▁갈	-614
▁최초	-615
▁의미	-616
▁배우	-617
▁중앙	-618
▁업	-619
▁부분	-620
▁결과	-621
▁얻	-622
▁2008	-623
▁참여	-624
▁설립	-625
▁올림	-626
▁과정	-627
▁머	-628
▁특히	-629
▁유럽	-630
▁설치	-631
▁독립	-632
▁고등	-633
▁센	-634
버지	-635
▁진행	-636
지만	-637
▁초등	-638
▁난	-639
▁관련	-640
리카	-641
▁어서	-642
us	-643
▁191	-644
▁라이	-645
▁구조	-646
▁상태	-647
▁자유	-648
▁형태	-649
▁발생	-650
▁범	-651
▁2011	-652
▁탈	-653
▁좌	-654
▁같이	-655
ro	-656
▁주로	-657
▁나라	-658
▁그녀	-659
▁러시아	-660
▁결정	-661
▁폐	-662
▁2007	-663
▁됐	-664
▁제국	-665
▁이전	-666
▁2009	-667
▁선거	-668
▁일어	-669
▁다양	-670
▁2012	-671
▁사실	-672
▁소속	-673
▁발매	-674
▁23	-675
el	-676
▁22	-677
▁하지만	-678
▁24	-679
나라	-680
▁사망	-681
▁올림픽	-682
▁침	-683
▁으로서	-684
▁악	-685
▁태어	-686
▁좋	-687
▁란	-688
▁V	-689
므로	-690
▁윤	-691
▁생각	-692
▁100	-693
▁이것	-694
▁프로그램	-695
▁인해	-696
▁새로운	-697
어진	-698
▁2014	-699
디오	-700
▁지정	-701
▁행정	-702
▁혼	-703
▁출신	-704
▁이탈	-705
▁필요	-706
▁벌	-707
▁폴	-708
▁조직	-709
▁스타	-710
▁기관	-711
▁상대	-712
▁관리	-713
▁타이	-714
▁운영	-715
▁팔	-716
▁등장	-717
▁로마	-718
▁계속	-719
▁싱	-720
▁인민	-721
▁2013	-722
▁정보	-723
▁고려	-724
▁중요	-725
▁참가	-726
▁여성	-727
우스	-728
▁르	-729
▁철도	-730
▁계획	-731
▁해서	-732
▁위원회	-733
ol	-734
▁매우	-735
▁데뷔	-736
▁여자	-737
as	-738
▁아버지	-739
▁헌	-740
▁000	-741
남도	-742
▁성공	-743
▁2006	-744
▁자리	-745
▁이탈리아	-746
▁대전	-747
▁과학	-748
▁해당	-749
라마	-750
▁넘	-751
▁생산	-752
▁뿐	-753
am	-754
om	-755
▁2015	-756
▁26	-757
▁앨범	-758
▁방법	-759
▁억	-760
리즈	-761
▁사업	-762
프트	-763
▁발전	-764
▁몇	-765
▁콘	-766
et	-767
▁시스	-768
▁기원	-769
▁찾	-770
▁국민	-771
▁28	-772
▁처럼	-773
▁27	-774
르크	-775
▁쇼	-776
이트	-777
il	-778
▁가리	-779
▁d	-780
▁묘	-781
▁돌아	-782
▁아래	-783
ou	-784
▁빌	-785
▁2016	-786
▁따르	-787
▁주요	-788
이션	-789
▁차지	-790
스터	-791
▁층	-792
▁최고	-793
▁그리스	-794
ing	-795
▁능	-796
▁내용	-797
▁데이	-798
▁그룹	-799
▁떨	-800
▁보이	-801
▁출연	-802
▁칼	-803
▁b	-804
▁고등학교	-805
▁한편	-806
▁결국	-807
▁전체	-808
▁둘	-809
▁시리즈	-810
▁였으나	-811
▁드라마	-812
▁회사	-813
운데	-814
▁")	-815
ch	-816
▁o	-817
▁월드	-818
▁생활	-819
▁이유	-820
▁졌	-821
▁못하	-822
▁풍	-823
FA	-824
▁가운데	-825
▁격	-826
▁많이	-827
한다	-828
▁p	-829
▁컴	-830
▁유명	-831
▁얼	-832
▁힘	-833
▁레이	-834
▁공식	-835
▁연합	-836
▁빠	-837
▁지구	-838
▁음반	-839
▁민족	-840
비아	-841
▁색	-842
▁190	-843
▁방식	-844
▁바이	-845
▁인간	-846
▁2017	-847
▁인도	-848
▁31	-849
▁29	-850
▁제공	-851
▁떠	-852
▁인터	-853
▁몸	-854
▁시스템	-855
레스	-856
▁엘	-857
▁역할	-858
▁잠	-859
▁스페	-860
▁으로써	-861
▁마이	-862
▁반대	-863
▁항공	-864
▁군사	-865
▁퍼	-866
▁대신	-867
▁초기	-868
▁우리	-869
▁2005	-870
▁표현	-871
▁2018	-872
▁수상	-873
▁조사	-874
▁시기	-875
▁졸	-876
▁제도	-877
▁먼	-878
▁홈	-879
▁출전	-880
▁류	-881
▁기업	-882
▁거의	-883
인다	-884
▁후보	-885
▁2000	-886
▁교회	-887
▁특별	-888
▁이르	-889
▁여기	-890
▁각각	-891
▁응	-892
북도	-893
▁분류	-894
▁붙	-895
▁대상	-896
▁승리	-897
▁연결	-898
▁느	-899
▁따라서	-900
▁평가	-901
▁이미	-902
▁몰	-903
▁놓	-904
▁유지	-905
▁해야	-906
▁기능	-907
▁모습	-908
▁밖	-909
▁으로부터	-910
▁공개	-911
▁자연	-912
▁목적	-913
▁워	-914
▁언어	-915
▁경상	-916
▁마지	-917
▁이어	-918
▁2004	-919
▁단체	-920
▁임명	-921
야기	-922
▁규모	-923
▁수도	-924
▁노동	-925
▁인정	-926
▁울	-927
▁시켰	-928
▁현대	-929
머니	-930
▁동시	-931
▁녹	-932
비스	-933
▁가진	-934
BS	-935
▁의원	-936
▁불리	-937
▁뛰	-938
▁알려져	-939
▁긴	-940
▁눈	-941
▁마지막	-942
▁지금	-943
ac	-944
▁전문	-945
▁브라	-946
▁이론	-947
▁프리	-948
▁지도	-949
▁정의	-950
▁서로	-951
▁열린	-952
▁50	-953
▁희	-954
▁핵	-955
▁직접	-956
▁아르	-957
▁진출	-958
▁계약	-959
▁왔	-960
▁!	-961
▁기간	-962
▁오스트	-963
▁이야기	-964
▁했으나	-965
▁공화국	-966
▁공간	-967
▁건물	-968
▁족	-969
▁상황	-970
▁건설	-971
▁웨	-972
▁개인	-973
▁of	-974
▁먹	-975
스크	-976
▁산업	-977
▁활약	-978
▁정책	-979
▁플레이	-980
ed	-981
▁추가	-982
▁졸업	-983
▁압	-984
▁망	-985
id	-986
▁혁	-987
이지	-988
▁야구	-989
▁빈	-990
▁슬	-991
▁변경	-992
▁2002	-993
▁개최	-994
▁푸	-995
▁자동	-996
▁사상	-997
▁시절	-998
▁노래	-999
▁교수	-1000
▁결혼	-1001
▁거리	-1002
학자	-1003
▁으면	-1004
▁공동	-1005
▁훈	-1006
▁밴	-1007
▁경찰	-1008
▁혹	-1009
▁시장	-1010
▁칸	-1011
▁부산	-1012
▁부르	-1013
▁중학교	-1014
▁비롯	-1015
▁모델	-1016
▁역시	-1017
▁관한	-1018
▁노선	-1019
▁너	-1020
▁형성	-1021
▁속하	-1022
킨다	-1023
▁기원전	-1024
▁변화	-1025
▁마을	-1026
▁스페인	-1027
▁습	-1028
▁실제	-1029
▁콜	-1030
▁완전	-1031
▁보통	-1032
▁TV	-1033
▁보여	-1034
▁샤	-1035
ent	-1036
▁인물	-1037
▁FC	-1038
▁우주	-1039
▁궁	-1040
▁?	-1041
대로	-1042
▁가수	-1043
▁딸	-1044
▁189	-1045
▁벨	-1046
▁소설	-1047
▁낮	-1048
▁그것	-1049
▁거쳐	-1050
른다	-1051
▁겸	-1052
▁학생	-1053
▁의하	-1054
▁2003	-1055
▁40	-1056
▁사랑	-1057
▁휴	-1058
▁요구	-1059
ad	-1060
▁잉	-1061
▁탑	-1062
▁지하	-1063
▁겠	-1064
▁기본	-1065
os	-1066
▁최대	-1067
▁원래	-1068
▁퇴	-1069
▁경기도	-1070
▁없이	-1071
▁견	-1072
▁달리	-1073
▁보호	-1074
ig	-1075
▁일으	-1076
▁자기	-1077
▁자료	-1078
▁모양	-1079
▁서비스	-1080
▁명칭	-1081
▁중화	-1082
▁국회	-1083
▁황제	-1084
▁싱글	-1085
역시	-1086
니다	-1087
▁텔	-1088
▁The	-1089
▁싸	-1090
▁다이	-1091
운드	-1092
▁실시	-1093
ur	-1094
▁세력	-1095
르트	-1096
▁나이	-1097
▁어떤	-1098
▁n	-1099
▁운행	-1100
▁판매	-1101
▁숙	-1102
▁한다는	-1103
어져	-1104
▁승강	-1105
▁옥	-1106
▁소련	-1107
▁태어났	-1108
▁지지	-1109
▁2019	-1110
▁비판	-1111
▁그래	-1112
▁엄	-1113
이드	-1114
린다	-1115
▁종교	-1116
▁아닌	-1117
▁전통	-1118
▁회의	-1119
▁못했	-1120
▁지나	-1121
▁전기	-1122
▁차이	-1123
▁전자	-1124
▁교황	-1125
▁제외	-1126
▁기반	-1127
▁전국	-1128
▁분야	-1129
▁대해서	-1130
▁수행	-1131
▁나오	-1132
▁북쪽	-1133
프리카	-1134
▁1990	-1135
▁전라	-1136
▁위하	-1137
ter	-1138
▁남쪽	-1139
▁시설	-1140
▁혹은	-1141
od	-1142
▁탐	-1143
▁부대	-1144
un	-1145
▁론	-1146
and	-1147
▁환경	-1148
▁높이	-1149
▁밴드	-1150
▁인민공	-1151
iv	-1152
▁애니	-1153
▁흐	-1154
▁인민공화국	-1155
▁만든	-1156
▁맥	-1157
▁십	-1158
▁넓	-1159
▁기념	-1160
▁태양	-1161
▁방향	-1162
▁풀	-1163
▁바로	-1164
▁기독	-1165
▁2001	-1166
▁면적	-1167
▁특징	-1168
▁도입	-1169
▁므로	-1170
▁승강장	-1171
▁도쿄	-1172
▁열차	-1173
로스	-1174
▁월드컵	-1175
▁소프트	-1176
▁뮤	-1177
▁비슷	-1178
▁공연	-1179
▁컴퓨	-1180
▁기타	-1181
▁이때	-1182
▁지휘	-1183
▁구역	-1184
▁연방	-1185
▁예술	-1186
▁센터	-1187
▁행위	-1188
▁선정	-1189
▁의한	-1190
ot	-1191
▁옮	-1192
▁교통	-1193
▁도로	-1194
▁염	-1195
▁설명	-1196
▁어머니	-1197
어지	-1198
▁기존	-1199
▁작업	-1200
▁득	-1201
▁나가	-1202
스탄	-1203
▁남부	-1204
▁형식	-1205
▁출시	-1206
▁군대	-1207
▁역임	-1208
▁클럽	-1209
▁목록	-1210
진다	-1211
▁차량	-1212
▁국내	-1213
▁이동	-1214
▁착	-1215
▁확인	-1216
▁마다	-1217
▁능력	-1218
ation	-1219
▁동물	-1220
▁기독교	-1221
▁유일	-1222
▁지배	-1223
너지	-1224
▁통합	-1225
나다	-1226
▁FI	-1227
▁과거	-1228
▁=	-1229
▁남자	-1230
BC	-1231
▁동일	-1232
▁사무	-1233
um	-1234
▁문학	-1235
▁작용	-1236
▁동쪽	-1237
▁X	-1238
▁의회	-1239
▁Y	-1240
▁가족	-1241
▁이끌	-1242
▁담당	-1243
▁혁명	-1244
▁흥	-1245
▁작곡	-1246
▁St	-1247
자리	-1248
▁획	-1249
▁보내	-1250
▁the	-1251
▁행동	-1252
▁피해	-1253
▁주변	-1254
▁컴퓨터	-1255
▁낙	-1256
스타	-1257
▁작가	-1258
▁협회	-1259
▁흔	-1260
ra	-1261
▁구간	-1262
▁서쪽	-1263
▁영어	-1264
▁추정	-1265
▁h	-1266
▁효과	-1267
▁시켜	-1268
▁오늘	-1269
▁런	-1270
▁예정	-1271
▁사고	-1272
▁증가	-1273
▁육군	-1274
▁한다고	-1275
▁충청	-1276
▁곧	-1277
▁비교	-1278
▁장관	-1279
▁덴	-1280
▁적용	-1281
20	-1282
▁인기	-1283
▁솔	-1284
▁시민	-1285
▁물리	-1286
▁갑	-1287
▁넣	-1288
리오	-1289
▁왕국	-1290
▁크기	-1291
▁쪽	-1292
메이션	-1293
▁잔	-1294
em	-1295
▁공사	-1296
▁대사	-1297
▁데이터	-1298
▁정당	-1299
▁188	-1300
▁차례	-1301
▁방영	-1302
▁액	-1303
▁1999	-1304
▁품	-1305
▁건축	-1306
▁사단	-1307
▁캐나다	-1308
▁1980	-1309
▁가까	-1310
▁앤	-1311
▁연기	-1312
▁돈	-1313
▁주도	-1314
▁이적	-1315
▁개념	-1316
▁멤	-1317
▁텔레	-1318
▁대하	-1319
▁움	-1320
▁어린	-1321
▁맨	-1322
▁덕	-1323
의원	-1324
▁공산	-1325
▁메이	-1326
▁1998	-1327
▁챔	-1328
▁징	-1329
▁땅	-1330
▁종류	-1331
▁다르	-1332
ec	-1333
▁애니메이션	-1334
▁상당	-1335
▁컵	-1336
러스	-1337
▁어느	-1338
im	-1339
▁북부	-1340
▁수록	-1341
▁조건	-1342
카이	-1343
▁버전	-1344
▁에너지	-1345
▁뉴욕	-1346
▁위해서	-1347
▁속도	-1348
▁자체	-1349
▁버스	-1350
▁올라	-1351
▁늘	-1352
▁실패	-1353
▁윈	-1354
▁홀	-1355
▁윌	-1356
▁FIFA	-1357
▁자치	-1358
글랜드	-1359
▁연속	-1360
▁cm	-1361
▁지냈	-1362
▁이런	-1363
▁체제	-1364
▁칭	-1365
▁마음	-1366
▁작전	-1367
ia	-1368
비전	-1369
▁컨	-1370
ir	-1371
▁고대	-1372
▁규정	-1373
▁즈	-1374
▁베이	-1375
웨어	-1376
ow	-1377
▁몽	-1378
▁세포	-1379
가지	-1380
▁특정	-1381
▁스포	-1382
▁조약	-1383
▁멤버	-1384
▁내부	-1385
▁선언	-1386
▁성장	-1387
▁쌍	-1388
▁흑	-1389
▁디자	-1390
▁익	-1391
▁이라	-1392
트남	-1393
▁걸쳐	-1394
▁해군	-1395
▁명령	-1396
▁왜	-1397
▁챔피	-1398
▁몬	-1399
▁민주주의	-1400
▁대체	-1401
▁물질	-1402
▁조지	-1403
▁연대	-1404
▁이사	-1405
▁스트	-1406
▁대구	-1407
거리	-1408
ut	-1409
▁선택	-1410
▁헌법	-1411
시마	-1412
▁1997	-1413
▁팬	-1414
▁잉글랜드	-1415
▁곤	-1416
▁록	-1417
▁35	-1418
▁율	-1419
▁60	-1420
▁최근	-1421
▁반응	-1422
▁지명	-1423
▁페르	-1424
▁부족	-1425
▁일어나	-1426
▁1995	-1427
▁a	-1428
▁법원	-1429
▁머리	-1430
▁보인다	-1431
▁획득	-1432
▁친구	-1433
▁핀	-1434
루스	-1435
▁마르	-1436
▁평균	-1437
▁연주	-1438
▁표준	-1439
▁척	-1440
▁는지	-1441
▁씩	-1442
▁가치	-1443
▁부문	-1444
▁1996	-1445
▁휘	-1446
▁달러	-1447
▁정신	-1448
▁결승	-1449
▁쥐	-1450
▁인천	-1451
▁최종	-1452
▁내려	-1453
▁단계	-1454
▁선출	-1455
▁출판	-1456
▁당하	-1457
▁벤	-1458
▁설계	-1459
▁밤	-1460
▁찬	-1461
▁국립	-1462
op	-1463
▁옛	-1464
▁아시아	-1465
▁선발	-1466
▁일종	-1467
▁배치	-1468
▁포르	-1469
▁밝혔	-1470
▁개혁	-1471
st	-1472
▁g	-1473
▁강화	-1474
▁32	-1475
▁개월	-1476
▁개봉	-1477
▁체계	-1478
▁비행	-1479
▁함수	-1480
▁편성	-1481
▁술	-1482
▁널	-1483
▁조정	-1484
▁더욱	-1485
▁현상	-1486
▁맺	-1487
▁꽃	-1488
▁통일	-1489
버스	-1490
▁Ch	-1491
▁장군	-1492
난다	-1493
▁부상	-1494
▁링	-1495
드리	-1496
메리카	-1497
▁1994	-1498
▁문자	-1499
▁칠	-1500
▁처리	-1501
▁인지	-1502
▁분리	-1503
▁의사	-1504
▁뛰어	-1505
▁주인	-1506
▁후반	-1507
▁관심	-1508
▁공립	-1509
렇게	-1510
▁겨	-1511
▁공항	-1512
▁186	-1513
광역시	-1514
▁1992	-1515
▁어야	-1516
▁들어가	-1517
▁확장	-1518
▁스테	-1519
▁헬	-1520
▁관할	-1521
▁나무	-1522
▁어려	-1523
▁In	-1524
▁소비	-1525
▁네덜	-1526
▁네덜란드	-1527
▁원자	-1528
▁가리킨다	-1529
▁자동차	-1530
▁고자	-1531
▁점령	-1532
▁장치	-1533
▁통신	-1534
▁재판	-1535
▁기사	-1536
▁분석	-1537
▁소유	-1538
▁주민	-1539
oc	-1540
▁잃	-1541
스코	-1542
▁거주	-1543
▁다면	-1544
▁베트남	-1545
▁정규	-1546
▁빛	-1547
▁려고	-1548
▁실험	-1549
▁사령	-1550
▁요소	-1551
▁목표	-1552
▁폴란드	-1553
아들	-1554
▁대중	-1555
▁공원	-1556
▁도움	-1557
▁제품	-1558
▁1970	-1559
▁외국	-1560
▁북한	-1561
▁언론	-1562
▁신라	-1563
라스	-1564
▁시도	-1565
▁불교	-1566
▁유사	-1567
▁집단	-1568
▁&	-1569
▁일제	-1570
▁이해	-1571
▁그림	-1572
▁입단	-1573
▁187	-1574
▁책임	-1575
▁파리	-1576
▁오늘날	-1577
▁듯	-1578
▁행사	-1579
ag	-1580
▁1991	-1581
▁정확	-1582
▁크리스	-1583
야마	-1584
▁든	-1585
▁깊	-1586
▁안정	-1587
나무	-1588
▁엔진	-1589
▁값	-1590
특별	-1591
▁시험	-1592
▁본선	-1593
▁mm	-1594
▁만나	-1595
▁괴	-1596
▁베르	-1597
▁혈	-1598
▁"(	-1599
▁언급	-1600
▁동맹	-1601
▁70	-1602
▁나타나	-1603
▁1993	-1604
▁정권	-1605
디어	-1606
▁신문	-1607
▁스포츠	-1608
▁인데	-1609
▁비해	-1610
▁만화	-1611
리지	-1612
▁학자	-1613
▁마리	-1614
▁갔	-1615
▁광주	-1616
▁대로	-1617
▁투표	-1618
▁결합	-1619
▁사진	-1620
▁지속	-1621
▁웹	-1622
▁구분	-1623
▁제조	-1624
▁앙	-1625
▁수준	-1626
▁준비	-1627
▁불구	-1628
▁이듬	-1629
▁행성	-1630
▁방문	-1631
▁텔레비전	-1632
▁요시	-1633
▁파이	-1634
▁1988	-1635
▁챔피언	-1636
▁끌	-1637
▁문서	-1638
젝트	-1639
▁500	-1640
▁부인	-1641
▁쓴	-1642
▁제한	-1643
▁아직	-1644
스로	-1645
▁디자인	-1646
▁통과	-1647
▁드러	-1648
▁경영	-1649
▁고속	-1650
▁비디오	-1651
▁길이	-1652
▁투수	-1653
▁캠	-1654
▁올랐	-1655
▁유래	-1656
▁왕조	-1657
▁멸	-1658
▁원인	-1659
▁쉽	-1660
▁회장	-1661
▁유전	-1662
▁w	-1663
▁80	-1664
▁추진	-1665
▁구단	-1666
▁이듬해	-1667
▁하이	-1668
▁번호	-1669
▁KBS	-1670
▁이곳	-1671
▁세워	-1672
▁려는	-1673
▁in	-1674
▁동부	-1675
▁영역	-1676
▁성적	-1677
▁믿	-1678
ay	-1679
일랜드	-1680
▁통치	-1681
▁궤	-1682
▁표기	-1683
▁그런	-1684
▁소재	-1685
▁촉	-1686
▁방어	-1687
▁1960	-1688
▁발달	-1689
▁용어	-1690
▁로스	-1691
▁평화	-1692
▁폐지	-1693
▁1989	-1694
▁가정	-1695
▁알려진	-1696
▁예선	-1697
▁종합	-1698
▁거두	-1699
▁치료	-1700
▁서부	-1701
▁인터넷	-1702
▁경험	-1703
▁멀	-1704
▁법률	-1705
▁나온	-1706
▁해석	-1707
▁36	-1708
ce	-1709
ers	-1710
▁보도	-1711
▁널리	-1712
▁아마	-1713
▁라디오	-1714
▁입장	-1715
▁부여	-1716
▁훈련	-1717
▁파괴	-1718
레일	-1719
톨릭	-1720
▁경계	-1721
▁프로젝트	-1722
▁전해	-1723
▁오르	-1724
▁등록	-1725
▁움직	-1726
▁런던	-1727
▁병원	-1728
▁+	-1729
▁요청	-1730
▁오른	-1731
▁놀	-1732
▁펼	-1733
▁자주	-1734
▁조각	-1735
▁바탕	-1736
▁아프리카	-1737
▁스웨	-1738
▁야마	-1739
▁요리	-1740
▁에스	-1741
▁사라	-1742
▁45	-1743
▁무기	-1744
ul	-1745
▁정식	-1746
▁깨	-1747
▁경쟁	-1748
▁정상	-1749
▁노력	-1750
▁아서	-1751
▁알렉	-1752
▁생물	-1753
▁정리	-1754
▁완전히	-1755
▁바르	-1756
▁제주	-1757
▁가르	-1758
▁도서	-1759
메달	-1760
▁33	-1761
▁식민	-1762
▁여겨	-1763
▁UE	-1764
▁미술	-1765
▁업무	-1766
▁연구소	-1767
▁미사	-1768
▁총리	-1769
요일	-1770
▁스스로	-1771
▁득점	-1772
▁벽	-1773
▁영토	-1774
▁노르	-1775
▁부정	-1776
▁찾아	-1777
▁연맹	-1778
▁지대	-1779
▁여객	-1780
▁가톨릭	-1781
스턴	-1782
인트	-1783
▁제안	-1784
▁그대로	-1785
▁주연	-1786
▁결성	-1787
▁UEFA	-1788
▁캐릭	-1789
▁차원	-1790
▁꼬	-1791
▁당했	-1792
▁브라질	-1793
▁소리	-1794
▁오래	-1795
▁계열	-1796
▁스웨덴	-1797
▁수학	-1798
▁파일	-1799
▁로써	-1800
머지	-1801
▁트리	-1802
▁경기장	-1803
▁나머지	-1804
▁마찬	-1805
▁마찬가지	-1806
▁프레	-1807
▁무대	-1808
ri	-1809
▁잇	-1810
▁끼	-1811
▁바뀌	-1812
웨이	-1813
▁박사	-1814
▁실제로	-1815
▁철학	-1816
▁초대	-1817
▁표시	-1818
▁집합	-1819
라인	-1820
▁슈퍼	-1821
▁수용	-1822
▁금지	-1823
리트	-1824
▁받아들	-1825
▁쓰이	-1826
▁",	-1827
▁카드	-1828
▁량	-1829
▁다리	-1830
▁캐릭터	-1831
시코	-1832
▁하계	-1833
▁외교	-1834
▁거부	-1835
▁남성	-1836
▁상호	-1837
▁박물	-1838
특별시	-1839
▁공작	-1840
▁;	-1841
▁관측	-1842
▁츠	-1843
▁삼성	-1844
▁짧	-1845
▁주제	-1846
▁임시	-1847
▁서울특별시	-1848
▁은퇴	-1849
▁주의	-1850
▁인식	-1851
▁복귀	-1852
▁다수	-1853
▁밝혀	-1854
▁장소	-1855
▁강원	-1856
▁v	-1857
▁빅	-1858
▁조성	-1859
▁바다	-1860
▁발사	-1861
▁기초	-1862
▁성격	-1863
th	-1864
▁근처	-1865
▁이외	-1866
▁개국	-1867
▁돼	-1868
▁화학	-1869
▁보수	-1870
▁의식	-1871
▁강력	-1872
▁반면	-1873
▁인사	-1874
▁1987	-1875
▁패배	-1876
▁38	-1877
▁소프트웨어	-1878
사카	-1879
▁접근	-1880
▁e	-1881
▁스위	-1882
▁둔	-1883
▁히로	-1884
▁1986	-1885
▁기여	-1886
▁단순	-1887
▁필리	-1888
▁먼저	-1889
ov	-1890
▁식물	-1891
▁회원	-1892
▁폰	-1893
▁서식	-1894
▁뇌	-1895
모토	-1896
▁기자	-1897
멕시코	-1898
▁오스	-1899
▁가문	-1900
주시	-1901
▁검사	-1902
▁아일랜드	-1903
▁34	-1904
▁경상남도	-1905
▁발행	-1906
▁코드	-1907
▁여름	-1908
▁오스트리아	-1909
▁해결	-1910
토리	-1911
▁중간	-1912
▁경상북도	-1913
▁형제	-1914
▁마이크	-1915
▁기계	-1916
레일리아	-1917
▁박물관	-1918
▁l	-1919
nd	-1920
▁번역	-1921
부르크	-1922
▁아무	-1923
▁지도자	-1924
▁나타내	-1925
ist	-1926
▁시행	-1927
▁만큼	-1928
▁유로	-1929
▁일정	-1930
▁1945	-1931
▁1984	-1932
▁흡	-1933
무원	-1934
▁세대	-1935
▁지적	-1936
▁성립	-1937
▁반란	-1938
▁디지	-1939
▁지상	-1940
▁지난	-1941
▁지하철	-1942
▁후기	-1943
▁아카	-1944
▁은행	-1945
▁델	-1946
▁도착	-1947
▁단어	-1948
▁스코	-1949
▁다만	-1950
▁기구	-1951
▁떨어진	-1952
낸다	-1953
▁렌	-1954
ie	-1955
▁파견	-1956
▁수많	-1957
▁그린	-1958
▁제시	-1959
▁차트	-1960
▁안전	-1961
▁붕	-1962
▁묘사	-1963
▁사이트	-1964
▁꾸	-1965
▁분포	-1966
▁이스	-1967
▁뉴스	-1968
▁1950	-1969
▁펜	-1970
▁유형	-1971
▁가져	-1972
▁죽음	-1973
▁혜	-1974
▁전시	-1975
▁권력	-1976
▁1985	-1977
▁위험	-1978
og	-1979
▁중단	-1980
▁극장	-1981
▁보존	-1982
▁90	-1983
▁활용	-1984
▁단위	-1985
▁본부	-1986
간다	-1987
▁굴	-1988
▁양식	-1989
▁셀	-1990
▁밖에	-1991
▁바꾸	-1992
▁오스트레일리아	-1993
베이	-1994
▁더불	-1995
▁순위	-1996
▁제기	-1997
▁하루	-1998
▁윈도	-1999
▁지식	-2000
▁여행	-2001
▁연장	-2002
▁협력	-2003
▁관광	-2004
▁죄	-2005
▁세웠	-2006
▁48	-2007
▁국회의원	-2008
▁근거	-2009
▁원소	-2010
▁민주당	-2011
▁확대	-2012
워크	-2013
▁태평	-2014
▁멕시코	-2015
▁동생	-2016
▁춘	-2017
▁으므로	-2018
▁나중	-2019
▁유니	-2020
▁세상	-2021
▁이루어진	-2022
▁린	-2023
▁겪	-2024
▁옆	-2025
임스	-2026
▁떠나	-2027
▁수비	-2028
워드	-2029
▁케이	-2030
▁네트	-2031
▁타이틀	-2032
▁촬	-2033
ap	-2034
▁완성	-2035
▁귀족	-2036
▁아시	-2037
▁쉬	-2038
▁내각	-2039
▁상징	-2040
▁특수	-2041
▁개통	-2042
▁본관	-2043
▁논란	-2044
▁숨	-2045
▁져	-2046
회사	-2047
▁생성	-2048
나이	-2049
▁문화재	-2050
▁윌리	-2051
▁수사	-2052
▁옹	-2053
▁이렇게	-2054
▁계승	-2055
▁캘	-2056
NA	-2057
가리	-2058
▁보유	-2059
▁부른다	-2060
▁대응	-2061
▁시청	-2062
ard	-2063
▁그렇	-2064
▁학위	-2065
▁혐	-2066
▁맹	-2067
▁멜	-2068
▁당선	-2069
▁해안	-2070
▁근무	-2071
▁유대	-2072
▁생명	-2073
▁장애	-2074
▁185	-2075
▁영상	-2076
▁총선	-2077
▁통하	-2078
▁밑	-2079
▁촬영	-2080
▁균	-2081
▁뮤직	-2082
▁1982	-2083
▁개정	-2084
어졌	-2085
▁유리	-2086
▁정치인	-2087
▁설정	-2088
▁공장	-2089
▁보였	-2090
▁삶	-2091
▁체결	-2092
▁위기	-2093
▁체포	-2094
▁달성	-2095
▁출생	-2096
▁무역	-2097
▁쌓	-2098
▁300	-2099
지션	-2100
▁아내	-2101
▁판단	-2102
▁이라고	-2103
소년	-2104
▁전라남도	-2105
▁기획	-2106
▁빨	-2107
니스	-2108
▁식민지	-2109
▁님	-2110
▁관찰	-2111
▁몇몇	-2112
▁전달	-2113
▁헝	-2114
▁주식	-2115
▁직후	-2116
가와	-2117
▁디지털	-2118
트로	-2119
▁가리키	-2120
▁음력	-2121
▁전략	-2122
▁상업	-2123
▁승격	-2124
철도	-2125
▁1983	-2126
est	-2127
▁Z	-2128
▁대륙	-2129
▁낳	-2130
▁소수	-2131
▁본래	-2132
▁도서관	-2133
모리	-2134
▁계산	-2135
▁37	-2136
▁측정	-2137
▁채널	-2138
▁주인공	-2139
▁질량	-2140
▁교체	-2141
▁다루	-2142
▁젊	-2143
▁국왕	-2144
▁종목	-2145
▁소장	-2146
▁천황	-2147
▁제정	-2148
▁카이	-2149
▁다카	-2150
▁홍콩	-2151
▁따른	-2152
▁투자	-2153
▁미군	-2154
▁이슬	-2155
▁싶	-2156
▁왼	-2157
▁얼마	-2158
▁감소	-2159
▁즐	-2160
▁마사	-2161
▁권리	-2162
▁계기	-2163
▁특성	-2164
▁천문	-2165
▁취임	-2166
▁오후	-2167
▁올리	-2168
▁홈런	-2169
▁궤도	-2170
▁포르투	-2171
▁MBC	-2172
트리	-2173
▁후쿠	-2174
▁의견	-2175
교회	-2176
▁밀도	-2177
▁',	-2178
▁옮겨	-2179
▁각종	-2180
▁공부	-2181
▁즉위	-2182
▁남북	-2183
▁이집	-2184
▁라인	-2185
▁오브	-2186
▁종료	-2187
▁이집트	-2188
ct	-2189
▁39	-2190
▁발매되	-2191
▁스튜	-2192
▁톤	-2193
▁성우	-2194
▁41	-2195
▁전차	-2196
▁베네	-2197
▁코치	-2198
▁윌리엄	-2199
▁이루어져	-2200
▁예수	-2201
▁장기	-2202
▁and	-2203
▁수정	-2204
▁충돌	-2205
▁강한	-2206
▁납	-2207
▁군인	-2208
▁전환	-2209
▁률	-2210
▁자격	-2211
▁읽	-2212
▁아키	-2213
▁주목	-2214
ess	-2215
ine	-2216
▁못한	-2217
▁크로	-2218
티나	-2219
ab	-2220
▁사회주의	-2221
▁은하	-2222
라도	-2223
아시아	-2224
▁184	-2225
▁시티	-2226
러운	-2227
▁벗	-2228
▁배경	-2229
티아	-2230
▁지위	-2231
▁소개	-2232
▁으면서	-2233
▁물론	-2234
▁래	-2235
▁1981	-2236
▁객	-2237
▁범죄	-2238
▁이주	-2239
▁해외	-2240
▁듀	-2241
▁신경	-2242
▁듣	-2243
▁습니다	-2244
▁실행	-2245
▁스키	-2246
▁만드	-2247
▁작성	-2248
▁잎	-2249
▁만약	-2250
▁병력	-2251
▁55	-2252
▁명예	-2253
▁인근	-2254
▁입학	-2255
▁보냈	-2256
▁청년	-2257
▁학문	-2258
▁텍	-2259
▁비밀	-2260
▁음식	-2261
▁지내	-2262
▁비용	-2263
▁개선	-2264
▁제거	-2265
▁국경	-2266
art	-2267
▁됨	-2268
▁저항	-2269
▁컬	-2270
▁네트워크	-2271
▁세이	-2272
▁1979	-2273
▁헨	-2274
리학	-2275
스카	-2276
▁병사	-2277
▁오사카	-2278
▁알렉산	-2279
▁II	-2280
▁세르	-2281
▁전사	-2282
▁가입	-2283
▁공군	-2284
▁나누	-2285
▁약간	-2286
▁준다	-2287
av	-2288
ity	-2289
▁가까운	-2290
▁이하	-2291
▁원정	-2292
▁시위	-2293
▁거대	-2294
▁미사일	-2295
▁합류	-2296
▁표면	-2297
▁신호	-2298
▁지진	-2299
▁51	-2300
▁터키	-2301
▁비트	-2302
▁썼	-2303
▁학년	-2304
ip	-2305
ak	-2306
▁1972	-2307
▁기후	-2308
▁둘러	-2309
▁명단	-2310
ud	-2311
▁변호	-2312
▁빼	-2313
▁자본	-2314
▁체육	-2315
어나	-2316
▁마치	-2317
▁'(	-2318
▁불린다	-2319
▁공급	-2320
▁제목	-2321
▁강원도	-2322
▁미래	-2323
전히	-2324
▁측면	-2325
▁충청남도	-2326
▁부모	-2327
▁결승전	-2328
▁도중	-2329
▁연극	-2330
▁자원	-2331
▁세종	-2332
▁등급	-2333
▁둥	-2334
▁이래	-2335
▁대수	-2336
▁1973	-2337
▁전반	-2338
▁건너	-2339
▁이란	-2340
▁신학	-2341
▁집중	-2342
▁무장	-2343
▁인수	-2344
▁갖추	-2345
▁그려	-2346
마크	-2347
▁엘리	-2348
▁재직	-2349
▁Al	-2350
▁노동자	-2351
버트	-2352
▁소송	-2353
▁펠	-2354
▁너무	-2355
▁일어난	-2356
▁광고	-2357
▁무렵	-2358
▁헝가리	-2359
▁랑	-2360
▁지점	-2361
오카	-2362
리포	-2363
▁바람	-2364
▁해방	-2365
도로	-2366
▁강조	-2367
▁42	-2368
▁촌	-2369
▁75	-2370
▁de	-2371
▁시내	-2372
▁인디	-2373
▁국방	-2374
▁겨울	-2375
▁이슬람	-2376
▁마련	-2377
igh	-2378
▁그해	-2379
▁라운드	-2380
아가	-2381
피아	-2382
▁터미	-2383
▁기회	-2384
▁농업	-2385
▁짓	-2386
▁외부	-2387
소리	-2388
▁엑	-2389
▁고종	-2390
▁나왔	-2391
▁뒷	-2392
▁찰	-2393
스티	-2394
ub	-2395
▁전력	-2396
▁핀란드	-2397
▁정착	-2398
▁증명	-2399
▁냉	-2400
▁양자	-2401
▁태평양	-2402
▁최소	-2403
▁온도	-2404
if	-2405
ill	-2406
▁다니	-2407
▁편집	-2408
▁울산	-2409
▁시킨	-2410
▁마쓰	-2411
▁가졌	-2412
▁2020	-2413
▁강의	-2414
▁전하	-2415
동안	-2416
▁에이	-2417
▁재산	-2418
▁제임스	-2419
▁셰	-2420
all	-2421
코드	-2422
▁400	-2423
▁양성	-2424
▁흰	-2425
▁현실	-2426
▁가격	-2427
▁합병	-2428
▁1974	-2429
▁건강	-2430
▁아우	-2431
▁잡지	-2432
▁블랙	-2433
▁동계	-2434
▁적극	-2435
▁180	-2436
▁br	-2437
▁불러	-2438
▁틀	-2439
▁녹음	-2440
베르	-2441
▁령	-2442
▁마리아	-2443
▁후지	-2444
▁부근	-2445
▁항성	-2446
▁동료	-2447
▁혐의	-2448
▁털	-2449
▁Re	-2450
▁대학원	-2451
▁허용	-2452
▁항상	-2453
▁위원장	-2454
▁포지션	-2455
▁금융	-2456
▁64	-2457
▁피아	-2458
▁상하	-2459
▁업체	-2460
▁터미널	-2461
▁근대	-2462
▁쇠	-2463
▁미디어	-2464
▁충분	-2465
▁183	-2466
▁범위	-2467
▁가스	-2468
▁인한	-2469
▁진화	-2470
▁숲	-2471
▁다섯	-2472
▁시인	-2473
▁장면	-2474
▁통제	-2475
▁전역	-2476
▁포르투갈	-2477
▁강제	-2478
▁콩	-2479
▁전선	-2480
▁유도	-2481
▁스위스	-2482
▁오리	-2483
ell	-2484
▁강점	-2485
▁1978	-2486
▁보고	-2487
▁엔터	-2488
▁재정	-2489
▁모스크	-2490
▁붕괴	-2491
▁신화	-2492
▁출발	-2493
▁중심지	-2494
디아	-2495
▁고전	-2496
▁그래서	-2497
▁개편	-2498
▁이미지	-2499
▁첨	-2500
▁스티	-2501
▁롤	-2502
▁흘	-2503
▁43	-2504
▁만족	-2505
▁꼬리	-2506
▁수립	-2507
▁얼굴	-2508
▁킬	-2509
▁민간	-2510
▁1976	-2511
▁이승	-2512
래프트	-2513
▁플로	-2514
▁붉	-2515
▁논문	-2516
▁매년	-2517
▁계급	-2518
▁법인	-2519
▁위성	-2520
ge	-2521
▁위협	-2522
스키	-2523
▁캘리포	-2524
▁군주	-2525
▁봄	-2526
▁철도역	-2527
▁확보	-2528
▁전개	-2529
▁여전히	-2530
▁라면	-2531
▁대장	-2532
주교	-2533
▁라며	-2534
▁캘리포니아	-2535
▁1971	-2536
▁구축	-2537
▁공업	-2538
테르	-2539
▁불가	-2540
▁카르	-2541
▁남편	-2542
▁폭발	-2543
▁이번	-2544
▁답	-2545
▁공주	-2546
▁임무	-2547
▁장식	-2548
▁수단	-2549
▁세운	-2550
▁에드	-2551
▁원칙	-2552
▁종이	-2553
▁겐	-2554
qu	-2555
ran	-2556
▁모리	-2557
▁필리핀	-2558
▁교사	-2559
▁남동	-2560
▁해도	-2561
▁냈	-2562
▁채택	-2563
▁불렀	-2564
▁|	-2565
▁고구	-2566
▁합의	-2567
▁1968	-2568
▁회복	-2569
▁스파	-2570
▁융	-2571
▁아주	-2572
▁Q	-2573
▁버리	-2574
▁귀국	-2575
▁수원	-2576
▁짐	-2577
▁섭	-2578
▁분자	-2579
▁세우	-2580
▁공공	-2581
▁승인	-2582
up	-2583
▁대기	-2584
▁1975	-2585
▁대형	-2586
▁꿈	-2587
▁1963	-2588
▁규칙	-2589
▁1969	-2590
▁떨어져	-2591
▁An	-2592
▁끊	-2593
ice	-2594
▁확실	-2595
▁의해서	-2596
▁장비	-2597
▁남아	-2598
▁선생	-2599
고리	-2600
니어	-2601
▁대대	-2602
▁증거	-2603
▁아름	-2604
▁아나	-2605
▁라이브	-2606
드로	-2607
▁인하	-2608
▁탑재	-2609
ik	-2610
CA	-2611
▁1920	-2612
▁낭	-2613
▁라틴	-2614
▁기지	-2615
▁선조	-2616
▁점차	-2617
ob	-2618
레이드	-2619
▁에게서	-2620
▁갖춘	-2621
▁샌	-2622
▁수입	-2623
▁조치	-2624
▁미치	-2625
▁해체	-2626
▁욕	-2627
▁그곳	-2628
▁좀	-2629
▁평양	-2630
▁Th	-2631
▁150	-2632
▁토지	-2633
▁환자	-2634
▁나카	-2635
▁열렸	-2636
▁잠시	-2637
▁44	-2638
▁우수	-2639
▁향상	-2640
▁1940	-2641
▁토론	-2642
키아	-2643
▁일원	-2644
▁힐	-2645
▁신설	-2646
▁가로	-2647
▁사후	-2648
문화	-2649
te	-2650
운동	-2651
▁거래	-2652
▁47	-2653
▁단지	-2654
▁편입	-2655
▁덴마크	-2656
▁나치	-2657
▁공산당	-2658
▁일어났	-2659
라노	-2660
▁경향	-2661
▁성인	-2662
▁이제	-2663
로드	-2664
▁캄	-2665
어들	-2666
▁강점기	-2667
▁독자	-2668
▁이스라	-2669
▁서양	-2670
▁기대	-2671
▁삼국	-2672
▁시각	-2673
▁킹	-2674
▁1930	-2675
▁롭	-2676
▁청나라	-2677
▁카메	-2678
ian	-2679
▁침공	-2680
▁46	-2681
▁경력	-2682
▁1977	-2683
▁선고	-2684
▁우선	-2685
▁하늘	-2686
▁쓰인다	-2687
▁종종	-2688
▁기억	-2689
▁간주	-2690
▁소년	-2691
▁클라	-2692
▁이끄	-2693
▁왕위	-2694
룬다	-2695
▁고양	-2696
▁보병	-2697
▁튀	-2698
▁불과	-2699
▁이스라엘	-2700
타인	-2701
▁CD	-2702
ph	-2703
▁삭	-2704
이크	-2705
▁스피	-2706
▁반도	-2707
▁살해	-2708
▁메이저	-2709
▁몽골	-2710
▁나뉘	-2711
▁주교	-2712
▁잭	-2713
▁모르	-2714
▁확정	-2715
▁숭	-2716
▁65	-2717
▁고구려	-2718
오스	-2719
▁1948	-2720
▁신앙	-2721
▁1964	-2722
▁랭	-2723
▁박쥐	-2724
▁띠	-2725
▁후손	-2726
▁181	-2727
▁태어난	-2728
▁의료	-2729
▁아야	-2730
음이	-2731
▁179	-2732
▁유학	-2733
▁경주	-2734
틀랜드	-2735
▁고문	-2736
▁전화	-2737
▁보장	-2738
▁회전	-2739
▁전설	-2740
▁아랍	-2741
▁사례	-2742
▁아라	-2743
▁알려졌	-2744
마스	-2745
▁바이러스	-2746
▁대립	-2747
▁자세	-2748
▁뛰어난	-2749
▁윈도우	-2750
▁어떻	-2751
▁보급	-2752
▁했었	-2753
▁나와	-2754
네시아	-2755
▁산맥	-2756
▁검찰	-2757
▁아르헨	-2758
▁연고	-2759
▁중화민국	-2760
▁x	-2761
our	-2762
▁읍	-2763
▁복잡	-2764
▁클래	-2765
▁브랜드	-2766
▁아메리카	-2767
▁폼	-2768
▁숫	-2769
▁구체	-2770
요시	-2771
원군	-2772
▁비율	-2773
▁인조	-2774
▁빠르	-2775
▁군단	-2776
▁함대	-2777
▁흔히	-2778
▁탄생	-2779
▁알리	-2780
▁재단	-2781
▁저장	-2782
▁방면	-2783
고기	-2784
▁조합	-2785
FC	-2786
보드	-2787
▁아르헨티나	-2788
▁창설	-2789
▁1962	-2790
▁투어	-2791
▁동음이	-2792
▁감염	-2793
▁동음이의	-2794
▁스리	-2795
▁연산	-2796
▁54	-2797
▁공학	-2798
▁r	-2799
▁판결	-2800
ne	-2801
▁원작	-2802
▁옷	-2803
▁성당	-2804
▁가사	-2805
▁이루어지	-2806
▁중부	-2807
▁스튜디오	-2808
▁태어나	-2809
▁순서	-2810
▁1967	-2811
▁솔로	-2812
▁의학	-2813
데미	-2814
▁1946	-2815
▁지시	-2816
▁자금	-2817
▁조금	-2818
▁지키	-2819
▁집행	-2820
▁감정	-2821
▁동의	-2822
▁참석	-2823
▁뿌	-2824
▁나폴	-2825
▁성과	-2826
▁시킬	-2827
▁Le	-2828
▁공기	-2829
▁보안	-2830
▁말기	-2831
▁청소년	-2832
▁초반	-2833
▁올렸	-2834
▁오픈	-2835
백질	-2836
없이	-2837
▁노예	-2838
▁예상	-2839
의회	-2840
▁우크	-2841
▁육상	-2842
▁본격	-2843
▁오른쪽	-2844
하라	-2845
▁암살	-2846
해졌	-2847
▁스타일	-2848
ive	-2849
▁공포	-2850
▁아파	-2851
▁대항	-2852
리스트	-2853
▁여객철도	-2854
▁Un	-2855
▁협상	-2856
▁스케	-2857
▁전라북도	-2858
▁전용	-2859
▁공무원	-2860
▁플레이어	-2861
▁이성	-2862
▁인상	-2863
▁아카데미	-2864
▁에피	-2865
▁시킨다	-2866
▁루이	-2867
▁1965	-2868
▁교토	-2869
▁운전	-2870
▁차별	-2871
일보	-2872
▁대비	-2873
▁53	-2874
▁켄	-2875
▁물러	-2876
▁전혀	-2877
▁왼쪽	-2878
▁비난	-2879
일러	-2880
▁북서	-2881
▁헤이	-2882
▁관료	-2883
다이	-2884
▁별도	-2885
▁kg	-2886
▁전후	-2887
▁변호사	-2888
▁애플	-2889
▁오전	-2890
▁스크	-2891
▁중반	-2892
▁직원	-2893
▁냐	-2894
▁잘못	-2895
▁1949	-2896
▁통한	-2897
▁항복	-2898
ST	-2899
▁덮	-2900
▁Ne	-2901
▁De	-2902
네스	-2903
▁묻	-2904
▁주위	-2905
▁사전	-2906
▁서기	-2907
▁1961	-2908
▁LG	-2909
▁사항	-2910
▁북동	-2911
▁이익	-2912
▁56	-2913
▁온라인	-2914
▁수여	-2915
▁re	-2916
각형	-2917
▁베이스	-2918
▁공유	-2919
▁연합군	-2920
우드	-2921
▁유적	-2922
▁단백질	-2923
▁52	-2924
▁넘어	-2925
▁법칙	-2926
▁1966	-2927
▁핵심	-2928
▁Ar	-2929
▁카를	-2930
▁입자	-2931
▁건국	-2932
▁모스크바	-2933
▁스카	-2934
▁태풍	-2935
▁어린이	-2936
▁고정	-2937
▁게이	-2938
▁역대	-2939
▁장착	-2940
▁투입	-2941
▁만주	-2942
▁단일	-2943
▁바라	-2944
▁광역시	-2945
▁돌아가	-2946
▁사령관	-2947
▁저지	-2948
▁추측	-2949
▁롯	-2950
▁강하	-2951
▁아시안	-2952
▁요한	-2953
▁제자	-2954
에르	-2955
▁레코드	-2956
▁소식	-2957
▁교류	-2958
사키	-2959
▁고향	-2960
▁유엔	-2961
로나	-2962
▁산하	-2963
ea	-2964
▁아스	-2965
▁본인	-2966
▁중세	-2967
▁수출	-2968
▁건조	-2969
▁열리	-2970
셔널	-2971
▁뽑	-2972
레이션	-2973
▁텐	-2974
▁요새	-2975
반도	-2976
▁저서	-2977
▁앞서	-2978
싱턴	-2979
▁셋	-2980
터리	-2981
▁오히	-2982
▁플랫	-2983
▁의장	-2984
▁Mar	-2985
▁권한	-2986
▁협정	-2987
ry	-2988
▁마크	-2989
▁벡	-2990
▁노르웨이	-2991
트라	-2992
▁코미	-2993
퍼스	-2994
▁오랜	-2995
▁집안	-2996
▁SBS	-2997
io	-2998
▁무리	-2999
▁숫자	-3000
▁성질	-3001
▁인가	-3002
▁사장	-3003
▁베를	-3004
▁김정	-3005
▁출장	-3006
▁보조	-3007
ong	-3008
소드	-3009
▁라도	-3010
▁상품	-3011
▁불렸	-3012
▁붙여	-3013
바이	-3014
▁경성	-3015
▁마드리	-3016
▁방출	-3017
▁탁	-3018
▁구별	-3019
▁짜	-3020
▁사우	-3021
▁에선	-3022
▁아침	-3023
▁하드	-3024
▁호텔	-3025
▁선수단	-3026
▁49	-3027
▁창조	-3028
▁창립	-3029
무라	-3030
▁오토	-3031
▁마드리드	-3032
▁목사	-3033
▁지니	-3034
▁합성	-3035
▁금메달	-3036
▁군수	-3037
▁스코틀랜드	-3038
▁안타	-3039
▁정비	-3040
▁운용	-3041
▁개시	-3042
▁건립	-3043
▁작곡가	-3044
▁00	-3045
▁프란	-3046
▁인류	-3047
▁사법	-3048
▁금속	-3049
오프	-3050
▁원주	-3051
▁인정받	-3052
▁유전자	-3053
▁댄	-3054
▁본명	-3055
▁출입	-3056
▁베이징	-3057
▁낸	-3058
▁정복	-3059
▁지닌	-3060
▁공산주의	-3061
▁브리	-3062
▁생겨	-3063
▁활발	-3064
▁절대	-3065
▁주기	-3066
ss	-3067
▁포위	-3068
▁한국어	-3069
▁취급	-3070
▁PC	-3071
▁멸망	-3072
▁구속	-3073
▁통해서	-3074
▁논의	-3075
▁헨리	-3076
▁마침	-3077
▁흡수	-3078
▁슬로	-3079
▁빙	-3080
▁죽이	-3081
▁판서	-3082
▁일으키	-3083
▁켈	-3084
▁효율	-3085
▁오히려	-3086
▁택	-3087
▁진다	-3088
▁코스	-3089
▁고유	-3090
ib	-3091
▁159	-3092
▁학부	-3093
▁보컬	-3094
▁전공	-3095
▁거절	-3096
ant	-3097
▁신성	-3098
▁인공	-3099
▁어떻게	-3100
▁US	-3101
▁복합	-3102
▁명성	-3103
▁들어갔	-3104
▁58	-3105
ight	-3106
▁훨	-3107
▁인권	-3108
ect	-3109
▁지낸	-3110
미터	-3111
▁내렸	-3112
▁160	-3113
산시	-3114
▁제출	-3115
▁히데	-3116
BO	-3117
▁소방	-3118
▁맛	-3119
▁내리	-3120
노스	-3121
▁소녀	-3122
▁현장	-3123
퍼드	-3124
ich	-3125
▁의무	-3126
▁부활	-3127
▁한자	-3128
▁노부	-3129
▁투쟁	-3130
카와	-3131
▁99	-3132
▁재위	-3133
▁훨씬	-3134
▁워싱턴	-3135
▁st	-3136
▁관직	-3137
▁부장	-3138
▁1958	-3139
▁간단	-3140
▁원리	-3141
▁미터	-3142
▁영업	-3143
▁61	-3144
▁일대	-3145
문화재	-3146
▁시점	-3147
독부	-3148
▁생기	-3149
▁파라	-3150
▁아테	-3151
▁접하	-3152
▁써	-3153
▁포기	-3154
▁플라	-3155
▁아미	-3156
ert	-3157
▁62	-3158
ang	-3159
▁시호	-3160
▁임금	-3161
▁불상	-3162
▁속한다	-3163
▁자라	-3164
▁반복	-3165
▁본사	-3166
다리	-3167
▁수송	-3168
▁어렵	-3169
▁천체	-3170
▁아름다	-3171
▁전철	-3172
▁북아	-3173
▁1941	-3174
▁178	-3175
▁십자	-3176
▁찍	-3177
▁취득	-3178
▁심각	-3179
▁형사	-3180
▁예산	-3181
▁1956	-3182
▁동원	-3183
▁직전	-3184
▁장교	-3185
▁갈등	-3186
▁릴	-3187
▁지붕	-3188
▁일치	-3189
▁1944	-3190
▁미니	-3191
▁논리	-3192
ue	-3193
▁코미디	-3194
비드	-3195
▁대리	-3196
▁보험	-3197
▁성경	-3198
▁머물	-3199
▁Com	-3200
카이도	-3201
▁학술	-3202
▁박정	-3203
▁사령부	-3204
▁레드	-3205
▁더라도	-3206
▁항공기	-3207
▁소스	-3208
▁장악	-3209
▁노스	-3210
도르	-3211
▁비록	-3212
▁보스	-3213
OS	-3214
▁직업	-3215
▁견해	-3216
▁이른	-3217
▁메시	-3218
▁태국	-3219
▁백제	-3220
▁폴리	-3221
▁주관	-3222
▁인터뷰	-3223
▁57	-3224
▁해상	-3225
▁인종	-3226
▁멘	-3227
▁김영	-3228
▁연재	-3229
▁Sh	-3230
▁해졌	-3231
▁공화	-3232
▁승진	-3233
▁에피소드	-3234
▁취하	-3235
▁95	-3236
▁포도	-3237
▁충청북도	-3238
▁농민	-3239
▁수술	-3240
▁전부	-3241
▁좁	-3242
ens	-3243
나이티	-3244
서트	-3245
ort	-3246
▁논쟁	-3247
▁불법	-3248
▁렀	-3249
▁학회	-3250
▁말레이	-3251
▁정원	-3252
▁통상	-3253
▁유나이티	-3254
▁신체	-3255
▁진보	-3256
▁혼란	-3257
▁성능	-3258
ain	-3259
▁글로	-3260
▁중대	-3261
리어	-3262
▁명명	-3263
▁방사	-3264
기에	-3265
▁66	-3266
▁정지	-3267
▁사태	-3268
▁화물	-3269
ys	-3270
▁이기	-3271
▁이치	-3272
▁개체	-3273
▁약속	-3274
ate	-3275
▁꼭	-3276
▁허가	-3277
▁프로세	-3278
▁학과	-3279
▁베를린	-3280
▁그레	-3281
▁벼	-3282
쿠라	-3283
▁친일	-3284
▁자이	-3285
데스	-3286
▁제일	-3287
▁편지	-3288
▁1947	-3289
▁다며	-3290
▁해양	-3291
▁플레이오프	-3292
▁연관	-3293
▁블루	-3294
▁시리아	-3295
▁주식회사	-3296
▁도구	-3297
▁주간	-3298
▁주택	-3299
▁자는	-3300
▁거기	-3301
▁교환	-3302
▁채용	-3303
▁기호	-3304
▁분쟁	-3305
▁주전	-3306
▁하위	-3307
▁화면	-3308
▁메인	-3309
▁빠른	-3310
병대	-3311
▁합격	-3312
다가	-3313
아버지	-3314
▁해산	-3315
▁대화	-3316
▁모드	-3317
▁통계	-3318
▁앞두	-3319
▁Pro	-3320
▁알아	-3321
누스	-3322
▁청구	-3323
▁국장	-3324
▁요코	-3325
▁남서	-3326
▁신분	-3327
▁국도	-3328
▁다운	-3329
▁..	-3330
▁닥	-3331
▁훗	-3332
▁학원	-3333
▁상당히	-3334
▁1959	-3335
▁닌	-3336
▁영입	-3337
▁재료	-3338
▁폭력	-3339
▁연료	-3340
▁출마	-3341
▁미드	-3342
▁임의	-3343
▁FA	-3344
▁선교	-3345
▁자살	-3346
▁철수	-3347
▁그런데	-3348
▁일으켰	-3349
▁상륙	-3350
▁보관	-3351
▁여부	-3352
▁그리스도	-3353
▁응용	-3354
▁도달	-3355
▁이어지	-3356
▁1939	-3357
에트	-3358
end	-3359
▁모아	-3360
▁1919	-3361
▁Sp	-3362
▁유물	-3363
▁넷	-3364
▁후원	-3365
▁교차	-3366
▁타이완	-3367
▁항구	-3368
▁니콜	-3369
▁미나	-3370
▁1954	-3371
▁변환	-3372
▁브레	-3373
르타	-3374
▁백작	-3375
▁88	-3376
▁파크	-3377
▁제어	-3378
▁SK	-3379
▁축제	-3380
▁반발	-3381
▁트랙	-3382
▁갈라	-3383
▁모여	-3384
▁부사	-3385
▁흐르	-3386
▁무엇	-3387
▁콘서트	-3388
▁1000	-3389
▁디스	-3390
▁탈출	-3391
▁63	-3392
▁로드	-3393
▁리더	-3394
▁베스트	-3395
▁고용	-3396
▁떠났	-3397
▁진입	-3398
▁이승만	-3399
▁수집	-3400
▁방송국	-3401
▁세인트	-3402
ly	-3403
▁엠	-3404
세이	-3405
▁쳐	-3406
▁예비	-3407
▁동작	-3408
▁68	-3409
▁장수	-3410
▁벨기에	-3411
▁서버	-3412
▁구성원	-3413
▁당한	-3414
▁1952	-3415
▁복무	-3416
▁아사	-3417
정부	-3418
▁감사	-3419
하마	-3420
▁작사	-3421
▁빠져	-3422
▁프리미	-3423
▁85	-3424
▁계통	-3425
▁저작	-3426
▁i	-3427
▁반영	-3428
▁전파	-3429
천시	-3430
▁이민	-3431
▁창단	-3432
▁인도네시아	-3433
▁정체	-3434
▁활성	-3435
▁무덤	-3436
▁부임	-3437
▁문헌	-3438
▁대략	-3439
▁진압	-3440
▁핑	-3441
▁망명	-3442
▁마이클	-3443
▁고도	-3444
▁니시	-3445
▁영향력	-3446
▁훗날	-3447
로그	-3448
▁생긴	-3449
▁신청	-3450
▁수소	-3451
준다	-3452
▁고리	-3453
▁연안	-3454
▁주년	-3455
▁포로	-3456
▁독립운동	-3457
정식	-3458
▁위반	-3459
▁웨스트	-3460
▁프라	-3461
▁한때	-3462
▁가을	-3463
▁위상	-3464
▁학습	-3465
이어	-3466
▁182	-3467
▁콤	-3468
▁현지	-3469
▁롯데	-3470
▁보낸	-3471
▁스마	-3472
▁전문가	-3473
▁공통	-3474
▁글자	-3475
▁로운	-3476
드시	-3477
▁보물	-3478
▁별명	-3479
▁문장	-3480
▁스토	-3481
▁120	-3482
▁상승	-3483
▁다스	-3484
▁팝	-3485
▁식품	-3486
▁화성	-3487
▁캠퍼스	-3488
ord	-3489
▁각본	-3490
▁177	-3491
▁지급	-3492
▁막부	-3493
▁누구	-3494
▁기도	-3495
▁좌우	-3496
▁일본군	-3497
▁홋	-3498
▁기법	-3499
▁외국인	-3500
▁선보	-3501
시스	-3502
▁여야	-3503
페라	-3504
▁소비에트	-3505
▁기하	-3506
▁하우스	-3507
▁개조	-3508
▁임대	-3509
▁Con	-3510
▁탄소	-3511
▁이룬다	-3512
▁배출	-3513
▁관점	-3514
▁흉	-3515
머스	-3516
▁1955	-3517
▁86	-3518
▁물체	-3519
▁임진	-3520
▁1942	-3521
▁정기	-3522
▁마케	-3523
▁원년	-3524
▁테러	-3525
▁실수	-3526
천군	-3527
▁동아	-3528
▁발언	-3529
▁참고	-3530
리케	-3531
▁로버트	-3532
▁한반도	-3533
▁신인	-3534
▁판사	-3535
▁스러운	-3536
▁늦	-3537
▁동성	-3538
▁전주	-3539
라비아	-3540
▁카메라	-3541
▁체코	-3542
▁횡	-3543
▁시조	-3544
▁덧	-3545
▁처형	-3546
▁쫓	-3547
저우	-3548
▁1953	-3549
▁98	-3550
▁주둔	-3551
▁수리	-3552
▁탈락	-3553
▁반드시	-3554
▁광장	-3555
▁어떠	-3556
uc	-3557
▁연출	-3558
▁조작	-3559
▁출간	-3560
▁도망	-3561
▁도와	-3562
▁1957	-3563
▁오스만	-3564
▁대개	-3565
ER	-3566
▁호수	-3567
▁국무	-3568
▁리스	-3569
▁살인	-3570
▁예측	-3571
▁포트	-3572
▁녹색	-3573
▁남겼	-3574
▁동남	-3575
▁스럽	-3576
ON	-3577
oh	-3578
ver	-3579
▁~)	-3580
▁변형	-3581
▁사립	-3582
▁이뤄	-3583
▁히트	-3584
▁갤	-3585
▁800	-3586
▁사운드	-3587
▁to	-3588
▁는가	-3589
▁절차	-3590
▁뿌리	-3591
▁농구	-3592
▁둘째	-3593
▁파트	-3594
▁김일	-3595
▁서원	-3596
▁맞이	-3597
▁엑스	-3598
▁나갔	-3599
▁1943	-3600
▁손자	-3601
▁메모리	-3602
자기	-3603
▁큐	-3604
▁600	-3605
▁라이트	-3606
▁뜨	-3607
▁락	-3608
▁특이	-3609
▁방정식	-3610
▁압력	-3611
▁72	-3612
▁왕자	-3613
▁넓이	-3614
▁장르	-3615
▁기체	-3616
▁끝나	-3617
▁개신	-3618
▁선전	-3619
▁생존	-3620
▁등지	-3621
▁71	-3622
AR	-3623
▁IS	-3624
▁심리	-3625
▁터널	-3626
▁콘스탄	-3627
▁%,	-3628
▁싸움	-3629
▁전형	-3630
치아	-3631
▁법정	-3632
▁참전	-3633
▁파악	-3634
▁일본인	-3635
▁82	-3636
▁분열	-3637
▁자녀	-3638
▁간행	-3639
▁살아	-3640
▁황금	-3641
▁목소리	-3642
▁묶	-3643
▁전면	-3644
▁톱	-3645
▁벡터	-3646
▁기둥	-3647
▁톰	-3648
▁부부	-3649
릭스	-3650
▁74	-3651
메리	-3652
듀서	-3653
▁프로듀서	-3654
▁헤르	-3655
▁우스	-3656
▁타격	-3657
▁취소	-3658
수록	-3659
▁신뢰	-3660
▁의도	-3661
▁올려	-3662
▁이온	-3663
▁된다는	-3664
▁트랜	-3665
ast	-3666
▁59	-3667
▁범주	-3668
▁공동체	-3669
▁구하	-3670
▁독특	-3671
▁스미	-3672
▁중기	-3673
▁부하	-3674
▁진주	-3675
ff	-3676
라드	-3677
▁제대로	-3678
AS	-3679
▁방지	-3680
▁일찍	-3681
방송	-3682
▁곽	-3683
▁싸우	-3684
ok	-3685
▁예전	-3686
▁전동	-3687
▁분명	-3688
키스탄	-3689
▁73	-3690
▁삽	-3691
▁꺾	-3692
▁실질	-3693
▁픽	-3694
▁웅	-3695
▁물리학	-3696
▁버렸	-3697
▁이중	-3698
▁매일	-3699
▁노벨	-3700
▁조절	-3701
lan	-3702
▁81	-3703
▁수영	-3704
▁최다	-3705
▁지리	-3706
▁분할	-3707
▁엄청	-3708
▁아파트	-3709
▁영화제	-3710
에이	-3711
▁민법	-3712
▁여단	-3713
AT	-3714
▁풍부	-3715
바라	-3716
틀러	-3717
▁로켓	-3718
▁빼앗	-3719
▁76	-3720
▁모형	-3721
▁레스	-3722
▁끝난	-3723
▁흑인	-3724
▁타임	-3725
▁천연	-3726
▁숙종	-3727
▁대법	-3728
▁집권	-3729
▁당초	-3730
우리	-3731
▁사마	-3732
▁161	-3733
▁독일군	-3734
▁유치	-3735
공항	-3736
바르	-3737
▁부진	-3738
▁분기	-3739
▁효소	-3740
▁스토리	-3741
▁셔	-3742
▁둘러싸	-3743
▁현역	-3744
▁브루	-3745
▁루트	-3746
▁요인	-3747
▁메이지	-3748
▁쓸	-3749
▁광복	-3750
▁희망	-3751
▁질병	-3752
▁시카	-3753
▁유기	-3754
▁움직임	-3755
▁오프	-3756
▁공정	-3757
▁선거구	-3758
▁묵	-3759
▁달하	-3760
▁나뉜	-3761
▁트로	-3762
▁레오	-3763
ae	-3764
▁완공	-3765
▁이시	-3766
포르	-3767
▁보건	-3768
▁우려	-3769
▁전신	-3770
어스	-3771
▁성향	-3772
▁랜	-3773
▁날개	-3774
▁달라	-3775
▁모임	-3776
▁오페라	-3777
▁흘러	-3778
▁새겨	-3779
▁나타났	-3780
▁1936	-3781
▁나타난다	-3782
대부	-3783
▁77	-3784
▁마법	-3785
▁편찬	-3786
▁향해	-3787
▁67	-3788
▁구현	-3789
▁샘	-3790
▁전원	-3791
▁등판	-3792
▁91	-3793
▁방해	-3794
▁사형	-3795
▁롱	-3796
▁의존	-3797
▁정하	-3798
▁태조	-3799
▁복지	-3800
▁마침내	-3801
▁사냥	-3802
성군	-3803
▁기온	-3804
▁페이	-3805
▁대공	-3806
▁테이	-3807
▁세르비아	-3808
타르	-3809
▁단독	-3810
▁향하	-3811
▁맞추	-3812
▁1938	-3813
▁팽	-3814
▁피아노	-3815
▁충격	-3816
▁각지	-3817
▁데이비드	-3818
티브	-3819
▁문명	-3820
▁상원	-3821
▁분위	-3822
ure	-3823
▁작위	-3824
▁프로그래	-3825
▁그때	-3826
▁출범	-3827
man	-3828
▁처벌	-3829
▁희생	-3830
믹스	-3831
▁났	-3832
▁조종	-3833
크스	-3834
▁한계	-3835
▁탐사	-3836
사자	-3837
▁사정	-3838
▁뮤지	-3839
▁함락	-3840
▁띄	-3841
▁발음	-3842
프리	-3843
▁미국인	-3844
▁백성	-3845
▁징역	-3846
▁기기	-3847
▁명확	-3848
▁으려	-3849
▁국제공항	-3850
▁밝히	-3851
▁젠	-3852
학생	-3853
▁화재	-3854
▁AT	-3855
▁완료	-3856
▁뚜	-3857
▁순환	-3858
▁명나라	-3859
▁추천	-3860
▁성분	-3861
▁동기	-3862
▁오랫	-3863
▁추구	-3864
▁크리	-3865
▁점점	-3866
▁포인트	-3867
iz	-3868
▁공로	-3869
▁순수	-3870
▁영웅	-3871
▁임기	-3872
▁동서	-3873
▁KBO	-3874
▁바위	-3875
다는	-3876
먼트	-3877
▁저술	-3878
질랜드	-3879
이치	-3880
▁언제	-3881
▁플래	-3882
▁경로	-3883
▁회담	-3884
▁1910	-3885
▁근본	-3886
▁서명	-3887
젤레스	-3888
▁시드	-3889
피스	-3890
▁뉴질랜드	-3891
one	-3892
▁SS	-3893
▁평안	-3894
▁모토	-3895
▁양쪽	-3896
▁훌	-3897
▁사원	-3898
▁개신교	-3899
▁이자	-3900
▁이닝	-3901
▁개막	-3902
▁순간	-3903
▁원형	-3904
▁Me	-3905
▁오랫동안	-3906
▁무시	-3907
▁닛	-3908
▁영지	-3909
▁된다고	-3910
▁96	-3911
▁일식	-3912
연히	-3913
BA	-3914
라이나	-3915
▁승부	-3916
▁복수	-3917
▁구원	-3918
▁1937	-3919
▁교구	-3920
▁사임	-3921
▁파르	-3922
▁첼	-3923
▁가상	-3924
▁동명	-3925
리히	-3926
▁타자	-3927
▁연구원	-3928
▁변수	-3929
ld	-3930
▁새롭	-3931
▁인접	-3932
▁무게	-3933
▁한국인	-3934
▁스탠	-3935
▁분해	-3936
ust	-3937
▁도쿠	-3938
▁출력	-3939
▁루이스	-3940
▁한정	-3941
▁DNA	-3942
▁한글	-3943
▁서구	-3944
숭이	-3945
▁알파	-3946
▁조조	-3947
▁병합	-3948
▁기상	-3949
▁유행	-3950
▁적절	-3951
▁바깥	-3952
▁어도	-3953
▁해리	-3954
▁한다면	-3955
▁꼽	-3956
▁실현	-3957
▁확률	-3958
▁유형문화재	-3959
▁포항	-3960
▁%)	-3961
▁1951	-3962
▁그래픽	-3963
시오	-3964
▁신부	-3965
▁제사	-3966
▁공헌	-3967
▁발굴	-3968
▁연간	-3969
▁내전	-3970
▁펼쳐	-3971
▁175	-3972
▁1935	-3973
이센	-3974
▁먹이	-3975
무부	-3976
▁안동	-3977
ore	-3978
▁에서부터	-3979
▁캔	-3980
▁상위	-3981
▁포켓	-3982
▁""	-3983
▁침략	-3984
▁급제	-3985
▁170	-3986
▁특별시	-3987
의정	-3988
▁앉	-3989
▁합쳐	-3990
▁행렬	-3991
▁나아가	-3992
▁사실상	-3993
▁이라크	-3994
▁사제	-3995
▁떨어지	-3996
▁입니다	-3997
▁정해	-3998
▁He	-3999
▁코르	-4000
▁홍보	-4001
▁느끼	-4002
텐츠	-4003
▁화산	-4004
배우	-4005
베스	-4006
▁드라이	-4007
민주	-4008
▁고지	-4009
▁줄기	-4010
▁악화	-4011
▁증상	-4012
▁진정	-4013
▁춤	-4014
▁교향	-4015
▁프린	-4016
▁레인	-4017
▁복원	-4018
▁민중	-4019
은행	-4020
▁1918	-4021
거운	-4022
▁여왕	-4023
▁DV	-4024
▁나들	-4025
왜란	-4026
▁임진왜란	-4027
▁조별	-4028
▁태종	-4029
▁여론	-4030
▁움직이	-4031
▁심사	-4032
▁리가	-4033
▁연예	-4034
▁개입	-4035
▁동해	-4036
디션	-4037
▁앵	-4038
▁com	-4039
유럽	-4040
ack	-4041
▁무사	-4042
▁78	-4043
▁통산	-4044
▁일본어	-4045
▁섞	-4046
▁수석	-4047
▁마르크	-4048
▁NH	-4049
▁태도	-4050
▁1914	-4051
▁혼합	-4052
▁프리미어	-4053
리노	-4054
▁자전	-4055
▁박정희	-4056
▁분위기	-4057
▁페르시아	-4058
라이언	-4059
▁상역	-4060
▁중력	-4061
▁알렉산드	-4062
▁시마	-4063
▁고속도로	-4064
▁사무실	-4065
▁방위	-4066
▁1932	-4067
▁발발	-4068
▁문신	-4069
▁정수	-4070
▁받아들여	-4071
▁기울	-4072
▁악기	-4073
ith	-4074
사스	-4075
▁경전	-4076
▁미야	-4077
▁하나님	-4078
▁아프	-4079
▁어깨	-4080
▁의심	-4081
▁87	-4082
▁나들목	-4083
▁승객	-4084
비치	-4085
▁평등	-4086
에른	-4087
▁입력	-4088
▁확산	-4089
브리	-4090
▁곱	-4091
▁과학자	-4092
▁사자	-4093
▁대왕	-4094
▁갈색	-4095
▁AP	-4096
▁세리	-4097
▁단편	-4098
▁복음	-4099
▁가시	-4100
▁지형	-4101
투스	-4102
IA	-4103
▁신자	-4104
▁92	-4105
▁홋카이도	-4106
▁비평	-4107
▁클레	-4108
▁아테네	-4109
▁Be	-4110
▁흐름	-4111
▁멀리	-4112
▁닉	-4113
▁84	-4114
▁176	-4115
▁가진다	-4116
이너	-4117
▁올해	-4118
▁가담	-4119
▁아이돌	-4120
▁93	-4121
▁람	-4122
▁자식	-4123
▁찰스	-4124
레옹	-4125
▁그라	-4126
TV	-4127
▁재건	-4128
▁163	-4129
▁97	-4130
▁아동	-4131
▁동양	-4132
▁IC	-4133
▁뮤지컬	-4134
▁미쓰	-4135
▁나폴레옹	-4136
▁재배	-4137
마니아	-4138
▁왕실	-4139
▁침입	-4140
ug	-4141
▁창원	-4142
▁지사	-4143
▁그레이	-4144
▁리처	-4145
▁확립	-4146
▁162	-4147
▁스마트	-4148
▁가량	-4149
▁지켜	-4150
▁의혹	-4151
▁마무	-4152
▁겹	-4153
▁로스앤	-4154
▁로스앤젤레스	-4155
▁다케	-4156
코스	-4157
▁저녁	-4158
▁접촉	-4159
▁전직	-4160
하여	-4161
▁자극	-4162
▁션	-4163
▁감시	-4164
▁장남	-4165
▁우라	-4166
▁뱅	-4167
▁속한	-4168
▁나뉜다	-4169
▁대량	-4170
▁You	-4171
▁깃	-4172
▁균형	-4173
▁조차	-4174
ial	-4175
▁승려	-4176
▁실력	-4177
▁Se	-4178
▁주최	-4179
▁어디	-4180
▁재학	-4181
▁호주	-4182
▁거듭	-4183
▁액션	-4184
▁프랑크	-4185
▁164	-4186
▁카라	-4187
▁1933	-4188
▁퀸	-4189
▁트라	-4190
▁입법	-4191
▁평론	-4192
러리	-4193
▁쌀	-4194
▁개설	-4195
▁처분	-4196
▁에르	-4197
▁유한	-4198
▁말레이시아	-4199
▁김대	-4200
▁사도	-4201
▁듯이	-4202
▁빌딩	-4203
일스	-4204
▁대선	-4205
버그	-4206
더스	-4207
▁점수	-4208
▁정조	-4209
▁주력	-4210
▁윗	-4211
▁돌아왔	-4212
▁바이에른	-4213
▁비상	-4214
▁다소	-4215
▁벌였	-4216
▁바닥	-4217
▁프로이센	-4218
▁보살	-4219
▁시사	-4220
▁후속	-4221
▁학살	-4222
▁밝혀졌	-4223
▁수도원	-4224
▁158	-4225
▁참모	-4226
▁리버	-4227
▁영조	-4228
▁시카고	-4229
▁일시	-4230
▁1924	-4231
▁참조	-4232
▁치러	-4233
▁폭탄	-4234
▁텍사스	-4235
필더	-4236
▁탈퇴	-4237
▁벗어나	-4238
▁미드필더	-4239
▁일상	-4240
▁어려운	-4241
▁아티	-4242
메이	-4243
▁수익	-4244
▁웨이	-4245
▁비서	-4246
▁심지	-4247
▁보고서	-4248
▁부지	-4249
▁네이	-4250
▁동방	-4251
▁상관	-4252
▁대지	-4253
▁석유	-4254
▁1934	-4255
▁가공	-4256
▁아리	-4257
▁인증	-4258
▁커뮤	-4259
▁김일성	-4260
▁1900	-4261
▁따로	-4262
▁프라이	-4263
▁후계	-4264
ational	-4265
▁대성	-4266
▁1928	-4267
▁혁신	-4268
▁Am	-4269
▁김성	-4270
조합	-4271
▁데스	-4272
▁왕후	-4273
▁165	-4274
▁끝내	-4275
▁산화	-4276
▁피하	-4277
▁도요	-4278
▁훈장	-4279
▁아름다운	-4280
▁녀	-4281
▁개성	-4282
▁156	-4283
▁공중	-4284
▁쾌	-4285
▁69	-4286
▁국정	-4287
▁바둑	-4288
▁옮겼	-4289
▁오카	-4290
▁나온다	-4291
ind	-4292
▁좋아	-4293
▁총회	-4294
▁개칭	-4295
▁기에	-4296
▁알바	-4297
▁조카	-4298
▁기소	-4299
▁커뮤니	-4300
▁정차	-4301
▁돕	-4302
▁계층	-4303
▁유통	-4304
▁절반	-4305
▁창작	-4306
▁지향	-4307
▁잠수	-4308
▁암호	-4309
▁가까이	-4310
▁이른다	-4311
▁튜	-4312
▁불만	-4313
▁주어진	-4314
▁여섯	-4315
▁내셔널	-4316
ath	-4317
▁총장	-4318
▁에드워드	-4319
▁화장	-4320
▁이혼	-4321
▁나타낸다	-4322
▁700	-4323
EC	-4324
▁백만	-4325
▁그만	-4326
▁일컫	-4327
일리	-4328
▁메리	-4329
▁세자	-4330
▁부담	-4331
▁신사	-4332
▁인용	-4333
▁혼인	-4334
▁FM	-4335
▁히틀러	-4336
▁폐쇄	-4337
▁101	-4338
ock	-4339
▁89	-4340
▁th	-4341
▁스프	-4342
▁y	-4343
▁역학	-4344
가락	-4345
▁콘스탄티	-4346
▁당나라	-4347
▁마시	-4348
▁무한	-4349
체스터	-4350
▁청주	-4351
아티아	-4352
▁크로아티아	-4353
▁벌이	-4354
▁매장	-4355
▁그렇게	-4356
▁뮌	-4357
▁선임	-4358
▁발탁	-4359
▁168	-4360
▁가와	-4361
ory	-4362
▁심장	-4363
▁는다는	-4364
▁부산광역시	-4365
▁이명	-4366
▁후쿠오카	-4367
▁설득	-4368
▁AFC	-4369
▁누르	-4370
ont	-4371
▁도전	-4372
▁힙	-4373
토스	-4374
ment	-4375
▁권위	-4376
▁고통	-4377
▁En	-4378
▁왕비	-4379
▁력	-4380
▁보상	-4381
해서	-4382
▁심판	-4383
▁94	-4384
▁루마니아	-4385
직자	-4386
▁센트	-4387
▁긍	-4388
▁김종	-4389
▁드래프트	-4390
▁메시지	-4391
▁140	-4392
▁골든	-4393
▁on	-4394
▁당국	-4395
▁랜드	-4396
▁께	-4397
▁밥	-4398
▁작동	-4399
터스	-4400
▁선박	-4401
▁손상	-4402
▁DVD	-4403
▁속해	-4404
▁고기	-4405
▁마무리	-4406
▁대체로	-4407
▁오직	-4408
▁화합	-4409
▁154	-4410
▁돌아와	-4411
▁라틴어	-4412
▁83	-4413
▁총독	-4414
▁본질	-4415
▁무료	-4416
▁하인	-4417
▁디아	-4418
나가	-4419
▁학사	-4420
▁벌어진	-4421
▁의지	-4422
▁원수	-4423
▁포켓몬	-4424
▁타워	-4425
▁브라운	-4426
▁서식지	-4427
▁국군	-4428
▁연습	-4429
▁상실	-4430
자치	-4431
▁디스크	-4432
▁탱	-4433
▁두려	-4434
▁호소	-4435
▁굳	-4436
▁메달	-4437
▁황후	-4438
▁도덕	-4439
▁라스	-4440
▁개방	-4441
▁빌보드	-4442
▁접한다	-4443
▁피해자	-4444
▁Sc	-4445
▁블라	-4446
▁일체	-4447
▁올라가	-4448
▁피부	-4449
▁엄청난	-4450
▁빅토	-4451
▁가마	-4452
▁생물학	-4453
▁천안	-4454
▁분노	-4455
▁심지어	-4456
ond	-4457
▁추기	-4458
▁로봇	-4459
▁맞서	-4460
▁시나	-4461
▁CP	-4462
▁패션	-4463
▁진영	-4464
▁필드	-4465
ove	-4466
▁1931	-4467
미야	-4468
▁진격	-4469
▁교리	-4470
▁산소	-4471
▁루스	-4472
▁전송	-4473
▁조지아	-4474
▁조선총	-4475
▁조선총독부	-4476
드리히	-4477
▁결론	-4478
▁소멸	-4479
▁신고	-4480
▁휴대	-4481
▁가나	-4482
▁불가리아	-4483
▁창당	-4484
▁위대	-4485
▁검토	-4486
▁해발	-4487
▁턴	-4488
tt	-4489
마르	-4490
▁경남	-4491
▁비례	-4492
▁사기	-4493
메리칸	-4494
▁여겨진다	-4495
AN	-4496
▁프리드리히	-4497
▁쓰여	-4498
▁안드로	-4499
제국	-4500
▁기리	-4501
▁졌으며	-4502
▁프랑스군	-4503
이다	-4504
▁더블	-4505
▁145	-4506
▁프랑스어	-4507
▁렀다	-4508
▁파워	-4509
▁동북	-4510
▁리처드	-4511
▁테크	-4512
아내	-4513
▁고시	-4514
▁였을	-4515
▁가슴	-4516
▁궁전	-4517
▁타율	-4518
▁뤼	-4519
인물	-4520
▁목성	-4521
▁주소	-4522
▁시상	-4523
다란	-4524
▁연평	-4525
▁와서	-4526
▁인디언	-4527
▁1929	-4528
▁인원	-4529
▁일기	-4530
▁도마	-4531
▁대책	-4532
ass	-4533
▁닥터	-4534
▁사유	-4535
▁유효	-4536
▁주석	-4537
▁110	-4538
▁1923	-4539
바로	-4540
▁웃	-4541
▁테마	-4542
▁닫	-4543
ical	-4544
▁HD	-4545
▁관여	-4546
▁166	-4547
▁자이언	-4548
유산	-4549
▁업적	-4550
▁요금	-4551
▁노출	-4552
▁늘어	-4553
▁추기경	-4554
▁구입	-4555
▁1921	-4556
▁싱가	-4557
스트라	-4558
▁1922	-4559
▁싱가포르	-4560
▁모바	-4561
▁테스트	-4562
▁1925	-4563
머리	-4564
▁157	-4565
▁수호	-4566
▁독재	-4567
▁151	-4568
▁햄	-4569
▁힌	-4570
▁물건	-4571
▁아웃	-4572
▁늑	-4573
▁폭격	-4574
▁결의	-4575
▁소득	-4576
ies	-4577
▁깊이	-4578
▁언덕	-4579
▁당해	-4580
▁79	-4581
▁보르	-4582
▁사퇴	-4583
▁행복	-4584
▁어려움	-4585
▁조상	-4586
▁빚	-4587
▁알고리	-4588
▁01	-4589
▁도모	-4590
▁에어	-4591
▁항공사	-4592
▁미리	-4593
▁수요	-4594
▁하원	-4595
▁타운	-4596
▁적합	-4597
▁전투기	-4598
▁개명	-4599
▁고급	-4600
▁발명	-4601
▁페이지	-4602
▁전술	-4603
▁전당	-4604
바키아	-4605
▁155	-4606
▁Pr	-4607
tern	-4608
▁똑	-4609
▁려면	-4610
▁격파	-4611
▁그리스어	-4612
▁대우	-4613
▁부친	-4614
ire	-4615
▁cod	-4616
▁JR	-4617
▁코파	-4618
▁사우스	-4619
▁덜	-4620
▁덩	-4621
▁가요	-4622
▁설치류	-4623
로지	-4624
여서	-4625
▁막대	-4626
▁세부	-4627
▁천만	-4628
ood	-4629
▁환승	-4630
▁알고리즘	-4631
▁연상	-4632
▁개찰	-4633
▁후임	-4634
▁중추	-4635
act	-4636
▁안토	-4637
▁칠레	-4638
▁Ma	-4639
총리	-4640
ber	-4641
▁서술	-4642
▁즉시	-4643
세포	-4644
▁누리	-4645
▁통화	-4646
▁아트	-4647
▁쿠데	-4648
▁완벽	-4649
AM	-4650
▁추방	-4651
해군	-4652
▁모바일	-4653
▁각국	-4654
▁개량	-4655
▁규제	-4656
클리	-4657
사전	-4658
▁부동	-4659
▁오키	-4660
▁검색	-4661
▁매체	-4662
▁1926	-4663
▁OS	-4664
▁스타디	-4665
ary	-4666
▁내세	-4667
▁느낌	-4668
▁느냐	-4669
▁화이트	-4670
무늬	-4671
▁덧붙	-4672
▁전한	-4673
▁강릉	-4674
▁변하	-4675
▁약칭	-4676
▁배포	-4677
▁진학	-4678
▁우크라	-4679
▁티베	-4680
▁뷰	-4681
▁인생	-4682
▁이마	-4683
▁화려	-4684
▁제이	-4685
▁돌려	-4686
레나	-4687
▁음성	-4688
▁국적	-4689
▁상주	-4690
▁시트	-4691
▁수업	-4692
▁본다	-4693
ivers	-4694
▁야스	-4695
▁사과	-4696
▁생겼	-4697
▁천주교	-4698
슬러	-4699
▁화제	-4700
▁랩	-4701
▁레알	-4702
리그	-4703
▁스탈	-4704
▁구매	-4705
▁달려	-4706
▁진단	-4707
원경	-4708
▁가설	-4709
BM	-4710
▁음악가	-4711
▁사무소	-4712
▁드래	-4713
▁발간	-4714
▁치렀	-4715
▁고양이	-4716
▁방언	-4717
▁인쇄	-4718
▁상대식	-4719
쿠스	-4720
▁상속	-4721
ide	-4722
▁사양	-4723
▁회로	-4724
▁이어졌	-4725
▁상수	-4726
▁최우	-4727
여금	-4728
▁신장	-4729
데이	-4730
▁카스	-4731
▁비행기	-4732
▁쿠데타	-4733
▁유배	-4734
▁153	-4735
▁자국	-4736
자키	-4737
▁신도	-4738
▁밀려	-4739
▁겉	-4740
▁상인	-4741
▁주체	-4742
▁공신	-4743
▁La	-4744
▁석사	-4745
▁크로스	-4746
▁곡선	-4747
iss	-4748
▁득표	-4749
▁남아프리카	-4750
▁감각	-4751
▁카운	-4752
▁139	-4753
▁정교회	-4754
▁사격	-4755
▁이와	-4756
▁1927	-4757
▁MS	-4758
▁화석	-4759
▁마루	-4760
▁국기	-4761
▁167	-4762
▁Ph	-4763
▁171	-4764
▁급격	-4765
▁노리	-4766
▁만났	-4767
느님	-4768
▁Br	-4769
▁선형	-4770
▁세조	-4771
▁실천	-4772
▁소형	-4773
▁유고	-4774
▁하느님	-4775
레인	-4776
▁Co	-4777
▁앤드	-4778
▁영주	-4779
▁질환	-4780
▁갑자기	-4781
per	-4782
▁동지	-4783
▁포스	-4784
▁게다가	-4785
▁운항	-4786
▁Wor	-4787
▁손실	-4788
▁연락	-4789
▁잭슨	-4790
▁허락	-4791
▁줄어들	-4792
▁Sch	-4793
▁끈	-4794
란색	-4795
▁오이	-4796
▁강남	-4797
▁거짓	-4798
▁반사	-4799
▁저자	-4800
▁트레이드	-4801
▁반지	-4802
▁생태	-4803
▁성남	-4804
슈타인	-4805
구치	-4806
▁Te	-4807
▁이른바	-4808
▁타이거	-4809
▁남기	-4810
▁라이프	-4811
▁되돌	-4812
▁뮌헨	-4813
▁료	-4814
▁130	-4815
▁부위	-4816
▁칭호	-4817
▁사찰	-4818
▁퀘	-4819
▁연설	-4820
land	-4821
▁정면	-4822
▁1912	-4823
▁그리하여	-4824
▁보여준다	-4825
타이	-4826
▁산지	-4827
가니	-4828
▁최후	-4829
pt	-4830
▁소문	-4831
▁내놓	-4832
▁중종	-4833
너스	-4834
▁전동차	-4835
▁긍정	-4836
베르트	-4837
▁위키	-4838
▁소위	-4839
▁습격	-4840
펙트	-4841
▁립	-4842
▁이즈	-4843
▁크루	-4844
▁1907	-4845
▁대칭	-4846
▁운송	-4847
▁찬성	-4848
▁프로그래밍	-4849
동생	-4850
▁글로벌	-4851
친다	-4852
민주당	-4853
비히	-4854
▁모음	-4855
▁원주민	-4856
OR	-4857
lat	-4858
▁04	-4859
▁스타디움	-4860
▁백인	-4861
▁j	-4862
▁필수	-4863
▁1908	-4864
▁Bo	-4865
▁피터	-4866
▁흰색	-4867
▁게르	-4868
ence	-4869
▁첩	-4870
▁오가	-4871
▁베네치아	-4872
▁용인	-4873
과이	-4874
▁거치	-4875
▁골드	-4876
▁항의	-4877
▁꾸준	-4878
ick	-4879
▁윙	-4880
▁일으켜	-4881
▁벼슬	-4882
▁09	-4883
▁법학	-4884
오르	-4885
▁가깝	-4886
▁질문	-4887
▁174	-4888
▁동일본	-4889
도사	-4890
▁전적	-4891
▁히로시마	-4892
구리	-4893
▁Joh	-4894
▁리드	-4895
▁152	-4896
▁요코하마	-4897
▁후계자	-4898
▁암컷	-4899
▁집회	-4900
▁탄핵	-4901
공사	-4902
▁축구단	-4903
▁202	-4904
▁조항	-4905
▁쓰였	-4906
주군	-4907
und	-4908
▁짝	-4909
▁수산	-4910
▁탄압	-4911
조선	-4912
▁힘들	-4913
▁고위	-4914
▁대법원	-4915
▁이념	-4916
▁넥	-4917
▁종사	-4918
▁구름	-4919
▁늑대	-4920
▁소집	-4921
▁입구	-4922
▁1917	-4923
▁1905	-4924
▁톨	-4925
▁극단	-4926
▁비치	-4927
▁다다	-4928
▁하여금	-4929
▁간부	-4930
▁남녀	-4931
▁불안	-4932
▁수백	-4933
▁틈	-4934
사이	-4935
▁동인	-4936
▁받아들이	-4937
▁멀티	-4938
IN	-4939
▁경사	-4940
▁손해	-4941
▁열매	-4942
▁쿼	-4943
sh	-4944
▁원시	-4945
▁개척	-4946
▁액체	-4947
▁힙합	-4948
▁경비	-4949
▁돌아오	-4950
▁성종	-4951
▁일련	-4952
▁프랭	-4953
▁경제학	-4954
▁번지	-4955
▁주지	-4956
▁세로	-4957
미니	-4958
▁선포	-4959
▁질서	-4960
▁토론토	-4961
▁뻗	-4962
▁개별	-4963
▁축소	-4964
▁라우	-4965
▁비스	-4966
▁영양	-4967
▁마주	-4968
▁콘텐츠	-4969
▁구멍	-4970
▁형상	-4971
▁유산	-4972
▁이웃	-4973
▁차단	-4974
▁평면	-4975
▁My	-4976
▁노트	-4977
▁레벨	-4978
▁초점	-4979
▁등장인물	-4980
▁대가	-4981
▁소화	-4982
▁예방	-4983
▁풋	-4984
▁일단	-4985
▁전남	-4986
▁소비자	-4987
▁할아버지	-4988
▁타인	-4989
▁동경	-4990
▁재개	-4991
▁고객	-4992
▁시신	-4993
▁기부	-4994
pe	-4995
어도	-4996
▁재능	-4997
▁구로	-4998
▁구글	-4999
▁부속	-5000
▁분화	-5001
▁입대	-5002
▁콜롬	-5003
▁함경	-5004
다수	-5005
▁주일	-5006
▁퀴	-5007
▁국토	-5008
▁미술관	-5009
▁클래식	-5010
고속	-5011
▁사카	-5012
▁주자	-5013
▁걸친	-5014
▁조기	-5015
age	-5016
▁영원	-5017
▁림	-5018
▁정확히	-5019
▁개장	-5020
▁혼자	-5021
▁체육관	-5022
▁블록	-5023
▁안쪽	-5024
▁연호	-5025
▁지중	-5026
▁마스터	-5027
▁핫	-5028
시스코	-5029
▁codice	-5030
▁수치	-5031
▁아메리칸	-5032
▁계곡	-5033
▁미스	-5034
▁사막	-5035
▁증언	-5036
▁총재	-5037
▁실내	-5038
▁행하	-5039
페이스	-5040
▁올스타	-5041
▁대원	-5042
▁수십	-5043
▁주어졌	-5044
▁약화	-5045
▁오버	-5046
amp	-5047
베르크	-5048
▁빌리	-5049
▁Wh	-5050
▁클로	-5051
▁현존	-5052
▁섹	-5053
▁언스	-5054
크래프트	-5055
▁돔	-5056
▁대승	-5057
▁군부	-5058
▁킬로	-5059
▁합동	-5060
▁1906	-5061
▁토대	-5062
▁싱어	-5063
▁중성	-5064
리나	-5065
▁크라	-5066
▁스크린	-5067
ann	-5068
▁와이	-5069
▁으니	-5070
▁Col	-5071
▁핸	-5072
▁자본주의	-5073
ern	-5074
▁거느	-5075
▁세트	-5076
▁양산	-5077
▁정통	-5078
▁중계	-5079
▁토착	-5080
▁흔적	-5081
▁중지	-5082
▁마르크스	-5083
키퍼	-5084
▁기동	-5085
▁포스트	-5086
▁08	-5087
▁경찰서	-5088
▁골키퍼	-5089
▁자랑	-5090
▁단순히	-5091
▁광범	-5092
▁우에	-5093
▁배열	-5094
▁부처	-5095
▁충분히	-5096
▁안내	-5097
IS	-5098
▁성씨	-5099
▁="	-5100
▁실업	-5101
▁봉해졌	-5102
▁동화	-5103
ah	-5104
ame	-5105
▁돌아온	-5106
▁복사	-5107
▁들어오	-5108
▁세워졌	-5109
세대	-5110
슬링	-5111
▁철거	-5112
▁172	-5113
▁스테이션	-5114
▁>(	-5115
▁해제	-5116
▁사당	-5117
▁멈	-5118
▁146	-5119
▁재임	-5120
▁ST	-5121
▁장로	-5122
▁전북	-5123
▁부서	-5124
▁영구	-5125
▁정류	-5126
▁티베트	-5127
▁풍속	-5128
테스	-5129
▁초상	-5130
▁맨체스터	-5131
▁옵	-5132
▁밀리	-5133
▁금강	-5134
▁나섰	-5135
▁원자력	-5136
ace	-5137
야스	-5138
▁좌상	-5139
하이	-5140
▁고교	-5141
▁강도	-5142
▁남극	-5143
▁특별히	-5144
▁직무	-5145
▁이행	-5146
▁성서	-5147
▁미시	-5148
▁부호	-5149
▁줄이	-5150
▁김구	-5151
▁당원	-5152
▁선로	-5153
▁코리아	-5154
▁오류	-5155
▁노동당	-5156
▁스카이	-5157
AC	-5158
▁휘하	-5159
저스	-5160
▁구상	-5161
▁주문	-5162
▁아오	-5163
▁접속	-5164
▁무용	-5165
▁여우	-5166
▁체험	-5167
▁편의	-5168
▁못한다	-5169
▁엉	-5170
▁뼈	-5171
▁구사	-5172
▁쏘	-5173
공업	-5174
▁가난	-5175
▁당대	-5176
▁판정	-5177
▁딘	-5178
▁한성	-5179
리다	-5180
▁팩	-5181
▁억제	-5182
▁멸종	-5183
▁야당	-5184
▁쿠바	-5185
▁141	-5186
▁드물	-5187
▁무력	-5188
▁보편	-5189
arl	-5190
▁댄스	-5191
▁250	-5192
▁스미스	-5193
▁피트	-5194
▁타원	-5195
▁스탈린	-5196
▁놀이	-5197
▁지수	-5198
▁무늬	-5199
▁자매	-5200
드레	-5201
▁주재	-5202
▁스티븐	-5203
▁AC	-5204
▁쟁	-5205
▁펑	-5206
OM	-5207
▁빵	-5208
▁전제	-5209
가시	-5210
▁세월	-5211
▁재즈	-5212
▁지불	-5213
▁화폐	-5214
▁회색	-5215
▁도쿠가와	-5216
▁대동	-5217
▁판타	-5218
▁보스턴	-5219
▁커다란	-5220
▁프로토	-5221
수량	-5222
▁거점	-5223
▁연평균	-5224
센트	-5225
안군	-5226
▁>,	-5227
▁진실	-5228
베리아	-5229
▁대만	-5230
▁주니어	-5231
oun	-5232
▁단선	-5233
미르	-5234
▁북서쪽	-5235
▁대한제국	-5236
▁뱀	-5237
▁종로	-5238
▁New	-5239
▁유력	-5240
▁05	-5241
▁계수	-5242
▁아인	-5243
▁선호	-5244
▁아티스트	-5245
▁탕	-5246
▁Ad	-5247
▁당신	-5248
▁관계자	-5249
▁경고	-5250
▁콜로	-5251
필드	-5252
▁수컷	-5253
▁대다수	-5254
▁꾼	-5255
▁매주	-5256
▁안티	-5257
▁유비	-5258
▁나선	-5259
▁잠수함	-5260
ile	-5261
▁사이드	-5262
런스	-5263
▁관객	-5264
▁북미	-5265
▁중동	-5266
▁감옥	-5267
▁가톨릭교회	-5268
▁쯤	-5269
▁진흥	-5270
▁국방부	-5271
▁새벽	-5272
▁사신	-5273
▁장례	-5274
▁광산	-5275
▁김대중	-5276
ton	-5277
▁종전	-5278
▁좌파	-5279
▁농장	-5280
▁독일어	-5281
▁원장	-5282
▁윤치	-5283
▁이재	-5284
리우스	-5285
▁파티	-5286
히로	-5287
▁강요	-5288
▁클리	-5289
▁혈액	-5290
▁철학자	-5291
▁하와	-5292
▁자산	-5293
▁목포	-5294
▁베리	-5295
▁엄격	-5296
▁07	-5297
▁지칭	-5298
▁하사	-5299
▁훼	-5300
▁봉기	-5301
▁이스트	-5302
▁간격	-5303
▁타입	-5304
▁탓	-5305
▁부품	-5306
▁유키	-5307
▁전작	-5308
▁화가	-5309
▁그러므로	-5310
▁인터페이스	-5311
▁촉진	-5312
▁알레	-5313
▁ch	-5314
▁대결	-5315
▁마감	-5316
▁다이묘	-5317
▁폭풍	-5318
▁리아	-5319
▁브로	-5320
▁양국	-5321
▁비잔	-5322
▁훌륭	-5323
▁발전소	-5324
son	-5325
▁박근	-5326
▁물고기	-5327
▁재판소	-5328
부사	-5329
▁진동	-5330
▁시계	-5331
▁익스	-5332
▁테르	-5333
벤트	-5334
▁메탈	-5335
▁법안	-5336
▁쿨	-5337
닉스	-5338
코프	-5339
▁아과	-5340
▁발레	-5341
▁오케	-5342
▁장점	-5343
▁1904	-5344
즈니	-5345
▁일곱	-5346
▁Man	-5347
▁마저	-5348
▁문과	-5349
▁WW	-5350
어로	-5351
▁레지	-5352
▁비중	-5353
▁타점	-5354
투아	-5355
▁불화	-5356
▁채권	-5357
▁소설가	-5358
ish	-5359
성기	-5360
▁지휘관	-5361
▁문인	-5362
▁웰	-5363
▁레닌	-5364
▁다큐	-5365
▁의문	-5366
▁용도	-5367
▁Bl	-5368
▁엘리자	-5369
▁툴	-5370
▁히어로	-5371
▁챔피언십	-5372
▁Cl	-5373
▁추적	-5374
베이스	-5375
▁특허	-5376
▁광범위	-5377
▁바르셀	-5378
▁바르셀로나	-5379
▁Ex	-5380
▁라트	-5381
▁모자	-5382
▁압축	-5383
▁어두	-5384
▁*	-5385
▁본토	-5386
▁뚜렷	-5387
▁149	-5388
▁배웠	-5389
▁일자	-5390
▁입사	-5391
▁유아	-5392
▁딜	-5393
▁169	-5394
▁자치구	-5395
▁동굴	-5396
▁드리	-5397
▁김해	-5398
▁석방	-5399
▁도마뱀	-5400
▁관리자	-5401
▁공국	-5402
▁마그	-5403
▁스케이	-5404
▁공룡	-5405
▁밸	-5406
뜨리	-5407
ier	-5408
▁펼쳤	-5409
ES	-5410
▁새끼	-5411
▁영혼	-5412
▁조문	-5413
▁수비수	-5414
▁교도	-5415
▁수직	-5416
▁망원경	-5417
▁랄	-5418
orm	-5419
▁단장	-5420
▁비틀	-5421
▁Univers	-5422
se	-5423
프레	-5424
▁목숨	-5425
▁코어	-5426
▁사관	-5427
▁그려져	-5428
▁북아메리카	-5429
▁</	-5430
▁놀라	-5431
▁치르	-5432
▁SM	-5433
▁유대인	-5434
▁르네	-5435
▁착용	-5436
▁코너	-5437
eb	-5438
▁물려	-5439
▁식량	-5440
▁닮	-5441
▁빠지	-5442
▁삭제	-5443
▁초청	-5444
▁기갑	-5445
▁시모	-5446
▁호흡	-5447
▁글씨	-5448
▁서인	-5449
▁동성애	-5450
▁꺼	-5451
ica	-5452
▁나서	-5453
▁페이스	-5454
둥이	-5455
▁첫째	-5456
힌다	-5457
드라	-5458
위대	-5459
▁실점	-5460
무네	-5461
rom	-5462
▁모노	-5463
▁위안	-5464
▁놓여	-5465
▁항해	-5466
▁종족	-5467
▁똑같	-5468
▁자이언츠	-5469
▁EP	-5470
▁북동쪽	-5471
대문	-5472
ite	-5473
▁덕분	-5474
▁토벌	-5475
▁농촌	-5476
▁자책	-5477
▁장갑	-5478
ID	-5479
▁Tr	-5480
▁곤충	-5481
ous	-5482
▁선물	-5483
▁동구	-5484
▁북극	-5485
▁평론가	-5486
▁프로세서	-5487
▁집필	-5488
▁화합물	-5489
▁캘리포니아주	-5490
▁기병	-5491
▁약물	-5492
▁간다	-5493
▁요원	-5494
▁동메달	-5495
▁남아메리카	-5496
▁러브	-5497
▁다양체	-5498
▁남동쪽	-5499
▁틴	-5500
▁마틴	-5501
▁규슈	-5502
▁모시	-5503
▁레이다	-5504
▁이벤트	-5505
시스트	-5506
미아	-5507
야수	-5508
▁로즈	-5509
▁매치	-5510
▁점성	-5511
▁커버	-5512
▁로맨	-5513
▁페리	-5514
▁지부	-5515
베리	-5516
▁스톤	-5517
▁조화	-5518
▁향토	-5519
▁가끔	-5520
▁추대	-5521
▁그래프	-5522
▁왕가	-5523
▁평생	-5524
▁외계	-5525
▁1896	-5526
▁al	-5527
▁태자	-5528
▁유성	-5529
▁리이다	-5530
▁웨일스	-5531
▁성직자	-5532
▁대변	-5533
▁부드	-5534
▁칙	-5535
lar	-5536
▁돌아갔	-5537
에도	-5538
▁지표	-5539
▁후퇴	-5540
▁가구	-5541
▁요미	-5542
▁드러나	-5543
▁공세	-5544
▁강등	-5545
▁기관차	-5546
▁박근혜	-5547
▁세금	-5548
▁서방	-5549
▁토너	-5550
▁근육	-5551
▁수장	-5552
▁인천광역시	-5553
▁극복	-5554
▁미분	-5555
▁일환	-5556
▁파울	-5557
▁Love	-5558
▁일어난다	-5559
▁시에	-5560
▁살아남	-5561
▁자유주의	-5562
▁면역	-5563
돌프	-5564
레오	-5565
▁가이	-5566
▁쓰러	-5567
유키	-5568
▁선교사	-5569
▁젤	-5570
▁항목	-5571
▁롬	-5572
olog	-5573
ost	-5574
▁무릎	-5575
▁빗	-5576
▁룸	-5577
IC	-5578
▁이어진	-5579
▁도호	-5580
▁노비	-5581
▁운동가	-5582
▁캠프	-5583
▁킨	-5584
▁펀	-5585
키스	-5586
▁발휘	-5587
▁우크라이나	-5588
▁아비	-5589
▁비즈	-5590
▁중시	-5591
▁갱	-5592
▁카페	-5593
▁펄	-5594
▁03	-5595
▁과일	-5596
▁모래	-5597
▁이브	-5598
are	-5599
▁연계	-5600
데르	-5601
▁돌파	-5602
▁1911	-5603
▁기생	-5604
▁유가	-5605
▁코트	-5606
▁표지	-5607
▁문하	-5608
▁존스	-5609
▁합리	-5610
▁교과	-5611
▁로렌	-5612
▁는다고	-5613
▁부작	-5614
▁윤리	-5615
페이지	-5616
▁경유	-5617
▁든다	-5618
▁역전	-5619
▁플로리다	-5620
▁소요	-5621
▁Sy	-5622
▁동반	-5623
▁무인	-5624
▁바오	-5625
▁PD	-5626
▁매니	-5627
▁지질	-5628
▁결심	-5629
▁명문	-5630
▁철저	-5631
▁KT	-5632
▁파운드	-5633
도니아	-5634
▁합니다	-5635
아르	-5636
▁AM	-5637
▁SC	-5638
우치	-5639
일본	-5640
▁해협	-5641
▁나이트	-5642
▁토마스	-5643
▁부탁	-5644
▁Par	-5645
▁무너	-5646
레이크	-5647
▁135	-5648
▁연고지	-5649
▁전승	-5650
▁페루	-5651
▁147	-5652
▁UN	-5653
▁독점	-5654
PS	-5655
▁강전	-5656
▁노무	-5657
▁제후	-5658
▁대사관	-5659
▁홈페이지	-5660
▁데리	-5661
▁필라	-5662
▁민속	-5663
▁서적	-5664
▁분산	-5665
▁명시	-5666
ck	-5667
▁흙	-5668
▁모험	-5669
▁지름	-5670
▁알렉산더	-5671
▁미카	-5672
▁가속	-5673
▁모로	-5674
▁수반	-5675
▁베타	-5676
▁토너먼트	-5677
▁오염	-5678
▁삽입	-5679
▁교향곡	-5680
▁삼각	-5681
▁포유	-5682
▁06	-5683
▁변신	-5684
▁중구	-5685
▁173	-5686
티스	-5687
▁건축물	-5688
▁재생	-5689
▁유역	-5690
▁크레	-5691
▁BBC	-5692
▁역과	-5693
카스	-5694
▁la	-5695
▁성명	-5696
▁이정	-5697
▁이조	-5698
▁생애	-5699
▁원조	-5700
▁호조	-5701
▁아프가니	-5702
▁근로	-5703
▁옮기	-5704
▁행해	-5705
▁노조	-5706
▁카리	-5707
▁딱	-5708
▁배상	-5709
ft	-5710
▁제약	-5711
▁특급	-5712
▁John	-5713
▁각자	-5714
▁필립	-5715
▁구리	-5716
▁인치	-5717
▁포드	-5718
▁엽	-5719
사르	-5720
▁누스	-5721
▁투구	-5722
▁MV	-5723
▁중립	-5724
▁세워진	-5725
▁인민군	-5726
오리	-5727
▁단행	-5728
▁사촌	-5729
▁과장	-5730
▁무산	-5731
▁사직	-5732
▁남서쪽	-5733
▁약탈	-5734
▁창간	-5735
▁우루	-5736
▁단종	-5737
▁최상	-5738
▁받침	-5739
▁레이블	-5740
▁고서	-5741
▁마일	-5742
▁클래스	-5743
▁직선	-5744
▁전향	-5745
▁조선인	-5746
▁설비	-5747
▁올린	-5748
보이	-5749
란다	-5750
▁박스	-5751
▁필름	-5752
나르	-5753
▁들어서	-5754
▁프레임	-5755
▁여인	-5756
▁원산	-5757
▁장사	-5758
▁트레이	-5759
ung	-5760
▁밀라노	-5761
▁지중해	-5762
▁메르	-5763
▁예외	-5764
▁이수	-5765
▁기념물	-5766
▁아이스	-5767
멘트	-5768
▁카자	-5769
▁떼	-5770
▁청동	-5771
▁시내버스	-5772
▁내장	-5773
▁임신	-5774
▁관중	-5775
▁125	-5776
▁이어서	-5777
▁안양	-5778
▁NHK	-5779
산화	-5780
행성	-5781
▁음모	-5782
▁칼리지	-5783
▁기단	-5784
▁싫	-5785
▁SF	-5786
▁인력	-5787
▁수상자	-5788
▁출현	-5789
▁유닛	-5790
▁파키스탄	-5791
▁문법	-5792
▁연금	-5793
▁공격수	-5794
▁아프가니스탄	-5795
▁상소	-5796
▁십자군	-5797
▁데이터베이스	-5798
스팅	-5799
▁글리	-5800
▁선제	-5801
▁문화유산	-5802
▁경북	-5803
▁기압	-5804
▁기종	-5805
▁랭킹	-5806
▁좌석	-5807
▁통로	-5808
▁아무런	-5809
▁조명	-5810
sp	-5811
▁우익	-5812
▁정자	-5813
▁적색	-5814
▁홀로	-5815
▁곰	-5816
마이	-5817
으므로	-5818
슬로	-5819
추어	-5820
▁고고	-5821
▁때로	-5822
▁105	-5823
att	-5824
▁연소	-5825
▁남겨	-5826
▁매각	-5827
▁퓨	-5828
▁섬유	-5829
▁옛날	-5830
▁지바	-5831
▁pro	-5832
ction	-5833
▁보좌	-5834
▁아기	-5835
ET	-5836
▁비하	-5837
▁유용	-5838
▁사거리	-5839
▁유신	-5840
▁협약	-5841
▁침해	-5842
다니	-5843
▁간섭	-5844
▁상처	-5845
▁낼	-5846
▁압도	-5847
▁유발	-5848
▁1909	-5849
▁벨라	-5850
▁현종	-5851
무게	-5852
▁스승	-5853
▁쓴다	-5854
▁몸무게	-5855
▁관장	-5856
▁주파	-5857
▁하와이	-5858
▁버지	-5859
▁복구	-5860
▁이토	-5861
▁기하학	-5862
▁육성	-5863
▁램	-5864
▁일행	-5865
▁한나라	-5866
▁배급	-5867
▁상하이	-5868
▁한나라당	-5869
니오	-5870
▁번주	-5871
▁릭	-5872
ime	-5873
▁메트로	-5874
▁고분	-5875
▁영광	-5876
▁쇄	-5877
영상	-5878
버드	-5879
▁기용	-5880
▁수감	-5881
▁진술	-5882
▁144	-5883
▁협의회	-5884
보살	-5885
타카	-5886
▁색깔	-5887
▁소관	-5888
▁주류	-5889
▁문재	-5890
▁아울	-5891
▁정사	-5892
▁표본	-5893
▁몬테	-5894
▁빨간	-5895
▁그럼	-5896
▁낸다	-5897
▁지휘자	-5898
▁얀	-5899
▁동치	-5900
▁스쿨	-5901
▁구미	-5902
▁이날	-5903
▁굽	-5904
▁부유	-5905
▁전망	-5906
▁증기	-5907
▁투스	-5908
▁시아	-5909
눅스	-5910
▁148	-5911
▁PS	-5912
▁무선	-5913
▁지연	-5914
메니아	-5915
다른	-5916
▁맞춰	-5917
▁빅토리아	-5918
▁이종	-5919
▁당사자	-5920
▁산악	-5921
▁103	-5922
▁리눅스	-5923
▁비단	-5924
런트	-5925
▁개수	-5926
▁심하	-5927
▁마케도니아	-5928
▁사라지	-5929
무르	-5930
▁반환	-5931
▁World	-5932
즈키	-5933
▁자사	-5934
▁리스트	-5935
▁유인	-5936
라이터	-5937
▁트랜스	-5938
▁구장	-5939
▁칩	-5940
▁토르	-5941
멘터리	-5942
▁걷	-5943
▁딴	-5944
▁적어도	-5945
▁아르메니아	-5946
▁고르	-5947
▁해설	-5948
oy	-5949
▁자바	-5950
▁잠재	-5951
타운	-5952
▁셋째	-5953
▁143	-5954
▁나고	-5955
▁황태	-5956
▁스테이지	-5957
ase	-5958
▁마카	-5959
inc	-5960
▁SN	-5961
▁증권	-5962
▁참판	-5963
▁칭하	-5964
▁넘겨	-5965
▁분교	-5966
식물	-5967
▁저널	-5968
양군	-5969
▁토머스	-5970
▁추락	-5971
▁드래곤	-5972
지마	-5973
▁급행	-5974
▁죠	-5975
▁패러	-5976
▁심리학	-5977
▁들여	-5978
▁이내	-5979
▁전해진다	-5980
게이	-5981
▁DS	-5982
▁IP	-5983
▁묘소	-5984
▁체인	-5985
▁그랜드	-5986
운서	-5987
▁협의	-5988
OC	-5989
▁무관	-5990
▁평소	-5991
IT	-5992
▁광역	-5993
▁기름	-5994
▁직위	-5995
▁낱	-5996
▁커피	-5997
▁국민당	-5998
▁줬	-5999
▁상영	-6000
▁아나운서	-6001
▁렉	-6002
▁중국어	-6003
▁험	-6004
니즘	-6005
ign	-6006
▁Or	-6007
▁데려	-6008
▁신하	-6009
▁탑승	-6010
▁캡	-6011
▁꾸준히	-6012
▁발렌	-6013
▁킬로미터	-6014
▁대교	-6015
ium	-6016
▁납치	-6017
▁1913	-6018
▁자문	-6019
▁해진	-6020
▁늘어나	-6021
▁모듈	-6022
▁바이올	-6023
▁민족주의	-6024
▁찌	-6025
▁겨우	-6026
▁봉사	-6027
▁좌익	-6028
▁곧바로	-6029
▁디오	-6030
▁부동산	-6031
▁알바니아	-6032
▁요미우리	-6033
▁이루어진다	-6034
▁샤를	-6035
▁가르치	-6036
▁여서	-6037
▁1895	-6038
▁아마추어	-6039
▁다큐멘터리	-6040
▁명종	-6041
밀리	-6042
▁라이벌	-6043
▁소송법	-6044
▁수수	-6045
▁칼리	-6046
▁향년	-6047
▁사로	-6048
▁어항	-6049
▁왕족	-6050
▁콜롬비아	-6051
▁출판사	-6052
제르	-6053
▁여신	-6054
▁타카	-6055
▁뚫	-6056
▁틸	-6057
▁02	-6058
▁교역	-6059
▁존슨	-6060
▁퍼시	-6061
생물	-6062
▁or	-6063
▁대령	-6064
▁라마	-6065
▁교차로	-6066
ED	-6067
ool	-6068
▁대행	-6069
▁명사	-6070
▁주거	-6071
▁급속	-6072
▁도어	-6073
▁펼치	-6074
▁스케이팅	-6075
엘라	-6076
▁쇠퇴	-6077
▁삼각형	-6078
▁관찰사	-6079
ere	-6080
▁시집	-6081
▁주한	-6082
▁오리지	-6083
▁예언	-6084
▁호환	-6085
▁전류	-6086
▁Ed	-6087
▁모집	-6088
▁무신	-6089
▁항일	-6090
▁리투아	-6091
▁리투아니아	-6092
▁탐험	-6093
아나	-6094
▁구마	-6095
▁사료	-6096
▁살펴	-6097
▁패턴	-6098
긴다	-6099
▁사면	-6100
▁운명	-6101
▁최우수	-6102
총장	-6103
▁크림	-6104
▁흥미	-6105
▁송라이터	-6106
▁기재	-6107
▁버지니아	-6108
▁동영상	-6109
▁거둔	-6110
▁붙잡	-6111
▁사토	-6112
다이라	-6113
사관	-6114
▁ro	-6115
▁파트너	-6116
▁띤	-6117
▁거친	-6118
▁수지	-6119
▁정류장	-6120
▁케이블	-6121
▁소니	-6122
▁아가	-6123
▁호남	-6124
▁자회사	-6125
▁신비	-6126
▁연령	-6127
▁되찾	-6128
문학	-6129
▁시외	-6130
▁1915	-6131
▁수천	-6132
▁138	-6133
스토	-6134
▁나고야	-6135
▁블라디	-6136
▁마라	-6137
▁주사	-6138
▁고안	-6139
▁돼지	-6140
프란	-6141
▁공전	-6142
▁스틸	-6143
▁목격	-6144
▁비전	-6145
▁럭	-6146
▁첸	-6147
▁키스	-6148
▁틱	-6149
▁내륙	-6150
▁파나	-6151
▁자전거	-6152
▁색상	-6153
▁진상	-6154
▁디즈니	-6155
▁유고슬	-6156
▁유고슬라비아	-6157
▁걸려	-6158
▁일요일	-6159
▁주의자	-6160
▁유입	-6161
▁제주도	-6162
▁닐	-6163
문관	-6164
▁판타지	-6165
▁영감	-6166
▁센트럴	-6167
old	-6168
▁플레	-6169
▁뛰어나	-6170
▁하천	-6171
▁노무현	-6172
▁기점	-6173
▁발족	-6174
▁서울시	-6175
텐도	-6176
▁닌텐도	-6177
▁가하	-6178
▁소재지	-6179
▁모터	-6180
▁슐	-6181
AD	-6182
회의	-6183
▁묘지	-6184
▁트럭	-6185
▁합작	-6186
▁걸리	-6187
▁콘스탄티노	-6188
▁AS	-6189
▁히가시	-6190
▁루트비히	-6191
티움	-6192
▁신임	-6193
▁MP	-6194
▁하노	-6195
▁Sou	-6196
▁서경	-6197
애나	-6198
▁정치가	-6199
▁왈	-6200
세스	-6201
▁방안	-6202
▁상임	-6203
▁차관	-6204
▁일으킨	-6205
▁주말	-6206
ric	-6207
▁정교	-6208
교육	-6209
▁가해	-6210
▁관하	-6211
▁발효	-6212
▁스페셜	-6213
▁교섭	-6214
▁목조	-6215
▁900	-6216
aw	-6217
ep	-6218
▁아도	-6219
▁얼음	-6220
▁좋아하	-6221
▁마쳤	-6222
▁스와	-6223
▁스펙트	-6224
▁하드웨어	-6225
▁다녔	-6226
▁복소	-6227
프스	-6228
▁시달	-6229
▁여동생	-6230
▁모니	-6231
▁진지	-6232
페인	-6233
▁사사	-6234
껍질	-6235
▁퍼져	-6236
▁배제	-6237
▁포맷	-6238
▁푸른	-6239
AP	-6240
▁부수	-6241
▁월간	-6242
▁쿠르	-6243
▁나타난	-6244
▁드러내	-6245
▁오리지널	-6246
균관	-6247
▁렌즈	-6248
▁루수	-6249
▁저기	-6250
▁한양	-6251
▁스펙트럼	-6252
▁가게	-6253
▁조류	-6254
▁선진	-6255
▁위주	-6256
TC	-6257
▁용기	-6258
▁리치	-6259
▁훼손	-6260
▁두려워	-6261
▁빨리	-6262
▁그쳤	-6263
▁콩고	-6264
▁DJ	-6265
▁넬	-6266
▁던지	-6267
▁옹호	-6268
▁136	-6269
루살	-6270
▁사인	-6271
▁리듬	-6272
▁선두	-6273
루살렘	-6274
플레이	-6275
▁동아시아	-6276
▁디자이너	-6277
▁희극	-6278
▁계단	-6279
▁싸웠	-6280
리케이션	-6281
클린	-6282
▁연애	-6283
▁제의	-6284
▁합계	-6285
▁혜성	-6286
랑이	-6287
ism	-6288
▁통칭	-6289
우옌	-6290
▁봐	-6291
▁우드	-6292
▁차체	-6293
▁플루	-6294
▁1500	-6295
▁독립운동가	-6296
▁심한	-6297
▁네이션	-6298
▁북동부	-6299
▁오타	-6300
▁노인	-6301
▁입증	-6302
슬리	-6303
▁대단	-6304
▁정계	-6305
▁파생	-6306
▁폐기	-6307
▁엘리자베스	-6308
▁룩	-6309
▁포크	-6310
▁푼	-6311
▁좌표	-6312
▁127	-6313
▁안드로이드	-6314
▁운반	-6315
▁102	-6316
▁스타크래프트	-6317
▁왕립	-6318
▁수학자	-6319
▁대조	-6320
▁도심	-6321
▁바그	-6322
▁성공회	-6323
▁아크	-6324
▁이에	-6325
▁장편	-6326
▁스마트폰	-6327
▁고조	-6328
▁WWE	-6329
▁공용	-6330
▁대안	-6331
▁친정	-6332
▁이명박	-6333
▁1916	-6334
▁비즈니스	-6335
▁마쓰다이라	-6336
▁굿	-6337
▁전임	-6338
▁시체	-6339
▁댐	-6340
▁정서	-6341
▁121	-6342
▁스트라이	-6343
잡이	-6344
▁자마	-6345
az	-6346
▁산타	-6347
▁예루살렘	-6348
▁원로	-6349
▁별자리	-6350
yn	-6351
로프	-6352
몬드	-6353
▁헤드	-6354
▁규명	-6355
레이터	-6356
▁선보였	-6357
▁한데	-6358
▁108	-6359
int	-6360
▁무라	-6361
ree	-6362
▁규격	-6363
▁쇼군	-6364
▁적응	-6365
▁재무	-6366
▁형법	-6367
▁잊	-6368
▁서독	-6369
▁호르	-6370
▁개찰구	-6371
▁MC	-6372
▁링크	-6373
▁오디션	-6374
▁꼴	-6375
▁노드	-6376
▁전두	-6377
▁128	-6378
▁승차	-6379
▁끼리	-6380
▁벌어지	-6381
▁오다	-6382
▁이리	-6383
▁보전	-6384
▁점유	-6385
▁마스	-6386
▁스피드	-6387
ix	-6388
▁복제	-6389
▁파동	-6390
▁성균관	-6391
나와	-6392
▁입문	-6393
경기	-6394
구장	-6395
스케	-6396
▁신칸	-6397
▁Ge	-6398
▁개발자	-6399
▁뿔	-6400
▁El	-6401
▁김동	-6402
▁신용	-6403
▁악마	-6404
▁천문학	-6405
널드	-6406
마치	-6407
▁137	-6408
▁흥행	-6409
▁회원국	-6410
트롤	-6411
▁자면	-6412
▁조국	-6413
▁연주자	-6414
나카	-6415
▁111	-6416
▁메가	-6417
▁귀환	-6418
▁식사	-6419
▁타마	-6420
▁지역구	-6421
▁버그	-6422
▁사르	-6423
ala	-6424
▁국어	-6425
▁동전	-6426
▁사범	-6427
▁직장	-6428
▁인텔	-6429
▁장인	-6430
네이	-6431
▁||	-6432
▁용량	-6433
▁분배	-6434
▁들어와	-6435
▁커뮤니티	-6436
▁수면	-6437
▁권유	-6438
▁밀접	-6439
▁전진	-6440
원숭이	-6441
부인	-6442
▁최신	-6443
▁폭스	-6444
슬라	-6445
ina	-6446
▁사명	-6447
▁애국	-6448
데이트	-6449
ve	-6450
▁금성	-6451
▁관광객	-6452
▁브라우	-6453
▁여덟	-6454
▁노동조합	-6455
▁간접	-6456
▁만난	-6457
▁상무	-6458
▁업데이트	-6459
▁붙이	-6460
▁와중	-6461
▁교전	-6462
▁도리	-6463
▁안보	-6464
▁이오	-6465
▁강수량	-6466
외선	-6467
▁융합	-6468
▁깔	-6469
▁지주	-6470
어트	-6471
▁5000	-6472
전자	-6473
▁le	-6474
▁개업	-6475
▁마산	-6476
▁중장	-6477
▁애플리케이션	-6478
▁Gr	-6479
▁후일	-6480
▁비로	-6481
▁강연	-6482
▁겸임	-6483
▁선사	-6484
▁찾아가	-6485
▁수신	-6486
▁신칸센	-6487
▁무효	-6488
▁압박	-6489
▁벌어졌	-6490
▁구동	-6491
▁투명	-6492
▁저기압	-6493
▁긴급	-6494
▁어릴	-6495
▁피렌	-6496
▁응우옌	-6497
▁전문학교	-6498
▁바티	-6499
▁야생	-6500
▁에스파	-6501
▁라이온	-6502
▁다룬	-6503
▁연수	-6504
▁중도	-6505
▁119	-6506
▁부패	-6507
yl	-6508
▁가득	-6509
▁패전	-6510
▁광해군	-6511
▁드림	-6512
▁용산	-6513
▁랴	-6514
트니	-6515
▁실용	-6516
▁보통학교	-6517
란트	-6518
▁아틀	-6519
▁들어간	-6520
▁도메	-6521
▁시게	-6522
▁품질	-6523
▁흩	-6524
iki	-6525
▁리오	-6526
▁분지	-6527
▁자손	-6528
▁정벌	-6529
▁사라졌	-6530
▁샌프란	-6531
▁어워드	-6532
▁샌프란시스코	-6533
▁아울러	-6534
▁은메달	-6535
▁Is	-6536
▁번식	-6537
▁물러나	-6538
ML	-6539
사기	-6540
▁동사	-6541
▁세례	-6542
이즈	-6543
▁전장	-6544
▁초래	-6545
▁퇴각	-6546
▁뱅크	-6547
▁Mus	-6548
▁굉	-6549
예프	-6550
▁예술가	-6551
▁주머니	-6552
iel	-6553
ron	-6554
▁고립	-6555
▁광년	-6556
▁출구	-6557
▁붓	-6558
eth	-6559
▁착수	-6560
▁미만	-6561
▁박영	-6562
▁번뇌	-6563
대군	-6564
▁착공	-6565
▁지분	-6566
▁우주선	-6567
▁기아	-6568
▁우르	-6569
▁서일본	-6570
▁MVP	-6571
악기	-6572
▁말라	-6573
▁상류	-6574
▁착륙	-6575
▁피난	-6576
▁련	-6577
▁예능	-6578
rist	-6579
아지	-6580
▁맥스	-6581
oph	-6582
▁고개	-6583
▁사이클	-6584
▁존경	-6585
▁앨런	-6586
▁학파	-6587
▁피렌체	-6588
로운	-6589
▁전이	-6590
▁전지	-6591
▁준공	-6592
▁채무	-6593
▁곁	-6594
▁자책점	-6595
▁서브	-6596
▁취재	-6597
▁자고	-6598
▁부자	-6599
▁순조	-6600
▁점프	-6601
▁팅	-6602
▁편곡	-6603
▁그럼에도	-6604
토미	-6605
▁배정	-6606
▁부리	-6607
▁석탄	-6608
▁알렸	-6609
▁농도	-6610
▁비잔티움	-6611
카드	-6612
랑크	-6613
로디	-6614
▁부흥	-6615
▁미나미	-6616
▁스프링	-6617
가루	-6618
▁모순	-6619
▁여의	-6620
▁외무	-6621
▁얇	-6622
결승	-6623
▁권고	-6624
▁두드	-6625
가타	-6626
▁따위	-6627
페이	-6628
▁리메	-6629
▁쇼핑	-6630
▁수명	-6631
▁제휴	-6632
▁지장	-6633
▁'()	-6634
▁베이스볼	-6635
▁생명체	-6636
가스	-6637
들리	-6638
브라	-6639
▁별로	-6640
▁판매량	-6641
▁삿	-6642
▁젖	-6643
▁공자	-6644
▁주파수	-6645
▁프로세스	-6646
▁시라	-6647
▁조용	-6648
▁나폴리	-6649
▁사리	-6650
▁머물렀	-6651
▁스트리트	-6652
▁앱	-6653
▁매사	-6654
▁아즈	-6655
▁주가	-6656
▁책봉	-6657
▁Fran	-6658
▁서서	-6659
▁석탑	-6660
Pa	-6661
프라	-6662
▁z	-6663
▁앞면	-6664
▁청와	-6665
▁거인	-6666
▁특유	-6667
▁이복	-6668
스티벌	-6669
▁페스티벌	-6670
▁굵	-6671
ult	-6672
▁보드	-6673
▁142	-6674
▁회수	-6675
▁부도	-6676
▁출입구	-6677
ps	-6678
▁밭	-6679
▁리얼	-6680
▁문제점	-6681
▁플라스	-6682
▁태어났으며	-6683
▁측근	-6684
▁청와대	-6685
ke	-6686
▁템	-6687
▁관습	-6688
▁3000	-6689
ale	-6690
▁없애	-6691
고속도로	-6692
▁몰락	-6693
▁검증	-6694
▁근접	-6695
▁오렌	-6696
▁우정	-6697
▁호평	-6698
▁의정부	-6699
▁과도	-6700
▁메디	-6701
▁포수	-6702
▁게시	-6703
▁CPU	-6704
▁옌	-6705
트랙	-6706
▁IT	-6707
▁구제	-6708
▁석조	-6709
▁충성	-6710
어리	-6711
▁곳곳	-6712
▁상대방	-6713
▁공략	-6714
▁지목	-6715
▁각기	-6716
▁경선	-6717
ose	-6718
▁ex	-6719
▁비틀즈	-6720
▁창업	-6721
▁공인	-6722
▁보잉	-6723
▁사바	-6724
수수	-6725
ork	-6726
▁눈물	-6727
▁못해	-6728
▁오케스트라	-6729
▁승무원	-6730
▁외곽	-6731
폴리스	-6732
▁소지	-6733
▁의거	-6734
▁통행	-6735
▁1894	-6736
▁얼마나	-6737
▁가질	-6738
▁과제	-6739
▁단원	-6740
아리	-6741
▁한화	-6742
▁회화	-6743
▁University	-6744
소스	-6745
▁내지	-6746
▁건의	-6747
▁서북	-6748
▁와카	-6749
▁할당	-6750
▁봤	-6751
루미	-6752
산리	-6753
▁이순	-6754
▁지각	-6755
▁한강	-6756
▁반격	-6757
▁시상식	-6758
▁남양	-6759
stem	-6760
▁밀양	-6761
▁빌헬	-6762
▁장성	-6763
▁전함	-6764
▁해인	-6765
▁마찰	-6766
▁강사	-6767
▁유격	-6768
메르	-6769
▁김용	-6770
▁소총	-6771
▁염색	-6772
▁요크	-6773
산군	-6774
▁전두환	-6775
▁컨트롤	-6776
▁얘	-6777
ome	-6778
▁변동	-6779
▁상상	-6780
▁이지	-6781
▁해임	-6782
▁공과	-6783
▁청사	-6784
▁허브	-6785
▁경부	-6786
▁히데요시	-6787
▁아군	-6788
▁아세	-6789
▁비평가	-6790
▁휩	-6791
▁과목	-6792
▁수군	-6793
▁디젤	-6794
▁이어져	-6795
▁행정부	-6796
▁민국	-6797
▁역명	-6798
▁인형	-6799
칠리아	-6800
▁성모	-6801
▁디비전	-6802
▁짙	-6803
▁프랜	-6804
▁사망자	-6805
▁황해	-6806
▁크리스토	-6807
동물	-6808
▁천사	-6809
▁사물	-6810
▁우편	-6811
▁주립	-6812
▁아이디	-6813
▁취약	-6814
리티	-6815
▁김영삼	-6816
▁왜성	-6817
▁정찰	-6818
▁사로잡	-6819
▁Intern	-6820
▁DC	-6821
▁우지	-6822
▁115	-6823
튜브	-6824
▁회견	-6825
▁쏟	-6826
▁교장	-6827
▁아이템	-6828
▁친선	-6829
▁약한	-6830
혁명	-6831
▁남인	-6832
▁모으	-6833
▁사가	-6834
▁서열	-6835
▁소닉	-6836
▁학명	-6837
▁And	-6838
▁진나라	-6839
▁스페인어	-6840
▁어드	-6841
▁엄마	-6842
▁하버드	-6843
▁바이올린	-6844
▁예배	-6845
▁인과	-6846
▁We	-6847
▁가미	-6848
▁프로토콜	-6849
산물	-6850
▁SP	-6851
▁남한	-6852
▁무슬	-6853
▁소금	-6854
▁완화	-6855
▁추격	-6856
▁유튜브	-6857
▁Comp	-6858
플러	-6859
▁담배	-6860
▁미네	-6861
▁추증	-6862
▁대답	-6863
▁테오	-6864
▁피스	-6865
▁매개	-6866
▁반경	-6867
▁자율	-6868
▁트윈	-6869
▁제네	-6870
▁꾀	-6871
▁샬	-6872
▁뷔	-6873
서양	-6874
orn	-6875
▁차남	-6876
▁외국어	-6877
모니	-6878
▁어두운	-6879
ox	-6880
▁루터	-6881
▁여진	-6882
악단	-6883
▁패스	-6884
붙이	-6885
▁발원	-6886
▁보충	-6887
▁법무	-6888
팩트	-6889
▁이영	-6890
▁112	-6891
▁마케팅	-6892
▁금액	-6893
▁연루	-6894
▁전례	-6895
▁대주교	-6896
▁무슬림	-6897
ach	-6898
▁버튼	-6899
▁여수	-6900
▁유언	-6901
▁갤럭	-6902
▁진도	-6903
▁태수	-6904
▁행진	-6905
▁크리스티	-6906
EN	-6907
▁믿음	-6908
▁알라	-6909
▁야기	-6910
▁우즈	-6911
▁북서부	-6912
▁스파이	-6913
▁포도주	-6914
▁It	-6915
▁일족	-6916
▁기타리스트	-6917
▁공민	-6918
▁관현	-6919
▁코로나	-6920
▁사용자	-6921
▁시드니	-6922
▁매출	-6923
▁배구	-6924
▁토요일	-6925
집합	-6926
▁상부	-6927
▁환상	-6928
길이	-6929
▁유교	-6930
▁106	-6931
차례	-6932
▁둥근	-6933
▁히라	-6934
▁줄여서	-6935
IM	-6936
▁대군	-6937
▁제트	-6938
▁호칭	-6939
▁피고	-6940
▁천문학자	-6941
▁동독	-6942
▁민사	-6943
▁최적	-6944
▁빌헬름	-6945
▁문양	-6946
▁화살	-6947
▁서서히	-6948
▁쿄	-6949
▁정밀	-6950
▁하트	-6951
▁회계	-6952
▁전도	-6953
▁주권	-6954
▁갤럭시	-6955
▁떨어졌	-6956
수아	-6957
▁골프	-6958
▁민영	-6959
수엘라	-6960
▁시외버스	-6961
▁니스	-6962
▁비극	-6963
▁후자	-6964
ley	-6965
▁성벽	-6966
▁연인	-6967
▁진리	-6968
▁시청자	-6969
▁동위	-6970
▁사다	-6971
▁항공모	-6972
받침	-6973
▁별개	-6974
▁샹	-6975
▁고원	-6976
▁니아	-6977
▁위장	-6978
▁문화방송	-6979
▁쥬	-6980
▁법령	-6981
▁시립	-6982
▁토니	-6983
▁됐으며	-6984
▁일찍이	-6985
▁중국인	-6986
▁펴	-6987
ear	-6988
▁상장	-6989
▁이노	-6990
베이터	-6991
▁123	-6992
▁석가	-6993
▁유해	-6994
▁즐기	-6995
▁다이아	-6996
▁트레	-6997
▁레이스	-6998
▁언론인	-6999
▁트럼	-7000
명사전	-7001
태우	-7002
▁상자	-7003
▁선원	-7004
▁수성	-7005
▁카나	-7006
▁부통령	-7007
▁나열	-7008
▁신전	-7009
▁이슈	-7010
▁일관	-7011
enn	-7012
▁가즈	-7013
▁분광	-7014
그라드	-7015
토시	-7016
▁광부	-7017
▁조언	-7018
ai	-7019
hel	-7020
▁미소	-7021
▁창건	-7022
▁베네수엘라	-7023
▁가르침	-7024
▁게이트	-7025
▁오렌지	-7026
▁추모	-7027
▁미스터	-7028
▁리메이크	-7029
▁무제	-7030
▁야간	-7031
▁제곱	-7032
▁태생	-7033
▁친척	-7034
▁몸길이	-7035
때로	-7036
▁격렬	-7037
▁117	-7038
▁캐스팅	-7039
▁아이디어	-7040
▁연구자	-7041
츠키	-7042
▁고무	-7043
▁그랑	-7044
▁둘레	-7045
▁수령	-7046
▁일렉	-7047
▁Gre	-7048
▁셈	-7049
▁명의	-7050
▁진군	-7051
▁카자흐	-7052
▁와인	-7053
▁포장	-7054
▁응답	-7055
▁비아	-7056
▁now	-7057
▁삼진	-7058
▁죽였	-7059
▁초창	-7060
▁자유당	-7061
자와	-7062
▁아베	-7063
▁준우	-7064
▁감지	-7065
▁강과	-7066
▁게재	-7067
▁식당	-7068
▁파스	-7069
▁난다	-7070
델피아	-7071
▁브라이언	-7072
▁필라델피아	-7073
▁유출	-7074
▁때때로	-7075
AL	-7076
▁준결승	-7077
▁급진	-7078
▁미하	-7079
▁아바	-7080
▁건너가	-7081
▁제작자	-7082
▁쿠스	-7083
리크	-7084
▁내내	-7085
▁마오	-7086
니스트	-7087
▁평행	-7088
▁104	-7089
상스	-7090
oci	-7091
▁기장	-7092
▁저택	-7093
▁하얀	-7094
럼비아	-7095
▁마리오	-7096
▁실종	-7097
▁기다리	-7098
DP	-7099
▁물러났	-7100
▁아리스	-7101
▁스파르타	-7102
▁원나라	-7103
▁sp	-7104
▁관념	-7105
▁중점	-7106
▁폴리스	-7107
▁팽창	-7108
ons	-7109
▁개미	-7110
▁미얀	-7111
▁성주	-7112
▁자기장	-7113
▁배틀	-7114
▁부시	-7115
▁속성	-7116
하르트	-7117
▁거슬러	-7118
▁양상	-7119
▁향교	-7120
▁안장	-7121
▁온천	-7122
▁룬	-7123
▁CC	-7124
▁피에르	-7125
▁오키나와	-7126
▁턱	-7127
▁나미	-7128
▁협조	-7129
▁오디오	-7130
▁이슬람교	-7131
ude	-7132
▁연세대	-7133
▁자마자	-7134
▁코무네	-7135
마사	-7136
▁다녀	-7137
▁갓	-7138
▁병조	-7139
▁충족	-7140
▁생일	-7141
▁단기	-7142
▁항공모함	-7143
gr	-7144
▁On	-7145
▁ar	-7146
▁113	-7147
ild	-7148
▁나리	-7149
▁시즈	-7150
▁남긴	-7151
▁언제나	-7152
▁CE	-7153
▁강경	-7154
▁낱말	-7155
▁떠난	-7156
▁법조	-7157
항공	-7158
▁신세	-7159
▁1890	-7160
▁국사	-7161
▁수평	-7162
▁All	-7163
▁룡	-7164
보기	-7165
커스	-7166
▁치세	-7167
▁토리	-7168
▁해운	-7169
▁건축가	-7170
▁손가락	-7171
▁중추원	-7172
▁헐	-7173
기니	-7174
디스	-7175
▁문재인	-7176
일드	-7177
▁가라	-7178
▁기수	-7179
▁동등	-7180
▁짜리	-7181
▁보스니아	-7182
산면	-7183
▁직책	-7184
▁드라이브	-7185
화점	-7186
▁hPa	-7187
▁궁정	-7188
▁마운	-7189
▁음원	-7190
▁친일인	-7191
▁친일인명사전	-7192
▁달린	-7193
▁선종	-7194
▁두드러	-7195
▁엘리베이터	-7196
서리	-7197
▁조반	-7198
▁지지자	-7199
▁공채	-7200
▁시공	-7201
▁동남아시아	-7202
▁두산	-7203
▁이원	-7204
▁서울대	-7205
▁북위	-7206
▁제수	-7207
▁Car	-7208
▁원자로	-7209
▁단점	-7210
▁자발	-7211
▁테스	-7212
▁지나치	-7213
▁Cent	-7214
▁풀려	-7215
▁하마	-7216
▁부른	-7217
▁북방	-7218
▁홍수	-7219
▁르네상스	-7220
▁초창기	-7221
▁투르크	-7222
▁1902	-7223
▁로고	-7224
킨스	-7225
▁레이저	-7226
▁계절	-7227
▁카타	-7228
▁토스	-7229
▁귀중	-7230
▁방침	-7231
▁슬라	-7232
▁든지	-7233
▁김태	-7234
▁스핀	-7235
▁적대	-7236
▁고체	-7237
ance	-7238
벌레	-7239
▁별칭	-7240
▁서해	-7241
▁중재	-7242
▁성전	-7243
Hz	-7244
▁가쓰	-7245
▁연도	-7246
▁이글	-7247
▁유수	-7248
▁교원	-7249
▁동당	-7250
▁원고	-7251
TA	-7252
▁상서	-7253
▁숭배	-7254
▁패하	-7255
▁효력	-7256
▁ISO	-7257
▁이바	-7258
▁이인	-7259
▁제갈	-7260
▁에이스	-7261
▁준우승	-7262
▁마친	-7263
▁물자	-7264
▁360	-7265
▁버린	-7266
▁109	-7267
▁이를	-7268
▁$	-7269
공신	-7270
▁전대	-7271
iam	-7272
▁드럼	-7273
▁마비	-7274
▁후한	-7275
▁거느리	-7276
▁텍스트	-7277
MS	-7278
pp	-7279
▁컸	-7280
▁튼	-7281
▁히스	-7282
▁''	-7283
▁섭정	-7284
▁스릴	-7285
▁에릭	-7286
▁편리	-7287
▁라트비아	-7288
▁미르	-7289
▁양주	-7290
▁1898	-7291
주곡	-7292
ise	-7293
▁무죄	-7294
▁할리	-7295
▁어업	-7296
▁가르쳤	-7297
▁객관	-7298
▁세미	-7299
▁클린	-7300
▁평야	-7301
▁다중	-7302
▁마천	-7303
▁센서	-7304
▁취지	-7305
▁1899	-7306
행위	-7307
ics	-7308
▁TO	-7309
▁병역	-7310
▁전압	-7311
au	-7312
▁겸하	-7313
▁그렸	-7314
▁김수	-7315
▁아사히	-7316
▁닿	-7317
▁대역	-7318
▁동력	-7319
▁존중	-7320
▁포괄	-7321
oth	-7322
▁대포	-7323
▁써서	-7324
▁이이	-7325
▁최저	-7326
▁출토	-7327
▁초상화	-7328
▁TH	-7329
▁승점	-7330
▁퍼시픽	-7331
▁명목	-7332
▁김상	-7333
▁창시	-7334
▁총대	-7335
니치	-7336
▁대제	-7337
▁동래	-7338
▁트위	-7339
▁향후	-7340
▁뉘	-7341
▁박탈	-7342
▁부재	-7343
▁아케	-7344
▁환원	-7345
▁대위	-7346
ii	-7347
카르	-7348
▁118	-7349
▁하부	-7350
▁하인리히	-7351
enc	-7352
▁교단	-7353
▁끌어	-7354
▁탈환	-7355
▁후지와	-7356
▁도라	-7357
▁주차	-7358
▁십자가	-7359
노리	-7360
▁두루	-7361
ount	-7362
▁이어받	-7363
▁나가사키	-7364
▁"()	-7365
▁챌	-7366
▁상세	-7367
▁순천	-7368
▁지류	-7369
▁테일러	-7370
▁개관	-7371
▁개그	-7372
▁고래	-7373
▁원하	-7374
▁합법	-7375
▁협동	-7376
▁베르크	-7377
제프	-7378
▁장안	-7379
▁사헌	-7380
▁충남	-7381
OL	-7382
▁기습	-7383
포구	-7384
▁갑작	-7385
▁원반	-7386
▁캄보	-7387
▁"("	-7388
▁지냈으며	-7389
석기	-7390
▁굉장	-7391
▁영동	-7392
▁세균	-7393
own	-7394
▁타르	-7395
라트	-7396
▁부착	-7397
▁재미	-7398
▁최소한	-7399
▁nowiki	-7400
▁긴장	-7401
▁총괄	-7402
▁셸	-7403
실록	-7404
▁기요	-7405
▁1901	-7406
박쥐	-7407
▁추상	-7408
▁기상청	-7409
▁양도	-7410
▁닛폰	-7411
▁볼리	-7412
▁술탄	-7413
▁종결	-7414
▁폐위	-7415
▁에다	-7416
▁오빠	-7417
▁조리	-7418
erm	-7419
▁전한다	-7420
▁복장	-7421
라이더	-7422
▁발해	-7423
▁캠페인	-7424
▁버려	-7425
▁증진	-7426
▁침몰	-7427
▁후대	-7428
▁레논	-7429
ius	-7430
out	-7431
▁물리학자	-7432
▁슬로바키아	-7433
추세	-7434
▁가면	-7435
▁천도	-7436
▁네이버	-7437
▁도메인	-7438
▁모스	-7439
▁시오	-7440
▁카트	-7441
▁리버풀	-7442
▁만세	-7443
▁테니스	-7444
▁파장	-7445
▁내외	-7446
▁따뜻	-7447
▁산림	-7448
▁아벨	-7449
크리트	-7450
▁톈	-7451
▁계몽	-7452
▁김재	-7453
▁무상	-7454
▁촉구	-7455
추세츠	-7456
▁매사추세츠	-7457
▁영리	-7458
▁청장	-7459
▁107	-7460
▁사헌부	-7461
▁신흥	-7462
▁남동부	-7463
▁영의정	-7464
▁우연히	-7465
▁장학	-7466
▁바퀴	-7467
▁전라도	-7468
▁기금	-7469
▁매력	-7470
▁지나가	-7471
▁격투	-7472
▁고발	-7473
▁바꿔	-7474
▁컬러	-7475
▁불명	-7476
▁총사	-7477
ake	-7478
▁소실	-7479
▁주지사	-7480
▁해병대	-7481
▁부천	-7482
▁아폴	-7483
▁문학상	-7484
▁유소년	-7485
▁시가	-7486
▁오클	-7487
▁시나리오	-7488
MA	-7489
▁북구	-7490
▁아우구	-7491
▁에스토	-7492
▁발현	-7493
▁방패	-7494
▁정말	-7495
▁불편	-7496
▁첨가	-7497
▁htt	-7498
▁극장판	-7499
노부	-7500
▁정무	-7501
▁상당수	-7502
isc	-7503
▁Ab	-7504
▁앙리	-7505
▁일화	-7506
▁들어온	-7507
▁로맨스	-7508
▁옐	-7509
져서	-7510
▁리어	-7511
▁아이슬	-7512
▁관통	-7513
▁열대	-7514
▁룰	-7515
▁날짜	-7516
▁트루	-7517
▁NBA	-7518
▁인격	-7519
▁펌	-7520
▁1903	-7521
▁멈추	-7522
▁객체	-7523
▁사지	-7524
▁지혜	-7525
▁파업	-7526
▁몬스터	-7527
▁섭취	-7528
▁넘어가	-7529
▁대외	-7530
▁머신	-7531
▁스릴러	-7532
▁껍질	-7533
▁백색	-7534
▁주축	-7535
▁126	-7536
▁둘러싼	-7537
▁자치체	-7538
▁크리스마스	-7539
▁몰려	-7540
▁쇼트	-7541
▁공직	-7542
▁명제	-7543
▁토성	-7544
▁아이슬란드	-7545
노프	-7546
시티	-7547
▁생전	-7548
▁콜라	-7549
▁가져왔	-7550
IV	-7551
▁김진	-7552
▁동년	-7553
▁위탁	-7554
▁평일	-7555
▁미즈	-7556
▁하우	-7557
치오	-7558
▁끊임	-7559
▁종로구	-7560
▁관람	-7561
▁단식	-7562
erv	-7563
▁출산	-7564
▁에티	-7565
▁이틀	-7566
▁사이버	-7567
▁Ac	-7568
▁청하	-7569
ward	-7570
▁중성자	-7571
▁탤	-7572
▁에스토니아	-7573
▁반박	-7574
▁여래	-7575
▁도호쿠	-7576
▁시칠리아	-7577
▁되게	-7578
▁조르	-7579
▁아미타	-7580
▁휠	-7581
lass	-7582
▁도스	-7583
▁사절	-7584
▁아종	-7585
▁가벼	-7586
▁대전광역시	-7587
▁유니폼	-7588
▁딩	-7589
선스	-7590
ata	-7591
▁소환	-7592
▁후세	-7593
itt	-7594
▁매카	-7595
▁수동	-7596
▁시그	-7597
▁캄보디아	-7598
▁신중	-7599
▁노란색	-7600
▁중심부	-7601
▁왓	-7602
우라	-7603
생활	-7604
▁부과	-7605
▁송시	-7606
▁다운로드	-7607
▁걱	-7608
▁제독	-7609
▁충실	-7610
▁힌두	-7611
시로	-7612
▁입상	-7613
▁탐지	-7614
▁발트	-7615
▁적자	-7616
▁집계	-7617
▁외교관	-7618
▁초연	-7619
▁송나라	-7620
▁우라늄	-7621
▁1897	-7622
▁EC	-7623
▁고가	-7624
▁여겼	-7625
▁중순	-7626
▁유연	-7627
▁자랐	-7628
▁춘추	-7629
▁한성부	-7630
▁들어왔	-7631
▁라이선스	-7632
▁우루과이	-7633
▁닭	-7634
▁고인	-7635
▁무려	-7636
▁바실	-7637
▁엔지	-7638
▁뢰	-7639
▁전했	-7640
▁훔	-7641
▁반감	-7642
▁Will	-7643
무기	-7644
▁바뀐	-7645
▁위임	-7646
▁참가자	-7647
키지	-7648
▁서사	-7649
▁IBM	-7650
▁미얀마	-7651
올리	-7652
▁보리	-7653
양함	-7654
▁스터	-7655
▁암석	-7656
▁입체	-7657
▁고사	-7658
▁함유	-7659
▁무거운	-7660
▁에스파냐	-7661
▁수렴	-7662
▁이광	-7663
▁이드	-7664
▁향한	-7665
▁블루스	-7666
▁콘크리트	-7667
▁원내	-7668
나리	-7669
▁산다	-7670
▁바치	-7671
▁붙였	-7672
▁얘기	-7673
▁버린다	-7674
라미	-7675
▁NG	-7676
▁평범	-7677
▁고베	-7678
▁신기	-7679
▁임상	-7680
▁충주	-7681
▁디스플레이	-7682
▁그로	-7683
▁비문	-7684
▁쉬운	-7685
▁-)	-7686
▁당일	-7687
▁여주	-7688
▁차기	-7689
▁라파	-7690
▁장미	-7691
▁133	-7692
창군	-7693
▁번영	-7694
▁역설	-7695
▁장난	-7696
▁진짜	-7697
▁124	-7698
▁덧붙여	-7699
▁간호	-7700
▁챌린	-7701
▁1884	-7702
▁국무총리	-7703
리즘	-7704
평군	-7705
▁CS	-7706
▁모방	-7707
▁플라이	-7708
▁미상	-7709
▁휴식	-7710
▁For	-7711
▁냄	-7712
▁명백	-7713
▁미션	-7714
▁선구	-7715
▁일어날	-7716
▁난민	-7717
▁III	-7718
▁공모	-7719
▁내린	-7720
▁영장	-7721
▁작센	-7722
▁끌려	-7723
▁중량	-7724
▁동아일보	-7725
▁언더	-7726
▁요르	-7727
▁육지	-7728
람쥐	-7729
살이	-7730
고쿠	-7731
▁구릉	-7732
▁중독	-7733
▁증후	-7734
▁리비아	-7735
▁업계	-7736
▁횟	-7737
▁col	-7738
▁꽤	-7739
승지	-7740
lic	-7741
▁합창	-7742
자치도	-7743
▁수용소	-7744
▁제주특별	-7745
▁제주특별자치도	-7746
▁대처	-7747
▁#	-7748
▁AK	-7749
▁고백	-7750
▁김포	-7751
▁휴전	-7752
▁고치	-7753
▁드라	-7754
▁보완	-7755
▁서재	-7756
▁연패	-7757
▁입지	-7758
▁명령어	-7759
▁총선거	-7760
▁후쿠시마	-7761
▁나주	-7762
▁옥스	-7763
▁신학교	-7764
▁AR	-7765
▁께서	-7766
▁미토	-7767
▁인연	-7768
▁막내	-7769
▁이진	-7770
▁즈음	-7771
▁바라보	-7772
▁누군	-7773
▁미쳤	-7774
▁배신	-7775
▁병행	-7776
▁걱정	-7777
트리올	-7778
▁몬트리올	-7779
▁솟	-7780
▁주름	-7781
▁치열	-7782
▁표명	-7783
그로	-7784
▁행적	-7785
▁잦	-7786
▁메타	-7787
▁탱크	-7788
▁BC	-7789
▁남원	-7790
▁시흥	-7791
▁안드레	-7792
▁실려	-7793
▁청원	-7794
▁해수	-7795
▁트라이	-7796
▁옴	-7797
▁팜	-7798
▁포격	-7799
▁느낀	-7800
▁브래	-7801
row	-7802
▁NC	-7803
▁전성기	-7804
▁교황청	-7805
▁신학자	-7806
▁아랍어	-7807
타고	-7808
▁교양	-7809
▁교외	-7810
▁마약	-7811
▁마인	-7812
▁저명	-7813
▁책임자	-7814
▁사우디아	-7815
▁페어	-7816
▁어울	-7817
▁Ro	-7818
▁분당	-7819
▁Rob	-7820
ru	-7821
법인	-7822
하면	-7823
▁구도	-7824
▁오세	-7825
▁운동장	-7826
▁브라우저	-7827
▁조선일보	-7828
▁지선	-7829
▁카탈	-7830
▁실장	-7831
▁팔레스	-7832
▁겔	-7833
▁정전	-7834
▁통근	-7835
▁나타낼	-7836
▁황태자	-7837
차기	-7838
▁CH	-7839
▁등재	-7840
▁베드	-7841
▁풋볼	-7842
▁소유자	-7843
▁컴파	-7844
▁효종	-7845
▁파이어	-7846
▁전염	-7847
▁케이스	-7848
▁깨달	-7849
▁탈당	-7850
▁내려가	-7851
▁부제	-7852
▁임용	-7853
▁구조물	-7854
람회	-7855
▁프레스	-7856
▁맵	-7857
다드	-7858
▁에도	-7859
▁풍경	-7860
▁코믹스	-7861
▁룽	-7862
루션	-7863
▁수습	-7864
▁야구장	-7865
▁증후군	-7866
의자	-7867
퍼니	-7868
▁빠졌	-7869
▁숨겨	-7870
▁식별	-7871
▁첼시	-7872
▁호기	-7873
대신	-7874
▁알코	-7875
▁중소	-7876
▁묘역	-7877
▁의상	-7878
▁입당	-7879
포스	-7880
포트	-7881
▁인재	-7882
▁조연	-7883
▁보일	-7884
▁항소	-7885
▁새겨져	-7886
▁테이블	-7887
TS	-7888
▁바닷	-7889
▁실전	-7890
▁Qu	-7891
▁나쁜	-7892
▁방송사	-7893
블로	-7894
▁횟수	-7895
▁옆면	-7896
▁정한	-7897
▁밟	-7898
▁햇	-7899
▁냉각	-7900
▁서정	-7901
▁공의회	-7902
▁근교	-7903
▁윌리엄스	-7904
▁114	-7905
▁송시열	-7906
▁엔지니어	-7907
▁`	-7908
백과	-7909
네스코	-7910
▁며칠	-7911
▁영남	-7912
▁쫓겨	-7913
▁벗어	-7914
▁중위	-7915
▁129	-7916
▁별다른	-7917
▁솜	-7918
▁주행	-7919
▁추출	-7920
▁퍼센트	-7921
▁복선	-7922
▁카운티	-7923
lay	-7924
▁태양계	-7925
▁이에야스	-7926
▁박해	-7927
▁주주	-7928
▁International	-7929
▁덤	-7930
▁면허	-7931
▁조달	-7932
케이션	-7933
▁쌍둥이	-7934
▁리라	-7935
주의자	-7936
▁134	-7937
제리	-7938
▁CF	-7939
▁Op	-7940
▁동점	-7941
▁일러	-7942
▁적당	-7943
▁패키지	-7944
▁끓	-7945
▁처녀	-7946
▁Christ	-7947
▁돌리	-7948
▁스콧	-7949
▁평원	-7950
▁히메	-7951
▁친일파	-7952
▁경연	-7953
▁김기	-7954
▁시초	-7955
▁탐사선	-7956
▁멋	-7957
▁킥	-7958
회장	-7959
▁초과	-7960
ames	-7961
▁동국	-7962
sk	-7963
▁윌슨	-7964
▁해변	-7965
▁경상도	-7966
▁이글스	-7967
▁매달	-7968
▁바흐	-7969
▁실린	-7970
▁허리	-7971
▁사우디아라비아	-7972
IP	-7973
▁고민	-7974
▁사슬	-7975
▁정렬	-7976
▁Bar	-7977
▁실시간	-7978
지붕	-7979
▁격퇴	-7980
▁좌절	-7981
▁거행	-7982
▁미주	-7983
▁인자	-7984
▁해소	-7985
▁기업인	-7986
▁다항	-7987
▁바른	-7988
▁남서부	-7989
언스	-7990
▁신주	-7991
▁환영	-7992
PG	-7993
▁용병	-7994
페르	-7995
▁한쪽	-7996
▁스러	-7997
▁실리	-7998
▁키프	-7999
▁결혼식	-8000
▁검정	-8001
▁동상	-8002
▁약자	-8003
▁해전	-8004
▁팔레스타인	-8005
eg	-8006
▁광물	-8007
▁소통	-8008
▁후방	-8009
▁사업자	-8010
▁최상위	-8011
▁견제	-8012
▁최악	-8013
▁목판	-8014
▁시선	-8015
▁신생	-8016
▁신속	-8017
▁신한	-8018
▁라이브러리	-8019
▁성체	-8020
▁폭행	-8021
▁관해서	-8022
▁마이너	-8023
▁유네스코	-8024
▁돋	-8025
▁민회	-8026
▁왕복	-8027
리니	-8028
▁내보	-8029
▁못할	-8030
▁지폐	-8031
▁뭉	-8032
▁의병	-8033
승부	-8034
토모	-8035
▁SD	-8036
▁창원시	-8037
모어	-8038
▁도마뱀붙이	-8039
▁어요	-8040
▁혈통	-8041
▁아마도	-8042
▁350	-8043
▁콰	-8044
리에	-8045
자스	-8046
▁어원	-8047
▁관구	-8048
▁총독부	-8049
▁영화배우	-8050
▁위키백과	-8051
▁모았	-8052
▁범인	-8053
▁성사	-8054
리케인	-8055
▁대표작	-8056
▁너비	-8057
▁상용	-8058
▁수법	-8059
▁차장	-8060
▁호세	-8061
▁공민왕	-8062
▁백화점	-8063
▁허리케인	-8064
▁개교	-8065
▁스톡	-8066
▁오노	-8067
▁닝	-8068
▁쿤	-8069
▁거론	-8070
▁구호	-8071
▁쓰인	-8072
▁주역	-8073
▁감리	-8074
▁왜냐	-8075
▁평택	-8076
▁현금	-8077
▁블로그	-8078
도바	-8079
▁창고	-8080
▁도왔	-8081
▁맥주	-8082
▁어휘	-8083
▁토마	-8084
▁바오로	-8085
ition	-8086
▁is	-8087
▁유동	-8088
▁의뢰	-8089
▁넨	-8090
▁낙선	-8091
▁신민	-8092
▁워드	-8093
lo	-8094
▁Ag	-8095
▁로프	-8096
▁지능	-8097
▁쾌속	-8098
▁다스리	-8099
▁뜨거운	-8100
▁모른다	-8101
바야	-8102
▁구이	-8103
▁카시	-8104
▁회고	-8105
▁페르디	-8106
바다	-8107
▁그날	-8108
▁극히	-8109
▁속했	-8110
▁프랭크	-8111
▁기인	-8112
▁우위	-8113
▁일컬	-8114
▁전자기	-8115
바시	-8116
산동	-8117
▁나눌	-8118
▁부당	-8119
▁설탕	-8120
▁순회	-8121
▁존속	-8122
푸스	-8123
▁호위	-8124
ement	-8125
▁러시아어	-8126
▁가동	-8127
▁순교	-8128
▁전념	-8129
▁연합회	-8130
기지	-8131
▁광학	-8132
▁급격히	-8133
▁릉	-8134
▁국소	-8135
▁몰아	-8136
▁No	-8137
어버	-8138
▁레바	-8139
▁일가	-8140
▁할지	-8141
▁다발	-8142
▁여지	-8143
▁거제	-8144
▁이세	-8145
▁천장	-8146
▁터치	-8147
▁카이사르	-8148
▁신규	-8149
▁에우	-8150
▁게이지	-8151
▁--	-8152
▁도장	-8153
▁아홉	-8154
▁음료	-8155
▁투르	-8156
란히	-8157
▁고장	-8158
▁심의	-8159
▁해적	-8160
▁부채	-8161
anc	-8162
▁서초	-8163
▁헤라	-8164
▁호랑이	-8165
▁링컨	-8166
▁서진	-8167
▁뒷면	-8168
▁갑작스	-8169
▁공단	-8170
▁나비	-8171
▁응원	-8172
▁Part	-8173
▁공산주의자	-8174
▁앓	-8175
▁상공	-8176
▁악장	-8177
▁하락	-8178
▁세계관	-8179
▁바리	-8180
▁힘입	-8181
조부	-8182
▁공수	-8183
▁수련	-8184
▁우세	-8185
▁통증	-8186
▁게르만	-8187
▁오피스	-8188
▁언니	-8189
▁잡아	-8190
▁증대	-8191
▁원숭이	-8192
▁자민	-8193
▁윤치호	-8194
하시	-8195
▁낭만	-8196
▁요동	-8197
▁돌연	-8198
▁성운	-8199
▁말리	-8200
▁그랑프리	-8201
▁갇	-8202
▁억압	-8203
▁추세	-8204
푸르트	-8205
ener	-8206
▁하이드	-8207
ology	-8208
▁드문	-8209
▁대학생	-8210
▁육체	-8211
▁펜실	-8212
▁생겨났	-8213
베이니아	-8214
▁사우루스	-8215
▁펜실베이니아	-8216
▁그루	-8217
▁예조	-8218
▁지평	-8219
▁내려오	-8220
▁부르크	-8221
▁분기점	-8222
▁닷	-8223
선거	-8224
트릭	-8225
▁누이	-8226
▁모이	-8227
▁에디	-8228
▁경찰청	-8229
▁나이지	-8230
▁나이지리아	-8231
▁농림	-8232
먼드	-8233
▁고수	-8234
내셔널	-8235
▁132	-8236
▁1871	-8237
▁인터내셔널	-8238
▁기어	-8239
▁몰래	-8240
▁시뮬	-8241
▁여당	-8242
▁저하	-8243
▁치아	-8244
▁누나	-8245
▁안성	-8246
▁장려	-8247
▁삼성전자	-8248
▁상담	-8249
▁성숙	-8250
▁122	-8251
릴라	-8252
▁일방	-8253
▁피에	-8254
▁배터리	-8255
▁아미노	-8256
▁노부나가	-8257
ash	-8258
▁부적	-8259
▁상단	-8260
마루	-8261
▁원종	-8262
▁이경	-8263
▁프랑수아	-8264
말라	-8265
▁늘어났	-8266
▁경관	-8267
▁고령	-8268
대원군	-8269
▁계열사	-8270
ans	-8271
ene	-8272
▁후안	-8273
베니아	-8274
idae	-8275
▁대의원	-8276
▁바이오	-8277
▁누가	-8278
▁{	-8279
▁상반	-8280
▁실체	-8281
▁차종	-8282
▁쉐	-8283
▁1885	-8284
곡리	-8285
▁치명	-8286
▁한지	-8287
스부르크	-8288
les	-8289
▁Go	-8290
▁컴퍼니	-8291
▁선비	-8292
▁야마토	-8293
그레이드	-8294
▁슬로베니아	-8295
타로	-8296
▁CO	-8297
▁오비	-8298
▁토크	-8299
▁고소	-8300
▁생식	-8301
▁왜냐하면	-8302
▁양호	-8303
마쓰	-8304
▁황실	-8305
라이트	-8306
▁그만두	-8307
▁업그레이드	-8308
▁자연수	-8309
▁바스	-8310
▁마하	-8311
▁트래	-8312
▁화장실	-8313
▁Pa	-8314
▁비시	-8315
▁서남	-8316
▁장거리	-8317
▁땄	-8318
▁릿	-8319
▁구출	-8320
▁성단	-8321
▁시바	-8322
▁카리브	-8323
▁김경	-8324
▁어스	-8325
▁해역	-8326
▁여겨졌	-8327
▁물리치	-8328
▁개원	-8329
▁춘천	-8330
▁해명	-8331
비나	-8332
▁관해	-8333
▁래퍼	-8334
▁로빈	-8335
ife	-8336
▁극동	-8337
▁나스	-8338
▁목재	-8339
▁후궁	-8340
▁간단히	-8341
▁누군가	-8342
▁이사장	-8343
▁떨어	-8344
▁반도체	-8345
▁딕	-8346
대기	-8347
위원	-8348
▁배후	-8349
▁서자	-8350
▁운하	-8351
▁게스트	-8352
▁고쳐	-8353
▁사육	-8354
▁Bla	-8355
▁거북	-8356
▁동문	-8357
▁소원	-8358
▁허위	-8359
▁Ste	-8360
▁그동안	-8361
시타	-8362
▁김현	-8363
▁인문	-8364
▁GP	-8365
▁루프	-8366
▁축하	-8367
▁친왕	-8368
은이	-8369
▁상사	-8370
▁협박	-8371
▁116	-8372
▁스페이스	-8373
포로	-8374
mer	-8375
▁영문	-8376
▁들어간다	-8377
ute	-8378
▁벌금	-8379
▁의약	-8380
▁치즈	-8381
▁이순신	-8382
▁중의원	-8383
중국	-8384
▁소매	-8385
▁우울	-8386
▁당주	-8387
▁빠진	-8388
▁판본	-8389
▁후사	-8390
▁흠	-8391
▁매입	-8392
▁봉쇄	-8393
▁유저	-8394
▁모니터	-8395
▁코프	-8396
▁초록	-8397
▁오리콘	-8398
▁찾아볼	-8399
▁가짜	-8400
▁단단	-8401
▁양키스	-8402
▁교과서	-8403
▁라오스	-8404
▁시베리아	-8405
▁공익	-8406
▁그냥	-8407
▁So	-8408
▁근원	-8409
▁아랫	-8410
▁증손	-8411
▁Cor	-8412
▁이산화	-8413
▁줄무늬	-8414
▁미라	-8415
▁이타	-8416
▁진급	-8417
▁현저	-8418
▁드러났	-8419
▁무승부	-8420
▁세이브	-8421
▁외야수	-8422
▁가장자리	-8423
▁눌	-8424
▁대웅	-8425
▁이케	-8426
▁우승자	-8427
▁할머니	-8428
아이	-8429
▁갈릴	-8430
▁거울	-8431
ink	-8432
▁제대	-8433
래스카	-8434
줄기	-8435
▁마디	-8436
▁미루	-8437
▁우유	-8438
▁포럼	-8439
ott	-8440
▁진공	-8441
▁Ass	-8442
▁교정	-8443
▁담겨	-8444
▁돌격	-8445
▁신선	-8446
▁정주	-8447
▁스티브	-8448
▁조종사	-8449
▁마력	-8450
▁승계	-8451
▁일반인	-8452
누엘	-8453
도리	-8454
▁Gu	-8455
▁부설	-8456
▁빌려	-8457
드리아	-8458
▁마츠	-8459
ream	-8460
▁가마쿠라	-8461
시피	-8462
▁구해	-8463
▁대폭	-8464
▁무지	-8465
▁신조	-8466
▁악단	-8467
▁우호	-8468
▁유년	-8469
▁탐구	-8470
▁스튜어트	-8471
▁나트	-8472
▁분비	-8473
▁비유	-8474
▁카자흐스탄	-8475
▁땃	-8476
시온	-8477
▁만남	-8478
▁연기자	-8479
▁상표	-8480
▁성문	-8481
▁연꽃	-8482
▁확신	-8483
브리지	-8484
▁CON	-8485
▁엿	-8486
red	-8487
▁비리	-8488
▁적분	-8489
▁통틀	-8490
▁블랙홀	-8491
▁끄	-8492
▁나눠	-8493
다지	-8494
▁사회학	-8495
▁유로파	-8496
▁ID	-8497
▁종착	-8498
▁탤런트	-8499
개미	-8500
▁GS	-8501
▁sc	-8502
▁먼지	-8503
▁문예	-8504
▁학기	-8505
▁힘든	-8506
▁세이부	-8507
다고	-8508
▁센티	-8509
▁야쿠	-8510
▁바티칸	-8511
▁느껴	-8512
▁뒤집	-8513
▁사간	-8514
▁진사	-8515
▁호프	-8516
▁기적	-8517
▁리틀	-8518
▁요하	-8519
▁토모	-8520
▁이민자	-8521
▁주어지	-8522
▁공백	-8523
▁포병	-8524
▁살아가	-8525
▁연산군	-8526
▁공조	-8527
▁더글	-8528
▁어긋	-8529
▁커널	-8530
▁독일인	-8531
▁법무부	-8532
리안	-8533
que	-8534
▁밝기	-8535
▁붙인	-8536
▁테레	-8537
▁국내외	-8538
▁반지름	-8539
▁협주곡	-8540
▁봉안	-8541
▁특집	-8542
▁평정	-8543
rans	-8544
▁열정	-8545
▁오사	-8546
▁오해	-8547
▁포획	-8548
ey	-8549
단체	-8550
축구	-8551
▁리우	-8552
▁사위	-8553
▁유니버	-8554
▁승부차기	-8555
▁둥지	-8556
▁시어	-8557
▁신탁	-8558
▁구축함	-8559
▁맏	-8560
▁캉	-8561
▁매매	-8562
▁축적	-8563
▁%),	-8564
▁케네	-8565
▁테이프	-8566
▁한동안	-8567
▁구경	-8568
▁재현	-8569
▁물려받	-8570
▁Amer	-8571
기업	-8572
▁규범	-8573
▁옵션	-8574
▁이긴	-8575
▁RNA	-8576
의장	-8577
▁곡인	-8578
▁보증	-8579
▁원했	-8580
omys	-8581
▁차이점	-8582
마드	-8583
▁디비	-8584
▁반해	-8585
▁아부	-8586
▁총칭	-8587
▁1880	-8588
끼리	-8589
▁결선	-8590
▁궁극	-8591
▁산란	-8592
▁쳤	-8593
▁김규	-8594
▁깨닫	-8595
▁수색	-8596
▁이화	-8597
▁투옥	-8598
오피아	-8599
▁검찰청	-8600
▁성리학	-8601
▁에티오피아	-8602
▁대니	-8603
▁최대한	-8604
크로	-8605
▁고성	-8606
▁트위터	-8607
▁컬럼비아	-8608
▁HT	-8609
▁요건	-8610
▁조부	-8611
ject	-8612
▁다룬다	-8613
▁염기	-8614
▁해고	-8615
▁알제리	-8616
▁오바	-8617
▁품종	-8618
테르부르크	-8619
▁IM	-8620
▁단층	-8621
▁문구	-8622
▁티스	-8623
▁연합국	-8624
▁군정	-8625
▁애덤	-8626
▁칭찬	-8627
▁김정일	-8628
▁왔으며	-8629
▁1860	-8630
▁풍자	-8631
▁방사선	-8632
▁다이아몬드	-8633
▁살리	-8634
▁굉장히	-8635
▁삿포로	-8636
▁거쳤	-8637
▁노바	-8638
▁땃쥐	-8639
▁양측	-8640
▁연승	-8641
▁잔류	-8642
▁충전	-8643
▁혈관	-8644
▁이소	-8645
▁자아	-8646
ler	-8647
▁가죽	-8648
▁왜곡	-8649
▁치안	-8650
▁깎	-8651
▁팡	-8652
▁마블	-8653
▁결함	-8654
▁곤란	-8655
▁생략	-8656
▁아예	-8657
▁강서	-8658
▁치러진	-8659
▁달했	-8660
▁부피	-8661
▁상법	-8662
▁이윤	-8663
▁플래시	-8664
▁도르	-8665
▁도청	-8666
▁성취	-8667
▁도카이	-8668
라리	-8669
▁CR	-8670
▁디렉	-8671
▁종래	-8672
▁하프	-8673
▁항쟁	-8674
▁형조	-8675
▁평의회	-8676
▁체코슬로	-8677
▁체코슬로바키아	-8678
ald	-8679
▁만료	-8680
▁소모	-8681
▁유방	-8682
▁한스	-8683
pr	-8684
연합	-8685
hem	-8686
▁an	-8687
▁맑	-8688
올라	-8689
▁극심	-8690
▁난징	-8691
▁만일	-8692
lect	-8693
▁얹	-8694
레기	-8695
ict	-8696
▁Je	-8697
▁도루	-8698
▁Har	-8699
▁대부	-8700
▁유죄	-8701
▁제압	-8702
▁철회	-8703
▁아타	-8704
▁오라	-8705
▁캐시	-8706
고래	-8707
▁날씨	-8708
▁보석	-8709
▁연봉	-8710
▁조세	-8711
▁칼라	-8712
▁취항	-8713
ail	-8714
▁대피	-8715
▁베스	-8716
▁신약	-8717
▁애틀	-8718
▁엔딩	-8719
▁개막전	-8720
▁결코	-8721
▁동정	-8722
▁즉각	-8723
▁체크	-8724
▁하워드	-8725
▁맘	-8726
▁담긴	-8727
▁효고	-8728
문트	-8729
박스	-8730
▁사모	-8731
▁지인	-8732
▁호출	-8733
▁SU	-8734
▁연쇄	-8735
▁우측	-8736
▁청춘	-8737
▁회관	-8738
▁Art	-8739
권자	-8740
ett	-8741
▁Pe	-8742
▁기다	-8743
▁택시	-8744
▁연산자	-8745
브레	-8746
▁CN	-8747
▁공습	-8748
▁구할	-8749
▁요정	-8750
▁알코올	-8751
▁가루	-8752
▁서민	-8753
▁재상	-8754
▁주부	-8755
▁탐색	-8756
▁화해	-8757
베르토	-8758
▁pr	-8759
▁부딪	-8760
▁어른	-8761
▁전년	-8762
▁한인	-8763
▁베네딕	-8764
▁시가지	-8765
▁School	-8766
블리	-8767
way	-8768
▁날아	-8769
▁시코	-8770
▁점성술	-8771
▁받아들였	-8772
갈색	-8773
▁경보	-8774
▁세속	-8775
▁타당	-8776
▁횡단	-8777
▁오프닝	-8778
▁구와	-8779
▁카롤	-8780
▁Dav	-8781
▁타이거즈	-8782
▁헥	-8783
▁스칼	-8784
타리오	-8785
▁사상자	-8786
▁ne	-8787
▁일조	-8788
▁축출	-8789
▁트윈스	-8790
톨레	-8791
하루	-8792
▁시범	-8793
▁키우	-8794
▁One	-8795
▁따른다	-8796
나스	-8797
바닥	-8798
▁CJ	-8799
▁황족	-8800
▁연예인	-8801
▁다크	-8802
▁프랑크푸르트	-8803
러미	-8804
▁드로	-8805
▁사쿠라	-8806
▁홈구장	-8807
▁경신	-8808
▁괴물	-8809
▁내정	-8810
▁말씀	-8811
▁루이지	-8812
II	-8813
ade	-8814
덕션	-8815
▁외모	-8816
▁나올	-8817
▁통보	-8818
▁폭동	-8819
▁청주시	-8820
▁암시	-8821
▁태극	-8822
퍼런스	-8823
ower	-8824
▁드라이버	-8825
▁블라디미르	-8826
▁뉴턴	-8827
▁Sup	-8828
EL	-8829
황후	-8830
▁말미	-8831
거진	-8832
▁승자	-8833
▁131	-8834
▁220	-8835
▁금요일	-8836
▁총사령	-8837
▁가환	-8838
▁건담	-8839
▁에버	-8840
바이잔	-8841
▁클라우드	-8842
▁공적	-8843
▁밀집	-8844
▁자음	-8845
▁포터	-8846
▁1889	-8847
▁페르난	-8848
TP	-8849
yc	-8850
▁경성부	-8851
▁휴스턴	-8852
▁네이션스	-8853
▁개소	-8854
▁네스	-8855
▁등기	-8856
▁징계	-8857
방송공사	-8858
▁슈트	-8859
▁어렸	-8860
▁을지	-8861
▁참의	-8862
▁체중	-8863
▁통영	-8864
▁선도	-8865
▁핸드	-8866
▁아제르	-8867
▁어미	-8868
▁희귀	-8869
▁상점	-8870
▁침투	-8871
▁헬기	-8872
▁보인	-8873
▁하동	-8874
▁아레나	-8875
▁아제르바이잔	-8876
uro	-8877
▁개종	-8878
▁바나	-8879
▁양반	-8880
▁플랜	-8881
▁헤비	-8882
▁핵무기	-8883
▁우파	-8884
▁비로소	-8885
▁소방서	-8886
▁1800	-8887
▁대손	-8888
▁소생	-8889
▁응시	-8890
▁일생	-8891
▁Ind	-8892
▁내주	-8893
▁신념	-8894
▁자비	-8895
▁히사	-8896
▁중형	-8897
▁월요일	-8898
교도	-8899
조건	-8900
ark	-8901
▁김창	-8902
▁레일	-8903
▁시골	-8904
▁예하	-8905
▁그레고	-8906
▁케네디	-8907
수리	-8908
▁바꾼	-8909
▁왼손	-8910
레슬링	-8911
▁광주광역시	-8912
▁성도	-8913
▁Gro	-8914
▁이어진다	-8915
▁뇌물	-8916
▁상해	-8917
▁빨간색	-8918
▁코스타	-8919
uk	-8920
▁공방	-8921
▁미키	-8922
▁살펴보	-8923
▁희생자	-8924
▁본국	-8925
▁정세	-8926
▁안테	-8927
▁자택	-8928
▁니콜라	-8929
▁브로드	-8930
▁생산량	-8931
▁설화	-8932
▁모로코	-8933
▁1870	-8934
IG	-8935
▁꿀	-8936
▁국보	-8937
▁나눈	-8938
▁아담	-8939
▁벨라루스	-8940
▁유체	-8941
파이어	-8942
▁일리노	-8943
▁붐	-8944
▁심해	-8945
▁코카	-8946
▁펠리	-8947
▁프로레슬링	-8948
그룹	-8949
▁이식	-8950
▁애틀랜	-8951
▁브라더스	-8952
저지	-8953
▁각도	-8954
▁답변	-8955
▁지옥	-8956
게이머	-8957
▁일리노이	-8958
▁프로게이머	-8959
▁옹립	-8960
▁USS	-8961
기념	-8962
▁간선	-8963
▁더니	-8964
▁패널	-8965
▁근로자	-8966
▁토착종	-8967
▁커뮤니케이션	-8968
▁National	-8969
▁몰리	-8970
▁직결	-8971
▁매니저	-8972
▁멜로디	-8973
무스	-8974
ola	-8975
▁MB	-8976
▁구절	-8977
▁그램	-8978
▁트로이	-8979
천리	-8980
▁관음	-8981
▁던져	-8982
▁원전	-8983
▁학계	-8984
▁바깥쪽	-8985
▁1600	-8986
스틴	-8987
▁시정	-8988
▁입국	-8989
▁정변	-8990
▁컨셉	-8991
▁해밀	-8992
▁당한다	-8993
드르	-8994
규모	-8995
ank	-8996
▁은데	-8997
▁혼동	-8998
▁냉전	-8999
▁모친	-9000
▁폭포	-9001
▁JT	-9002
▁벽돌	-9003
▁여운	-9004
▁피오	-9005
▁하단	-9006
▁레온	-9007
▁피신	-9008
▁흔하	-9009
able	-9010
▁도미니	-9011
▁알루미	-9012
▁포켓몬스터	-9013
▁슈팅	-9014
▁중복	-9015
▁쥐과	-9016
▁뉴저지	-9017
▁어려서	-9018
▁어려워	-9019
여래	-9020
▁가축	-9021
▁욕구	-9022
▁채워	-9023
▁방송인	-9024
▁스크립	-9025
▁1883	-9026
▁with	-9027
ng	-9028
▁BS	-9029
▁감행	-9030
▁비석	-9031
▁스폰	-9032
▁신시	-9033
▁정점	-9034
▁Res	-9035
irl	-9036
▁그대	-9037
▁축조	-9038
▁매카트니	-9039
▁오사카부	-9040
▁대패	-9041
▁따온	-9042
▁보헤	-9043
▁폭넓	-9044
크라	-9045
▁발기	-9046
▁비자	-9047
▁유진	-9048
▁파이널	-9049
▁대구광역시	-9050
▁나르	-9051
▁데모	-9052
▁바빌	-9053
▁숙청	-9054
▁재혼	-9055
▁패했	-9056
▁옳	-9057
▁EU	-9058
▁축물	-9059
▁나간다	-9060
펜하	-9061
▁sh	-9062
▁인플	-9063
헤이	-9064
▁세션	-9065
▁척추	-9066
▁초월	-9067
▁필터	-9068
▁하고	-9069
▁학업	-9070
▁스트레스	-9071
LS	-9072
▁빔	-9073
셰비	-9074
우트	-9075
▁샘플	-9076
▁기술자	-9077
▁이성계	-9078
▁퐁	-9079
글리	-9080
짓점	-9081
치기	-9082
▁강희	-9083
▁인산	-9084
▁입원	-9085
▁동학	-9086
▁저주	-9087
▁지로	-9088
▁초신	-9089
▁고고학	-9090
▁꼭짓점	-9091
▁플러스	-9092
로니	-9093
미사	-9094
샤바	-9095
ole	-9096
▁애칭	-9097
▁필사	-9098
▁분명히	-9099
eng	-9100
▁적도	-9101
▁정성	-9102
▁키르	-9103
▁달한다	-9104
브스	-9105
▁비주	-9106
▁어로	-9107
▁체조	-9108
▁커지	-9109
▁노태우	-9110
마이오스	-9111
▁베니	-9112
▁퍼지	-9113
▁다니엘	-9114
▁스타리그	-9115
▁Em	-9116
▁연이	-9117
▁영국인	-9118
▁1868	-9119
▁온타리오	-9120
닐라	-9121
▁어뢰	-9122
▁의자	-9123
▁토양	-9124
▁닦	-9125
▁카를로스	-9126
▁감자	-9127
▁남구	-9128
▁믹스	-9129
▁방화	-9130
▁우체	-9131
▁제재	-9132
▁프로덕션	-9133
화물	-9134
▁쌓았	-9135
▁쓰촨	-9136
▁위쪽	-9137
▁젊은이	-9138
▁러시	-9139
▁배수	-9140
▁천재	-9141
▁화강	-9142
▁히타	-9143
▁그다지	-9144
데시	-9145
▁외관	-9146
▁체류	-9147
노미야	-9148
▁므	-9149
▁mu	-9150
▁대치	-9151
▁미세	-9152
▁무어	-9153
▁War	-9154
▁대웅전	-9155
▁레바논	-9156
▁공리	-9157
▁워터	-9158
▁피겨	-9159
▁플라스틱	-9160
▁개화	-9161
▁기증	-9162
▁드레	-9163
▁중산	-9164
▁최강	-9165
▁퇴임	-9166
틱스	-9167
▁극한	-9168
▁롤링	-9169
▁con	-9170
▁트럼프	-9171
▁IN	-9172
▁봉건	-9173
▁잡혀	-9174
▁취업	-9175
브르	-9176
ana	-9177
▁군중	-9178
▁왕세	-9179
▁확실히	-9180
▁Sm	-9181
▁서장	-9182
▁입성	-9183
▁머무르	-9184
테면	-9185
▁적혀	-9186
▁파인	-9187
▁끌어들	-9188
▁지식인	-9189
▁이를테면	-9190
▁울산광역시	-9191
▁깃발	-9192
▁모나	-9193
▁사슴	-9194
▁사탕	-9195
▁가까워	-9196
▁복소수	-9197
▁소규모	-9198
▁라이온즈	-9199
▁륙	-9200
▁관제	-9201
▁기각	-9202
▁대합	-9203
▁상트	-9204
▁자선	-9205
▁지침	-9206
▁베어스	-9207
▁발급	-9208
▁스님	-9209
▁기사단	-9210
▁모서리	-9211
▁대거	-9212
▁서신	-9213
▁선배	-9214
▁전위	-9215
▁가벼운	-9216
sc	-9217
▁끼쳤	-9218
▁매수	-9219
▁본문	-9220
▁삼국지	-9221
온다	-9222
▁간토	-9223
▁광대	-9224
▁속편	-9225
we	-9226
덩이	-9227
▁띤다	-9228
▁실망	-9229
▁표방	-9230
▁짱	-9231
▁강동	-9232
▁스캔	-9233
▁용이	-9234
▁인체	-9235
▁첨단	-9236
▁카카	-9237
렉스	-9238
▁독서	-9239
▁미노	-9240
▁Per	-9241
▁라이언	-9242
▁천문대	-9243
▁바우	-9244
▁광저우	-9245
▁파란색	-9246
지스	-9247
lex	-9248
▁손꼽	-9249
클레스	-9250
IL	-9251
▁인명	-9252
▁정문	-9253
form	-9254
▁셨	-9255
▁사본	-9256
▁자형	-9257
▁챌린지	-9258
▁홍문관	-9259
ode	-9260
▁이건	-9261
▁호쿠	-9262
▁키보드	-9263
▁AD	-9264
▁수용체	-9265
▁표기법	-9266
▁아카데미상	-9267
산성	-9268
▁감마	-9269
▁자오	-9270
▁컴백	-9271
▁토끼	-9272
▁Rec	-9273
▁알루미늄	-9274
ble	-9275
▁불꽃	-9276
▁정유	-9277
▁팔리	-9278
▁혜택	-9279
▁대변인	-9280
▁박람회	-9281
▁he	-9282
ater	-9283
보르	-9284
▁공관	-9285
▁나갈	-9286
▁피츠	-9287
린스	-9288
fer	-9289
▁마녀	-9290
▁팔라	-9291
▁브리지	-9292
AF	-9293
히코	-9294
▁헬리	-9295
▁폭격기	-9296
▁그치	-9297
▁화력	-9298
▁화상	-9299
▁소나무	-9300
▁정해진	-9301
카미	-9302
▁소나	-9303
▁사회당	-9304
▁소셜	-9305
▁수분	-9306
▁정적	-9307
▁키프로스	-9308
▁보트	-9309
▁예고	-9310
▁제프	-9311
▁케임	-9312
▁Kor	-9313
▁부회장	-9314
▁우즈베	-9315
▁필리프	-9316
니까	-9317
▁EX	-9318
▁기차	-9319
▁동조	-9320
▁파산	-9321
쟁이	-9322
▁였음	-9323
▁웹툰	-9324
▁흥선	-9325
▁장례식	-9326
은색	-9327
▁Gl	-9328
▁원본	-9329
▁좌측	-9330
▁구스타	-9331
▁충북	-9332
ym	-9333
▁가군	-9334
▁Her	-9335
▁아돌프	-9336
▁아리스토	-9337
▁갱신	-9338
▁둥글	-9339
▁정립	-9340
프레스	-9341
▁"),	-9342
▁프톨레	-9343
▁프톨레마이오스	-9344
러드	-9345
▁과반	-9346
▁지미	-9347
▁호모	-9348
▁THE	-9349
▁아나키	-9350
▁아인슈타인	-9351
▁서류	-9352
▁카디	-9353
먼스	-9354
▁입각	-9355
▁자작	-9356
▁부여받	-9357
진군	-9358
▁공감	-9359
▁열도	-9360
▁운수	-9361
▁이준	-9362
▁중수	-9363
▁렐	-9364
▁발리	-9365
▁선우	-9366
▁싸이	-9367
▁충청도	-9368
▁색채	-9369
▁임관	-9370
▁하르	-9371
▁강남구	-9372
▁대서양	-9373
▁피고인	-9374
대장	-9375
ini	-9376
▁영등	-9377
▁겁	-9378
▁걸렸	-9379
▁다름	-9380
▁현감	-9381
아프리카	-9382
▁강변	-9383
▁등용	-9384
▁도요토미	-9385
카타	-9386
▁그릇	-9387
▁날카	-9388
▁정화	-9389
▁교통국	-9390
두리	-9391
랑카	-9392
▁단축	-9393
▁부를	-9394
레아	-9395
▁남미	-9396
▁늘리	-9397
▁무궁	-9398
▁주조	-9399
▁준주	-9400
▁청산	-9401
▁체력	-9402
▁꼭대기	-9403
▁시위대	-9404
아웃	-9405
▁광무	-9406
▁에콰	-9407
▁한족	-9408
▁에콰도르	-9409
피어	-9410
▁상금	-9411
▁함정	-9412
▁뮤지션	-9413
▁상트페	-9414
▁1882	-9415
▁상트페테르부르크	-9416
▁남매	-9417
▁페널	-9418
▁핑크	-9419
▁웨스턴	-9420
▁가야	-9421
▁두께	-9422
▁신원	-9423
▁콤팩트	-9424
▁System	-9425
벤처	-9426
▁가드	-9427
▁물품	-9428
▁이현	-9429
▁어드벤처	-9430
타니	-9431
타임	-9432
▁무명	-9433
▁워크	-9434
▁윤보	-9435
▁이관	-9436
▁제치	-9437
▁코끼리	-9438
▁광둥	-9439
▁분수	-9440
▁천하	-9441
▁카우	-9442
▁단절	-9443
▁채우	-9444
불교	-9445
폴리	-9446
▁공명	-9447
▁기숙	-9448
▁영산	-9449
▁중령	-9450
▁함선	-9451
▁해진다	-9452
역학	-9453
텍처	-9454
함수	-9455
▁그려진	-9456
▁아키텍처	-9457
로이	-9458
속기	-9459
▁모용	-9460
▁오크	-9461
▁태그	-9462
▁총대주교	-9463
▁할리우드	-9464
▁나노	-9465
▁종속	-9466
▁펑크	-9467
▁203	-9468
개골	-9469
▁대두	-9470
▁흔한	-9471
▁1892	-9472
▁기슭	-9473
▁단의	-9474
▁예명	-9475
▁미하일	-9476
▁의약품	-9477
▁AN	-9478
▁동형	-9479
▁모모	-9480
▁토기	-9481
▁잃어버	-9482
▁한국방송공사	-9483
▁달아	-9484
▁로열	-9485
▁루시	-9486
▁오를	-9487
▁케냐	-9488
▁법정동	-9489
▁이병	-9490
▁주이	-9491
▁NAS	-9492
▁플랫폼	-9493
▁대문	-9494
▁부스	-9495
▁약하	-9496
▁잘라	-9497
▁패한	-9498
▁민정	-9499
▁분출	-9500
▁Day	-9501
RO	-9502
▁하야	-9503
▁룩셈	-9504
▁유라	-9505
▁지우	-9506
가와현	-9507
ound	-9508
▁룩셈부르크	-9509
▁공예	-9510
▁단면	-9511
▁정관	-9512
▁Pet	-9513
▁뒷받침	-9514
▁스즈키	-9515
▁제네바	-9516
▁데이비스	-9517
시즘	-9518
▁군함	-9519
▁극작	-9520
▁생체	-9521
▁전속	-9522
▁채소	-9523
▁희곡	-9524
▁안토니오	-9525
▁선행	-9526
▁수축	-9527
몰로지	-9528
▁관광지	-9529
▁부의장	-9530
▁럼	-9531
▁얽	-9532
ual	-9533
▁달걀	-9534
▁대명	-9535
▁염증	-9536
▁예시	-9537
▁동행	-9538
▁불타	-9539
▁오오	-9540
▁페르디난	-9541
ye	-9542
▁격자	-9543
▁보복	-9544
▁부가	-9545
▁하차	-9546
일으	-9547
▁조립	-9548
▁창출	-9549
▁불러일으	-9550
▁쟈	-9551
ner	-9552
▁밀란	-9553
▁Inst	-9554
고스	-9555
▁발라	-9556
▁실재	-9557
▁1888	-9558
▁륜	-9559
▁남작	-9560
▁따왔	-9561
▁리프	-9562
▁세라	-9563
▁여파	-9564
베트남	-9565
▁기질	-9566
▁면제	-9567
▁모은	-9568
▁벨트	-9569
▁삼촌	-9570
▁습지	-9571
▁카프	-9572
▁관세	-9573
▁뒤쪽	-9574
▁병기	-9575
▁실무	-9576
▁주어진다	-9577
미트	-9578
▁갈래	-9579
▁소자	-9580
▁Can	-9581
▁였으므로	-9582
▁퉁	-9583
▁공파	-9584
▁돌기	-9585
▁변이	-9586
▁소령	-9587
▁평안남도	-9588
번스	-9589
▁un	-9590
▁까닭	-9591
▁리만	-9592
▁일부분	-9593
▁기니	-9594
▁벌인	-9595
▁청색	-9596
롤라이나	-9597
▁파라과이	-9598
더슨	-9599
▁CM	-9600
▁주된	-9601
▁헬륨	-9602
▁되돌아	-9603
▁후속작	-9604
▁괘	-9605
▁기르	-9606
▁카미	-9607
▁흔들	-9608
▁몫	-9609
▁김지	-9610
▁안산	-9611
▁이단	-9612
라이어	-9613
▁비행장	-9614
▁슬라브	-9615
ins	-9616
▁가려	-9617
▁박지	-9618
▁서문	-9619
▁즐겨	-9620
▁직경	-9621
▁스위치	-9622
▁트리플	-9623
vel	-9624
▁신축	-9625
▁원천	-9626
▁일파	-9627
▁전산	-9628
▁정려	-9629
▁코믹	-9630
▁크리스티안	-9631
루아	-9632
▁명하	-9633
▁직면	-9634
셰비키	-9635
▁장기간	-9636
▁흥선대원군	-9637
EG	-9638
▁슨	-9639
▁퀘벡	-9640
▁특권	-9641
▁들어갈	-9642
▁루타	-9643
▁산출	-9644
▁일산	-9645
▁입주	-9646
▁대사헌	-9647
▁찐	-9648
벨트	-9649
▁계정	-9650
▁조인	-9651
▁Fl	-9652
▁케임브리지	-9653
50	-9654
곡동	-9655
부리	-9656
▁성지	-9657
▁제니	-9658
▁조수	-9659
▁유닉스	-9660
af	-9661
▁추산	-9662
▁프란츠	-9663
레타	-9664
oll	-9665
▁ES	-9666
▁유부	-9667
▁방사성	-9668
▁사적	-9669
▁이용자	-9670
ution	-9671
▁볼리비아	-9672
포드	-9673
▁권총	-9674
▁깨끗	-9675
▁무성	-9676
▁미들	-9677
▁봉해	-9678
▁수료	-9679
▁한층	-9680
▁다항식	-9681
ax	-9682
▁교대	-9683
▁선동	-9684
▁오쿠	-9685
▁장자	-9686
▁취미	-9687
▁한테	-9688
▁경찰관	-9689
▁공용어	-9690
▁대성당	-9691
▁그렇지만	-9692
▁Colle	-9693
▁씌	-9694
▁거뒀	-9695
▁레즈	-9696
▁무로	-9697
▁불신	-9698
▁브뤼	-9699
▁싸워	-9700
▁임원	-9701
▁퇴역	-9702
▁두개골	-9703
▁평안북도	-9704
HO	-9705
▁분량	-9706
▁체르	-9707
▁탄도	-9708
▁더욱이	-9709
▁요르단	-9710
▁올라간다	-9711
▁Fr	-9712
▁반공	-9713
▁사살	-9714
▁고양시	-9715
사업	-9716
▁공손	-9717
▁누적	-9718
▁만성	-9719
▁선장	-9720
▁수확	-9721
▁우왕	-9722
▁장단	-9723
▁조형	-9724
▁언어학	-9725
▁설교	-9726
▁체스	-9727
▁어둠	-9728
▁장원	-9729
▁제인	-9730
▁As	-9731
▁비타	-9732
▁끊임없이	-9733
▁옥스퍼드	-9734
▁시뮬레이션	-9735
▁대관	-9736
▁후반기	-9737
▁Dr	-9738
▁워너	-9739
테르담	-9740
▁Med	-9741
▁조반니	-9742
▁야마구치	-9743
반구	-9744
▁복음서	-9745
▁새겨진	-9746
▁원로원	-9747
▁부드러운	-9748
▁중원	-9749
▁출처	-9750
▁고속도	-9751
▁겐지	-9752
▁글루	-9753
▁밝힌	-9754
▁시야	-9755
▁겉보기	-9756
▁캔자스	-9757
▁바르샤바	-9758
▁보헤미아	-9759
정리	-9760
▁DM	-9761
▁김홍	-9762
▁우물	-9763
▁갈수록	-9764
▁흉노	-9765
▁페널티	-9766
▁1893	-9767
RA	-9768
나우	-9769
▁발칸	-9770
▁시킴	-9771
▁심야	-9772
▁복합체	-9773
▁웬	-9774
타마	-9775
▁니코	-9776
▁전방	-9777
▁짐작	-9778
▁충렬	-9779
▁만주국	-9780
▁이룬	-9781
끄러운	-9782
▁남동생	-9783
▁아틀레	-9784
▁푸에르	-9785
츠크	-9786
▁냄새	-9787
▁서리	-9788
▁철폐	-9789
▁보이스	-9790
▁사업가	-9791
▁제작사	-9792
▁일러스트	-9793
토르	-9794
▁농사	-9795
▁제국주의	-9796
즈카	-9797
▁라그	-9798
▁발령	-9799
▁차르	-9800
▁총무	-9801
▁호족	-9802
▁붙여진	-9803
▁히어로즈	-9804
사우	-9805
아키	-9806
▁과실	-9807
▁극대	-9808
▁둔다	-9809
▁스턴	-9810
▁태백	-9811
▁키예프	-9812
▁교량	-9813
▁원료	-9814
▁아폴로	-9815
▁크리스토퍼	-9816
▁염소	-9817
▁의의	-9818
▁화자	-9819
▁후작	-9820
▁-,	-9821
▁고산	-9822
▁재선	-9823
▁거짓말	-9824
▁센고쿠	-9825
▁염색체	-9826
▁프란체	-9827
19	-9828
▁벵	-9829
도스	-9830
푸아	-9831
▁김옥	-9832
▁동이	-9833
▁역량	-9834
▁하치	-9835
▁Mag	-9836
헌영	-9837
oss	-9838
▁DD	-9839
▁Fe	-9840
▁가신	-9841
▁강대	-9842
▁느리	-9843
▁무함	-9844
▁KIA	-9845
▁중공업	-9846
▁지방산	-9847
▁스크립트	-9848
▁William	-9849
EM	-9850
▁강철	-9851
▁기관총	-9852
▁다케다	-9853
라이언트	-9854
타나	-9855
▁괴롭	-9856
▁복권	-9857
▁인질	-9858
▁교육부	-9859
▁거처	-9860
▁스트리	-9861
▁아니하	-9862
▁클라이언트	-9863
▁밍	-9864
▁국당	-9865
▁일으킬	-9866
▁궁중	-9867
▁도미	-9868
▁반군	-9869
▁질소	-9870
▁당연히	-9871
▁익스프레스	-9872
▁안경	-9873
▁드레스	-9874
▁낫	-9875
▁견인	-9876
▁상고	-9877
▁시종	-9878
▁헌신	-9879
▁마르티	-9880
▁아래쪽	-9881
▁타임스	-9882
▁각색	-9883
▁감안	-9884
▁공약	-9885
▁느꼈	-9886
▁일간	-9887
▁활주	-9888
▁마라톤	-9889
▁믹	-9890
chn	-9891
▁김제	-9892
▁난이	-9893
▁보강	-9894
▁종점	-9895
▁법조인	-9896
UC	-9897
자르	-9898
▁연못	-9899
▁용서	-9900
▁일렉트로	-9901
▁례	-9902
▁구약	-9903
▁석회	-9904
▁타석	-9905
▁Don	-9906
▁그래미	-9907
▁설립자	-9908
▁1848	-9909
na	-9910
석탑	-9911
▁To	-9912
▁우회	-9913
▁정경	-9914
▁폭로	-9915
▁열린다	-9916
▁맞붙	-9917
▁무슨	-9918
▁브란	-9919
▁정인	-9920
▁몰아내	-9921
▁전시회	-9922
산맥	-9923
테인	-9924
▁ph	-9925
▁혐오	-9926
층석탑	-9927
▁새로이	-9928
▁삼국사기	-9929
FL	-9930
▁델라	-9931
▁쥐속	-9932
▁무너지	-9933
▁데카	-9934
▁보성	-9935
▁Mon	-9936
▁인테르	-9937
▁동네	-9938
▁이규	-9939
▁CEO	-9940
▁아리아	-9941
▁1886	-9942
퀘어	-9943
▁관절	-9944
▁기성	-9945
▁당수	-9946
▁북경	-9947
▁우치	-9948
▁집결	-9949
▁탑신	-9950
▁통치자	-9951
▁AG	-9952
▁GO	-9953
▁우상	-9954
▁아름답	-9955
가미	-9956
▁독성	-9957
▁세키	-9958
▁쳐들	-9959
자치시	-9960
▁교도소	-9961
▁북아프리카	-9962
▁특별자치시	-9963
▁킴	-9964
▁상경	-9965
▁세네	-9966
▁사이토	-9967
▁생겨나	-9968
▁그레고리오	-9969
▁쯔	-9970
세기	-9971
▁경과	-9972
▁고아	-9973
▁넘기	-9974
▁다마	-9975
▁추첨	-9976
▁침체	-9977
▁동성애자	-9978
▁연극배우	-9979
▁농부	-9980
▁상행	-9981
▁암흑	-9982
▁특색	-9983
▁기병대	-9984
▁연대기	-9985
▁1592	-9986
▁슛	-9987
▁호응	-9988
▁나란히	-9989
바른	-9990
스기	-9991
▁BM	-9992
테이션	-9993
▁450	-9994
▁그림자	-9995
▁대장군	-9996
▁배우자	-9997
▁안치	-9998
▁앞장	-9999
▁CBS	-10000
▁단행본	-10001
테쓰	-10002
▁장대	-10003
▁조계	-10004
▁조병	-10005
▁종파	-10006
▁진수	-10007
기념물	-10008
▁중앙아시아	-10009
▁콕	-10010
▁간신	-10011
▁불린	-10012
▁파우	-10013
▁현직	-10014
▁황도	-10015
ings	-10016
컨대	-10017
▁가계	-10018
▁광명	-10019
▁민감	-10020
▁하리	-10021
파리	-10022
▁빌라	-10023
▁진전	-10024
▁레슬링	-10025
10	-10026
국사	-10027
그리	-10028
럴드	-10029
▁Mc	-10030
▁게리	-10031
▁온대	-10032
▁갈리아	-10033
▁윤보선	-10034
▁줄거리	-10035
▁버드	-10036
▁지녔	-10037
▁케라	-10038
▁표적	-10039
나미	-10040
▁NE	-10041
▁신동	-10042
▁용암	-10043
▁타우	-10044
▁드러머	-10045
▁미시시피	-10046
▁리조	-10047
▁무술	-10048
▁소시	-10049
▁모티브	-10050
▁트로피	-10051
▁렘	-10052
▁비늘	-10053
▁살려	-10054
▁신정	-10055
▁240	-10056
▁하노이	-10057
▁그리스인	-10058
사리	-10059
▁러셀	-10060
▁수녀	-10061
▁원더	-10062
▁앨리스	-10063
▁유대교	-10064
▁중앙부	-10065
▁뻔	-10066
▁두꺼	-10067
▁로라	-10068
▁마키	-10069
▁빈곤	-10070
▁차가	-10071
▁크롬	-10072
▁예정자	-10073
▁호르몬	-10074
▁덮여	-10075
▁빛나	-10076
▁에미	-10077
▁주임	-10078
▁회피	-10079
▁마운트	-10080
▁세워져	-10081
▁으려고	-10082
▁알렉산드리아	-10083
디나	-10084
▁김민	-10085
▁동참	-10086
▁유령	-10087
▁진행자	-10088
▁블리	-10089
▁일리	-10090
▁김병	-10091
▁라오	-10092
▁무궁화	-10093
▁박헌영	-10094
▁SL	-10095
▁공표	-10096
▁상응	-10097
▁심화	-10098
▁음향	-10099
▁자결	-10100
▁페니	-10101
▁회상	-10102
▁클라이	-10103
▁1887	-10104
카가	-10105
▁도선	-10106
▁1891	-10107
▁대본	-10108
▁아브	-10109
▁요약	-10110
▁울프	-10111
스카르	-10112
▁쓰레기	-10113
▁다툼	-10114
▁퇴장	-10115
▁쓰시마	-10116
▁위나라	-10117
ma	-10118
▁be	-10119
▁다를	-10120
▁돌입	-10121
▁모인	-10122
▁이태	-10123
▁지켰	-10124
▁진료	-10125
덕왕	-10126
홀름	-10127
▁노보	-10128
▁미륵	-10129
▁열심	-10130
니시	-10131
▁')	-10132
▁델타	-10133
▁발각	-10134
▁아닐	-10135
▁초원	-10136
▁출가	-10137
▁후진	-10138
▁가져오	-10139
▁1866	-10140
▁줘	-10141
▁qu	-10142
▁검출	-10143
▁고토	-10144
▁현행	-10145
▁거주지	-10146
모스	-10147
▁경희	-10148
▁데르	-10149
▁상가	-10150
▁타협	-10151
▁Bro	-10152
▁패밀리	-10153
뜨렸	-10154
uck	-10155
▁로우	-10156
▁발병	-10157
▁시켰으며	-10158
▁콘스탄티노폴리스	-10159
▁리뷰	-10160
▁실적	-10161
▁입수	-10162
▁저렴	-10163
▁양성자	-10164
▁옥수수	-10165
▁엇	-10166
▁엮	-10167
▁GN	-10168
▁니카	-10169
▁리모	-10170
▁소수자	-10171
▁쾰	-10172
▁검열	-10173
▁복식	-10174
▁시네	-10175
▁아산	-10176
▁정종	-10177
▁민간인	-10178
▁유치원	-10179
▁천연기념물	-10180
▁레전	-10181
▁조광	-10182
▁니콜라이	-10183
▁극도	-10184
▁시합	-10185
▁강풍	-10186
▁관동	-10187
▁군청	-10188
▁진해	-10189
▁철종	-10190
▁붙여졌	-10191
플로	-10192
▁가열	-10193
▁리바	-10194
▁수인	-10195
▁재질	-10196
▁파병	-10197
▁솔루션	-10198
▁군산	-10199
▁들려	-10200
▁수목	-10201
▁애리	-10202
▁어리	-10203
▁마카오	-10204
▁구형	-10205
▁버마	-10206
▁이겼	-10207
▁파문	-10208
▁다람쥐	-10209
멘스	-10210
▁경작	-10211
▁원격	-10212
▁제동	-10213
▁카를로	-10214
US	-10215
▁기념관	-10216
▁리더십	-10217
▁지도부	-10218
▁아시카가	-10219
▁메라	-10220
▁반전	-10221
▁보위	-10222
▁연동	-10223
▁함자	-10224
▁팰	-10225
니지	-10226
▁기저	-10227
▁이득	-10228
▁접수	-10229
▁커스	-10230
▁허정	-10231
▁아라비아	-10232
으니	-10233
▁LA	-10234
▁가역	-10235
▁강간	-10236
▁베토	-10237
▁수중	-10238
▁추론	-10239
▁int	-10240
▁우체국	-10241
푸르	-10242
rop	-10243
▁Su	-10244
▁가산	-10245
▁번성	-10246
▁상연	-10247
▁무함마드	-10248
파르	-10249
let	-10250
▁급수	-10251
▁이끈	-10252
▁장덕	-10253
▁정선	-10254
▁추종	-10255
▁긴테쓰	-10256
▁보수당	-10257
▁이주하	-10258
▁++	-10259
▁마당	-10260
▁지청	-10261
▁프론	-10262
▁교육청	-10263
▁아스널	-10264
▁자란다	-10265
CC	-10266
▁괄	-10267
▁넌	-10268
▁kt	-10269
▁아치	-10270
올로	-10271
ane	-10272
▁AV	-10273
▁Im	-10274
▁국영	-10275
▁시중	-10276
▁온갖	-10277
▁터보	-10278
▁데스크	-10279
▁리우스	-10280
▁소행성	-10281
▁준결승전	-10282
▁쑤	-10283
▁개항	-10284
▁동요	-10285
▁닫힌	-10286
▁성실	-10287
▁을까	-10288
▁지출	-10289
▁퇴적	-10290
▁포고	-10291
▁개인전	-10292
▁이동하	-10293
▁Korea	-10294
▁감동	-10295
▁따랐	-10296
▁물가	-10297
▁전복	-10298
▁창녕	-10299
ouse	-10300
▁된다면	-10301
▁옮겨졌	-10302
urn	-10303
▁정동	-10304
▁토미	-10305
▁표창	-10306
텔레스	-10307
메다	-10308
할시	-10309
▁탁월	-10310
사관학교	-10311
구역	-10312
ger	-10313
▁메릴	-10314
▁복용	-10315
▁줄어	-10316
▁컨트리	-10317
▁광양	-10318
▁코코	-10319
▁휴가	-10320
▁디트로	-10321
▁Comm	-10322
▁둘러싸여	-10323
▁디트로이트	-10324
▁합스부르크	-10325
▁팟	-10326
기스	-10327
ral	-10328
▁vs	-10329
▁공황	-10330
▁유료	-10331
▁코시	-10332
가르	-10333
oid	-10334
▁감싸	-10335
▁엄밀	-10336
▁발렌시아	-10337
구르	-10338
▁김유	-10339
▁선보이	-10340
▁아마존	-10341
▁힌두교	-10342
▁낚	-10343
리코	-10344
벨라	-10345
▁출석	-10346
▁하행	-10347
번뇌	-10348
▁IV	-10349
▁가볍	-10350
▁장벽	-10351
▁페이스북	-10352
파크	-10353
▁Cr	-10354
▁경시	-10355
▁만년	-10356
▁벤치	-10357
▁세비	-10358
▁시국	-10359
▁절단	-10360
▁컴퓨팅	-10361
▁케플러	-10362
16	-10363
하키	-10364
▁상기	-10365
▁토요	-10366
▁통용	-10367
lude	-10368
▁아리스토텔레스	-10369
히토	-10370
▁공고	-10371
▁돌출	-10372
운다	-10373
▁맥도	-10374
▁반역	-10375
▁자카	-10376
▁장시	-10377
▁재외	-10378
▁창시자	-10379
▁나루	-10380
▁내면	-10381
▁문종	-10382
▁이장	-10383
▁자르	-10384
▁지성	-10385
▁콘테	-10386
▁뾰	-10387
▁NP	-10388
▁섬세	-10389
▁징병	-10390
ific	-10391
▁오른손	-10392
▁청동기	-10393
링턴	-10394
▁결제	-10395
▁빈도	-10396
그라	-10397
▁경인	-10398
▁천왕	-10399
port	-10400
▁분류군	-10401
▁수원시	-10402
▁자세히	-10403
▁맹세	-10404
▁합당	-10405
▁단과	-10406
▁메일	-10407
▁신상	-10408
▁평민	-10409
▁브리튼	-10410
▁파이프	-10411
▁SE	-10412
▁대출	-10413
▁상급	-10414
▁오로	-10415
▁장제	-10416
▁전구	-10417
▁피로	-10418
▁랍	-10419
▁me	-10420
▁고쿠	-10421
▁낙동	-10422
▁입양	-10423
▁스토어	-10424
▁신문사	-10425
▁그레고리	-10426
▁함경남도	-10427
▁알렉산드르	-10428
▁메커	-10429
▁무척	-10430
▁세손	-10431
▁시의	-10432
▁울리	-10433
▁제왕	-10434
해살이	-10435
▁대성전	-10436
맥스	-10437
쿠버	-10438
▁듀오	-10439
▁등극	-10440
▁명분	-10441
▁수교	-10442
▁오락	-10443
▁직통	-10444
▁초빙	-10445
면체	-10446
▁계시	-10447
▁불행	-10448
▁빈번	-10449
▁저격	-10450
사이드	-10451
▁갤러리	-10452
▁미군정	-10453
▁성남시	-10454
▁조지프	-10455
▁더글러스	-10456
▁이완	-10457
▁청소	-10458
ield	-10459
▁마다가	-10460
▁통틀어	-10461
▁파나마	-10462
▁컷	-10463
▁노론	-10464
▁팔레	-10465
▁와일드	-10466
▁1864	-10467
▁썬	-10468
ike	-10469
▁감수	-10470
▁로그	-10471
▁Rock	-10472
▁가오	-10473
▁벽화	-10474
▁무조건	-10475
▁낮추	-10476
▁왕정	-10477
▁총애	-10478
▁카사	-10479
ator	-10480
▁사각형	-10481
amb	-10482
▁압둘	-10483
▁유정	-10484
▁자크	-10485
▁프레드	-10486
ee	-10487
▁광도	-10488
▁실버	-10489
▁전날	-10490
▁해부	-10491
▁스퀘어	-10492
처스	-10493
▁개개	-10494
▁일당	-10495
▁부작용	-10496
▁스톡홀름	-10497
▁안드레아	-10498
라기	-10499
▁도우	-10500
▁중상	-10501
▁찰리	-10502
▁친분	-10503
▁서재필	-10504
천면	-10505
타주	-10506
▁Sk	-10507
▁at	-10508
▁경질	-10509
▁보로	-10510
▁일명	-10511
▁자칭	-10512
▁조례	-10513
▁바이트	-10514
▁히로시	-10515
글라	-10516
▁기분	-10517
▁부조	-10518
▁아빠	-10519
▁천거	-10520
▁활발히	-10521
▁관문	-10522
▁독도	-10523
▁봉수	-10524
▁자생	-10525
▁투항	-10526
▁Time	-10527
▁러시아인	-10528
▁함부르크	-10529
OV	-10530
▁관청	-10531
▁기념비	-10532
▁신도비	-10533
▁봇	-10534
▁수양	-10535
▁칼럼	-10536
▁스폰서	-10537
▁올바른	-10538
▁센티미터	-10539
▁낙하	-10540
▁남해	-10541
▁연한	-10542
▁화순	-10543
▁확고	-10544
▁일자리	-10545
▁사무총장	-10546
사상	-10547
▁ww	-10548
▁갈리	-10549
▁김원	-10550
▁더비	-10551
▁소행	-10552
▁차용	-10553
▁창의	-10554
▁부원군	-10555
▁캐서	-10556
▁거래소	-10557
그래	-10558
▁감금	-10559
▁때려	-10560
▁왜구	-10561
▁중서	-10562
▁아이오	-10563
▁Robert	-10564
▁른	-10565
▁줄여	-10566
▁타케	-10567
▁Tra	-10568
▁애리조	-10569
▁려던	-10570
▁송도	-10571
▁이데	-10572
ican	-10573
▁대대로	-10574
▁대합실	-10575
캐롤라이나	-10576
▁Music	-10577
</	-10578
▁샐	-10579
▁홉	-10580
신문	-10581
암동	-10582
▁맞대	-10583
▁보라	-10584
▁왕건	-10585
▁Pol	-10586
▁포스터	-10587
▁활주로	-10588
▁1863	-10589
▁구마모토	-10590
▁삼층석탑	-10591
어질	-10592
퍼슨	-10593
▁조이	-10594
▁넘어갔	-10595
▁뉴욕주	-10596
▁프라하	-10597
공산	-10598
기구	-10599
rol	-10600
▁본작	-10601
▁유스	-10602
▁정국	-10603
▁해져	-10604
▁라이더	-10605
▁NT	-10606
▁대원군	-10607
에몽	-10608
▁가옥	-10609
▁분과	-10610
▁살라	-10611
▁이룩	-10612
▁정제	-10613
▁www	-10614
▁레전드	-10615
▁아미노산	-10616
▁민요	-10617
▁판례	-10618
▁메커니즘	-10619
▁약혼	-10620
▁우아	-10621
▁꼽힌다	-10622
▁동대문	-10623
▁미생물	-10624
▁1881	-10625
▁SA	-10626
▁듀얼	-10627
▁앞쪽	-10628
▁장흥	-10629
▁학설	-10630
▁해남	-10631
▁NGC	-10632
▁게릴라	-10633
▁만화가	-10634
▁카타르	-10635
▁총사령관	-10636
▁LP	-10637
▁고추	-10638
▁다투	-10639
▁모의	-10640
▁수염	-10641
▁올드	-10642
▁원군	-10643
▁내야수	-10644
▁시코쿠	-10645
▁올랐으며	-10646
위성	-10647
▁불어	-10648
▁티켓	-10649
ital	-10650
천사	-10651
▁궁궐	-10652
▁배려	-10653
▁et	-10654
▁네오	-10655
▁노이	-10656
▁모셔	-10657
▁온다	-10658
▁주계	-10659
▁대지진	-10660
▁반란군	-10661
▁1861	-10662
▁경제학자	-10663
▁그레이트	-10664
▁이탈리아어	-10665
▁현은	-10666
▁북아일랜드	-10667
코딩	-10668
콥터	-10669
sch	-10670
▁도사	-10671
▁무실	-10672
▁스텔	-10673
바야시	-10674
추부사	-10675
▁자제	-10676
▁촉매	-10677
▁서유럽	-10678
▁Mo	-10679
▁보행	-10680
▁원심	-10681
▁프롤	-10682
▁합친	-10683
▁마르틴	-10684
▁오로지	-10685
▁토스카	-10686
▁High	-10687
▁프로리그	-10688
ex	-10689
▁구내	-10690
▁중생	-10691
▁즐길	-10692
▁화엄	-10693
란토	-10694
체고	-10695
▁곡물	-10696
▁문경	-10697
▁스노	-10698
▁휴게	-10699
▁경영자	-10700
▁비주얼	-10701
체고비나	-10702
▁Black	-10703
거지	-10704
▁갑옷	-10705
▁생계	-10706
▁의석	-10707
▁초고	-10708
▁헌정	-10709
▁김규식	-10710
ino	-10711
▁국악	-10712
▁매직	-10713
▁박종	-10714
▁뾰족	-10715
▁이빨	-10716
▁전격	-10717
▁케빈	-10718
▁헬싱	-10719
▁마우스	-10720
▁카스티	-10721
▁올림피아	-10722
네시	-10723
무소	-10724
▁대국	-10725
▁만장	-10726
▁반성	-10727
▁베른	-10728
▁특전	-10729
▁Mac	-10730
▁경쟁력	-10731
▁베토벤	-10732
▁끝났	-10733
▁농어	-10734
▁극작가	-10735
▁Geor	-10736
▁GM	-10737
▁나인	-10738
▁문고	-10739
▁소말	-10740
▁제물	-10741
▁미네소	-10742
▁안테나	-10743
▁유격수	-10744
▁플라톤	-10745
▁1876	-10746
▁신종	-10747
▁지쿠	-10748
▁미주리	-10749
로우	-10750
▁리히	-10751
▁전단	-10752
▁최진	-10753
▁파손	-10754
▁대각	-10755
▁말년	-10756
▁사방	-10757
▁실권	-10758
▁전무	-10759
▁페로	-10760
▁셜	-10761
▁부각	-10762
▁소울	-10763
▁가락	-10764
▁어류	-10765
▁영유	-10766
브리아	-10767
▁에디션	-10768
▁알래스카	-10769
▁당내	-10770
▁마에	-10771
▁송신	-10772
▁수년	-10773
▁워치	-10774
▁접해	-10775
▁커플	-10776
▁쾰른	-10777
▁화약	-10778
테리아	-10779
▁마닐라	-10780
▁보낸다	-10781
▁지지율	-10782
▁마다가스카르	-10783
원장	-10784
▁하비	-10785
▁서대문	-10786
▁NASA	-10787
▁only	-10788
원수	-10789
지기	-10790
▁국공	-10791
▁본성	-10792
▁창문	-10793
▁내무부	-10794
▁는다면	-10795
▁해밀턴	-10796
▁헤르체고비나	-10797
air	-10798
▁넷째	-10799
▁막시	-10800
▁밀러	-10801
▁배속	-10802
▁숙주	-10803
▁재활	-10804
▁치루	-10805
▁호의	-10806
▁Eng	-10807
▁초신성	-10808
그레	-10809
충류	-10810
▁성별	-10811
▁파도	-10812
▁마르코	-10813
▁샀	-10814
ave	-10815
ull	-10816
▁글래	-10817
▁루카	-10818
▁불변	-10819
▁카바	-10820
▁트릭	-10821
▁평창	-10822
ited	-10823
▁ABC	-10824
▁ATP	-10825
▁건전	-10826
▁마니	-10827
▁섹스	-10828
▁적군	-10829
▁통역	-10830
▁시달리	-10831
▁어려웠	-10832
▁켈리	-10833
▁하반	-10834
▁선거법	-10835
▁Charl	-10836
미즈	-10837
사와	-10838
ara	-10839
▁EM	-10840
▁독창	-10841
▁동로	-10842
▁신지	-10843
▁이남	-10844
▁종말	-10845
바이트	-10846
▁Mic	-10847
▁아키타	-10848
▁고쳤	-10849
▁요지	-10850
▁찬양	-10851
▁리조트	-10852
ection	-10853
▁Of	-10854
▁막스	-10855
▁반하	-10856
▁이의	-10857
▁테라	-10858
▁피치	-10859
▁황소	-10860
▁안토니	-10861
거래	-10862
쓰마	-10863
천동	-10864
▁구실	-10865
▁권장	-10866
▁능선	-10867
▁이치현	-10868
▁고속버스	-10869
토랑	-10870
▁나우	-10871
▁들이	-10872
▁중퇴	-10873
▁처하	-10874
▁호리	-10875
▁레스토랑	-10876
me	-10877
방울	-10878
▁묘비	-10879
▁수심	-10880
▁전래	-10881
▁평형	-10882
십자	-10883
ris	-10884
ven	-10885
▁백신	-10886
▁샌디	-10887
▁프렌	-10888
▁Wal	-10889
▁알프스	-10890
ael	-10891
▁리본	-10892
▁맥락	-10893
▁소극	-10894
▁역도	-10895
▁재난	-10896
▁카즈	-10897
▁호크	-10898
▁des	-10899
▁Open	-10900
▁실존	-10901
▁예약	-10902
▁버클리	-10903
▁오리온	-10904
▁미야자키	-10905
▁얕	-10906
▁미친	-10907
▁실록	-10908
▁이렇	-10909
▁정반	-10910
▁태권	-10911
▁모리스	-10912
▁화강암	-10913
▁효자	-10914
▁제조업	-10915
▁메뉴	-10916
▁유희	-10917
▁종자	-10918
▁정부군	-10919
▁찾아내	-10920
▁볼셰비키	-10921
대교	-10922
ony	-10923
▁At	-10924
▁냐는	-10925
▁방콕	-10926
▁세바	-10927
▁사카이	-10928
▁Life	-10929
포터	-10930
▁극락	-10931
▁Nor	-10932
▁아키라	-10933
▁엘리트	-10934
▁프랭클린	-10935
으로	-10936
▁김명	-10937
▁남산	-10938
▁수복	-10939
▁수필	-10940
▁실정	-10941
▁왕권	-10942
▁원통	-10943
▁죽인	-10944
▁펜싱	-10945
▁광복군	-10946
▁라이너	-10947
▁알파벳	-10948
▁용인시	-10949
▁구스	-10950
▁농경	-10951
▁예종	-10952
▁의결	-10953
▁제위	-10954
ille	-10955
▁비밀리	-10956
▁여의도	-10957
ision	-10958
▁무과	-10959
▁성령	-10960
▁소음	-10961
▁힘썼	-10962
inal	-10963
▁내려졌	-10964
▁목요일	-10965
▁법원장	-10966
▁예선전	-10967
▁유아기	-10968
▁주차장	-10969
▁1872	-10970
▁ac	-10971
▁강령	-10972
▁구청	-10973
▁라서	-10974
▁걸린	-10975
▁남군	-10976
▁당연	-10977
▁사민	-10978
▁색소	-10979
▁타스	-10980
테이너	-10981
▁소피아	-10982
▁예컨대	-10983
▁1865	-10984
▁어시스트	-10985
▁툰	-10986
다운	-10987
버리	-10988
▁마술	-10989
▁서임	-10990
▁수로	-10991
▁210	-10992
▁크레이	-10993
렉션	-10994
▁동진	-10995
▁안녕	-10996
▁알프레	-10997
▁1873	-10998
▁가나가와현	-10999
나드	-11000
▁RS	-11001
▁돌보	-11002
▁리비	-11003
▁위생	-11004
마리	-11005
▁담보	-11006
▁럭비	-11007
▁불량	-11008
▁스로	-11009
▁Sci	-11010
▁효고현	-11011
루냐	-11012
▁그랜	-11013
▁산성	-11014
▁시애	-11015
▁야드	-11016
ensis	-11017
yd	-11018
지르	-11019
▁리터	-11020
▁마야	-11021
▁참사	-11022
▁함양	-11023
▁방글라	-11024
▁파이터	-11025
▁방글라데시	-11026
▁앗	-11027
해튼	-11028
any	-11029
▁by	-11030
▁비뉴	-11031
▁아날	-11032
▁앵글	-11033
▁제너	-11034
▁동유럽	-11035
▁스카우트	-11036
▁일으킨다	-11037
자루	-11038
통일	-11039
▁도둑	-11040
▁사서	-11041
파니아	-11042
▁친위대	-11043
▁Star	-11044
▁산요	-11045
▁이양	-11046
▁왕세자	-11047
▁인프라	-11048
▁크라이	-11049
ux	-11050
▁떡	-11051
부로	-11052
▁나트륨	-11053
▁말미암	-11054
▁무스	-11055
▁열강	-11056
▁치과	-11057
▁퍼스	-11058
▁뛰어났	-11059
▁브레이크	-11060
CAF	-11061
▁리보	-11062
▁자명	-11063
▁줄리	-11064
▁퍼포	-11065
▁Girl	-11066
▁후지와라노	-11067
DA	-11068
바흐	-11069
▁대좌	-11070
▁증인	-11071
▁마천루	-11072
▁1878	-11073
▁타이거스	-11074
include	-11075
▁오미	-11076
▁청룡	-11077
▁포식	-11078
▁API	-11079
▁잡아먹	-11080
▁애틀랜타	-11081
▁퍼포먼스	-11082
▁싣	-11083
▁전담	-11084
iver	-11085
▁비타민	-11086
▁시애틀	-11087
▁교실	-11088
▁잇따	-11089
▁MTV	-11090
▁스트라이커	-11091
▁공양	-11092
▁니혼	-11093
▁반포	-11094
▁사림	-11095
▁시부	-11096
▁패럴	-11097
▁포털	-11098
▁하타	-11099
휴일	-11100
▁Kn	-11101
▁가솔	-11102
▁개헌	-11103
▁거미	-11104
▁대영	-11105
▁사설	-11106
▁샌드	-11107
▁어쩔	-11108
▁화기	-11109
▁AKB	-11110
▁지상파	-11111
▁앰	-11112
▁유목	-11113
▁이겨	-11114
▁한신	-11115
▁향했	-11116
▁똑같이	-11117
▁프랑스인	-11118
미스	-11119
▁노랑	-11120
▁러스	-11121
▁마차	-11122
▁삼림	-11123
▁드디어	-11124
▁백과	-11125
▁주심	-11126
▁침묵	-11127
▁도널드	-11128
사고	-11129
▁산시	-11130
▁매거진	-11131
▁에스페	-11132
▁역사가	-11133
들여	-11134
▁TR	-11135
▁감찰	-11136
▁별세	-11137
▁유혹	-11138
▁평평	-11139
▁모터스	-11140
▁자치주	-11141
UR	-11142
▁김광	-11143
▁형질	-11144
공산당	-11145
▁쓰여진	-11146
▁지배자	-11147
▁가면라이더	-11148
▁쉴	-11149
망디	-11150
어사	-11151
유예	-11152
▁마땅	-11153
▁시노	-11154
▁이븐	-11155
▁채취	-11156
▁1867	-11157
▁대승불교	-11158
▁섀	-11159
▁노면	-11160
▁모호	-11161
▁벤처	-11162
▁씨앗	-11163
▁1850	-11164
정원	-11165
▁".	-11166
▁대법관	-11167
놀이	-11168
▁몽고	-11169
▁어긋나	-11170
▁우즈베키스탄	-11171
ena	-11172
▁다나카	-11173
▁사라진	-11174
▁프레이	-11175
EE	-11176
여객	-11177
정동	-11178
▁Er	-11179
▁as	-11180
▁반기	-11181
▁병자	-11182
▁스텝	-11183
▁슬하	-11184
▁처지	-11185
▁커서	-11186
마르크	-11187
▁교통부	-11188
▁나타냈	-11189
▁겹쳐	-11190
▁구두	-11191
▁약사	-11192
▁양육	-11193
▁아이스하키	-11194
풀이	-11195
▁후배	-11196
페스트	-11197
▁Sec	-11198
▁흐른다	-11199
▁결별	-11200
▁유식	-11201
▁차출	-11202
▁추리	-11203
▁퇴직	-11204
▁늙	-11205
매매	-11206
▁금호	-11207
▁순종	-11208
▁정에	-11209
▁종군	-11210
▁테일	-11211
메스	-11212
▁GB	-11213
▁볼로	-11214
▁취했	-11215
▁예수회	-11216
▁해상도	-11217
▁http	-11218
mun	-11219
▁대북	-11220
▁숙부	-11221
▁욕망	-11222
▁절벽	-11223
▁중엽	-11224
▁평지	-11225
▁생긴다	-11226
▁포도당	-11227
덴부르크	-11228
▁1869	-11229
IR	-11230
수소	-11231
▁분파	-11232
▁개구리	-11233
▁스트로	-11234
▁원산지	-11235
▁무형	-11236
▁비정	-11237
▁어군	-11238
▁위그	-11239
▁전전	-11240
▁총통	-11241
▁항만	-11242
▁330	-11243
▁Alb	-11244
▁기관지	-11245
▁열심히	-11246
▁멍	-11247
▁가늘	-11248
▁경호	-11249
▁오지	-11250
▁유서	-11251
▁종영	-11252
▁카니	-11253
▁요제프	-11254
▁사이타마	-11255
러지	-11256
▁루비	-11257
▁몸통	-11258
▁점포	-11259
▁지붕돌	-11260
코토	-11261
▁생선	-11262
▁정형	-11263
▁제리	-11264
도르프	-11265
▁경주시	-11266
▁클라크	-11267
려서	-11268
▁벌여	-11269
▁에밀	-11270
▁유공	-11271
▁이방	-11272
OP	-11273
▁도교	-11274
▁송출	-11275
▁쌍대	-11276
▁유선	-11277
▁제퍼슨	-11278
▁캐서린	-11279
지부	-11280
▁김형	-11281
▁세븐	-11282
▁그래도	-11283
▁농산물	-11284
▁미야기	-11285
▁선구자	-11286
▁Live	-11287
질러	-11288
▁걸어	-11289
▁공휴일	-11290
▁졌으나	-11291
▁인디애나	-11292
▁콘테스트	-11293
LA	-11294
▁ab	-11295
▁한림	-11296
▁생존자	-11297
▁프랑스령	-11298
ype	-11299
▁갈아	-11300
▁국유	-11301
▁바디	-11302
▁수락	-11303
▁중공	-11304
▁톈진	-11305
▁MHz	-11306
▁스칼라	-11307
▁패러디	-11308
▁시즈오카	-11309
OT	-11310
▁적외선	-11311
▁프란치	-11312
gu	-11313
▁김준	-11314
▁요충	-11315
▁제로	-11316
▁맨해튼	-11317
▁헬리콥터	-11318
삭스	-11319
캐슬	-11320
환경	-11321
▁CG	-11322
▁im	-11323
▁공성	-11324
▁김인	-11325
▁다윈	-11326
▁사쿠	-11327
▁어찌	-11328
▁의류	-11329
▁주입	-11330
▁요시다	-11331
▁도카이도	-11332
▁오클랜드	-11333
▁프로그래머	-11334
▁공천	-11335
▁IOC	-11336
▁비추	-11337
▁선대	-11338
▁자란	-11339
▁탄약	-11340
▁티코	-11341
raph	-11342
▁Vol	-11343
▁자유민주당	-11344
▁댓	-11345
워서	-11346
카리	-11347
▁내걸	-11348
▁선봉	-11349
▁신발	-11350
▁아쿠	-11351
▁연말	-11352
▁천국	-11353
▁카터	-11354
▁나타낸	-11355
▁발라드	-11356
▁제우스	-11357
▁하노버	-11358
LE	-11359
▁검거	-11360
▁구니	-11361
▁남용	-11362
▁선천	-11363
▁와라	-11364
▁칼뱅	-11365
클리드	-11366
▁기숙사	-11367
▁편집자	-11368
▁계주	-11369
▁공존	-11370
▁단군	-11371
▁연희	-11372
▁클러	-11373
▁포토	-11374
▁1862	-11375
파이	-11376
▁강해	-11377
▁교의	-11378
▁러서	-11379
▁카지	-11380
▁펌프	-11381
▁해독	-11382
▁가져온	-11383
▁솔로몬	-11384
▁케이프	-11385
▁아름다움	-11386
▁David	-11387
▁글러	-11388
▁다테	-11389
▁볼프	-11390
▁우의정	-11391
▁좌의정	-11392
▁야마가타	-11393
▁간략	-11394
▁간첩	-11395
▁감상	-11396
▁공영	-11397
▁습윤	-11398
▁연정	-11399
▁이언	-11400
▁320	-11401
▁GDP	-11402
▁OST	-11403
▁TBS	-11404
ative	-11405
라고	-11406
eck	-11407
▁Do	-11408
▁강렬	-11409
▁병마	-11410
▁del	-11411
▁뉴캐슬	-11412
▁가타	-11413
▁양심	-11414
▁토리노	-11415
▁Club	-11416
▁깜	-11417
융합	-11418
쩌둥	-11419
▁꼽히	-11420
▁다듬	-11421
▁로크	-11422
▁모금	-11423
▁블레	-11424
▁마오쩌둥	-11425
▁섰	-11426
▁타지	-11427
▁휩쓸	-11428
▁가솔린	-11429
▁방어선	-11430
▁튀니지	-11431
▁Good	-11432
워하	-11433
▁릴리	-11434
▁백두	-11435
▁브룩	-11436
▁안개	-11437
▁앙골	-11438
▁유생	-11439
▁징수	-11440
▁찬사	-11441
▁부드럽	-11442
▁전염병	-11443
ations	-11444
▁쿡	-11445
▁넘치	-11446
▁단말	-11447
▁속력	-11448
▁포착	-11449
▁황색	-11450
▁아나톨	-11451
▁핵융합	-11452
CD	-11453
▁로이	-11454
▁루크	-11455
▁부평	-11456
▁학력	-11457
▁형벌	-11458
▁시켜야	-11459
aster	-11460
▁프란체스코	-11461
▁벅	-11462
▁귀신	-11463
▁기량	-11464
▁정월	-11465
▁져서	-11466
▁천수	-11467
▁카피	-11468
▁항우	-11469
▁바그너	-11470
▁시트콤	-11471
15	-11472
티시	-11473
rag	-11474
▁봉인	-11475
▁불참	-11476
▁송파	-11477
▁중합	-11478
▁현도	-11479
▁대단히	-11480
▁부총리	-11481
▁시멘트	-11482
▁나카무라	-11483
▁DF	-11484
▁경복	-11485
▁위로	-11486
▁파벌	-11487
▁하구	-11488
▁마켓	-11489
▁암스	-11490
▁음절	-11491
▁해리슨	-11492
관계	-11493
▁그저	-11494
▁문집	-11495
▁바꿨	-11496
▁수식	-11497
▁최영	-11498
▁치환	-11499
▁하키	-11500
▁방사능	-11501
▁올라갔	-11502
▁주계열	-11503
히트	-11504
▁국수	-11505
▁느린	-11506
▁다치	-11507
▁바쳤	-11508
▁볼트	-11509
▁사천	-11510
▁시안	-11511
▁정몽	-11512
▁드미	-11513
▁북군	-11514
위원회	-11515
▁여배우	-11516
▁모색	-11517
▁바꿀	-11518
▁시속	-11519
▁진한	-11520
▁서태	-11521
▁아데	-11522
▁잠정	-11523
▁동시대	-11524
ook	-11525
▁나아	-11526
▁비준	-11527
▁합치	-11528
네그로	-11529
▁마르크스주의	-11530
대사	-11531
▁도래	-11532
▁르노	-11533
▁문무	-11534
▁야전	-11535
▁칙령	-11536
▁켈트	-11537
▁고인돌	-11538
▁김옥균	-11539
▁루돌프	-11540
말로	-11541
▁박성	-11542
▁적료	-11543
▁정치학	-11544
▁제갈량	-11545
▁스리랑카	-11546
협회	-11547
화문	-11548
▁ML	-11549
▁급여	-11550
▁메카	-11551
▁한큐	-11552
▁드러냈	-11553
▁오바마	-11554
▁감성	-11555
▁마가	-11556
▁방치	-11557
▁부다	-11558
▁케르	-11559
▁280	-11560
▁시켜서	-11561
▁1830	-11562
▁Tour	-11563
▁싼	-11564
케이	-11565
현동	-11566
▁거란	-11567
▁시리	-11568
▁위스	-11569
▁대리인	-11570
▁정보원	-11571
▁Your	-11572
변이	-11573
eae	-11574
▁매트	-11575
▁무네	-11576
▁신곡	-11577
▁총기	-11578
▁장학금	-11579
▁Wind	-11580
▁돌연변이	-11581
▁피아니스트	-11582
▁고생	-11583
▁근사	-11584
▁블로	-11585
▁여유	-11586
▁이모	-11587
▁이뤄졌	-11588
▁끼치	-11589
▁머스	-11590
▁정작	-11591
스탄불	-11592
▁ref	-11593
▁뛰어들	-11594
▁이스탄불	-11595
▁엥	-11596
어내	-11597
▁재해	-11598
span	-11599
▁EBS	-11600
▁김정은	-11601
▁공무	-11602
▁남방	-11603
▁모욕	-11604
▁부왕	-11605
▁용액	-11606
▁일괄	-11607
▁자서	-11608
▁다저스	-11609
▁대표자	-11610
▁메디치	-11611
▁James	-11612
▁모하	-11613
▁온난	-11614
▁전보	-11615
펜하겐	-11616
▁가이드	-11617
▁마스크	-11618
▁컨트롤러	-11619
▁코펜하겐	-11620
▁멧	-11621
erg	-11622
▁NS	-11623
▁간사	-11624
▁나간	-11625
▁봉화	-11626
▁서면	-11627
▁이회	-11628
▁전반기	-11629
▁카메룬	-11630
▁피라미	-11631
▁Cont	-11632
▁u	-11633
▁관목	-11634
▁극우	-11635
▁부름	-11636
▁준장	-11637
▁현황	-11638
▁로렌스	-11639
▁연구회	-11640
▁저지대	-11641
▁Up	-11642
▁결핍	-11643
▁관우	-11644
▁임정	-11645
▁제노	-11646
▁토트	-11647
브로	-11648
지능	-11649
▁리옹	-11650
▁성폭	-11651
▁지극	-11652
▁간신히	-11653
▁인공지능	-11654
▁}	-11655
▁공소	-11656
▁너머	-11657
▁모세	-11658
▁재편	-11659
▁족보	-11660
▁푸르	-11661
ions	-11662
vent	-11663
▁두려움	-11664
▁서초구	-11665
▁아날로그	-11666
대표	-11667
프로	-11668
▁국교	-11669
▁수위	-11670
▁응급	-11671
▁특화	-11672
호란	-11673
▁강당	-11674
▁내성	-11675
▁배트	-11676
▁위조	-11677
▁걸쳐서	-11678
▁놀라운	-11679
▁마법사	-11680
▁체인지	-11681
▁쳐들어	-11682
▁통신사	-11683
▁타이베이	-11684
▁거성	-11685
▁격추	-11686
▁보름	-11687
▁선양	-11688
▁수다	-11689
▁슬픔	-11690
▁퍼스트	-11691
▁히브리	-11692
▁라기	-11693
▁문단	-11694
▁발상	-11695
▁애정	-11696
▁제명	-11697
▁카테	-11698
▁달아났	-11699
▁레이트	-11700
▁지닌다	-11701
▁가혹	-11702
▁러일	-11703
▁로페	-11704
▁위력	-11705
▁노르망디	-11706
▁GT	-11707
▁랭크	-11708
▁리베	-11709
▁청자	-11710
▁하코	-11711
▁함량	-11712
▁Des	-11713
▁대나무	-11714
▁판소리	-11715
▁각성	-11716
▁피지	-11717
▁글로브	-11718
▁메이커	-11719
▁신세계	-11720
▁헛	-11721
uth	-11722
▁명소	-11723
▁선명	-11724
▁았었	-11725
▁1875	-11726
▁유클리드	-11727
co	-11728
▁군데	-11729
▁마애	-11730
▁재일	-11731
▁절정	-11732
▁폭파	-11733
▁해저	-11734
버러	-11735
용차	-11736
ery	-11737
▁가맹	-11738
▁방대	-11739
▁산호	-11740
▁연립	-11741
▁영정	-11742
▁빅토르	-11743
▁혀	-11744
수스	-11745
ors	-11746
▁스태	-11747
▁우산	-11748
▁다이어	-11749
▁명확히	-11750
▁헤이안	-11751
▁에스페란토	-11752
▁찔	-11753
▁모범	-11754
▁비야	-11755
▁쿼크	-11756
느러미	-11757
프랑크	-11758
▁230	-11759
▁단속	-11760
▁소중	-11761
▁아메	-11762
▁약해	-11763
▁콜레	-11764
▁후예	-11765
▁Cal	-11766
▁단결	-11767
▁새긴	-11768
▁자수	-11769
▁저우	-11770
▁하시	-11771
▁AB	-11772
▁국철	-11773
▁기세	-11774
▁양수	-11775
▁웨인	-11776
▁접한	-11777
▁출자	-11778
블랜드	-11779
▁각본가	-11780
▁동산	-11781
▁바트	-11782
▁요격	-11783
▁위촉	-11784
▁이점	-11785
▁제단	-11786
▁평판	-11787
▁신주쿠	-11788
▁앤드루	-11789
▁유권자	-11790
CACAF	-11791
▁컨테이너	-11792
▁CONCACAF	-11793
라니	-11794
위안	-11795
▁결사	-11796
▁직속	-11797
네이루	-11798
▁밴쿠버	-11799
▁와이번스	-11800
▁클리블랜드	-11801
14	-11802
AI	-11803
관리	-11804
▁사학	-11805
▁서귀	-11806
▁실증	-11807
▁양대	-11808
▁여권	-11809
▁티아	-11810
▁플리	-11811
▁비서관	-11812
▁실험실	-11813
▁튀르크	-11814
▁Night	-11815
들이	-11816
▁금산	-11817
▁뒤이	-11818
▁브랜	-11819
▁주성	-11820
▁허드	-11821
▁레이싱	-11822
▁윗부분	-11823
▁고의	-11824
▁글꼴	-11825
▁세련	-11826
▁이북	-11827
▁절망	-11828
▁국제법	-11829
▁이뤄지	-11830
▁촛	-11831
▁재래	-11832
▁지자	-11833
▁치른	-11834
▁관례	-11835
▁대청	-11836
▁소프	-11837
▁정정	-11838
▁준수	-11839
▁호스	-11840
▁클린턴	-11841
▁4000	-11842
게임	-11843
▁김윤	-11844
▁받들	-11845
▁사영	-11846
▁성곽	-11847
▁야외	-11848
▁Pre	-11849
▁페트로	-11850
▁Ke	-11851
▁대마	-11852
▁비엔	-11853
▁일각	-11854
▁타락	-11855
▁관현악단	-11856
▁덮개	-11857
▁미수	-11858
▁초콜	-11859
▁파란	-11860
▁호아	-11861
work	-11862
▁너무나	-11863
▁부르고	-11864
▁아이폰	-11865
▁흩어져	-11866
▁Thom	-11867
포시	-11868
▁가네	-11869
▁고로	-11870
▁관상	-11871
▁부파	-11872
▁부합	-11873
▁절감	-11874
▁타수	-11875
▁학장	-11876
▁국제선	-11877
▁함경북도	-11878
▁결핵	-11879
▁녹화	-11880
▁드루	-11881
▁몬테네그로	-11882
oo	-11883
▁관악	-11884
▁신입	-11885
▁염려	-11886
▁화랑	-11887
▁북조선	-11888
▁Mich	-11889
▁욱	-11890
본부	-11891
▁관행	-11892
▁누렸	-11893
▁석불	-11894
▁앞선	-11895
▁옮긴	-11896
▁Red	-11897
▁달라지	-11898
▁리프트	-11899
▁보수주의	-11900
▁onlyinclude	-11901
직경	-11902
▁낙동강	-11903
▁무실점	-11904
▁시직경	-11905
▁Park	-11906
▁매끄러운	-11907
▁즘	-11908
등식	-11909
바나	-11910
팡이	-11911
▁범행	-11912
▁압록	-11913
▁유우	-11914
▁조교	-11915
▁진로	-11916
▁치뤘	-11917
▁Act	-11918
▁동맹군	-11919
▁엣	-11920
돌이	-11921
틀리	-11922
▁고든	-11923
▁비토	-11924
▁익숙	-11925
▁타이어	-11926
▁1874	-11927
▁조제	-11928
▁주선	-11929
▁집정	-11930
▁서기관	-11931
▁시간대	-11932
▁알아보	-11933
▁프랜시스	-11934
나오	-11935
ray	-11936
▁명인	-11937
▁모어	-11938
▁상록	-11939
▁주창	-11940
▁토시	-11941
▁클레이	-11942
▁노사	-11943
▁등등	-11944
▁요절	-11945
▁차선	-11946
▁타로	-11947
▁톱니	-11948
▁1200	-11949
나갔	-11950
▁낙양	-11951
상시	-11952
▁승지	-11953
▁치카	-11954
▁파랑	-11955
▁가브리	-11956
▁마이크로	-11957
▁Po	-11958
▁경위	-11959
▁류큐	-11960
▁빙하	-11961
▁시몬	-11962
▁한문	-11963
▁투자자	-11964
▁부르고뉴	-11965
다르	-11966
▁세습	-11967
▁스런	-11968
▁정령	-11969
za	-11970
웍스	-11971
▁가토	-11972
▁불경	-11973
▁사수	-11974
▁스칸	-11975
cess	-11976
▁고려대	-11977
▁사간원	-11978
▁우루스	-11979
제이	-11980
urg	-11981
▁교직	-11982
▁로비	-11983
▁외치	-11984
▁우림	-11985
▁해왕	-11986
▁해치	-11987
▁비해서	-11988
▁피라미드	-11989
▁사운드트랙	-11990
▁훙	-11991
메니	-11992
에미	-11993
▁고딕	-11994
▁국한	-11995
▁꾀하	-11996
▁양보	-11997
▁업자	-11998
▁이황	-11999
▁테리	-12000
▁LED	-12001
▁영원히	-12002
▁평안도	-12003
▁Paul	-12004
be	-12005
iew	-12006
▁외래	-12007
▁잠깐	-12008
▁국정원	-12009
▁사단장	-12010
▁텔레콤	-12011
▁파일럿	-12012
▁JTBC	-12013
▁캅	-12014
▁법관	-12015
▁급속히	-12016
▁Instit	-12017
AE	-12018
▁숀	-12019
서스	-12020
애미	-12021
창호	-12022
▁거지	-12023
▁번창	-12024
▁성악	-12025
▁천마	-12026
▁친족	-12027
▁쿠퍼	-12028
▁하남	-12029
▁생겨난	-12030
▁마이애미	-12031
▁쾨	-12032
▁거세	-12033
▁미셸	-12034
▁형편	-12035
▁고려사	-12036
▁ad	-12037
▁국외	-12038
▁규탄	-12039
▁목회	-12040
▁외형	-12041
▁요법	-12042
▁이반	-12043
▁지오	-12044
▁흡사	-12045
▁앤더슨	-12046
▁황해도	-12047
▁램프	-12048
▁보루	-12049
▁이송	-12050
▁SNS	-12051
GM	-12052
도라	-12053
net	-12054
▁꿈꾸	-12055
▁식스	-12056
▁악보	-12057
▁함흥	-12058
메이카	-12059
▁어울리	-12060
▁호스트	-12061
▁자메이카	-12062
▁카탈루냐	-12063
▁뫼	-12064
▁챙	-12065
▁대차	-12066
▁었었	-12067
▁인칭	-12068
▁종양	-12069
▁Air	-12070
▁관계없이	-12071
▁오카야마	-12072
▁네이션스컵	-12073
▁건륭	-12074
▁느낄	-12075
▁삽화	-12076
▁이범	-12077
▁증오	-12078
타이드	-12079
▁시네마	-12080
▁유학자	-12081
▁찢	-12082
교통	-12083
북구	-12084
시노	-12085
▁남하	-12086
▁동적	-12087
▁무안	-12088
▁스킬	-12089
▁작물	-12090
▁최선	-12091
▁발전기	-12092
ublic	-12093
나마	-12094
치히	-12095
▁삼존	-12096
▁정거	-12097
▁증폭	-12098
▁연장전	-12099
▁디비시온	-12100
▁러시아군	-12101
ze	-12102
▁AL	-12103
▁공안	-12104
▁내무	-12105
▁매킨	-12106
▁재팬	-12107
▁전세	-12108
▁큐브	-12109
▁탄자	-12110
▁마이어	-12111
▁1840	-12112
▁그라운드	-12113
그마	-12114
지아	-12115
amm	-12116
▁SV	-12117
▁높여	-12118
▁단정	-12119
▁랴오	-12120
▁리즈	-12121
▁전수	-12122
▁내세우	-12123
▁대공국	-12124
▁접어들	-12125
▁Dream	-12126
센스	-12127
▁콘솔	-12128
▁교향악단	-12129
▁유니버설	-12130
▁American	-12131
단위	-12132
의사	-12133
▁wh	-12134
▁로저	-12135
▁여도	-12136
▁혼다	-12137
atch	-12138
▁로마자	-12139
erson	-12140
▁몹	-12141
제품	-12142
합성	-12143
▁군벌	-12144
▁매리	-12145
▁아소	-12146
▁엔드	-12147
▁일진	-12148
하이오	-12149
▁가져다	-12150
▁절도사	-12151
▁오하이오	-12152
▁기와	-12153
▁서산	-12154
▁안무	-12155
▁260	-12156
▁Inc	-12157
▁프레데	-12158
▁곶	-12159
▁교부	-12160
▁대덕	-12161
▁맡기	-12162
▁복위	-12163
▁Mor	-12164
▁사쓰마	-12165
▁산스크	-12166
▁산스크리트	-12167
▁후쿠오카현	-12168
▁colspan	-12169
▁온화	-12170
▁조슈	-12171
▁한미	-12172
▁파시즘	-12173
▁Associ	-12174
티넘	-12175
▁굴절	-12176
▁몰타	-12177
▁박상	-12178
▁버터	-12179
▁요양	-12180
▁운임	-12181
▁저조	-12182
▁절제	-12183
▁천천	-12184
▁캐롤	-12185
▁왔으나	-12186
▁1877	-12187
▁가와사키	-12188
▁플래티넘	-12189
▁SO	-12190
▁달랐	-12191
▁스루	-12192
▁시문	-12193
▁시크	-12194
▁학대	-12195
▁볼로냐	-12196
▁순양함	-12197
▁파푸아	-12198
▁코스타리카	-12199
▁고흥	-12200
▁구치	-12201
▁발동	-12202
▁컨설	-12203
▁헬레	-12204
▁바이킹	-12205
▁브레이	-12206
ows	-12207
▁맞춤	-12208
▁베트	-12209
▁이항	-12210
▁피우	-12211
▁아이즈	-12212
▁Super	-12213
▁사회민주당	-12214
연수	-12215
▁금전	-12216
▁내일	-12217
▁다우	-12218
▁유영	-12219
▁조영	-12220
▁직행	-12221
▁해태	-12222
미디어	-12223
클레	-12224
▁부교	-12225
▁사안	-12226
▁위패	-12227
▁위함	-12228
▁트렌	-12229
▁난이도	-12230
▁스테파	-12231
▁앙골라	-12232
▁로키	-12233
▁여사	-12234
▁으리	-12235
▁피핀	-12236
▁아무것	-12237
▁천천히	-12238
OW	-12239
네임	-12240
▁동포	-12241
▁맞춘	-12242
▁오만	-12243
▁장녀	-12244
▁차츰	-12245
▁치유	-12246
▁하급	-12247
▁게시판	-12248
▁메릴랜드	-12249
▁대종	-12250
▁빅뱅	-12251
▁교육자	-12252
▁알렉스	-12253
부르	-12254
▁객차	-12255
▁리사	-12256
▁편견	-12257
르타뉴	-12258
▁논리학	-12259
▁동물원	-12260
▁프로모	-12261
▁브르타뉴	-12262
▁생모	-12263
▁종신	-12264
▁카네	-12265
▁하류	-12266
▁서해안	-12267
꼬리	-12268
▁배역	-12269
▁분단	-12270
▁스킴	-12271
▁직계	-12272
▁청계	-12273
▁부상자	-12274
해살이풀	-12275
▁암스테르담	-12276
▁줌	-12277
▁선인	-12278
▁추계	-12279
▁카세	-12280
레스트	-12281
▁270	-12282
▁교구장	-12283
▁주니치	-12284
▁해운대	-12285
▁Euro	-12286
버른	-12287
▁관성	-12288
▁농지	-12289
▁당할	-12290
▁모던	-12291
▁무서	-12292
▁장병	-12293
▁초전	-12294
▁추서	-12295
▁한중	-12296
▁강화도	-12297
▁수요일	-12298
▁조선왕	-12299
▁맷	-12300
▁UC	-12301
▁강행	-12302
▁고노	-12303
▁골격	-12304
▁놓인	-12305
▁양력	-12306
▁청량	-12307
▁쿠니	-12308
소통	-12309
▁네티	-12310
▁워커	-12311
▁점검	-12312
▁지르	-12313
▁추억	-12314
▁코소	-12315
▁격투기	-12316
▁결과물	-12317
▁도르트	-12318
▁comp	-12319
DS	-12320
▁고집	-12321
▁구한	-12322
▁대의	-12323
▁라디	-12324
▁심부	-12325
▁정했	-12326
▁특사	-12327
▁피할	-12328
▁축구팀	-12329
▁도라에몽	-12330
▁우에스기	-12331
▁College	-12332
▁놈	-12333
▁쪼	-12334
▁츄	-12335
세유	-12336
▁도박	-12337
▁로리	-12338
▁베어	-12339
▁벨리	-12340
▁설문	-12341
▁충무	-12342
▁태후	-12343
▁마누엘	-12344
▁일본국	-12345
▁장로교	-12346
▁휴게소	-12347
▁스트라이크	-12348
타리	-12349
ety	-12350
ney	-12351
▁MA	-12352
▁배달	-12353
▁분사	-12354
▁칭송	-12355
▁칸국	-12356
▁파직	-12357
▁항로	-12358
▁회귀	-12359
▁라파엘	-12360
▁아라곤	-12361
▁의사소통	-12362
트르	-12363
▁동향	-12364
▁어의	-12365
▁유족	-12366
▁자진	-12367
▁떠오르	-12368
▁서사시	-12369
▁천안시	-12370
▁해안선	-12371
▁녕	-12372
▁스가	-12373
▁원상	-12374
▁제창	-12375
▁취한	-12376
▁카스티야	-12377
내리	-12378
▁능동	-12379
▁대주	-12380
▁로트	-12381
▁마테	-12382
▁순차	-12383
▁Award	-12384
oot	-12385
▁간혹	-12386
▁새우	-12387
▁Rev	-12388
▁요충지	-12389
▁고트	-12390
▁노후	-12391
▁아유	-12392
▁연회	-12393
▁점거	-12394
▁정재	-12395
▁간사이	-12396
▁행정동	-12397
▁상관없이	-12398
▁재단법인	-12399
▁굶	-12400
히사	-12401
ody	-12402
▁소외	-12403
▁소용	-12404
▁안드	-12405
▁워즈	-12406
▁전학	-12407
▁짐승	-12408
▁창구	-12409
▁코네	-12410
▁키워	-12411
▁이바지	-12412
▁괌	-12413
피언	-12414
▁AU	-12415
▁it	-12416
▁가중	-12417
▁가쿠	-12418
▁사치	-12419
▁출동	-12420
▁Bre	-12421
▁브루스	-12422
▁위안부	-12423
▁King	-12424
ha	-12425
광성	-12426
▁무작	-12427
▁피리	-12428
▁휴양	-12429
▁Met	-12430
yr	-12431
로쿠	-12432
por	-12433
▁tr	-12434
▁라르	-12435
▁숨기	-12436
▁철강	-12437
▁초안	-12438
▁축성	-12439
▁특기	-12440
▁Val	-12441
▁가라앉	-12442
▁녹색당	-12443
▁북유럽	-12444
▁미스터리	-12445
유사	-12446
▁가했	-12447
▁기뻐	-12448
른스트	-12449
토리코	-12450
illa	-12451
▁경영학	-12452
▁레이크	-12453
▁프린스턴	-12454
18	-12455
칼리	-12456
▁MM	-12457
▁김승	-12458
▁막판	-12459
▁표정	-12460
▁다이쇼	-12461
▁좌표계	-12462
▁화장품	-12463
17	-12464
UN	-12465
걸이	-12466
▁끝날	-12467
▁모라	-12468
▁스콜	-12469
▁아목	-12470
▁외과	-12471
▁동맹국	-12472
▁1879	-12473
▁KB	-12474
▁내분	-12475
▁리카	-12476
▁열전	-12477
▁주세	-12478
▁Ser	-12479
▁멜버른	-12480
▁경도	-12481
▁메소	-12482
▁슬램	-12483
▁보살상	-12484
▁세네갈	-12485
▁수차례	-12486
▁컨텐츠	-12487
▁미나모토	-12488
QL	-12489
업자	-12490
▁격차	-12491
▁묻혔	-12492
▁수열	-12493
▁정읍	-12494
▁황산	-12495
▁떠난다	-12496
▁민병대	-12497
▁올리브	-12498
▁유적지	-12499
▁홈경기	-12500
▁참모총장	-12501
▁늪	-12502
▁tv	-12503
▁닉스	-12504
▁대접	-12505
▁보낼	-12506
▁완결	-12507
▁종식	-12508
▁카야	-12509
▁코호	-12510
▁타일	-12511
▁탈취	-12512
▁휘말	-12513
▁OB	-12514
▁데미	-12515
▁바지	-12516
▁복종	-12517
▁성산	-12518
▁유무	-12519
▁전락	-12520
▁지면	-12521
▁통폐	-12522
▁부르주	-12523
▁영화상	-12524
▁아이디얼	-12525
▁푸에르토리코	-12526
▁애인	-12527
▁왕궁	-12528
▁우두	-12529
▁차수	-12530
▁축산	-12531
▁플러	-12532
▁204	-12533
▁Min	-12534
▁경전철	-12535
▁내린다	-12536
▁자서전	-12537
▁카르타고	-12538
▁프란치스코	-12539
몬트	-12540
홍색	-12541
▁비대	-12542
▁성동	-12543
▁심문	-12544
▁양현	-12545
▁파편	-12546
▁보여준	-12547
▁사상가	-12548
▁산티아	-12549
▁이바라	-12550
▁초콜릿	-12551
▁마르세유	-12552
▁갚	-12553
데라	-12554
자동	-12555
▁Rh	-12556
▁이우	-12557
▁덩어리	-12558
▁둘러싸인	-12559
IX	-12560
독립	-12561
▁고온	-12562
▁마우	-12563
▁배분	-12564
▁주먹	-12565
▁채색	-12566
▁팔렸	-12567
▁카카오	-12568
▁프린스	-12569
▁필립스	-12570
히드	-12571
lin	-12572
▁애초	-12573
▁잔인	-12574
▁지법	-12575
리카락	-12576
▁돌아다니	-12577
▁머리카락	-12578
프턴	-12579
▁각료	-12580
▁곡면	-12581
▁긴키	-12582
▁발목	-12583
▁상국	-12584
▁소동	-12585
▁웃음	-12586
▁유의	-12587
스트리	-12588
▁수나라	-12589
▁잃어버린	-12590
▁냥	-12591
▁귀속	-12592
▁높였	-12593
▁씨족	-12594
▁오하	-12595
▁스타트	-12596
▁지바현	-12597
▁오스트리	-12598
RT	-12599
▁댈	-12600
uss	-12601
▁모차	-12602
▁몸돌	-12603
▁아츠	-12604
▁월트	-12605
▁후유	-12606
▁흥분	-12607
▁GNU	-12608
▁브뤼셀	-12609
우회	-12610
▁가고	-12611
▁경종	-12612
▁750	-12613
▁다스렸	-12614
▁박테리아	-12615
▁TC	-12616
▁배운	-12617
▁손녀	-12618
▁원유	-12619
▁위계	-12620
▁칼슘	-12621
솔리니	-12622
▁충렬왕	-12623
짜기	-12624
▁노아	-12625
▁안방	-12626
▁총격	-12627
▁기원후	-12628
▁독립군	-12629
▁바이어	-12630
▁통폐합	-12631
에고	-12632
▁소사	-12633
▁여타	-12634
▁입시	-12635
▁자립	-12636
▁장쑤	-12637
▁할인	-12638
암리	-12639
▁게끔	-12640
▁상한	-12641
▁오아	-12642
▁주군	-12643
▁치하	-12644
▁철저히	-12645
▁1859	-12646
▁SH	-12647
▁성화	-12648
▁우월	-12649
▁군사력	-12650
▁집행유예	-12651
▁Center	-12652
▁@	-12653
화학	-12654
▁밸리	-12655
▁USB	-12656
▁비스타	-12657
▁베네딕토	-12658
에스	-12659
▁가가	-12660
▁겹치	-12661
▁수량	-12662
▁오메	-12663
▁조롱	-12664
▁콜럼	-12665
▁퍼즐	-12666
른베르크	-12667
gan	-12668
▁Tw	-12669
▁기전	-12670
▁습관	-12671
▁장래	-12672
▁침례	-12673
ella	-12674
▁Wii	-12675
▁안티오	-12676
▁전주시	-12677
▁화요일	-12678
▁City	-12679
▁컴파일러	-12680
▁그릴	-12681
▁급증	-12682
▁기이	-12683
▁대금	-12684
▁중고	-12685
▁축전	-12686
▁코리	-12687
▁대상자	-12688
▁정거장	-12689
▁지켜보	-12690
동자	-12691
셔주	-12692
익스	-12693
ula	-12694
▁강성	-12695
▁경무	-12696
▁과연	-12697
▁발의	-12698
▁서스	-12699
▁우연	-12700
▁유러	-12701
▁천지	-12702
▁추이	-12703
▁케인	-12704
▁타리	-12705
▁팔작	-12706
▁트리오	-12707
▁FK	-12708
▁신의	-12709
▁다이빙	-12710
▁유러피언	-12711
▁군관	-12712
▁오대	-12713
▁협연	-12714
▁Out	-12715
▁라치오	-12716
▁어웨이	-12717
▁야마모토	-12718
ugh	-12719
▁간직	-12720
▁계량	-12721
▁피사	-12722
▁하임	-12723
▁허블	-12724
▁호대	-12725
퍼레이션	-12726
도군	-12727
비크	-12728
▁근래	-12729
▁대인	-12730
▁미성	-12731
▁정예	-12732
▁허목	-12733
▁아무리	-12734
▁카운트	-12735
OD	-12736
ura	-12737
▁죽임	-12738
▁집착	-12739
▁혈압	-12740
▁달라진다	-12741
▁뇨	-12742
꿈치	-12743
우에	-12744
app	-12745
▁Jo	-12746
▁낚시	-12747
▁네모	-12748
▁사역	-12749
▁영덕	-12750
▁자판	-12751
▁전권	-12752
▁해피	-12753
▁환관	-12754
ates	-12755
▁줄기세포	-12756
▁중소기업	-12757
EP	-12758
▁콥	-12759
진우	-12760
▁밀레	-12761
▁병과	-12762
▁캐리	-12763
▁헌장	-12764
드라마	-12765
라이드	-12766
▁Lib	-12767
▁꽂	-12768
거스	-12769
▁격려	-12770
▁과테	-12771
▁약점	-12772
▁용품	-12773
▁잠실	-12774
▁재차	-12775
▁취해	-12776
▁포탄	-12777
▁레오폴	-12778
▁밝혀진	-12779
▁과테말라	-12780
분열	-12781
▁광선	-12782
▁은혜	-12783
▁장전	-12784
▁헌납	-12785
오르크	-12786
웨이트	-12787
▁Mer	-12788
▁지리학	-12789
지사	-12790
▁니켈	-12791
▁무수	-12792
▁본체	-12793
▁셀레	-12794
▁애완	-12795
▁어는	-12796
▁어파	-12797
▁재벌	-12798
▁705	-12799
▁App	-12800
▁공화정	-12801
▁파충류	-12802
▁from	-12803
수지	-12804
▁PM	-12805
▁en	-12806
▁대도	-12807
▁행방	-12808
로이드	-12809
▁Win	-12810
▁기념일	-12811
▁Mart	-12812
▁공법	-12813
▁불사	-12814
▁상정	-12815
▁이아	-12816
▁선진국	-12817
▁무솔리니	-12818
셀러	-12819
▁급히	-12820
▁긴밀	-12821
▁나뭇	-12822
▁라카	-12823
▁명부	-12824
▁모신	-12825
▁영암	-12826
▁요괴	-12827
▁정명	-12828
▁프랜차	-12829
▁Best	-12830
공주	-12831
▁관내	-12832
▁측량	-12833
▁Bab	-12834
▁들어섰	-12835
▁문자열	-12836
▁밀가루	-12837
▁박영효	-12838
▁받침돌	-12839
▁초록색	-12840
▁포항시	-12841
▁Rich	-12842
▁견고	-12843
▁견디	-12844
▁까마	-12845
▁마셜	-12846
▁보령	-12847
▁삼중	-12848
▁시비	-12849
▁코난	-12850
▁홀리	-12851
▁단체전	-12852
▁셰익스	-12853
▁산티아고	-12854
▁아케이드	-12855
▁요하네스	-12856
▁셰익스피어	-12857
▁교동	-12858
▁몰두	-12859
▁세레	-12860
▁양군	-12861
▁추존	-12862
berg	-12863
▁Rad	-12864
▁공연장	-12865
▁압록강	-12866
▁레드삭스	-12867
▁탄자니아	-12868
토프	-12869
▁객원	-12870
▁면모	-12871
▁반동	-12872
▁순례	-12873
▁실각	-12874
로니아	-12875
▁550	-12876
▁보좌관	-12877
▁부분군	-12878
▁였음을	-12879
▁해안가	-12880
▁Inter	-12881
▁딥	-12882
둘기	-12883
워스	-12884
▁단국	-12885
▁배척	-12886
▁원활	-12887
▁Ang	-12888
디나비아	-12889
▁레인저스	-12890
▁스칸디나비아	-12891
▁맬	-12892
▁Mi	-12893
▁무언	-12894
▁오디	-12895
▁코사	-12896
▁650	-12897
▁사업소	-12898
▁승정원	-12899
▁이용객	-12900
▁도르트문트	-12901
슈타	-12902
▁Mr	-12903
▁버러	-12904
▁원제	-12905
▁퍼졌	-12906
▁페더	-12907
▁가리켜	-12908
▁선제골	-12909
▁스캔들	-12910
▁안산시	-12911
▁인해서	-12912
▁쿠웨이트	-12913
▁	-12914
▃	-12915
이	-12916
다	-12917
.	-12918
에	-12919
의	-12920
는	-12921
로	-12922
,	-12923
하	-12924
1	-12925
을	-12926
가	-12927
고	-12928
지	-12929
서	-12930
한	-12931
은	-12932
기	-12933
0	-12934
)	-12935
(	-12936
으	-12937
2	-12938
사	-12939
대	-12940
리	-12941
시	-12942
를	-12943
년	-12944
도	-12945
스	-12946
인	-12947
일	-12948
아	-12949
자	-12950
9	-12951
어	-12952
있	-12953
라	-12954
수	-12955
나	-12956
부	-12957
그	-12958
전	-12959
되	-12960
정	-12961
국	-12962
과	-12963
해	-12964
주	-12965
었	-12966
제	-12967
들	-12968
성	-12969
장	-12970
3	-12971
구	-12972
여	-12973
상	-12974
e	-12975
적	-12976
동	-12977
했	-12978
5	-12979
8	-12980
월	-12981
위	-12982
a	-12983
와	-12984
4	-12985
원	-12986
선	-12987
게	-12988
공	-12989
였	-12990
6	-12991
마	-12992
보	-12993
만	-12994
조	-12995
트	-12996
중	-12997
며	-12998
드	-12999
7	-13000
o	-13001
화	-13002
경	-13003
학	-13004
교	-13005
소	-13006
미	-13007
유	-13008
우	-13009
r	-13010
세	-13011
i	-13012
비	-13013
신	-13014
오	-13015
문	-13016
르	-13017
치	-13018
개	-13019
명	-13020
n	-13021
면	-13022
계	-13023
연	-13024
후	-13025
역	-13026
관	-13027
등	-13028
회	-13029
된	-13030
진	-13031
것	-13032
터	-13033
영	-13034
모	-13035
용	-13036
"	-13037
t	-13038
프	-13039
발	-13040
군	-13041
l	-13042
무	-13043
러	-13044
산	-13045
당	-13046
작	-13047
재	-13048
방	-13049
타	-13050
니	-13051
민	-13052
음	-13053
m	-13054
단	-13055
데	-13056
거	-13057
s	-13058
레	-13059
간	-13060
통	-13061
카	-13062
분	-13063
반	-13064
바	-13065
생	-13066
안	-13067
체	-13068
차	-13069
포	-13070
행	-13071
크	-13072
내	-13073
호	-13074
현	-13075
식	-13076
본	-13077
운	-13078
노	-13079
u	-13080
남	-13081
'	-13082
종	-13083
할	-13084
파	-13085
물	-13086
양	-13087
요	-13088
때	-13089
출	-13090
속	-13091
임	-13092
실	-13093
야	-13094
두	-13095
S	-13096
함	-13097
-	-13098
형	-13099
던	-13100
토	-13101
강	-13102
설	-13103
결	-13104
루	-13105
려	-13106
A	-13107
표	-13108
C	-13109
c	-13110
히	-13111
키	-13112
코	-13113
각	-13114
법	-13115
초	-13116
승	-13117
독	-13118
태	-13119
업	-13120
직	-13121
까	-13122
건	-13123
디	-13124
불	-13125
입	-13126
래	-13127
h	-13128
d	-13129
배	-13130
버	-13131
력	-13132
록	-13133
합	-13134
점	-13135
또	-13136
예	-13137
최	-13138
않	-13139
번	-13140
받	-13141
매	-13142
같	-13143
피	-13144
았	-13145
약	-13146
른	-13147
천	-13148
권	-13149
왕	-13150
말	-13151
베	-13152
메	-13153
M	-13154
T	-13155
티	-13156
판	-13157
심	-13158
립	-13159
격	-13160
알	-13161
청	-13162
브	-13163
목	-13164
금	-13165
감	-13166
B	-13167
더	-13168
투	-13169
북	-13170
처	-13171
항	-13172
없	-13173
추	-13174
란	-13175
~	-13176
달	-13177
평	-13178
f	-13179
F	-13180
활	-13181
네	-13182
외	-13183
열	-13184
I	-13185
따	-13186
린	-13187
특	-13188
저	-13189
집	-13190
g	-13191
편	-13192
언	-13193
P	-13194
석	-13195
복	-13196
D	-13197
준	-13198
테	-13199
즈	-13200
향	-13201
광	-13202
병	-13203
류	-13204
변	-13205
p	-13206
k	-13207
름	-13208
질	-13209
령	-13210
족	-13211
근	-13212
E	-13213
난	-13214
랑	-13215
y	-13216
급	-13217
황	-13218
람	-13219
송	-13220
축	-13221
페	-13222
존	-13223
김	-13224
올	-13225
쪽	-13226
많	-13227
능	-13228
총	-13229
술	-13230
박	-13231
참	-13232
철	-13233
울	-13234
별	-13235
론	-13236
살	-13237
R	-13238
환	-13239
L	-13240
N	-13241
온	-13242
창	-13243
악	-13244
증	-13245
품	-13246
O	-13247
육	-13248
절	-13249
및	-13250
곡	-13251
쿠	-13252
료	-13253
백	-13254
쓰	-13255
:	-13256
K	-13257
새	-13258
져	-13259
플	-13260
순	-13261
G	-13262
돌	-13263
량	-13264
졌	-13265
필	-13266
께	-13267
b	-13268
확	-13269
애	-13270
망	-13271
든	-13272
림	-13273
규	-13274
머	-13275
케	-13276
글	-13277
패	-13278
색	-13279
팀	-13280
탈	-13281
워	-13282
범	-13283
견	-13284
날	-13285
극	-13286
쟁	-13287
클	-13288
H	-13289
련	-13290
삼	-13291
탄	-13292
너	-13293
친	-13294
충	-13295
V	-13296
째	-13297
랜	-13298
손	-13299
봉	-13300
_	-13301
막	-13302
책	-13303
접	-13304
v	-13305
뒤	-13306
못	-13307
완	-13308
협	-13309
션	-13310
U	-13311
퍼	-13312
담	-13313
/	-13314
밀	-13315
채	-13316
런	-13317
츠	-13318
길	-13319
녀	-13320
습	-13321
골	-13322
측	-13323
블	-13324
혼	-13325
취	-13326
곳	-13327
럽	-13328
칭	-13329
엔	-13330
귀	-13331
W	-13332
험	-13333
겨	-13334
암	-13335
누	-13336
벌	-13337
슬	-13338
찰	-13339
씨	-13340
갈	-13341
커	-13342
앙	-13343
뜻	-13344
높	-13345
웨	-13346
슈	-13347
첫	-13348
쳐	-13349
침	-13350
허	-13351
즌	-13352
죽	-13353
효	-13354
w	-13355
획	-13356
볼	-13357
널	-13358
뉴	-13359
센	-13360
응	-13361
났	-13362
착	-13363
큰	-13364
락	-13365
헌	-13366
잡	-13367
례	-13368
희	-13369
렸	-13370
폭	-13371
검	-13372
징	-13373
움	-13374
득	-13375
논	-13376
J	-13377
농	-13378
섬	-13379
걸	-13380
홍	-13381
캐	-13382
틀	-13383
풍	-13384
럼	-13385
%	-13386
좌	-13387
느	-13388
퇴	-13389
택	-13390
폴	-13391
왔	-13392
끝	-13393
즉	-13394
층	-13395
엘	-13396
폐	-13397
픽	-13398
압	-13399
될	-13400
줄	-13401
헤	-13402
덕	-13403
윤	-13404
싱	-13405
념	-13406
먼	-13407
맞	-13408
]	-13409
[	-13410
앞	-13411
맡	-13412
찬	-13413
>	-13414
긴	-13415
갖	-13416
늘	-13417
혁	-13418
킨	-13419
<	-13420
써	-13421
익	-13422
율	-13423
릭	-13424
턴	-13425
잘	-13426
램	-13427
묘	-13428
얼	-13429
벨	-13430
냈	-13431
빈	-13432
링	-13433
흥	-13434
슨	-13435
객	-13436
궁	-13437
델	-13438
억	-13439
앨	-13440
균	-13441
콘	-13442
맹	-13443
닌	-13444
염	-13445
휘	-13446
밝	-13447
몇	-13448
엄	-13449
훈	-13450
빌	-13451
팔	-13452
옥	-13453
숙	-13454
얻	-13455
컵	-13456
렌	-13457
칸	-13458
갔	-13459
텔	-13460
쇼	-13461
므	-13462
칼	-13463
됐	-13464
괴	-13465
뷔	-13466
넘	-13467
X	-13468
콜	-13469
맥	-13470
푸	-13471
좋	-13472
몰	-13473
붙	-13474
덴	-13475
찾	-13476
흐	-13477
핵	-13478
낸	-13479
둘	-13480
혹	-13481
빠	-13482
떠	-13483
템	-13484
켰	-13485
x	-13486
컴	-13487
샤	-13488
혀	-13489
액	-13490
릴	-13491
몬	-13492
쥐	-13493
률	-13494
룹	-13495
놓	-13496
뿐	-13497
탑	-13498
굴	-13499
z	-13500
떨	-13501
끌	-13502
롯	-13503
욕	-13504
십	-13505
잠	-13506
힘	-13507
싸	-13508
칙	-13509
죄	-13510
핀	-13511
벽	-13512
졸	-13513
척	-13514
갑	-13515
략	-13516
춘	-13517
풀	-13518
몸	-13519
눈	-13520
먹	-13521
맨	-13522
켜	-13523
잉	-13524
끼	-13525
휴	-13526
촌	-13527
Y	-13528
홈	-13529
잔	-13530
쳤	-13531
벤	-13532
칠	-13533
렉	-13534
컬	-13535
밖	-13536
뛰	-13537
틴	-13538
녹	-13539
렇	-13540
몽	-13541
곤	-13542
탁	-13543
뮤	-13544
폰	-13545
!	-13546
륙	-13547
털	-13548
꾸	-13549
혜	-13550
둥	-13551
멸	-13552
탕	-13553
겼	-13554
밴	-13555
웠	-13556
겸	-13557
솔	-13558
딸	-13559
돈	-13560
렀	-13561
혈	-13562
톤	-13563
쿄	-13564
셀	-13565
팅	-13566
넷	-13567
?	-13568
혔	-13569
홀	-13570
낮	-13571
컨	-13572
앤	-13573
퓨	-13574
둔	-13575
윈	-13576
냐	-13577
님	-13578
텐	-13579
톨	-13580
랐	-13581
겠	-13582
탐	-13583
롤	-13584
욱	-13585
꽃	-13586
헨	-13587
넓	-13588
떤	-13589
읍	-13590
촉	-13591
낙	-13592
왜	-13593
킬	-13594
셔	-13595
렬	-13596
콩	-13597
붕	-13598
펜	-13599
슷	-13600
옹	-13601
덜	-13602
랙	-13603
융	-13604
흔	-13605
옮	-13606
=	-13607
뇌	-13608
듬	-13609
섭	-13610
넣	-13611
빛	-13612
멘	-13613
깨	-13614
놀	-13615
곧	-13616
땅	-13617
킹	-13618
룬	-13619
헬	-13620
닝	-13621
팬	-13622
쌍	-13623
겐	-13624
딩	-13625
흑	-13626
켓	-13627
힌	-13628
값	-13629
답	-13630
롭	-13631
멤	-13632
룡	-13633
튜	-13634
젤	-13635
짓	-13636
큐	-13637
챔	-13638
즘	-13639
릉	-13640
윌	-13641
쇄	-13642
쉬	-13643
밤	-13644
렵	-13645
뢰	-13646
웅	-13647
닉	-13648
흡	-13649
씩	-13650
튼	-13651
젠	-13652
옛	-13653
납	-13654
궤	-13655
듀	-13656
맺	-13657
닥	-13658
짜	-13659
숭	-13660
랭	-13661
쉽	-13662
랫	-13663
듯	-13664
+	-13665
섯	-13666
잃	-13667
Z	-13668
숨	-13669
젝	-13670
j	-13671
&	-13672
웃	-13673
깊	-13674
꼬	-13675
빙	-13676
멀	-13677
멜	-13678
롱	-13679
쓴	-13680
펠	-13681
캠	-13682
웹	-13683
핑	-13684
잇	-13685
끄	-13686
즐	-13687
큼	-13688
잎	-13689
뜨	-13690
믿	-13691
찍	-13692
텍	-13693
Q	-13694
덤	-13695
셰	-13696
밍	-13697
펼	-13698
;	-13699
틱	-13700
짐	-13701
빅	-13702
뷰	-13703
돼	-13704
멕	-13705
빨	-13706
뀌	-13707
엽	-13708
|	-13709
짧	-13710
틸	-13711
쇠	-13712
곱	-13713
삭	-13714
롬	-13715
첨	-13716
폼	-13717
릿	-13718
힐	-13719
럴	-13720
럭	-13721
랍	-13722
촬	-13723
낭	-13724
썼	-13725
혐	-13726
q	-13727
곽	-13728
옆	-13729
켈	-13730
밑	-13731
딘	-13732
겪	-13733
캘	-13734
쌓	-13735
콤	-13736
흘	-13737
삶	-13738
켄	-13739
뉘	-13740
벗	-13741
헝	-13742
낳	-13743
첩	-13744
젊	-13745
닐	-13746
꿈	-13747
옷	-13748
싶	-13749
왼	-13750
냥	-13751
컷	-13752
랄	-13753
빼	-13754
읽	-13755
듣	-13756
됨	-13757
얀	-13758
닛	-13759
톱	-13760
냉	-13761
셜	-13762
룩	-13763
믹	-13764
엑	-13765
픈	-13766
벡	-13767
낼	-13768
봄	-13769
숲	-13770
섰	-13771
뒷	-13772
퀴	-13773
흰	-13774
띠	-13775
묵	-13776
벼	-13777
셋	-13778
엇	-13779
튀	-13780
붉	-13781
뤄	-13782
븐	-13783
뱅	-13784
괄	-13785
잭	-13786
캄	-13787
좀	-13788
앗	-13789
쿨	-13790
뿌	-13791
샌	-13792
끊	-13793
슴	-13794
맛	-13795
덮	-13796
팽	-13797
녕	-13798
찌	-13799
숫	-13800
씬	-13801
륜	-13802
넬	-13803
늬	-13804
댄	-13805
뱀	-13806
떻	-13807
첼	-13808
묻	-13809
팩	-13810
둑	-13811
짝	-13812
춤	-13813
웰	-13814
쾌	-13815
뤼	-13816
늄	-13817
셈	-13818
톰	-13819
탱	-13820
쓸	-13821
렴	-13822
엠	-13823
깔	-13824
앵	-13825
뽑	-13826
꼽	-13827
캔	-13828
늦	-13829
샘	-13830
렐	-13831
옌	-13832
닫	-13833
밥	-13834
쫓	-13835
꺼	-13836
꼭	-13837
훨	-13838
횡	-13839
앉	-13840
팝	-13841
뼈	-13842
덩	-13843
륨	-13844
좁	-13845
끈	-13846
흉	-13847
겔	-13848
렘	-13849
끔	-13850
봇	-13851
훗	-13852
꾼	-13853
룸	-13854
뚜	-13855
멍	-13856
윗	-13857
깃	-13858
룰	-13859
덧	-13860
랩	-13861
펙	-13862
홋	-13863
춰	-13864
햄	-13865
갤	-13866
퀘	-13867
딕	-13868
듭	-13869
펴	-13870
쿼	-13871
삽	-13872
묶	-13873
싼	-13874
륭	-13875
뮌	-13876
궐	-13877
꺾	-13878
딜	-13879
탠	-13880
윙	-13881
꼴	-13882
쌀	-13883
뉜	-13884
섞	-13885
겹	-13886
빗	-13887
눌	-13888
띄	-13889
킴	-13890
훌	-13891
퀸	-13892
첸	-13893
긍	-13894
슐	-13895
돔	-13896
깥	-13897
셉	-13898
펄	-13899
녁	-13900
밭	-13901
녔	-13902
넥	-13903
넌	-13904
툰	-13905
펑	-13906
렛	-13907
빵	-13908
*	-13909
낌	-13910
뿔	-13911
깝	-13912
곰	-13913
돕	-13914
엉	-13915
늑	-13916
똑	-13917
훼	-13918
섹	-13919
펀	-13920
닷	-13921
컫	-13922
틈	-13923
딱	-13924
힙	-13925
랴	-13926
넨	-13927
흙	-13928
툴	-13929
굳	-13930
갱	-13931
핸	-13932
콰	-13933
팡	-13934
셸	-13935
킥	-13936
킷	-13937
빚	-13938
풋	-13939
톡	-13940
맷	-13941
껍	-13942
닭	-13943
겁	-13944
겉	-13945
뮬	-13946
룽	-13947
쏘	-13948
콥	-13949
굽	-13950
콕	-13951
뇨	-13952
멈	-13953
푼	-13954
턱	-13955
옵	-13956
뻗	-13957
콧	-13958
봐	-13959
핫	-13960
딴	-13961
밸	-13962
벳	-13963
떼	-13964
꿀	-13965
럿	-13966
굿	-13967
퉁	-13968
렷	-13969
쯤	-13970
탓	-13971
홉	-13972
쑤	-13973
닮	-13974
죠	-13975
샹	-13976
왈	-13977
눅	-13978
릎	-13979
붓	-13980
릇	-13981
캡	-13982
굉	-13983
뚫	-13984
칩	-13985
줬	-13986
낱	-13987
툼	-13988
쁜	-13989
댐	-13990
싫	-13991
놈	-13992
듈	-13993
닿	-13994
띤	-13995
샬	-13996
엣	-13997
걷	-13998
삿	-13999
셨	-14000
헐	-14001
낀	-14002
갓	-14003
흠	-14004
젖	-14005
냄	-14006
솟	-14007
펌	-14008
웬	-14009
봤	-14010
쩌	-14011
잊	-14012
퐁	-14013
걱	-14014
덟	-14015
쉐	-14016
솜	-14017
흩	-14018
돋	-14019
쥬	-14020
톈	-14021
옴	-14022
곁	-14023
쿤	-14024
얇	-14025
슘	-14026
굵	-14027
앱	-14028
긋	-14029
륵	-14030
둠	-14031
팜	-14032
얘	-14033
휩	-14034
탤	-14035
짙	-14036
껴	-14037
꾀	-14038
맵	-14039
얄	-14040
쏟	-14041
멋	-14042
$	-14043
#	-14044
쯔	-14045
렁	-14046
밟	-14047
꿔	-14048
훔	-14049
캉	-14050
덱	-14051
뭉	-14052
왓	-14053
뚝	-14054
뤘	-14055
챌	-14056
떡	-14057
컸	-14058
쁘	-14059
{	-14060
끓	-14061
옐	-14062
햇	-14063
뀐	-14064
휠	-14065
텀	-14066
핍	-14067
짱	-14068
댓	-14069
촨	-14070
슭	-14071
맘	-14072
`	-14073
횟	-14074
꽤	-14075
잦	-14076
씀	-14077
괘	-14078
펫	-14079
줌	-14080
픔	-14081
빔	-14082
뒀	-14083
앓	-14084
싯	-14085
밋	-14086
벅	-14087
엿	-14088
붐	-14089
땄	-14090
썬	-14091
갇	-14092
얹	-14093
눠	-14094
깎	-14095
멧	-14096
땃	-14097
딪	-14098
헥	-14099
맏	-14100
맑	-14101
팟	-14102
찐	-14103
샨	-14104
줘	-14105
벵	-14106
걀	-14107
찔	-14108
몫	-14109
텝	-14110
곶	-14111
꼈	-14112
닦	-14113
슛	-14114
뭇	-14115
깐	-14116
옳	-14117
씌	-14118
낫	-14119
끗	-14120
얽	-14121
랏	-14122
츄	-14123
팍	-14124
쟈	-14125
뻔	-14126
쭉	-14127
}	-14128
캅	-14129
귄	-14130
튬	-14131
뚱	-14132
윅	-14133
뱃	-14134
뻐	-14135
뜬	-14136
낚	-14137
쾰	-14138
귤	-14139
볍	-14140
엮	-14141
팰	-14142
렝	-14143
궈	-14144
뫼	-14145
찮	-14146
뾰	-14147
욘	-14148
쩔	-14149
앰	-14150
핏	-14151
꿨	-14152
엥	-14153
샐	-14154
캣	-14155
훙	-14156
챙	-14157
웍	-14158
탬	-14159
샀	-14160
싹	-14161
삐	-14162
쉴	-14163
푹	-14164
얕	-14165
뭄	-14166
낄	-14167
돗	-14168
깜	-14169
싣	-14170
뮈	-14171
섀	-14172
넛	-14173
쿡	-14174
늙	-14175
꽂	-14176
랬	-14177
헛	-14178
믈	-14179
챈	-14180
꽝	-14181
렙	-14182
뜸	-14183
눔	-14184
껏	-14185
냅	-14186
셴	-14187
쾨	-14188
숀	-14189
갚	-14190
촛	-14191
샵	-14192
짖	-14193
훤	-14194
탭	-14195
썩	-14196
즙	-14197
큘	-14198
댈	-14199
몹	-14200
츰	-14201
짚	-14202
찢	-14203
갯	-14204
@	-14205
췄	-14206
딧	-14207
늪	-14208
쪼	-14209
녜	-14210
뇽	-14211
룻	-14212
뿜	-14213
듐	-14214
뜰	-14215
펭	-14216
릅	-14217
빽	-14218
굶	-14219
괌	-14220
겟	-14221
딥	-14222
췌	-14223
깁	-14224
쁨	-14225
슌	-14226
숍	-14227
맬	-14228
쩐	-14229
쿰	-14230
넉	-14231
씻	-14232
엎	-14233
샷	-14234
퀼	-14235
엡	-14236
퀄	-14237
핼	-14238
펩	-14239
뮐	-14240
롄	-14241
뭐	-14242
볶	-14243
쵸	-14244
탔	-14245
샴	-14246
껑	-14247
똥	-14248
슝	-14249
꿰	-14250
벚	-14251
벙	-14252
젯	-14253
뜯	-14254
썰	-14255
\	-14256
둡	-14257
퓌	-14258
윽	-14259
촘	-14260
튠	-14261
잣	-14262
땀	-14263
맴	-14264
뵈	-14265
잼	-14266
둬	-14267
멩	-14268
쥘	-14269
낡	-14270
쑨	-14271
멱	-14272
꼼	-14273
촐	-14274
텅	-14275
욤	-14276
댕	-14277
좡	-14278
괜	-14279
퓰	-14280
낯	-14281
젓	-14282
켐	-14283
쥔	-14284
됩	-14285
킵	-14286
뎀	-14287
츨	-14288
팻	-14289
팎	-14290
훅	-14291
딤	-14292
캇	-14293
깅	-14294
뽀	-14295
웜	-14296
캥	-14297
밧	-14298
몄	-14299
띈	-14300
쉰	-14301
랠	-14302
밈	-14303
뇰	-14304
퀀	-14305
쏠	-14306
^	-14307
엌	-14308
왁	-14309
팥	-14310
짠	-14311
칫	-14312
뱌	-14313
쑹	-14314
윔	-14315
썸	-14316
꽁	-14317
챠	-14318
쐐	-14319
폈	-14320
갸	-14321
쿵	-14322
솥	-14323
뭔	-14324
쏜	-14325
헴	-14326
퍽	-14327
먀	-14328
넴	-14329
돛	-14330
덥	-14331
쨌	-14332
쩍	-14333
욜	-14334
잖	-14335
댁	-14336
젬	-14337
늠	-14338
뺏	-14339
콴	-14340
딛	-14341
깡	-14342
뛴	-14343
눕	-14344
얌	-14345
뎅	-14346
툭	-14347
찻	-14348
핌	-14349
웁	-14350
쑥	-14351
앳	-14352
읊	-14353
힉	-14354
놉	-14355
칵	-14356
뛸	-14357
볕	-14358
뺨	-14359
땐	-14360
뮴	-14361
옅	-14362
쉘	-14363
룀	-14364
뺀	-14365
캬	-14366
횃	-14367
팸	-14368
쭈	-14369
썹	-14370
엷	-14371
뀔	-14372
봅	-14373
뽕	-14374
웸	-14375
퀵	-14376
옙	-14377
팁	-14378
샛	-14379
춧	-14380
숄	-14381
꼰	-14382
꿇	-14383
텡	-14384
갠	-14385
씹	-14386
뎌	-14387
넵	-14388
땡	-14389
쉼	-14390
깼	-14391
냇	-14392
튿	-14393
뻘	-14394
짤	-14395
깬	-14396
긁	-14397
켤	-14398
텟	-14399
휼	-14400
닙	-14401
꽉	-14402
쇤	-14403
찼	-14404
눗	-14405
댑	-14406
펨	-14407
홑	-14408
뱉	-14409
폄	-14410
깍	-14411
꺽	-14412
윳	-14413
륄	-14414
텃	-14415
랗	-14416
솅	-14417
됭	-14418
솝	-14419
힝	-14420
쏴	-14421
줍	-14422
얏	-14423
쌈	-14424
웡	-14425
뢴	-14426
쎄	-14427
륀	-14428
쭤	-14429
뎃	-14430
챕	-14431
춥	-14432
뎬	-14433
젼	-14434
쩡	-14435
뜩	-14436
빴	-14437
꿩	-14438
땜	-14439
묀	-14440
찹	-14441
꿉	-14442
텁	-14443
숱	-14444
놨	-14445
헵	-14446
댜	-14447
젱	-14448
놔	-14449
뤽	-14450
떴	-14451
쫒	-14452
튕	-14453
뵤	-14454
잿	-14455
넋	-14456
뽐	-14457
빡	-14458
찜	-14459
컹	-14460
숯	-14461
맙	-14462
옻	-14463
씽	-14464
헹	-14465
볜	-14466
쌌	-14467
썽	-14468
잰	-14469
햐	-14470
귈	-14471
랸	-14472
숏	-14473
묄	-14474
얗	-14475
셍	-14476
좇	-14477
껌	-14478
꿋	-14479
탸	-14480
뻣	-14481
낵	-14482
댔	-14483
앎	-14484
푀	-14485
볏	-14486
녘	-14487
밌	-14488
핥	-14489
흄	-14490
뷸	-14491
굼	-14492
쌔	-14493
툇	-14494
탯	-14495
헷	-14496
듦	-14497
똘	-14498
줏	-14499
휜	-14500
놋	-14501
쨩	-14502
덫	-14503
짊	-14504
갬	-14505
챗	-14506
냑	-14507
탉	-14508
쳇	-14509
괭	-14510
눙	-14511
욧	-14512
젭	-14513
껀	-14514
븀	-14515
갭	-14516
첵	-14517
넙	-14518
췬	-14519
귓	-14520
뉠	-14521
앴	-14522
쿱	-14523
쭝	-14524
눴	-14525
닳	-14526
긱	-14527
넜	-14528
뺄	-14529
쁠	-14530
튤	-14531
뷜	-14532
궂	-14533
깟	-14534
늉	-14535
뚤	-14536
콸	-14537
뵐	-14538
숴	-14539
넝	-14540
쥰	-14541
섣	-14542
헉	-14543
쳅	-14544
겜	-14545
돤	-14546
솽	-14547
짬	-14548
펍	-14549
뎠	-14550
벰	-14551
꾹	-14552
뀜	-14553
윕	-14554
훠	-14555
샥	-14556
셤	-14557
껄	-14558
뗀	-14559
몐	-14560
쟝	-14561
텨	-14562
왠	-14563
쫄	-14564
숟	-14565
듄	-14566
뭘	-14567
믐	-14568
뷴	-14569
셧	-14570
푈	-14571
뗏	-14572
빤	-14573
팠	-14574
쬐	-14575
떳	-14576
겅	-14577
끽	-14578
닻	-14579
씰	-14580
왑	-14581
챘	-14582
텼	-14583
괵	-14584
맣	-14585
왐	-14586
켠	-14587
쏙	-14588
꼿	-14589
팹	-14590
뎁	-14591
숑	-14592
짼	-14593
샅	-14594
꿍	-14595
쪄	-14596
햅	-14597
넹	-14598
쥴	-14599
휨	-14600
뺑	-14601
챤	-14602
뭍	-14603
땔	-14604
갛	-14605
칡	-14606
넸	-14607
짰	-14608
톳	-14609
솁	-14610
껫	-14611
묽	-14612
륌	-14613
힛	-14614
쳄	-14615
냘	-14616
빳	-14617
횔	-14618
갉	-14619
잽	-14620
톄	-14621
냔	-14622
뒬	-14623
욥	-14624
쳉	-14625
퉈	-14626
켁	-14627
폿	-14628
빻	-14629
쩨	-14630
튈	-14631
뻑	-14632
쉔	-14633
좨	-14634
녓	-14635
멎	-14636
씁	-14637
윷	-14638
쭐	-14639
찧	-14640
탰	-14641
죤	-14642
섐	-14643
셩	-14644
꽈	-14645
뗄	-14646
윰	-14647
츤	-14648
뢸	-14649
틋	-14650
깰	-14651
뜀	-14652
솀	-14653
뺐	-14654
웩	-14655
뵙	-14656
훑	-14657
냠	-14658
웽	-14659
잴	-14660
쿈	-14661
믄	-14662
밉	-14663
쫑	-14664
홰	-14665
쐈	-14666
겊	-14667
퍄	-14668
꽌	-14669
섕	-14670
쾡	-14671
꽹	-14672
읜	-14673
퀜	-14674
깽	-14675
웻	-14676
젋	-14677
햘	-14678
튄	-14679
뼛	-14680
셌	-14681
옘	-14682
쟌	-14683
녠	-14684
쇳	-14685
홧	-14686
잤	-14687
쯩	-14688
틔	-14689
퓔	-14690
뻤	-14691
켕	-14692
틍	-14693
룔	-14694
섶	-14695
휫	-14696
땋	-14697
얍	-14698
짭	-14699
볐	-14700
뻬	-14701
삯	-14702
퓸	-14703
먄	-14704
뵘	-14705
띵	-14706
묠	-14707
욀	-14708
켑	-14709
헙	-14710
혓	-14711
깻	-14712
똔	-14713
빕	-14714
쉥	-14715
쾅	-14716
쿳	-14717
둣	-14718
뒹	-14719
뷘	-14720
팃	-14721
멥	-14722
맸	-14723
뻥	-14724
푄	-14725
쌘	-14726
쎈	-14727
찡	-14728
뱁	-14729
쭌	-14730
굄	-14731
롼	-14732
쌩	-14733
쏭	-14734
텄	-14735
큅	-14736
궬	-14737
묜	-14738
씸	-14739
낟	-14740
떫	-14741
뚬	-14742
띌	-14743
붑	-14744
삵	-14745
숩	-14746
쏨	-14747
녤	-14748
뗐	-14749
띨	-14750
뿍	-14751
룝	-14752
빰	-14753
쑈	-14754
찟	-14755
헀	-14756
껐	-14757
엾	-14758
겡	-14759
툽	-14760
뎐	-14761
줴	-14762
츈	-14763
퇘	-14764
괸	-14765
쉿	-14766
퓐	-14767
낏	-14768
룅	-14769
쐬	-14770
컥	-14771
큔	-14772
갗	-14773
얉	-14774
닢	-14775
뽁	-14776
쌤	-14777
띔	-14778
밂	-14779
섄	-14780
뱐	-14781
낑	-14782
땠	-14783
똠	-14784
섈	-14785
솎	-14786
짹	-14787
툉	-14788
툠	-14789
푯	-14790
짦	-14791
쮸	-14792
떄	-14793
짢	-14794
쯕	-14795
괼	-14796
귐	-14797
뉼	-14798
뒨	-14799
큄	-14800
틂	-14801
궜	-14802
뇬	-14803
됴	-14804
뒴	-14805
좆	-14806
쾃	-14807
퇼	-14808
툐	-14809
벱	-14810
뺌	-14811
갹	-14812
덞	-14813
뱡	-14814
짇	-14815
쳔	-14816
츳	-14817
쉈	-14818
슥	-14819
죈	-14820
큉	-14821
갰	-14822
옇	-14823
궉	-14824
떵	-14825
셱	-14826
옝	-14827
촙	-14828
캑	-14829
귬	-14830
꾐	-14831
듸	-14832
죌	-14833
캴	-14834
폽	-14835
넒	-14836
뮨	-14837
뼉	-14838
펏	-14839
햏	-14840
쇨	-14841
퉜	-14842
붇	-14843
썻	-14844
옭	-14845
푤	-14846
훵	-14847
뵬	-14848
븡	-14849
삔	-14850
쌕	-14851
푁	-14852
껩	-14853
돠	-14854
뵌	-14855
졔	-14856
딨	-14857
땝	-14858
륑	-14859
숌	-14860
쨋	-14861
쨍	-14862
횬	-14863
맟	-14864
벋	-14865
벧	-14866
쓱	-14867
쟀	-14868
꿴	-14869
끙	-14870
쩜	-14871
쿌	-14872
퇀	-14873
흭	-14874
꿎	-14875
됸	-14876
뚠	-14877
묑	-14878
쇽	-14879
틉	-14880
겋	-14881
롸	-14882
몌	-14883
묏	-14884
쌉	-14885
왬	-14886
큇	-14887
곪	-14888
궃	-14889
삥	-14890
샾	-14891
솃	-14892
솨	-14893
졍	-14894
쳬	-14895
퀠	-14896
킁	-14897
휙	-14898
뎨	-14899
얭	-14900
읗	-14901
쫀	-14902
펐	-14903
긔	-14904
뭣	-14905
밞	-14906
뽈	-14907
삑	-14908
슙	-14909
쒀	-14910
캰	-14911
퍌	-14912
걍	-14913
걔	-14914
긷	-14915
덖	-14916
돝	-14917
똣	-14918
랖	-14919
몆	-14920
볘	-14921
뼘	-14922
샙	-14923
쎌	-14924
쳥	-14925
겍	-14926
뿅	-14927
쉑	-14928
쉭	-14929
얜	-14930
웟	-14931
윾	-14932
읏	-14933
젔	-14934
팼	-14935
풰	-14936
곗	-14937
곬	-14938
꽥	-14939
떰	-14940
뜷	-14941
멓	-14942
쁩	-14943
쪘	-14944
찿	-14945
큥	-14946
헸	-14947
굣	-14948
끎	-14949
댠	-14950
됙	-14951
뤠	-14952
옯	-14953
젹	-14954
챵	-14955
춉	-14956
큭	-14957
퍈	-14958
놘	-14959
뉨	-14960
똬	-14961
랼	-14962
뭡	-14963
뱟	-14964
읻	-14965
잌	-14966
좐	-14967
쫌	-14968
쳰	-14969
큽	-14970
귁	-14971
늡	-14972
솬	-14973
쌋	-14974
죗	-14975
쬘	-14976
찝	-14977
춍	-14978
췐	-14979
햑	-14980
햣	-14981
휀	-14982
갼	-14983
긑	-14984
닯	-14985
붸	-14986
삘	-14987
셥	-14988
컽	-14989
풂	-14990
혠	-14991
흗	-14992
꺅	-14993
냣	-14994
뇩	-14995
늴	-14996
돐	-14997
릐	-14998
먁	-14999
쌰	-15000
앏	-15001
쫙	-15002
쬔	-15003
캤	-15004
탼	-15005
핬	-15006
귿	-15007
뀍	-15008
됬	-15009
뽄	-15010
뿡	-15011
샜	-15012
왱	-15013
죵	-15014
쥠	-15015
퇸	-15016
튐	-15017
틑	-15018
	-15019
굘	-15020
꿘	-15021
녬	-15022
뉙	-15023
뉵	-15024
뉸	-15025
룟	-15026
묫	-15027
붜	-15028
왝	-15029
읕	-15030
쟤	-15031
쥣	-15032
짯	-15033
쨔	-15034
큠	-15035
텬	-15036
햔	-15037
훕	-15038
꺄	-15039
낍	-15040
녈	-15041
녑	-15042
뎡	-15043
뚧	-15044
믕	-15045
밪	-15046
엹	-15047
잛	-15048
쨰	-15049
쵤	-15050
켸	-15051
쾍	-15052
퀑	-15053
푠	-15054
횐	-15055
겝	-15056
껭	-15057
꾜	-15058
낢	-15059
떱	-15060
맻	-15061
밎	-15062
벛	-15063
볓	-15064
슉	-15065
쏱	-15066
앝	-15067
엊	-15068
윱	-15069
졋	-15070
쩬	-15071
쯧	-15072
챡	-15073
촤	-15074
쿽	-15075
푕	-15076
걲	-15077
겻	-15078
곯	-15079
궨	-15080
껸	-15081
꼳	-15082
땟	-15083
뢱	-15084
륍	-15085
륏	-15086
묾	-15087
믜	-15088
봬	-15089
븨	-15090
섥	-15091
슾	-15092
쑬	-15093
씐	-15094
왹	-15095
읒	-15096
읔	-15097
읖	-15098
읠	-15099
읺	-15100
쨈	-15101
쮠	-15102
콱	-15103
퀌	-15104
귑	-15105
깸	-15106
꼍	-15107
꾄	-15108
눞	-15109
눼	-15110
띡	-15111
륩	-15112
맽	-15113
멨	-15114
뱔	-15115
뺘	-15116
섁	-15117
슁	-15118
쎅	-15119
쒸	-15120
씼	-15121
얶	-15122
옉	-15123
잍	-15124
죔	-15125
짫	-15126
쨘	-15127
쫏	-15128
챨	-15129
첬	-15130
츌	-15131
켯	-15132
턔	-15133
튁	-15134
햠	-15135
휭	-15136
겇	-15137
겯	-15138
꽛	-15139
뀀	-15140
뀨	-15141
뇸	-15142
늣	-15143
덪	-15144
돟	-15145
듁	-15146
듕	-15147
딫	-15148
뗑	-15149
뙈	-15150
럇	-15151
멉	-15152
묭	-15153
밷	-15154
빎	-15155
뺴	-15156
뻴	-15157
섦	-15158
솓	-15159
싀	-15160
썅	-15161
씃	-15162
얐	-15163
옜	-15164
욋	-15165
욺	-15166
쟉	-15167
쟐	-15168
졘	-15169
쭘	-15170
츔	-15171
캪	-15172
쾬	-15173
퍙	-15174
픙	-15175
햤	-15176
홥	-15177
겄	-15178
곂	-15179
꽅	-15180
꽆	-15181
꾿	-15182
낻	-15183
댛	-15184
땨	-15185
땸	-15186
뙡	-15187
뚯	-15188
뜽	-15189
렜	-15190
뫄	-15191
벴	-15192
봔	-15193
뵨	-15194
뷁	-15195
빋	-15196
쀼	-15197
쏸	-15198
얠	-15199
엤	-15200
엶	-15201
옸	-15202
욈	-15203
웤	-15204
읃	-15205
읓	-15206
쟛	-15207
젇	-15208
졀	-15209
즁	-15210
쭙	-15211
챰	-15212
챱	-15213
켬	-15214
쿙	-15215
퀍	-15216
퀭	-15217
탘	-15218
폘	-15219
픕	-15220
흴	-15221
겿	-15222
곈	-15223
깆	-15224
깩	-15225
껶	-15226
꿧	-15227
넢	-15228
뉩	-15229
닸	-15230
닽	-15231
댱	-15232
뎰	-15233
됫	-15234
뒈	-15235
뙤	-15236
럄	-15237
롐	-15238
뢨	-15239
룁	-15240
멂	-15241
몯	-15242
믾	-15243
뱄	-15244
빝	-15245
빱	-15246
뺵	-15247
뿟	-15248
셕	-15249
쇵	-15250
쉡	-15251
싻	-15252
쌴	-15253
쏫	-15254
쓔	-15255
앧	-15256
얆	-15257
얺	-15258
얾	-15259
옰	-15260
왯	-15261
욍	-15262
욷	-15263
윟	-15264
쟂	-15265
짔	-15266
쩄	-15267
쯘	-15268
쳑	-15269
쳣	-15270
촥	-15271
촹	-15272
쵼	-15273
츙	-15274
컁	-15275
콀	-15276
쾀	-15277
텦	-15278
튱	-15279
핱	-15280
헿	-15281
혤	-15282
홤	-15283
홱	-15284
횻	-15285
훓	-15286
휄	-15287
힁	-15288
갣	-15289
걈	-15290
걘	-15291
걺	-15292
곙	-15293
깠	-15294
깯	-15295
꽐	-15296
꾕	-15297
꿸	-15298
냬	-15299
넀	-15300
넗	-15301
뇻	-15302
늗	-15303
닜	-15304
덛	-15305
덝	-15306
돎	-15307
돴	-15308
돵	-15309
됀	-15310
됏	-15311
듫	-15312
딷	-15313
땁	-15314
뗬	-15315
띰	-15316
롹	-15317
뤗	-15318
맜	-15319
먕	-15320
몃	-15321
뮹	-15322
볻	-15323
뻡	-15324
삠	-15325
삡	-15326
섓	-15327
셖	-15328
숰	-15329
싲	-15330
쎙	-15331
앋	-15332
앟	-15333
얖	-15334
엵	-15335
옫	-15336
욯	-15337
읆	-15338
읭	-15339
잗	-15340
쟙	-15341
졉	-15342
좃	-15343
줫	-15344
즛	-15345
쩝	-15346
쩽	-15347
쫍	-15348
쬠	-15349
쮜	-15350
쵝	-15351
췰	-15352
츼	-15353
콛	-15354
쾽	-15355
탙	-15356
톼	-15357
푱	-15358
핟	-15359
핶	-15360
햝	-15361
홛	-15362
횩	-15363
훽	-15364
휑	-15365
갂	-15366
갘	-15367
걑	-15368
겆	-15369
곷	-15370
곹	-15371
괂	-15372
굑	-15373
굔	-15374
굥	-15375
귝	-15376
귯	-15377
깂	-15378
깉	-15379
깢	-15380
깹	-15381
꺠	-15382
껙	-15383
껜	-15384
꼇	-15385
꿏	-15386
뀝	-15387
끕	-15388
냡	-15389
넎	-15390
넖	-15391
넚	-15392
넞	-15393
넡	-15394
놂	-15395
놰	-15396
뇐	-15397
뇔	-15398
뉫	-15399
뉻	-15400
늇	-15401
닏	-15402
닺	-15403
댚	-15404
댤	-15405
덣	-15406
뎦	-15407
돚	-15408
돽	-15409
됌	-15410
됮	-15411
둄	-15412
둰	-15413
둴	-15414
둿	-15415
뒁	-15416
뒥	-15417
뒸	-15418
딯	-15419
떙	-15420
떽	-15421
뗌	-15422
뗴	-15423
띳	-15424
랟	-15425
럅	-15426
럐	-15427
럔	-15428
렡	-15429
렫	-15430
롈	-15431
롑	-15432
롣	-15433
룐	-15434
뤈	-15435
뤌	-15436
맀	-15437
맄	-15438
먈	-15439
몀	-15440
묺	-15441
뭥	-15442
믠	-15443
밒	-15444
밨	-15445
밫	-15446
뱆	-15447
뱍	-15448
뱜	-15449
벉	-15450
볠	-15451
봍	-15452
봘	-15453
뵷	-15454
뷋	-15455
뷕	-15456
븥	-15457
빧	-15458
뺩	-15459
뻰	-15460
뼤	-15461
뽓	-15462
삣	-15463
삳	-15464
삻	-15465
샇	-15466
섡	-15467
셑	-15468
솦	-15469
숡	-15470
숳	-15471
숸	-15472
슽	-15473
싈	-15474
싮	-15475
싰	-15476
싾	-15477
쌥	-15478
쎔	-15479
쎴	-15480
쏩	-15481
쏳	-15482
쐇	-15483
쓿	-15484
앃	-15485
얅	-15486
얬	-15487
엜	-15488
엳	-15489
옄	-15490
옲	-15491
옺	-15492
옾	-15493
왰	-15494
욌	-15495
웝	-15496
윘	-15497
윶	-15498
읁	-15499
읅	-15500
읿	-15501
잋	-15502
잏	-15503
잩	-15504
쟘	-15505
졜	-15506
졶	-15507
짛	-15508
쨉	-15509
쩰	-15510
쬬	-15511
찓	-15512
찣	-15513
챦	-15514
쳘	-15515
춭	-15516
츅	-15517
츕	-15518
츩	-15519
칰	-15520
칲	-15521
컈	-15522
쾩	-15523
퀔	-15524
턀	-15525
텉	-15526
텥	-15527
텽	-15528
톺	-15529
퇌	-15530
툥	-15531
툿	-15532
튭	-15533
팈	-15534
퍠	-15535
폔	-15536
폳	-15537
퐈	-15538
푣	-15539
핔	-15540
핮	-15541
핳	-15542
햋	-15543
혅	-15544
혱	-15545
혿	-15546
홅	-15547
홯	-15548
횄	-15549
횰	-15550
횽	-15551
훍	-15552
훝	-15553
휏	-15554
흝	-15555
흫	-15556
힜	-15557
갃	-15558
갏	-15559
갶	-15560
걋	-15561
겂	-15562
겣	-15563
겷	-15564
곌	-15565
곘	-15566
곲	-15567
곺	-15568
곻	-15569
괍	-15570
괏	-15571
괕	-15572
괗	-15573
굇	-15574
굦	-15575
궅	-15576
궇	-15577
궎	-15578
궘	-15579
궝	-15580
궡	-15581
궴	-15582
궷	-15583
긓	-15584
긘	-15585
긜	-15586
긾	-15587
깄	-15588
깓	-15589
깖	-15590
꺌	-15591
껠	-15592
껼	-15593
꼅	-15594
꼮	-15595
꽦	-15596
꾈	-15597
꿕	-15598
뀠	-15599
낛	-15600
낣	-15601
낧	-15602
낲	-15603
냤	-15604
넏	-15605
넑	-15606
넶	-15607
녅	-15608
녇	-15609
녋	-15610
녙	-15611
녝	-15612
놃	-15613
놄	-15614
놐	-15615
놧	-15616
놩	-15617
뇍	-15618
뇓	-15619
뇜	-15620
눋	-15621
늅	-15622
늚	-15623
늨	-15624
늰	-15625
늿	-15626
닞	-15627
닠	-15628
닾	-15629
댇	-15630
댖	-15631
댗	-15632
댸	-15633
덙	-15634
덨	-15635
덯	-15636
뎗	-15637
뎝	-15638
돍	-15639
돰	-15640
됢	-15641
됼	-15642
둏	-15643
둙	-15644
둚	-15645
둟	-15646
뒫	-15647
뒵	-15648
듥	-15649
듹	-15650
딈	-15651
딭	-15652
딲	-15653
땍	-15654
떘	-15655
떢	-15656
떥	-15657
떪	-15658
떯	-15659
뗘	-15660
뗼	-15661
뙨	-15662
뚸	-15663
뚼	-15664
뛔	-15665
뛱	-15666
뜁	-15667
뜹	-15668
뜼	-15669
띁	-15670
띅	-15671
랒	-15672
랕	-15673
랰	-15674
럈	-15675
럘	-15676
럲	-15677
럻	-15678
렂	-15679
렃	-15680
렆	-15681
렗	-15682
렣	-15683
롓	-15684
롲	-15685
뢀	-15686
룍	-15687
룯	-15688
뤀	-15689
뤨	-15690
뤰	-15691
뤳	-15692
뤵	-15693
륐	-15694
륫	-15695
륱	-15696
륻	-15697
릌	-15698
릍	-15699
릏	-15700
릘	-15701
릫	-15702
릳	-15703
맃	-15704
맆	-15705
맔	-15706
맕	-15707
맗	-15708
맠	-15709
맫	-15710
먓	-15711
먗	-15712
먾	-15713
멏	-15714
멪	-15715
멵	-15716
몉	-15717
몔	-15718
몪	-15719
몴	-15720
뫁	-15721
뫂	-15722
뫔	-15723
뫙	-15724
뭅	-15725
뭋	-15726
뭏	-15727
뭬	-15728
뭰	-15729
뭴	-15730
뮝	-15731
믁	-15732
믓	-15733
밓	-15734
밚	-15735
밠	-15736
밣	-15737
밯	-15738
뱓	-15739
벏	-15740
벢	-15741
벹	-15742
볈	-15743
볿	-15744
봌	-15745
봣	-15746
봥	-15747
뵀	-15748
뵉	-15749
뵛	-15750
붊	-15751
붏	-15752
붔	-15753
붖	-15754
붘	-15755
붛	-15756
붴	-15757
뷀	-15758
븃	-15759
븍	-15760
븜	-15761
븟	-15762
빩	-15763
뺙	-15764
뺢	-15765
뺸	-15766
뻇	-15767
뻠	-15768
뻩	-15769
뻿	-15770
뿝	-15771
삜	-15772
샆	-15773
샊	-15774
샏	-15775
샞	-15776
섧	-15777
섨	-15778
섵	-15779
섷	-15780
섻	-15781
섿	-15782
셒	-15783
솏	-15784
솑	-15785
솩	-15786
쇡	-15787
쇰	-15788
숔	-15789
숖	-15790
숮	-15791
쉅	-15792
쉉	-15793
쉣	-15794
슦	-15795
슳	-15796
슼	-15797
슿	-15798
싁	-15799
싄	-15800
싑	-15801
싡	-15802
싢	-15803
싦	-15804
싨	-15805
싪	-15806
싴	-15807
싵	-15808
싿	-15809
썌	-15810
쎕	-15811
쎘	-15812
쎼	-15813
쎾	-15814
쐉	-15815
쐑	-15816
쐰	-15817
쐼	-15818
쑴	-15819
쑷	-15820
쒜	-15821
쒼	-15822
쓘	-15823
쓩	-15824
씉	-15825
씜	-15826
앆	-15827
앖	-15828
앛	-15829
앜	-15830
앹	-15831
얊	-15832
얨	-15833
얫	-15834
엗	-15835
엩	-15836
옂	-15837
옽	-15838
왙	-15839
왿	-15840
욎	-15841
욨	-15842
욿	-15843
웆	-15844
웇	-15845
윁	-15846
윋	-15847
윛	-15848
윥	-15849
윧	-15850
윯	-15851
읋	-15852
읙	-15853
읨	-15854
읫	-15855
읳	-15856
읶	-15857
잂	-15858
잆	-15859
잓	-15860
잚	-15861
잟	-15862
잧	-15863
쟃	-15864
쟇	-15865
쟎	-15866
쟨	-15867
쟬	-15868
젃	-15869
젆	-15870
젏	-15871
젗	-15872
젙	-15873
졈	-15874
졩	-15875
졷	-15876
좍	-15877
좔	-15878
좧	-15879
좪	-15880
좽	-15881
죕	-15882
죡	-15883
줃	-15884
줓	-15885
쥑	-15886
쥤	-15887
즑	-15888
즞	-15889
즤	-15890
짎	-15891
짗	-15892
짥	-15893
짮	-15894
쨀	-15895
쨴	-15896
쩃	-15897
쩟	-15898
쩩	-15899
쩸	-15900
쪗	-15901
쪤	-15902
쫃	-15903
쫗	-15904
쫘	-15905
쯊	-15906
찎	-15907
찯	-15908
찱	-15909
첀	-15910
첟	-15911
첮	-15912
첯	-15913
쳠	-15914
쳡	-15915
촣	-15916
쵀	-15917
쵣	-15918
쵹	-15919
춈	-15920
춋	-15921
춛	-15922
췡	-15923
췩	-15924
췹	-15925
췽	-15926
츺	-15927
칞	-15928
칢	-15929
칯	-15930
칱	-15931
칳	-15932
캎	-15933
컅	-15934
컺	-15935
컾	-15936
켔	-15937
켙	-15938
켱	-15939
콙	-15940
콭	-15941
쾁	-15942
쾻	-15943
쿸	-15944
쿹	-15945
퀏	-15946
퀩	-15947
큎	-15948
큣	-15949
큹	-15950
킈	-15951
킽	-15952
탖	-15953
탣	-15954
탶	-15955
텛	-15956
톹	-15957
퇻	-15958
툅	-15959
툘	-15960
퉤	-15961
튝	-15962
튻	-15963
튽	-15964
팉	-15965
팑	-15966
팦	-15967
팯	-15968
퍁	-15969
퍅	-15970
폅	-15971
폏	-15972
폶	-15973
퐃	-15974
퐅	-15975
퐝	-15976
퐷	-15977
푓	-15978
푲	-15979
푷	-15980
풉	-15981
풔	-15982
퓬	-15983
픜	-15984
픝	-15985
픞	-15986
픠	-15987
핃	-15988
핒	-15989
핓	-15990
핛	-15991
핝	-15992
