▁t 100
he 100
▁a 100
in 100
er 100
▁the 100
on 100
re 100
▁o 100
ed 100
nd 100
▁s 100
▁w 100
at 100
or 100
is 100
en 100
an 100
it 100
ar 100
▁of 100
▁in 100
al 100
▁f 100
es 100
▁c 100
▁b 100
as 100
▁p 100
▁and 100
ing 100
ic 100
ro 100
ion 100
▁to 100
▁m 100
le 100
▁d 100
▁h 100
▁T 100
ou 100
▁S 100
il 100
▁A 100
▁C 100
ent 100
▁1 100
▁re 100
st 100
am 100
om 100
el 100
▁M 100
ol 100
▁l 100
▁was 100
ct 100
ad 100
▁I 100
▁n 100
▁e 100
▁th 100
▁B 100
▁The 100
ur 100
▁" 100
et 100
iv 100
ch 100
▁H 100
▁on 100
▁for 100
▁is 100
ation 100
ly 100
▁P 100
id 100
▁2 100
ir 100
ce 100
ig 100
im 100
ot 100
us 100
▁g 100
ut 100
▁as 100
la 100
ter 100
ow 100
▁be 100
ith 100
ra 100
▁R 100
▁D 100
▁( 100
▁19 100
ers 100
▁st 100
▁he 100
▁F 100
▁with 100
un 100
▁L 100
em 100
▁G 100
▁by 100
▁W 100
▁N 100
▁20 100
ist 100
ul 100
th 100
ver 100
▁al 100
▁at 100
▁wh 100
rom 100
▁J 100
os 100
▁an 100
ay 100
▁con 100
▁E 100
her 100
um 100
ge 100
▁that 100
est 100
ri 100
▁In 100
▁O 100
▁from 100
▁de 100
op 100
▁se 100
▁pro 100
▁v 100
oc 100
▁com 100
▁it 100
ain 100
pe 100
ity 100
od 100
and 100
av 100
▁his 100
art 100
up 100
ber 100
ac 100
res 100
ate 100
ud 100
ies 100
if 100
▁K 100
ab 100
▁U 100
ew 100
ort 100
all 100
▁or 100
ich 100
ian 100
ard 100
ore 100
se 100
ld 100
ated 100
ia 100
ill 100
ak 100
igh 100
▁are 100
ub 100
qu 100
ere 100
ip 100
ess 100
▁r 100
ant 100
ag 100
▁201 100
▁St 100
ive 100
▁ch 100
▁ex 100
ment 100
ov 100
▁were 100
ap 100
ug 100
ary 100
nt 100
ong 100
▁He 100
ial 100
ame 100
und 100
ear 100
our 100
▁Ch 100
ast 100
▁which 100
▁le 100
ell 100
red 100
ine 100
ction 100
ust 100
▁200 100
ost 100
so 100
▁V 100
ish 100
ord 100
uc 100
▁y 100
▁sh 100
ical 100
te 100
▁comp 100
ther 100
▁pla 100
og 100
mer 100
ork 100
cl 100
▁k 100
ran 100
▁also 100
▁It 100
▁had 100
ight 100
irst 100
ue 100
ie 100
▁has 100
▁un 100
pt 100
ous 100
▁not 100
ure 100
ition 100
ff 100
▁first 100
▁whe 100
ave 100
ry 100
fter 100
ric 100
▁18 100
ok 100
ign 100
per 100
ome 100
erv 100
iz 100
▁te 100
ire 100
port 100
ass 100
▁ar 100
▁Un 100
ide 100
▁us 100
rit 100
▁cont 100
own 100
", 100
ond 100
hed 100
▁Th 100
wo 100
▁their 100
▁its 100
▁ro 100
ater 100
ount 100
▁ad 100
man 100
▁part 100
ice 100
▁ap 100
▁who 100
ree 100
ult 100
00 100
▁but 100
▁res 100
▁her 100
▁cl 100
clud 100
ect 100
sh 100
), 100
age 100
▁year 100
▁3 100
ime 100
to 100
ational 100
▁one 100
ang 100
ach 100
▁play 100
low 100
land 100
▁j 100
amp 100
ence 100
ack 100
out 100
ound 100
▁ab 100
ens 100
cc 100
ould 100
orn 100
▁Al 100
ally 100
ugh 100
ib 100
▁have 100
are 100
". 100
wn 100
▁includ 100
▁per 100
▁bec 100
▁two 100
▁ag 100
ations 100
fer 100
over 100
▁Y 100
▁this 100
▁Re 100
ru 100
▁rec 100
ool 100
ke 100
▁man 100
uring 100
ark 100
ng 100
ade 100
ory 100
tern 100
▁been 100
). 100
ember 100
ates 100
ile 100
ild 100
oin 100
▁199 100
▁other 100
▁work 100
ubl 100
ased 100
old 100
ck 100
▁en 100
for 100
▁sc 100
▁Se 100
ne 100
ited 100
▁De 100
vel 100
ied 100
ces 100
▁after 100
act 100
▁comm 100
uch 100
ely 100
gh 100
we 100
▁dis 100
ph 100
ents 100
ts 100
▁im 100
les 100
ite 100
▁Ar 100
chool 100
urn 100
▁sp 100
aw 100
▁up 100
▁out 100
ted 100
one 100
▁over 100
▁des 100
▁Mar 100
ind 100
▁they 100
▁ne 100
able 100
ons 100
oy 100
ress 100
▁spe 100
ivers 100
ail 100
▁As 100
ors 100
▁she 100
iss 100
ced 100
▁off 100
▁ra 100
▁4 100
ose 100
▁new 100
ward 100
ase 100
gan 100
▁Le 100
▁into 100
▁serv 100
▁loc 100
▁all 100
▁ev 100
▁und 100
ough 100
ath 100
ance 100
ions 100
ob 100
▁pre 100
▁New 100
inal 100
ings 100
pl 100
▁tra 100
ood 100
▁time 100
outh 100
▁can 100
▁gro 100
rough 100
cted 100
ilm 100
▁Com 100
▁198 100
ican 100
▁form 100
io 100
▁under 100
▁ele 100
▁sec 100
▁On 100
▁col 100
▁him 100
way 100
▁kn 100
ished 100
ason 100
▁5 100
▁bu 100
ious 100
rib 100
▁bet 100
orld 100
▁pl 100
oth 100
▁reg 100
ren 100
ily 100
▁when 100
ft 100
▁more 100
du 100
ram 100
ake 100
ollow 100
▁would 100
ral 100
▁years 100
▁Amer 100
▁where 100
orth 100
ans 100
ick 100
▁cons 100
▁publ 100
cess 100
ince 100
▁197 100
ween 100
▁team 100
ual 100
▁stud 100
rad 100
▁This 100
▁again 100
ve 100
ship 100
ton 100
▁ind 100
oh 100
ook 100
▁ret 100
form 100
▁during 100
▁op 100
oun 100
ener 100
▁rep 100
▁we 100
▁only 100
▁pr 100
▁film 100
▁me 100
▁cent 100
19 100
ident 100
▁Sh 100
▁most 100
▁sup 100
ating 100
▁sub 100
ics 100
The 100
ular 100
▁ear 100
▁6 100
▁found 100
▁act 100
▁She 100
▁fam 100
use 100
ision 100
▁inter 100
▁pe 100
▁rele 100
iversity 100
▁between 100
ix 100
ron 100
che 100
▁qu 100
▁att 100
olog 100
duc 100
▁ass 100
0, 100
ative 100
ouse 100
rans 100
▁pol 100
ered 100
ah 100
▁fe 100
▁three 100
▁acc 100
cial 100
▁through 100
▁app 100
▁there 100
▁made 100
any 100
iel 100
ict 100
fore 100
ins 100
▁follow 100
end 100
▁196 100
▁rem 100
▁them 100
ock 100
▁co 100
." 100
overn 100
▁then 100
aj 100
▁used 100
▁sy 100
▁later 100
ank 100
ities 100
ik 100
▁num 100
pr 100
▁Col 100
▁pres 100
▁mov 100
▁rel 100
▁Ind 100
▁pop 100
▁about 100
▁such 100
ived 100
oot 100
als 100
▁season 100
▁so 100
▁end 100
ball 100
▁second 100
reat 100
▁dist 100
ames 100
▁United 100
ann 100
ace 100
▁became 100
ten 100
▁known 100
oci 100
ific 100
▁Z 100
az 100
▁some 100
▁school 100
▁than 100
▁American 100
7, 100
▁ac 100
▁prov 100
▁University 100
air 100
ier 100
emb 100
▁inv 100
ever 100
▁inc 100
inn 100
arg 100
ale 100
▁def 100
▁An 100
att 100
▁ent 100
velop 100
▁am 100
5, 100
led 100
▁At 100
ury 100
▁well 100
0. 100
son 100
▁Pro 100
ject 100
bum 100
ober 100
▁194 100
▁dec 100
▁being 100
1, 100
round 100
erm 100
▁call 100
▁four 100
4, 100
ife 100
ines 100
ople 100
▁trans 100
▁record 100
eries 100
8, 100
▁including 100
▁Con 100
usic 100
▁set 100
pos 100
ather 100
ley 100
ars 100
▁pos 100
very 100
ield 100
hen 100
iver 100
ement 100
▁do 100
6, 100
rict 100
▁appe 100
2, 100
▁art 100
ash 100
▁Eng 100
ros 100
til 100
▁album 100
▁ed 100
▁195 100
▁Joh 100
▁many 100
ep 100
▁After 100
owever 100
▁dire 100
▁against 100
iam 100
▁Sc 100
▁lead 100
une 100
other 100
arri 100
ina 100
▁count 100
tain 100
ional 100
ctor 100
▁sing 100
▁cre 100
9, 100
▁add 100
▁before 100
its 100
ists 100
ike 100
▁may 100
▁while 100
ures 100
▁7 100
3, 100
▁For 100
eb 100
ired 100
ys 100
▁sur 100
enn 100
urch 100
▁own 100
iew 100
ern 100
der 100
▁rece 100
▁ph 100
▁group 100
▁until 100
▁est 100
▁sign 100
▁develop 100
▁main 100
ise 100
stem 100
▁show 100
stit 100
ters 100
▁bro 100
▁May 100
cy 100
▁both 100
erman 100
▁17 100
▁high 100
▁writ 100
illa 100
▁John 100
▁med 100
▁Jan 100
▁Comm 100
ll 100
ty 100
▁family 100
▁Be 100
ower 100
ute 100
ural 100
ague 100
▁Fran 100
▁cap 100
ized 100
▁Is 100
ism 100
▁number 100
▁oper 100
overnment 100
amed 100
ven 100
▁em 100
▁fin 100
▁people 100
▁mod 100
elf 100
▁spec 100
▁played 100
▁States 100
▁name 100
▁sever 100
▁no 100
▁orig 100
▁– 100
▁go 100
▁Q 100
ting 100
▁released 100
aid 100
▁World 100
▁met 100
ved 100
▁8 100
▁song 100
▁Te 100
▁dif 100
▁National 100
▁mon 100
ulation 100
▁build 100
▁day 100
uss 100
▁area 100
tend 100
ek 100
uro 100
▁Aust 100
ually 100
▁start 100
▁Ju 100
▁Cl 100
000 100
▁exp 100
▁min 100
▁Count 100
▁193 100
▁series 100
▁sm 100
▁char 100
ution 100
▁fl 100
▁won 100
▁Car 100
▁gener 100
▁back 100
ird 100
▁design 100
▁Brit 100
▁prog 100
▁9 100
▁mat 100
uary 100
▁offic 100
▁hist 100
▁War 100
ives 100
▁will 100
▁called 100
▁comple 100
ctions 100
▁Ph 100
▁Sp 100
▁School 100
ister 100
ful 100
▁Ad 100
▁var 100
▁Wh 100
ugust 100
ause 100
▁Nov 100
ract 100
▁several 100
1. 100
▁feat 100
▁long 100
▁run 100
▁ann 100
▁German 100
▁system 100
2. 100
▁His 100
▁open 100
▁suc 100
ple 100
▁same 100
con 100
ey 100
▁ob 100
imes 100
ampion 100
▁South 100
▁August 100
ptember 100
rid 100
ues 100
ternational 100
▁contin 100
▁return 100
▁Can 100
my 100
▁game 100
erson 100
▁music 100
▁following 100
ajor 100
▁city 100
▁16 100
▁March 100
▁early 100
▁public 100
ai 100
▁state 100
▁produ 100
por 100
eng 100
▁aut 100
ull 100
ax 100
ctober 100
▁int 100
▁September 100
ootball 100
▁these 100
by 100
▁They 100
5. 100
cept 100
ission 100
aking 100
▁organ 100
▁January 100
ets 100
xt 100
ital 100
ilt 100
duced 100
rop 100
▁colle 100
els 100
▁June 100
▁192 100
iving 100
fess 100
▁cur 100
▁use 100
abl 100
▁began 100
rent 100
ured 100
▁October 100
ene 100
ior 100
▁any 100
ided 100
ross 100
▁bel 100
pril 100
rand 100
▁July 100
vent 100
▁town 100
ped 100
▁former 100
ised 100
4. 100
ium 100
mber 100
▁York 100
rist 100
▁near 100
ible 100
icip 100
▁child 100
3. 100
ants 100
▁inst 100
ued 100
▁There 100
▁since 100
▁15 100
▁10 100
ared 100
ient 100
▁Cent 100
omen 100
▁Me 100
iet 100
▁April 100
ility 100
▁remain 100
▁air 100
ined 100
8. 100
cember 100
ments 100
▁Euro 100
▁join 100
arm 100
the 100
▁government 100
ange 100
▁eff 100
7. 100
▁commun 100
▁November 100
▁head 100
6. 100
▁land 100
▁located 100
▁support 100
▁prom 100
ically 100
▁inf 100
▁County 100
▁Ge 100
part 100
▁along 100
au 100
▁December 100
▁bl 100
ales 100
▁program 100
oard 100
▁book 100
ris 100
▁did 100
▁(19 100
oman 100
▁compet 100
▁place 100
▁small 100
▁villa 100
▁each 100
▁band 100
▁North 100
ology 100
▁population 100
▁held 100
▁Par 100
ink 100
▁All 100
▁pass 100
▁Or 100
▁occ 100
9. 100
ica 100
resent 100
▁result 100
▁disc 100
ret 100
▁dr 100
▁differ 100
▁sim 100
embers 100
▁took 100
arch 100
▁care 100
▁poin 100
ox 100
▁gu 100
ove 100
▁house 100
▁Austral 100
pend 100
▁named 100
hes 100
▁tit 100
▁' 100
▁local 100
rol 100
▁Ass 100
▁(1 100
▁str 100
ae 100
▁you 100
yl 100
▁club 100
aving 100
ner 100
▁major 100
▁British 100
ebru 100
ebruary 100
▁However 100
ec 100
▁12 100
▁polit 100
▁member 100
▁station 100
▁success 100
▁desc 100
▁home 100
ices 100
▁company 100
▁$ 100
▁City 100
lay 100
ampionship 100
▁Europe 100
▁rev 100
min 100
▁Man 100
▁could 100
▁served 100
raph 100
chn 100
▁191 100
▁establ 100
▁age 100
▁world 100
▁received 100
ival 100
mp 100
illion 100
▁February 100
stru 100
arge 100
▁class 100
eter 100
▁Will 100
▁members 100
tle 100
wards 100
▁final 100
▁ins 100
▁Pol 100
▁born 100
▁Pr 100
▁around 100
ored 100
augh 100
born 100
ately 100
▁event 100
ring 100
▁Bar 100
▁US 100
af 100
orm 100
▁old 100
▁tr 100
20 100
ience 100
let 100
▁. 100
ator 100
cer 100
▁- 100
▁now 100
ble 100
▁built 100
▁par 100
though 100
▁ext 100
▁line 100
▁term 100
ilit 100
ling 100
▁Am 100
▁State 100
▁ref 100
ats 100
▁single 100
▁bus 100
▁Gu 100
▁League 100
ony 100
hor 100
lack 100
▁hel 100
▁eng 100
▁charact 100
▁based 100
▁last 100
ane 100
ording 100
ently 100
▁national 100
inc 100
▁refer 100
▁Bro 100
ians 100
ged 100
▁report 100
alif 100
▁include 100
med 100
iness 100
▁Ed 100
▁left 100
▁Colle 100
pro 100
ott 100
▁During 100
▁(" 100
▁north 100
▁appro 100
▁II 100
oss 100
▁Canad 100
me 100
▁six 100
▁cour 100
ham 100
arried 100
reen 100
▁King 100
▁within 100
get 100
ula 100
▁list 100
ality 100
▁century 100
▁Co 100
ivision 100
▁Mon 100
▁because 100
▁car 100
▁Af 100
ster 100
▁law 100
pect 100
▁mark 100
yn 100
▁said 100
co 100
▁due 100
▁West 100
ounc 100
▁species 100
▁deb 100
uck 100
ches 100
ides 100
▁vers 100
ille 100
▁war 100
itions 100
▁published 100
▁Min 100
ung 100
ages 100
▁camp 100
▁football 100
▁profess 100
▁five 100
▁large 100
▁rest 100
▁top 100
iod 100
▁Har 100
▁village 100
▁present 100
▁ty 100
▁Christ 100
com 100
▁requ 100
▁consid 100
row 100
▁Dist 100
▁adv 100
rew 100
ask 100
aster 100
▁included 100
▁right 100
▁Her 100
que 100
▁down 100
▁describ 100
rench 100
▁building 100
ode 100
▁death 100
▁died 100
▁Geor 100
iven 100
lev 100
ively 100
▁current 100
atic 100
bor 100
▁represent 100
alth 100
▁south 100
ze 100
▁life 100
▁Mc 100
day 100
▁larg 100
▁tri 100
▁allow 100
cent 100
–1 100
▁det 100
ature 100
▁conf 100
▁& 100
▁third 100
lish 100
▁And 100
omin 100
▁fac 100
estern 100
ps 100
▁Sw 100
omet 100
gy 100
▁11 100
uff 100
▁different 100
ially 100
ien 100
alk 100
ety 100
▁post 100
▁manag 100
ief 100
▁person 100
used 100
▁incre 100
amb 100
▁just 100
▁short 100
reet 100
▁14 100
▁still 100
vious 100
ization 100
▁those 100
▁dem 100
ves 100
▁like 100
▁French 100
▁vis 100
laim 100
▁children 100
▁av 100
tal 100
▁William 100
▁El 100
ouncil 100
▁Ab 100
▁leg 100
eder 100
▁Reg 100
ration 100
▁High 100
▁Ex 100
ese 100
▁very 100
▁moved 100
▁stand 100
apan 100
▁13 100
▁lit 100
urg 100
▁ep 100
▁period 100
▁perform 100
▁College 100
▁English 100
inning 100
▁po 100
▁addition 100
▁trad 100
angu 100
work 100
▁million 100
tended 100
▁dra 100
akes 100
▁water 100
▁son 100
ays 100
▁another 100
▁190 100
▁cor 100
▁career 100
▁if 100
hip 100
▁led 100
oad 100
▁Part 100
▁appear 100
ining 100
par 100
▁District 100
ified 100
ning 100
▁power 100
▁Park 100
▁crit 100
▁iss 100
ocial 100
▁announ 100
ize 100
▁resp 100
alf 100
▁Bl 100
▁often 100
idd 100
▁exper 100
ondon 100
▁best 100
▁educ 100
ering 100
▁Char 100
side 100
▁men 100
riend 100
▁By 100
▁Air 100
▁original 100
ery 100
▁Rep 100
▁make 100
ata 100
▁River 100
ograph 100
▁level 100
▁X 100
▁Russ 100
▁Japan 100
▁equ 100
▁hand 100
ards 100
") 100
ness 100
ody 100
ford 100
urs 100
lor 100
▁though 100
▁Afric 100
▁Sy 100
▁import 100
▁Pres 100
ald 100
uk 100
▁constru 100
▁side 100
-1 100
▁even 100
▁When 100
▁London 100
▁among 100
ana 100
▁project 100
▁service 100
▁Acc 100
ency 100
▁non 100
attle 100
▁women 100
ison 100
▁country 100
▁father 100
adem 100
▁month 100
▁late 100
uted 100
ino 100
read 100
▁beg 100
▁win 100
▁sold 100
▁port 100
▁hum 100
▁came 100
vers 100
lu 100
ges 100
ched 100
▁Sec 100
▁pat 100
ney 100
▁order 100
▁every 100
▁189 100
▁district 100
▁la 100
▁Championship 100
▁attack 100
▁Dav 100
▁started 100
ilitary 100
▁games 100
ument 100
▁grad 100
▁poss 100
▁previous 100
▁established 100
rick 100
ases 100
▁much 100
ploy 100
osp 100
▁went 100
ugg 100
conom 100
▁role 100
ummer 100
▁Comp 100
▁turn 100
▁what 100
▁business 100
▁el 100
▁title 100
▁Cor 100
▁ship 100
na 100
▁Med 100
ilar 100
▁history 100
ries 100
▁kill 100
ington 100
▁award 100
▁Ital 100
▁invol 100
▁Ne 100
▁character 100
▁contain 100
▁es 100
▁aff 100
▁House 100
ele 100
ridge 100
▁track 100
ones 100
▁fore 100
▁field 100
ote 100
ourn 100
▁Cup 100
aul 100
▁Ang 100
▁announced 100
▁common 100
▁repla 100
ler 100
▁effect 100
yle 100
ray 100
levision 100
▁techn 100
sc 100
▁rad 100
empt 100
▁val 100
▁origin 100
ruct 100
ociation 100
▁sk 100
▁young 100
▁author 100
▁week 100
ara 100
de 100
▁sol 100
▁fact 100
▁become 100
ert 100
▁init 100
urther 100
reg 100
▁One 100
▁chang 100
rote 100
sk 100
▁cr 100
▁total 100
▁various 100
umb 100
▁San 100
▁del 100
hem 100
of 100
▁special 100
anc 100
▁control 100
▁1, 100
rest 100
▁sit 100
osed 100
ense 100
▁given 100
▁These 100
ament 100
▁worked 100
▁rese 100
▁few 100
▁Phil 100
▁appoin 100
▁International 100
▁Br 100
self 100
▁England 100
br 100
▁community 100
▁histor 100
▁cover 100
eneral 100
▁fre 100
▁tw 100
▁joined 100
▁next 100
▁arch 100
▁process 100
▁activ 100
sp 100
▁cult 100
partment 100
ords 100
eth 100
▁, 100
▁students 100
▁having 100
▁stat 100
mit 100
▁married 100
epend 100
▁player 100
▁produced 100
ached 100
hern 100
▁mag 100
▁With 100
▁Res 100
▁defe 100
lin 100
ivid 100
raft 100
▁Sup 100
▁claim 100
posed 100
▁fem 100
▁returned 100
▁development 100
iber 100
▁East 100
▁langu 100
▁using 100
ms 100
▁188 100
▁Indian 100
▁gr 100
▁described 100
avy 100
▁gen 100
▁way 100
ublic 100
oph 100
▁created 100
app 100
▁round 100
▁take 100
▁however 100
omb 100
▁general 100
cast 100
▁Tr 100
▁pain 100
aff 100
▁prote 100
hold 100
ront 100
oon 100
ociety 100
astern 100
isc 100
▁bre 100
ape 100
▁international 100
▁popular 100
▁Church 100
orthern 100
forman 100
▁wrote 100
ead 100
▁great 100
line 100
lands 100
▁La 100
ories 100
field 100
▁We 100
▁25 100
▁beh 100
▁rail 100
▁hig 100
▁ca 100
▁election 100
▁examp 100
aken 100
▁Mich 100
▁sent 100
oyal 100
▁need 100
off 100
ush 100
minist 100
irc 100
▁fun 100
▁written 100
▁prim 100
▁elect 100
▁According 100
ention 100
▁position 100
urb 100
▁tem 100
▁Pe 100
sequ 100
▁political 100
outher 100
ops 100
▁From 100
▁partic 100
▁(2 100
▁host 100
▁Ste 100
▁continued 100
▁100 100
be 100
outhern 100
ivil 100
▁sl 100
▁aver 100
▁production 100
▁times 100
ested 100
▁site 100
▁186 100
▁President 100
ta 100
ole 100
▁epis 100
▁similar 100
▁Australia 100
▁Roman 100
ander 100
ividual 100
▁European 100
▁India 100
▁church 100
ots 100
iron 100
▁Council 100
▁lab 100
ogn 100
▁squ 100
▁match 100
▁particip 100
▁intro 100
▁region 100
ville 100
ests 100
▁No 100
unicip 100
▁Street 100
▁full 100
▁without 100
▁Port 100
▁version 100
▁pract 100
▁direct 100
itor 100
▁Art 100
▁works 100
lect 100
▁Army 100
aliforn 100
less 100
ript 100
▁Per 100
▁official 100
reek 100
▁attempt 100
ountain 100
▁pri 100
▁Ac 100
etwork 100
▁military 100
▁vide 100
▁Gro 100
▁friend 100
▁Sch 100
▁comb 100
ger 100
iment 100
▁Gl 100
▁France 100
▁television 100
formation 100
stitute 100
▁considered 100
▁Party 100
▁Em 100
alifornia 100
ti 100
▁30 100
▁Mal 100
▁road 100
▁brother 100
▁indust 100
▁performan 100
▁Bel 100
▁days 100
arn 100
▁sw 100
▁founded 100
ha 100
arent 100
uel 100
▁lim 100
▁lost 100
▁find 100
▁opened 100
▁En 100
useum 100
▁Hol 100
utes 100
▁story 100
▁broad 100
▁real 100
▁Ag 100
▁187 100
▁Ber 100
▁James 100
▁California 100
▁important 100
▁Thom 100
ellow 100
ances 100
ico 100
▁engine 100
▁half 100
▁recorded 100
gether 100
▁together 100
▁ident 100
atter 100
▁proper 100
rem 100
▁individual 100
▁Pl 100
▁Nor 100
▁Division 100
▁disp 100
ama 100
▁debut 100
▁George 100
▁appeared 100
hib 100
▁Des 100
ination 100
▁General 100
▁Rober 100
▁further 100
▁bas 100
▁vol 100
ports 100
ying 100
now 100
ream 100
▁Cour 100
▁2010 100
int 100
van 100
oor 100
▁view 100
▁daugh 100
▁research 100
itte 100
lex 100
▁influ 100
▁ter 100
▁social 100
ably 100
▁party 100
key 100
▁Que 100
▁ke 100
▁mult 100
▁Sm 100
ights 100
▁Val 100
▁professional 100
▁promot 100
bs 100
▁America 100
▁east 100
press 100
▁point 100
▁deg 100
▁econom 100
olution 100
lear 100
ising 100
ological 100
year 100
▁invest 100
ius 100
▁priv 100
▁signed 100
▁particular 100
▁hold 100
▁Canada 100
▁elected 100
ping 100
era 100
▁formed 100
▁appointed 100
pecial 100
▁president 100
▁gradu 100
▁Act 100
imately 100
▁offer 100
▁Bra 100
uit 100
▁formula 100
▁less 100
▁“ 100
lymp 100
▁areas 100
▁dest 100
▁grow 100
ope 100
▁wife 100
▁fund 100
▁working 100
▁Mor 100
▁tradition 100
▁While 100
▁ren 100
ither 100
aign 100
▁mid 100
▁Rec 100
ls 100
▁west 100
," 100
▁struct 100
rap 100
▁Rich 100
▁developed 100
▁Pal 100
dom 100
ishing 100
▁average 100
▁meet 100
oe 100
ership 100
▁Olymp 100
▁making 100
▁Association 100
▁good 100
▁You 100
▁Ant 100
▁read 100
▁cer 100
▁mer 100
iles 100
ference 100
▁low 100
▁example 100
ills 100
▁avail 100
▁reported 100
ensus 100
▁release 100
BC 100
▁hous 100
anish 100
nect 100
aper 100
▁nov 100
alt 100
▁teams 100
ex 100
idence 100
▁star 100
ours 100
▁arr 100
▁Union 100
wh 100
▁vict 100
▁exist 100
▁himself 100
▁should 100
▁Lou 100
view 100
▁review 100
most 100
ells 100
ained 100
ences 100
▁does 100
▁others 100
▁div 100
▁fail 100
▁employ 100
▁Dr 100
▁gl 100
▁ten 100
▁Royal 100
▁cond 100
▁get 100
▁Tra 100
▁typ 100
iol 100
iddle 100
▁ground 100
▁Ap 100
▁office 100
plic 100
ael 100
▁living 100
▁never 100
▁race 100
▁case 100
▁director 100
▁points 100
▁rock 100
ways 100
▁produc 100
▁conc 100
▁although 100
▁Qu 100
ule 100
▁2011 100
▁signific 100
▁successful 100
▁playing 100
▁mater 100
ij 100
rie 100
▁coach 100
nder 100
iding 100
▁Germany 100
▁David 100
uf 100
▁belie 100
▁across 100
ma 100
ournal 100
olic 100
▁Paul 100
▁Award 100
▁hon 100
pite 100
▁Hall 100
▁rank 100
atch 100
▁video 100
▁Dem 100
cing 100
▁services 100
ks 100
▁Australian 100
▁modern 100
▁strong 100
itive 100
▁Road 100
▁contrib 100
▁body 100
▁independ 100
▁recogn 100
ee 100
▁live 100
▁21 100
itect 100
anted 100
shire 100
▁Hen 100
ittee 100
estival 100
craft 100
▁laun 100
ont 100
▁mother 100
▁Ear 100
▁hy 100
▁24 100
▁events 100
▁Some 100
▁mot 100
ya 100
oll 100
St 100
▁available 100
wood 100
▁somet 100
▁tro 100
▁human 100
ocr 100
liam 100
iting 100
rated 100
▁Sen 100
▁separ 100
▁education 100
▁ide 100
go 100
ensive 100
▁how 100
▁Kh 100
ceed 100
ari 100
▁administ 100
▁Red 100
▁cost 100
val 100
▁foc 100
liament 100
▁cast 100
▁my 100
▁language 100
▁suff 100
▁Company 100
▁free 100
▁2006 100
▁gave 100
▁Mary 100
▁followed 100
ming 100
▁black 100
▁ord 100
▁light 100
oney 100
▁months 100
▁[ 100
▁away 100
▁finished 100
ipp 100
▁campaign 100
▁Hist 100
▁vot 100
▁Che 100
▁performed 100
igned 100
men 100
▁taken 100
▁fire 100
▁2012 100
ought 100
aut 100
▁mar 100
▁daughter 100
▁base 100
▁Court 100
▁assist 100
ators 100
istic 100
▁becom 100
utive 100
west 100
▁cross 100
▁league 100
▁rul 100
ili 100
▁Pri 100
▁dev 100
eh 100
▁style 100
▁185 100
▁dep 100
▁tour 100
band 100
ification 100
chie 100
ened 100
▁2008 100
▁songs 100
▁Pat 100
▁Central 100
▁household 100
▁remained 100
▁once 100
ibr 100
icle 100
hers 100
▁municip 100
▁completed 100
▁designed 100
▁China 100
▁regular 100
▁currently 100
odes 100
▁Mex 100
▁let 100
▁Stud 100
▁help 100
., 100
▁Mac 100
▁Off 100
▁market 100
▁construction 100
▁put 100
▁impro 100
ederal 100
▁Mart 100
▁Island 100
▁Although 100
▁includes 100
▁product 100
CA 100
▁features 100
ential 100
▁() 100
alls 100
▁Rail 100
ademy 100
▁agre 100
aur 100
ique 100
▁must 100
▁largest 100
ilies 100
▁Town 100
ashington 100
rag 100
▁throughout 100
ston 100
anding 100
burg 100
▁acqu 100
▁contract 100
▁sour 100
▁2014 100
▁expl 100
▁enc 100
▁2009 100
▁material 100
▁Club 100
ateg 100
cis 100
▁players 100
▁originally 100
▁Department 100
elling 100
▁featured 100
▁Sam 100
ett 100
▁Since 100
ude 100
▁To 100
▁significant 100
▁Thomas 100
▁Vir 100
itz 100
▁associ 100
▁doc 100
gin 100
atural 100
▁Black 100
▁circ 100
▁UK 100
▁press 100
▁Ser 100
▁Jack 100
ago 100
▁Je 100
▁seen 100
azine 100
▁Group 100
▁Center 100
▁phys 100
roy 100
time 100
▁First 100
rian 100
ospital 100
▁seven 100
rain 100
▁red 100
▁Robert 100
▁2013 100
acy 100
▁proble 100
▁ste 100
▁leading 100
201 100
▁sugg 100
▁consist 100
▁eight 100
▁dam 100
▁plan 100
▁Mag 100
▁schools 100
leg 100
▁study 100
▁front 100
iers 100
▁eventually 100
▁Bay 100
ores 100
fic 100
▁directed 100
▁earl 100
▁Washington 100
▁forces 100
▁entire 100
here 100
viron 100
▁training 100
▁access 100
▁tre 100
inese 100
hest 100
▁sele 100
▁involved 100
▁22 100
▁Institute 100
▁condu 100
▁bank 100
aint 100
▁Charles 100
atory 100
ilities 100
▁sound 100
▁Its 100
▁goal 100
▁groups 100
▁awarded 100
▁Prov 100
.. 100
erous 100
▁Gr 100
▁able 100
rab 100
▁flow 100
▁Cap 100
▁episode 100
▁2007 100
ability 100
arian 100
berg 100
aged 100
▁Law 100
▁board 100
▁network 100
▁bo 100
▁relig 100
▁2015 100
▁Cong 100
▁radio 100
aker 100
▁Alex 100
▁inj 100
▁Cath 100
asons 100
▁phot 100
▁Western 100
▁subsequ 100
50 100
▁added 100
▁performance 100
▁liter 100
ala 100
asing 100
bert 100
▁Jew 100
▁cou 100
ware 100
▁anim 100
▁information 100
▁stage 100
ani 100
▁2016 100
▁relation 100
▁Mad 100
▁know 100
ades 100
arter 100
overnor 100
▁Tur 100
ength 100
▁Angel 100
ym 100
▁respons 100
▁But 100
▁countries 100
▁test 100
▁wid 100
▁km 100
Ch 100
▁Fl 100
▁Society 100
isl 100
–19 100
omm 100
▁Christian 100
▁exec 100
▁private 100
aries 100
▁Sim 100
▁health 100
▁(18 100
▁replaced 100
▁Other 100
▁provided 100
mercial 100
▁white 100
tt 100
▁z 100
▁23 100
▁either 100
ida 100
▁past 100
ements 100
▁court 100
▁close 100
▁Music 100
back 100
ply 100
▁park 100
▁novel 100
icated 100
▁Canadian 100
▁stated 100
▁tourn 100
▁reb 100
ev 100
hel 100
▁range 100
ranch 100
▁architect 100
incip 100
cle 100
-2 100
▁transfer 100
▁meth 100
airs 100
ned 100
▁surv 100
▁usually 100
oms 100
▁2, 100
▁see 100
atives 100
▁model 100
▁saw 100
rey 100
▁prot 100
▁capt 100
▁killed 100
▁Sing 100
rought 100
▁Minister 100
▁fight 100
iction 100
▁cand 100
▁states 100
▁African 100
▁Commun 100
sel 100
▁Louis 100
▁TV 100
▁Academy 100
▁central 100
▁approx 100
▁Sal 100
sy 100
▁command 100
head 100
▁above 100
▁Serv 100
▁competition 100
▁mus 100
▁stri 100
▁Japanese 100
▁pur 100
▁colla 100
▁Chinese 100
oice 100
utions 100
▁situ 100
▁Miss 100
▁Ir 100
▁aud 100
▁Grand 100
▁Scott 100
▁Lat 100
▁wind 100
▁reached 100
▁subject 100
▁fav 100
▁bar 100
▁college 100
udd 100
▁achie 100
▁degree 100
▁Met 100
▁hit 100
▁Mark 100
▁respect 100
▁Ze 100
▁184 100
aching 100
▁upon 100
▁Russian 100
atre 100
▁Great 100
▁discover 100
▁civil 100
▁fourth 100
▁White 100
▁anal 100
▁dou 100
▁polic 100
medi 100
▁Italian 100
hood 100
▁sem 100
right 100
emor 100
▁least 100
ids 100
▁Rad 100
sec 100
▁Don 100
▁clos 100
▁accept 100
▁decided 100
▁occur 100
▁shows 100
bour 100
▁loss 100
▁Sk 100
▁space 100
board 100
▁interest 100
▁Tex 100
vironment 100
▁cop 100
▁capital 100
▁Vict 100
▁50 100
▁police 100
arily 100
▁ill 100
▁bi 100
▁express 100
▁Lake 100
ems 100
▁travel 100
▁change 100
ving 100
▁1990 100
▁compos 100
▁Up 100
▁placed 100
iff 100
▁constit 100
▁Michael 100
ishop 100
▁night 100
▁treat 100
▁critic 100
▁1980 100
▁scored 100
▁look 100
▁Green 100
▁introduced 100
▁Spanish 100
▁mean 100
▁provide 100
annel 100
▁arg 100
▁size 100
lo 100
-19 100
itch 100
▁Africa 100
30 100
▁Dan 100
▁1. 100
aled 100
imate 100
idae 100
▁sen 100
▁Gold 100
▁attended 100
ka 100
▁Del 100
za 100
▁families 100
▁Ham 100
uture 100
▁center 100
aval 100
▁aircraft 100
▁pot 100
▁effort 100
ician 100
uses 100
▁Mer 100
serv 100
▁viol 100
▁fif 100
▁say 100
▁Henry 100
▁connect 100
▁Jose 100
▁2. 100
▁fig 100
▁26 100
iation 100
rd 100
mar 100
▁rights 100
▁rather 100
▁meas 100
▁Virgin 100
▁lo 100
face 100
▁far 100
stant 100
apt 100
istry 100
▁28 100
▁river 100
▁candid 100
vert 100
▁2017 100
▁miss 100
▁plant 100
reland 100
rup 100
▁Penn 100
▁Cons 100
ography 100
▁Francis 100
▁Democr 100
▁ser 100
▁stre 100
▁distrib 100
▁Film 100
▁pay 100
▁brought 100
▁films 100
▁broadcast 100
▁female 100
▁der 100
▁farm 100
och 100
gen 100
▁imp 100
▁2000 100
▁27 100
▁prem 100
▁commercial 100
road 100
urity 100
▁Frank 100
aves 100
▁method 100
▁gun 100
aland 100
"), 100
▁instead 100
▁Op 100
▁Wil 100
▁parts 100
▁purch 100
▁studio 100
▁Pet 100
pecially 100
▁census 100
▁hom 100
▁almost 100
ena 100
▁occup 100
▁whose 100
▁mix 100
unk 100
▁Tom 100
▁compan 100
0,000 100
▁behind 100
▁books 100
▁listed 100
order 100
▁reve 100
▁Peter 100
icles 100
ria 100
▁northern 100
ona 100
▁parent 100
▁sil 100
▁Dire 100
▁Follow 100
oul 100
▁Richard 100
iqu 100
lav 100
▁cy 100
▁deal 100
▁Tor 100
▁possible 100
rael 100
▁pred 100
▁hard 100
olf 100
▁Museum 100
▁via 100
ume 100
▁section 100
▁Pla 100
▁Hill 100
▁approximately 100
▁account 100
▁neigh 100
▁Paris 100
▁2018 100
▁active 100
▁southern 100
▁Mus 100
▁frequ 100
ufact 100
▁0. 100
▁force 100
▁trib 100
mon 100
▁Republic 100
▁Catholic 100
▁sex 100
▁buildings 100
▁Kingdom 100
▁2010, 100
embly 100
rown 100
▁mass 100
▁Football 100
ump 100
▁gold 100
▁Following 100
▁division 100
▁jud 100
▁winning 100
▁exhib 100
asket 100
▁changed 100
▁relationship 100
▁previously 100
▁units 100
▁Texas 100
▁championship 100
▁neg 100
▁Smith 100
▁1970 100
lam 100
lim 100
▁Victor 100
▁defeated 100
▁plann 100
tained 100
▁data 100
uter 100
▁Lab 100
▁outside 100
▁Commission 100
▁Not 100
▁My 100
▁tax 100
▁Ter 100
▁tournament 100
oring 100
▁opt 100
pan 100
▁lik 100
▁soon 100
▁railway 100
▁bur 100
idents 100
▁cut 100
▁Arch 100
hi 100
asc 100
▁fall 100
▁Bu 100
▁chart 100
edy 100
▁runs 100
▁regard 100
▁Kore 100
,000 100
▁type 100
▁Im 100
▁Sov 100
▁Mont 100
▁represented 100
▁Sant 100
▁itself 100
▁organization 100
olk 100
▁Most 100
▁industry 100
▁action 100
▁coast 100
▁draw 100
ground 100
▁island 100
like 100
▁allowed 100
▁Lu 100
▁media 100
▁writing 100
▁Ma 100
▁sym 100
elt 100
▁ended 100
alled 100
▁2011, 100
irth 100
▁Two 100
▁Cal 100
▁nomin 100
▁movement 100
ini 100
oint 100
ibrary 100
▁ever 100
▁2012, 100
ites 100
rig 100
erve 100
inent 100
unn 100
str 100
oper 100
▁beginning 100
based 100
▁object 100
▁Second 100
kn 100
▁Mel 100
▁owned 100
ror 100
▁plays 100
▁ran 100
▁sch 100
ancial 100
▁pers 100
rel 100
▁ask 100
▁esc 100
–2 100
rial 100
▁length 100
▁lower 100
▁Wal 100
elled 100
retary 100
▁taking 100
▁Swed 100
irm 100
▁summer 100
▁2005 100
▁Carol 100
▁spent 100
▁Bur 100
▁2014, 100
gr 100
oz 100
clus 100
▁Camp 100
▁determ 100
▁little 100
▁Ben 100
▁Trans 100
▁2013, 100
▁Cont 100
▁grand 100
abit 100
▁Committee 100
▁qualif 100
▁Best 100
▁document 100
▁primary 100
enced 100
▁too 100
▁Inter 100
duction 100
▁artist 100
▁especially 100
▁Israel 100
uty 100
▁Government 100
▁Los 100
▁investig 100
–0 100
ota 100
▁2015, 100
▁40 100
▁anc 100
▁princip 100
▁whom 100
ires 100
▁king 100
▁Year 100
▁imm 100
▁stop 100
▁journal 100
iety 100
▁Ireland 100
heast 100
▁Day 100
iences 100
▁according 100
▁wood 100
▁systems 100
ension 100
▁towards 100
▁Rock 100
ita 100
ows 100
▁natural 100
istan 100
porary 100
▁function 100
▁Rev 100
▁required 100
icago 100
thlet 100
▁cred 100
▁higher 100
▁structure 100
▁below 100
▁gir 100
▁"" 100
▁Zealand 100
▁oppos 100
SA 100
▁traditional 100
▁Fin 100
▁block 100
ounter 100
▁Just 100
▁Fore 100
▁noted 100
ios 100
▁sus 100
▁transl 100
... 100
rative 100
ye 100
10 100
▁2004 100
▁highest 100
▁Cast 100
unt 100
▁defend 100
▁Records 100
ready 100
▁army 100
▁food 100
▁Festival 100
▁break 100
rack 100
▁generally 100
▁except 100
▁complex 100
▁Many 100
▁God 100
hing 100
orpor 100
▁observ 100
fit 100
aps 100
pected 100
lant 100
▁1960 100
▁2016, 100
▁Flor 100
atal 100
▁Saint 100
▁instit 100
▁money 100
▁concern 100
▁independent 100
▁manufact 100
ises 100
▁leader 100
▁studies 100
adium 100
▁cele 100
umn 100
▁prison 100
ada 100
▁enter 100
▁means 100
▁Sir 100
▁multip 100
ola 100
▁Soviet 100
▁remov 100
▁quest 100
▁Congress 100
▁operations 100
▁plat 100
▁come 100
ano 100
▁closed 100
▁future 100
▁2009, 100
▁Board 100
▁conv 100
▁Super 100
▁route 100
▁standard 100
▁key 100
▁magazine 100
▁county 100
▁battle 100
▁property 100
▁collection 100
va 100
▁self 100
asion 100
▁teac 100
▁destroy 100
▁ge 100
▁29 100
asketball 100
▁thus 100
oys 100
ocal 100
▁sometimes 100
NA 100
ergy 100
▁Women 100
▁2017, 100
wer 100
cher 100
▁sett 100
itar 100
▁studied 100
▁earlier 100
▁Rob 100
"). 100
chan 100
ibility 100
▁personal 100
▁lived 100
ylvan 100
▁student 100
▁surround 100
▁Kar 100
inner 100
not 100
▁Educ 100
▁Arts 100
ils 100
▁Histor 100
▁Brown 100
▁launched 100
▁certain 100
▁numerous 100
▁contains 100
oo 100
▁Pac 100
▁Play 100
aring 100
aught 100
▁entered 100
▁anti 100
ficult 100
▁opening 100
sych 100
▁adop 100
▁don 100
▁183 100
▁nar 100
▁companies 100
olar 100
oid 100
▁commission 100
venue 100
▁Greek 100
▁settle 100
▁Olympics 100
▁Force 100
▁older 100
▁sat 100
iter 100
▁dram 100
usband 100
▁Angeles 100
▁Navy 100
▁income 100
▁newsp 100
▁related 100
overs 100
▁Du 100
▁applic 100
▁practice 100
▁ball 100
▁2019 100
TV 100
plied 100
▁territ 100
▁2008, 100
oke 100
▁cal 100
utch 100
▁Mil 100
▁difficult 100
enc 100
known 100
▁Italy 100
▁Parliament 100
▁increased 100
oma 100
▁Mr 100
▁lack 100
▁already 100
mark 100
▁Summer 100
▁course 100
▁Chicago 100
5% 100
vey 100
▁location 100
▁issues 100
▁running 100
▁Gra 100
▁Mexico 100
▁Found 100
▁(200 100
▁Scot 100
well 100
▁staff 100
ura 100
▁super 100
ands 100
ylvania 100
▁percent 100
▁appearance 100
▁Virginia 100
▁move 100
2) 100
▁2018, 100
▁prior 100
▁date 100
▁Championships 100
▁clear 100
uth 100
▁Georg 100
3) 100
▁Bank 100
▁pie 100
arriage 100
▁big 100
▁western 100
▁den 100
rying 100
ban 100
teen 100
lag 100
itiz 100
▁senior 100
▁woman 100
▁score 100
het 100
action 100
▁keep 100
▁better 100
▁hor 100
▁wide 100
▁Later 100
anded 100
▁Bo 100
writ 100
uz 100
ether 100
▁becoming 100
▁environment 100
ado 100
▁matches 100
▁Under 100
▁victory 100
▁majority 100
▁annual 100
▁mountain 100
▁terms 100
▁mur 100
▁selected 100
igan 100
▁characters 100
▁link 100
▁associated 100
▁seat 100
▁31 100
ams 100
▁goals 100
▁scient 100
▁che 100
▁famous 100
▁thought 100
▁emer 100
▁Fort 100
▁husband 100
▁prob 100
▁minor 100
den 100
inct 100
▁additional 100
▁Mass 100
ulated 100
▁Kn 100
▁unit 100
▁artists 100
uments 100
reme 100
▁singer 100
▁caused 100
▁Squ 100
▁musical 100
▁Bet 100
eds 100
▁Cur 100
▁emb 100
▁feature 100
iled 100
▁mission 100
ste 100
▁manager 100
▁decision 100
▁Old 100
▁cust 100
▁Joseph 100
mitted 100
▁3, 100
FL 100
▁retired 100
1) 100
▁centre 100
yr 100
▁writer 100
▁sea 100
▁decl 100
▁transport 100
▁competed 100
▁Liber 100
▁2007, 100
zil 100
▁programs 100
▁immedi 100
ricult 100
▁gra 100
▁Emp 100
inary 100
▁attend 100
▁genus 100
▁drop 100
▁love 100
▁exc 100
lying 100
▁abs 100
▁equip 100
▁forced 100
▁concept 100
airman 100
ault 100
▁Penns 100
▁dig 100
▁activities 100
▁initially 100
▁bene 100
▁complete 100
▁veh 100
▁trade 100
▁Leg 100
izing 100
▁passed 100
ingu 100
▁Wales 100
▁create 100
▁Northern 100
▁limited 100
▁operated 100
▁interview 100
▁Er 100
▁financial 100
5) 100
▁municipality 100
▁di 100
eg 100
▁dom 100
▁remains 100
cript 100
▁economic 100
▁squad 100
onn 100
▁threat 100
In 100
▁Mur 100
enth 100
▁Battle 100
▁mostly 100
▁Games 100
▁Mill 100
▁supported 100
etic 100
▁legal 100
▁give 100
▁Pennsylvania 100
hy 100
▁Wood 100
▁Russia 100
▁If 100
▁Valley 100
bers 100
▁er 100
plement 100
▁changes 100
4) 100
bur 100
wide 100
▁Province 100
ift 100
▁going 100
ux 100
▁particularly 100
down 100
▁Pan 100
Amer 100
▁collabor 100
ockey 100
▁quick 100
anced 100
▁forest 100
▁ens 100
▁science 100
▁Sl 100
▁et 100
▁job 100
▁Mos 100
▁serving 100
0% 100
▁Florida 100
▁pen 100
▁hours 100
▁Oper 100
▁accom 100
▁shown 100
▁religious 100
▁Gar 100
▁Bill 100
▁quarter 100
▁indic 100
▁Irish 100
▁train 100
change 100
▁saf 100
▁chief 100
▁evidence 100
▁claimed 100
▁hot 100
earch 100
▁Go 100
▁edition 100
vention 100
standing 100
▁Their 100
▁fle 100
isions 100
▁shot 100
▁Den 100
▁amount 100
▁Atlant 100
▁nine 100
▁lines 100
▁discuss 100
▁establish 100
▁names 100
▁sum 100
▁larger 100
▁subsequently 100
ublican 100
▁Iran 100
▁cases 100
▁got 100
unior 100
▁issue 100
▁text 100
ky 100
▁Fer 100
▁ded 100
▁news 100
▁management 100
▁Techn 100
rief 100
▁Hot 100
▁Win 100
stra 100
▁university 100
▁results 100
▁Pre 100
▁consider 100
▁editor 100
6) 100
▁CD 100
▁officer 100
FA 100
cel 100
▁longer 100
▁culture 100
▁increase 100
▁raised 100
▁Sur 100
ua 100
inals 100
▁weeks 100
▁Education 100
▁helped 100
▁Brazil 100
▁stay 100
▁referred 100
8) 100
selves 100
▁medical 100
▁themselves 100
▁Columb 100
▁earned 100
7) 100
▁believed 100
▁takes 100
▁word 100
ider 100
▁Ke 100
▁today 100
▁failed 100
house 100
ternal 100
▁leaving 100
▁meeting 100
▁rate 100
gn 100
▁minutes 100
▁presented 100
▁Ha 100
▁happ 100
see 100
▁sports 100
using 100
ero 100
ras 100
▁rap 100
▁birth 100
▁Ros 100
▁federal 100
▁Aut 100
azz 100
▁offered 100
▁Public 100
cement 100
▁instr 100
bon 100
itt 100
▁composed 100
▁Martin 100
▁bound 100
spe 100
▁2019, 100
▁Chief 100
▁guitar 100
▁complet 100
▁arm 100
▁prop 100
▁Profess 100
Th 100
▁Sa 100
▁arrest 100
raw 100
▁Southern 100
▁2003 100
▁medal 100
▁norm 100
▁Fred 100
▁screen 100
60 100
▁parents 100
▁Despite 100
▁Ann 100
▁lay 100
▁That 100
▁variety 100
▁Pacific 100
▁Arab 100
▁concer 100
gl 100
ees 100
roll 100
anda 100
▁Class 100
▁uses 100
▁altern 100
atively 100
onse 100
imb 100
▁consists 100
▁soft 100
▁# 100
▁individuals 100
▁step 100
▁Spe 100
BA 100
▁carried 100
isation 100
▁eastern 100
iring 100
▁specific 100
ients 100
▁Awards 100
▁chall 100
▁seasons 100
▁Lord 100
▁energy 100
iance 100
▁Spain 100
▁vir 100
▁forms 100
aches 100
▁status 100
▁ant 100
▁foreign 100
▁inte 100
▁provides 100
▁inn 100
ulf 100
▁du 100
▁Do 100
▁Mic 100
▁insp 100
▁policy 100
▁box 100
▁Sar 100
ato 100
uan 100
rim 100
▁belong 100
▁middle 100
▁2006, 100
▁mention 100
▁remaining 100
▁Mountain 100
▁phil 100
▁room 100
▁arran 100
▁Service 100
▁Assembly 100
ss 100
▁sister 100
▁Sun 100
▁visit 100
▁Cla 100
▁regional 100
▁mach 100
ette 100
▁overall 100
ging 100
▁legisl 100
bury 100
ati 100
▁Jim 100
▁stations 100
ties 100
▁Work 100
▁sequ 100
itan 100
▁troops 100
imum 100
▁List 100
▁label 100
ication 100
▁separate 100
bre 100
uge 100
mond 100
▁platform 100
▁2002 100
▁always 100
▁< 100
▁surface 100
▁Mo 100
▁colon 100
obal 100
rast 100
▁4, 100
▁Sil 100
enty 100
▁latter 100
▁mainly 100
reater 100
▁acquired 100
▁Haw 100
ols 100
▁detail 100
▁3. 100
▁poet 100
urban 100
arters 100
isk 100
ón 100
▁estim 100
80 100
▁theory 100
▁square 100
▁McC 100
ić 100
▁Ol 100
▁Mod 100
▁graduated 100
▁batt 100
▁council 100
▁Both 100
▁proposed 100
▁Sub 100
▁Oh 100
▁turned 100
inet 100
▁fort 100
▁done 100
▁Science 100
▁Jewish 100
ario 100
▁finally 100
▁movie 100
▁recording 100
▁meaning 100
pre 100
▁starting 100
▁appears 100
▁experience 100
▁recent 100
▁Poland 100
▁Pak 100
▁Railway 100
iy 100
▁require 100
▁1950 100
▁eas 100
▁bring 100
ady 100
▁2001 100
▁Times 100
▁Britain 100
▁continu 100
▁demon 100
▁targ 100
▁Out 100
▁Cam 100
▁More 100
▁lic 100
▁houses 100
▁prevent 100
▁Rou 100
▁Edward 100
9) 100
▁Bus 100
▁adj 100
▁Director 100
aters 100
American 100
▁Over 100
▁bomb 100
▁society 100
▁Republican 100
▁might 100
▁native 100
▁multiple 100
▁Vol 100
▁poor 100
uman 100
▁Tour 100
itation 100
ih 100
▁Ro 100
▁male 100
▁source 100
iro 100
aily 100
▁heavy 100
irit 100
▁succeed 100
▁temper 100
ga 100
▁depart 100
▁Inc 100
ffic 100
▁promoted 100
▁department 100
gian 100
▁pil 100
▁brief 100
▁nearly 100
40 100
▁Queen 100
▁Democratic 100
▁Governor 100
ipl 100
▁influence 100
▁tracks 100
▁problems 100
▁vote 100
▁hospital 100
▁Dou 100
▁Jer 100
▁Ill 100
▁bridge 100
ken 100
▁Ele 100
▁Ev 100
▁citiz 100
▁learn 100
ously 100
▁marriage 100
▁technology 100
▁chap 100
▁Research 100
iana 100
▁Lee 100
pose 100
▁academ 100
▁peak 100
▁crew 100
▁Big 100
▁Empire 100
▁Mah 100
▁Mat 100
▁responsible 100
▁Carl 100
▁enough 100
▁Fre 100
▁log 100
▁celebr 100
▁depend 100
▁Conference 100
ache 100
itude 100
▁professor 100
▁categ 100
▁(201 100
▁$1 100
▁webs 100
▁arrived 100
arden 100
oir 100
▁Star 100
▁nearby 100
lah 100
▁Dutch 100
▁organiz 100
▁Gal 100
▁Radio 100
▁makes 100
▁mem 100
▁charg 100
▁Bow 100
ares 100
play 100
▁ships 100
▁Carolina 100
▁eth 100
lit 100
▁Spr 100
▁historical 100
emporary 100
▁constructed 100
▁182 100
▁conditions 100
▁Men 100
▁serve 100
▁despite 100
▁(199 100
▁partn 100
▁politician 100
▁operation 100
▁ver 100
▁increasing 100
▁managed 100
▁= 100
ession 100
▁response 100
ensity 100
▁Cro 100
▁asked 100
▁expla 100
▁Long 100
▁Jud 100
uries 100
II 100
▁los 100
▁elections 100
▁Def 100
▁Another 100
▁cell 100
3% 100
▁Prog 100
▁Creek 100
wan 100
▁Eastern 100
▁Hel 100
▁cities 100
mission 100
▁Book 100
col 100
ny 100
▁0 100
▁£ 100
▁producer 100
▁Main 100
▁Rh 100
▁Line 100
▁affect 100
esh 100
▁necess 100
▁plans 100
▁told 100
▁fifth 100
▁shoot 100
vement 100
▁records 100
▁discovered 100
▁issued 100
ify 100
▁Land 100
▁products 100
▁diss 100
▁capac 100
wa 100
▁incorpor 100
antry 100
ugby 100
oura 100
undred 100
iger 100
inated 100
▁households 100
ki 100
ysis 100
ao 100
▁fellow 100
▁leave 100
▁saying 100
▁Latin 100
▁pick 100
war 100
▁directly 100
▁cause 100
▁Cle 100
▁face 100
▁cultural 100
▁sched 100
▁levels 100
ledge 100
▁extended 100
▁mechan 100
put 100
▁whole 100
▁Social 100
nding 100
▁III 100
▁dise 100
▁elements 100
unction 100
▁decla 100
▁primarily 100
▁transferred 100
▁passeng 100
▁How 100
▁har 100
peror 100
add 100
oston 100
▁Jo 100
bit 100
ali 100
▁nature 100
▁Bas 100
▁wanted 100
umed 100
bl 100
emorial 100
2% 100
▁comment 100
▁Tw 100
▁i 100
▁basketball 100
▁sn 100
▁females 100
▁covered 100
▁Young 100
▁appearances 100
▁181 100
▁Arg 100
light 100
▁domin 100
▁residents 100
▁oil 100
▁border 100
poration 100
▁lives 100
RA 100
▁here 100
▁likely 100
▁psych 100
▁Middle 100
▁our 100
▁65 100
▁firm 100
▁prin 100
▁Are 100
▁Tri 100
▁think 100
1% 100
4% 100
▁progress 100
▁Bob 100
iant 100
▁Scotland 100
omer 100
▁BC 100
▁Bh 100
ental 100
▁Theatre 100
▁lies 100
▁pra 100
ersey 100
ittle 100
▁180 100
fect 100
▁participated 100
yan 100
▁brand 100
▁5, 100
itted 100
▁honor 100
▁Jul 100
▁corn 100
▁whether 100
▁Station 100
rice 100
illed 100
ca 100
8% 100
▁kind 100
ansas 100
▁numbers 100
▁Bre 100
▁Luc 100
▁youth 100
7% 100
▁idea 100
▁median 100
▁walk 100
igr 100
▁Av 100
▁Also 100
▁Portug 100
▁museum 100
6% 100
▁friends 100
▁newspaper 100
osh 100
▁paper 100
kins 100
▁sla 100
▁spread 100
▁br 100
▁pow 100
gypt 100
rupt 100
awa 100
▁univers 100
▁ess 100
ias 100
portun 100
▁province 100
▁display 100
▁value 100
ador 100
▁Civil 100
▁Jones 100
▁Foundation 100
▁speed 100
▁Kent 100
▁neighbor 100
▁double 100
▁grew 100
▁Coast 100
rich 100
70 100
resp 100
▁Ram 100
▁master 100
class 100
▁Williams 100
▁premi 100
▁Francisco 100
uten 100
ervation 100
▁Inf 100
je 100
▁address 100
▁ult 100
▁Prince 100
ims 100
▁notable 100
▁share 100
▁initial 100
▁inh 100
▁Hy 100
▁heart 100
▁reason 100
▁actor 100
▁chem 100
▁2010. 100
▁Bul 100
▁People 100
▁produce 100
▁officially 100
▁continue 100
▁Broad 100
Ar 100
iano 100
▁highly 100
▁Asian 100
istics 100
▁Bor 100
▁foot 100
▁administrative 100
velopment 100
▁parish 100
▁Major 100
AS 100
▁So 100
burgh 100
gar 100
amily 100
▁quickly 100
more 100
enes 100
▁Sund 100
onic 100
ications 100
▁Tro 100
ech 100
cean 100
▁candidate 100
cont 100
BS 100
▁prominent 100
▁deep 100
▁2005, 100
▁Dar 100
▁projects 100
▁headqu 100
▁Ty 100
aya 100
▁Centre 100
▁conver 100
▁dark 100
▁revealed 100
▁Boston 100
▁renamed 100
▁drug 100
ulations 100
▁Prem 100
▁— 100
▁Michigan 100
isher 100
▁Series 100
▁divided 100
▁Matt 100
▁follows 100
▁Sat 100
▁races 100
aped 100
AC 100
ully 100
rison 100
▁Order 100
nes 100
▁Mot 100
abeth 100
tainment 100
▁FC 100
▁Team 100
▁smaller 100
▁maintain 100
▁Ohio 100
▁Secretary 100
▁autom 100
▁1999 100
▁scene 100
▁ancient 100
▁basis 100
ips 100
▁talk 100
▁Open 100
▁dead 100
▁Philipp 100
▁Egypt 100
▁path 100
▁conducted 100
▁Hung 100
▁Jac 100
▁intended 100
▁nation 100
akers 100
adel 100
▁growth 100
▁rural 100
osoph 100
▁stories 100
nds 100
▁officers 100
▁Stan 100
▁confl 100
▁soldiers 100
mir 100
▁Johnson 100
▁alongside 100
phy 100
▁ordered 100
▁words 100
▁Islam 100
▁Health 100
itled 100
▁Os 100
ables 100
▁Charl 100
▁Ver 100
▁179 100
▁yet 100
9% 100
▁removed 100
▁extra 100
▁7, 100
▁channel 100
ocated 100
▁Ly 100
▁rule 100
Le 100
▁stars 100
▁opportun 100
▁Hon 100
▁Bal 100
▁collect 100
ellig 100
▁sal 100
lace 100
no 100
▁Sand 100
iated 100
▁Tod 100
▁Earth 100
▁Senate 100
▁BBC 100
▁News 100
▁pan 100
icted 100
▁positive 100
▁Asia 100
▁letter 100
ko 100
bed 100
▁purs 100
dney 100
▁Ur 100
▁planned 100
▁Wind 100
▁immediately 100
orning 100
vis 100
▁potential 100
▁Camb 100
▁Az 100
▁Avenue 100
▁Add 100
thing 100
rif 100
▁touch 100
▁purchased 100
ounds 100
▁Cross 100
▁moving 100
▁commonly 100
▁implement 100
▁dedicated 100
▁Sea 100
law 100
▁Uk 100
oud 100
aging 100
▁historic 100
isters 100
▁laws 100
▁places 100
▁effects 100
ela 100
▁color 100
▁defeat 100
stone 100
▁Engine 100
▁Scottish 100
▁solo 100
▁miles 100
▁capacity 100
ources 100
▁Tim 100
aka 100
▁website 100
▁Ox 100
▁security 100
▁Polish 100
astic 100
▁Columbia 100
win 100
zy 100
▁Dis 100
▁Dev 100
▁Van 100
▁overs 100
ronic 100
▁sail 100
▁System 100
▁6, 100
▁efforts 100
▁Jes 100
▁Post 100
▁ang 100
▁Born 100
▁question 100
met 100
▁wor 100
irmed 100
▁Of 100
oned 100
▁workers 100
▁Step 100
▁Each 100
ieuten 100
▁Mount 100
▁18, 100
▁comes 100
▁Four 100
inem 100
▁weap 100
▁2011. 100
ube 100
▁1998 100
▁Mid 100
chester 100
ricket 100
▁Sol 100
▁cle 100
Al 100
▁Eliz 100
▁direction 100
ja 100
▁inside 100
izes 100
▁settlement 100
obile 100
▁Office 100
▁15, 100
ella 100
▁Di 100
rance 100
ila 100
▁counter 100
▁protect 100
▁needed 100
yard 100
ima 100
iga 100
▁destroyed 100
▁Head 100
▁gas 100
iest 100
dro 100
▁Top 100
▁Corps 100
ns 100
▁recently 100
can 100
▁Est 100
▁contact 100
▁types 100
▁withd 100
▁bird 100
25 100
▁housing 100
▁treatment 100
▁upper 100
▁8, 100
▁feel 100
▁ability 100
▁repe 100
▁Mu 100
▁Alexander 100
▁facilities 100
▁attention 100
edd 100
▁problem 100
alle 100
▁reach 100
emy 100
▁featuring 100
▁Gall 100
AF 100
▁widely 100
anks 100
▁agricult 100
▁assigned 100
▁Tem 100
▁focus 100
▁Georgia 100
▁forward 100
▁street 100
▁reform 100
ora 100
▁Muslim 100
▁impact 100
▁activity 100
▁2012. 100
grad 100
▁gain 100
stein 100
▁gained 100
▁behav 100
▁offers 100
▁article 100
ederation 100
▁adopted 100
hat 100
▁Sydney 100
▁computer 100
ira 100
▁store 100
▁physical 100
▁/ 100
▁floor 100
▁respectively 100
▁stra 100
▁Historic 100
▁Hospital 100
▁administration 100
istered 100
500 100
▁agreed 100
▁branch 100
▁giving 100
▁Jackson 100
ening 100
▁winner 100
nam 100
apers 100
▁serves 100
▁uns 100
▁Song 100
greg 100
▁Cy 100
▁Tam 100
▁lif 100
▁favor 100
ieutenant 100
▁largely 100
rovers 100
▁Far 100
▁executive 100
▁hundred 100
▁organized 100
▁nuc 100
▁probably 100
▁1996 100
▁rare 100
▁2013. 100
▁roles 100
▁recover 100
ampions 100
▁quality 100
▁Jean 100
ennis 100
inois 100
▁60 100
▁Show 100
▁slow 100
etts 100
▁declared 100
▁assistant 100
▁adult 100
▁estimated 100
▁seek 100
▁conne 100
▁charge 100
▁2014. 100
hew 100
▁Ash 100
▁online 100
▁captured 100
umber 100
▁Love 100
▁streng 100
▁typically 100
▁green 100
▁mic 100
▁ut 100
▁dyn 100
▁rat 100
▁card 100
respond 100
▁2009. 100
ogue 100
▁Ok 100
▁wing 100
▁approach 100
▁Bern 100
▁accepted 100
fort 100
ried 100
▁leaves 100
▁suffered 100
ski 100
▁format 100
▁academic 100
▁Ray 100
uting 100
▁10, 100
▁Ken 100
onia 100
▁stone 100
▁leaders 100
▁12, 100
duce 100
▁distance 100
▁operating 100
illy 100
▁Tre 100
Sh 100
▁blood 100
▁metal 100
ulpt 100
ilding 100
▁Water 100
▁Andrew 100
▁Cr 100
▁Three 100
▁perman 100
▁clubs 100
▁Jersey 100
ption 100
▁therefore 100
▁thr 100
▁languages 100
yer 100
▁Bang 100
▁footballer 100
▁titled 100
▁episodes 100
gu 100
▁estate 100
▁45 100
▁2015. 100
▁reviews 100
▁1930 100
▁Sever 100
ograp 100
▁Kong 100
▁(, 100
▁Route 100
▁Professor 100
▁Viet 100
enge 100
▁symb 100
rics 100
▁Gh 100
includ 100
▁heav 100
▁occurred 100
pton 100
▁Ott 100
▁target 100
▁compared 100
▁cerem 100
▁Card 100
▁Max 100
▁Brook 100
ione 100
▁Fe 100
▁max 100
ropical 100
onto 100
▁Illinois 100
▁electric 100
▁communities 100
▁Ell 100
▁singles 100
▁Mas 100
▁combined 100
▁Field 100
▁albums 100
▁elev 100
▁Federal 100
▁resulted 100
ancy 100
ounded 100
▁Ak 100
▁equipment 100
▁beat 100
▁Kenn 100
oration 100
onents 100
▁awards 100
achus 100
▁Pen 100
▁fa 100
▁drama 100
lab 100
▁ice 100
▁24, 100
▁semi 100
12 100
▁coin 100
▁dance 100
▁Berlin 100
▁territory 100
▁Argent 100
icient 100
▁Before 100
▁amb 100
▁1997 100
with 100
rical 100
ricts 100
akh 100
▁Gir 100
▁Hong 100
.) 100
ropol 100
▁concent 100
▁table 100
▁agreement 100
da 100
▁fr 100
▁Corn 100
▁Jr 100
▁CE 100
▁exam 100
gers 100
▁sources 100
bo 100
mad 100
▁recognized 100
▁aband 100
▁cat 100
▁FI 100
▁Blue 100
▁Rome 100
▁union 100
▁.. 100
▁scholar 100
▁Corporation 100
cul 100
isted 100
▁controvers 100
mas 100
ishes 100
▁yards 100
agement 100
▁hosted 100
▁Raj 100
▁constitu 100
▁apart 100
aling 100
▁voice 100
▁era 100
▁2008. 100
rane 100
worth 100
perial 100
▁Brig 100
wick 100
▁Victoria 100
▁split 100
▁Development 100
▁expanded 100
sen 100
▁fell 100
▁sens 100
▁presence 100
New 100
▁202 100
hens 100
▁pressure 100
▁coming 100
pression 100
▁industrial 100
▁2004, 100
oles 100
▁campus 100
▁actually 100
▁taught 100
▁Elizabeth 100
urt 100
▁conclud 100
▁peace 100
▁expected 100
▁municipal 100
▁continues 100
▁Queens 100
▁Univers 100
▁density 100
▁mixed 100
▁ly 100
▁newly 100
▁champion 100
▁Li 100
▁conference 100
▁cars 100
▁resident 100
▁Daniel 100
▁Cat 100
▁owner 100
▁mill 100
▁acting 100
osen 100
▁distinct 100
icine 100
thur 100
range 100
▁reduced 100
▁sevent 100
inity 100
▁2016. 100
▁Bridge 100
▁mentioned 100
▁leadership 100
▁sales 100
▁Olympic 100
achusetts 100
▁pit 100
▁affili 100
▁males 100
▁Among 100
▁pet 100
edom 100
olved 100
▁content 100
oral 100
cles 100
▁Little 100
▁Jeff 100
▁identified 100
▁Ba 100
▁recon 100
▁pack 100
aces 100
▁flight 100
▁11, 100
▁felt 100
▁Ministry 100
▁2000, 100
oted 100
nic 100
▁Justice 100
▁Prime 100
▁retire 100
pass 100
▁bad 100
▁1992 100
▁rules 100
▁consec 100
▁joint 100
▁silver 100
▁Bec 100
▁correspond 100
▁becomes 100
▁girl 100
▁Ca 100
▁! 100
▁prep 100
resh 100
▁murder 100
▁providing 100
iate 100
▁spons 100
▁Hor 100
▁elim 100
▁couple 100
▁Bishop 100
▁Wild 100
▁Good 100
▁nominated 100
▁recomm 100
▁Common 100
▁wa 100
▁trial 100
▁labor 100
▁4. 100
stitution 100
▁coal 100
▁serious 100
▁Massachusetts 100
▁critical 100
▁Ul 100
ivity 100
ibly 100
encies 100
▁votes 100
aly 100
▁propos 100
▁teacher 100
▁Airport 100
▁models 100
▁Villa 100
cend 100
▁parliament 100
▁Str 100
▁alone 100
▁thous 100
▁titles 100
▁Tay 100
▁digital 100
▁paid 100
▁pal 100
▁ir 100
-3 100
▁granted 100
▁Child 100
▁tells 100
▁9, 100
▁parties 100
▁resulting 100
▁plants 100
ba 100
▁feet 100
set 100
▁buried 100
which 100
▁motor 100
ented 100
▁positions 100
75 100
uer 100
▁ranked 100
▁urban 100
▁situated 100
▁Base 100
▁twice 100
TA 100
án 100
▁kept 100
▁surrounding 100
▁fast 100
riz 100
▁figure 100
▁Highway 100
▁greater 100
▁minister 100
▁twenty 100
▁mess 100
wing 100
▁Rog 100
▁organizations 100
gs 100
ighter 100
istance 100
▁damage 100
▁showed 100
▁strugg 100
itness 100
unte 100
▁condition 100
miss 100
▁Lew 100
▁1994 100
▁Hind 100
▁scoring 100
▁captain 100
▁1995 100
▁confirmed 100
▁Islands 100
▁suggested 100
▁knowledge 100
▁2007. 100
▁losing 100
CC 100
amber 100
hemat 100
▁says 100
▁vess 100
iform 100
yal 100
▁2017. 100
emeter 100
▁receive 100
li 100
▁hop 100
emetery 100
▁pict 100
bourne 100
rence 100
▁Stadium 100
▁contemporary 100
11 100
▁Life 100
▁flag 100
▁performances 100
▁billion 100
▁Rod 100
water 100
90 100
▁35 100
▁Brad 100
▁Pakistan 100
IS 100
MS 100
▁search 100
adelph 100
▁blue 100
iat 100
▁spring 100
▁creation 100
▁purpose 100
onent 100
▁pattern 100
▁su 100
▁growing 100
▁Korea 100
▁true 100
▁obtained 100
▁fix 100
▁provin 100
▁Enter 100
▁slight 100
▁doub 100
agon 100
▁Supreme 100
ervative 100
▁Duke 100
▁Way 100
ef 100
▁instrument 100
▁recommend 100
ager 100
▁inform 100
▁contest 100
▁wild 100
uation 100
▁literature 100
▁paint 100
ologist 100
▁unique 100
aug 100
▁Because 100
▁Turk 100
▁Ira 100
▁Pop 100
kee 100
▁cam 100
mann 100
ansion 100
alion 100
▁14, 100
▁16, 100
▁task 100
estic 100
▁Cop 100
▁tried 100
▁sculpt 100
▁Ont 100
▁distribution 100
▁Det 100
MA 100
gal 100
▁Game 100
▁gives 100
▁500 100
vin 100
book 100
▁mm 100
nel 100
▁secondary 100
▁Swedish 100
▁nort 100
adelphia 100
▁Boy 100
▁... 100
▁Library 100
▁sexual 100
ronze 100
iced 100
▁allows 100
▁Es 100
urer 100
▁boy 100
han 100
olid 100
▁claims 100
odies 100
outheast 100
▁Toronto 100
▁comedy 100
▁finish 100
▁Nether 100
▁secret 100
▁association 100
▁marked 100
▁applied 100
ez 100
▁disease 100
▁succeeded 100
▁Chap 100
ctors 100
▁traffic 100
▁1920 100
▁Revolution 100
▁analysis 100
▁prec 100
▁simply 100
sex 100
▁formation 100
▁committee 100
▁officials 100
▁painting 100
▁Dun 100
▁wall 100
▁2018. 100
▁Ep 100
▁festival 100
▁cannot 100
▁column 100
▁32 100
▁Bol 100
ker 100
▁Offic 100
▁sites 100
▁vac 100
▁pun 100
▁software 100
▁begins 100
▁Lim 100
▁Guard 100
▁achieved 100
▁13, 100
▁facility 100
▁governor 100
ternet 100
▁Special 100
▁Joe 100
▁‘ 100
▁stream 100
▁Arm 100
een 100
vest 100
▁Program 100
▁enj 100
▁Bell 100
▁teaching 100
▁Network 100
PA 100
▁wear 100
▁spot 100
▁Athlet 100
western 100
▁seats 100
inger 100
An 100
ancing 100
▁integ 100
▁ce 100
▁Santa 100
▁cells 100
yond 100
▁attacks 100
▁Press 100
usion 100
▁sport 100
▁experiment 100
ova 100
▁Ontario 100
▁library 100
ouri 100
▁Oxford 100
ulty 100
▁code 100
▁connected 100
lers 100
15 100
▁shop 100
IA 100
▁liber 100
▁designated 100
▁bow 100
▁concert 100
▁cab 100
▁17, 100
▁younger 100
▁injury 100
▁consum 100
iable 100
▁ve 100
▁Police 100
▁spirit 100
▁bal 100
▁tim 100
▁versions 100
▁completely 100
▁chairman 100
▁Nations 100
bu 100
▁trains 100
load 100
chen 100
▁Dam 100
▁Philadelphia 100
"; 100
▁Township 100
▁Through 100
▁Fle 100
ighth 100
EC 100
ji 100
▁fully 100
▁supply 100
▁Sports 100
▁actress 100
bec 100
chestra 100
▁launch 100
▁weight 100
▁classes 100
▁Represent 100
▁headquarters 100
omy 100
iling 100
▁extend 100
▁Ven 100
▁allowing 100
bro 100
▁$2 100
ender 100
▁Anton 100
▁habit 100
▁Ger 100
orter 100
▁existing 100
▁Independ 100
▁(198 100
▁aim 100
▁custom 100
urname 100
▁regions 100
ucky 100
ctoral 100
▁Rel 100
uts 100
oty 100
uled 100
–18 100
uate 100
▁meant 100
eld 100
▁authorities 100
▁Register 100
▁chosen 100
▁Castle 100
▁Jon 100
▁Band 100
▁Conf 100
▁Atlantic 100
▁mom 100
▁situation 100
▁Ah 100
real 100
▁1940 100
▁1991 100
▁25, 100
▁Mir 100
▁Bab 100
▁defined 100
VD 100
▁rapid 100
▁suit 100
▁thir 100
▁want 100
▁figures 100
▁Aff 100
▁Forest 100
▁carri 100
▁Captain 100
▁Elect 100
▁goes 100
▁Sher 100
▁opposition 100
▁relatively 100
inson 100
▁USA 100
▁Mike 100
▁suggest 100
▁measure 100
▁sides 100
▁scientific 100
▁1993 100
eller 100
▁History 100
▁stock 100
▁challeng 100
▁hall 100
▁theme 100
▁inspired 100
weight 100
▁Wilson 100
elligence 100
zech 100
▁bought 100
▁Budd 100
▁things 100
ses 100
▁founder 100
iser 100
FC 100
▁Bir 100
▁advanced 100
▁dial 100
▁20, 100
▁districts 100
▁Naz 100
▁critics 100
itzer 100
▁settled 100
▁fans 100
▁athlet 100
▁govern 100
▁illust 100
gress 100
▁villages 100
▁portion 100
▁Sab 100
▁lot 100
▁holds 100
imal 100
▁Serb 100
sky 100
▁aired 100
▁refused 100
▁Fair 100
▁materials 100
▁oldest 100
▁returning 100
ashion 100
▁hands 100
▁Netherlands 100
▁partner 100
▁reports 100
room 100
▁magn 100
arp 100
2). 100
▁Kir 100
▁Home 100
▁2003, 100
▁fish 100
ennes 100
▁conflict 100
▁tree 100
▁Several 100
erved 100
▁instru 100
▁arrested 100
▁graph 100
iki 100
▁Hay 100
▁fighting 100
▁image 100
▁tower 100
arc 100
▁von 100
▁loan 100
▁occasion 100
SC 100
inate 100
▁Fox 100
▁frequently 100
▁Emperor 100
▁Premier 100
uns 100
▁Ta 100
▁entitled 100
▁Regiment 100
▁necessary 100
▁risk 100
▁brothers 100
▁sixth 100
▁narrow 100
▁Iraq 100
▁Sus 100
▁Die 100
▁sons 100
▁2006. 100
aks 100
▁lear 100
hedral 100
▁script 100
▁Due 100
-4 100
▁Mexican 100
▁Mov 100
▁Like 100
ples 100
▁Korean 100
▁advert 100
ifically 100
lan 100
▁conduct 100
▁ple 100
itors 100
heim 100
▁creating 100
ava 100
▁principal 100
▁audience 100
occer 100
▁authority 100
ilton 100
▁pair 100
omot 100
▁Sweden 100
utional 100
▁(3 100
▁van 100
▁roof 100
▁Master 100
▁UN 100
ruit 100
una 100
igen 100
▁Indust 100
asty 100
yes 100
▁proceed 100
▁defin 100
iner 100
HL 100
▁seem 100
gend 100
also 100
▁Ker 100
▁Between 100
iary 100
ée 100
▁attra 100
▁commander 100
▁something 100
▁tend 100
▁cert 100
▁theatre 100
ographic 100
▁ven 100
▁aspect 100
aven 100
▁voc 100
▁Der 100
▁Czech 100
▁element 100
▁subs 100
osa 100
▁Minn 100
▁Colon 100
▁starring 100
pet 100
▁lake 100
▁politics 100
century 100
▁visited 100
▁Cub 100
▁feed 100
▁relations 100
▁temple 100
sey 100
▁Chris 100
▁copies 100
▁Econom 100
▁Han 100
▁mut 100
▁Taylor 100
bi 100
▁5. 100
▁Mun 100
▁rain 100
▁winter 100
▁Nic 100
▁publication 100
▁unable 100
▁metres 100
▁Moh 100
LA 100
▁21, 100
▁accident 100
▁restaur 100
struction 100
osophy 100
▁bill 100
ection 100
▁Marsh 100
▁arts 100
▁consisted 100
▁subsequent 100
▁etc 100
▁fought 100
▁Technology 100
▁Night 100
▁NA 100
ropolitan 100
▁1988 100
kes 100
▁Alf 100
▁broke 100
▁covers 100
▁promotion 100
tra 100
▁attempted 100
▁Kal 100
▁alle 100
ois 100
▁approved 100
orph 100
▁22, 100
▁portray 100
18 100
▁Kel 100
▁crim 100
▁Community 100
▁Arthur 100
▁syn 100
▁sets 100
▁dropped 100
▁Media 100
=" 100
▁flood 100
▁Tai 100
▁funding 100
▁underst 100
▁bass 100
▁Beach 100
▁daily 100
▁Batt 100
▁attacked 100
bra 100
▁piece 100
▁animals 100
▁attempts 100
▁Bad 100
▁Som 100
plies 100
▁reject 100
udget 100
writer 100
▁effective 100
▁baseball 100
▁Da 100
illery 100
▁employed 100
▁mile 100
uing 100
▁respond 100
▁neighborhood 100
elve 100
▁ec 100
▁Cult 100
▁fair 100
▁Organ 100
▁Light 100
▁royal 100
ains 100
▁exclus 100
▁straight 100
▁Human 100
▁surname 100
▁opposed 100
45 100
▁begin 100
▁30, 100
▁drive 100
▁global 100
▁commissioned 100
CAA 100
▁extensive 100
▁simple 100
▁Stephen 100
▁performing 100
▁Area 100
▁methods 100
▁receiving 100
▁19, 100
▁guest 100
▁distingu 100
▁Business 100
▁tal 100
▁Addition 100
▁reference 100
▁cho 100
▁Pers 100
▁Region 100
▁Orig 100
▁enjoy 100
▁dia 100
▁formerly 100
rin 100
▁kil 100
▁occupied 100
▁unknown 100
▁safety 100
▁actions 100
▁Tal 100
▁mis 100
aret 100
▁vocal 100
▁earth 100
▁combat 100
nce 100
track 100
▁protection 100
▁Lady 100
▁powerful 100
▁Maria 100
▁Hun 100
▁2019. 100
▁178 100
▁economy 100
▁Color 100
▁highway 100
iques 100
▁1989 100
▁towns 100
▁Davis 100
▁iron 100
▁exchange 100
▁sense 100
▁Gen 100
▁rob 100
▁morning 100
▁apparent 100
); 100
urd 100
▁founding 100
athan 100
▁expansion 100
▁horse 100
▁sand 100
cow 100
▁23, 100
▁yellow 100
rip 100
▁fields 100
▁normal 100
kin 100
uls 100
▁architecture 100
▁rear 100
▁memory 100
▁machine 100
idge 100
▁alt 100
▁Form 100
▁resources 100
▁Abb 100
▁Hu 100
▁beaut 100
▁spect 100
▁encoura 100
▁sle 100
▁Freder 100
bar 100
▁trees 100
▁bott 100
▁Po 100
▁articles 100
▁shortly 100
ureau 100
eral 100
mouth 100
po 100
▁(; 100
▁agent 100
▁shared 100
rum 100
▁End 100
urance 100
bell 100
phas 100
▁negot 100
lywood 100
▁height 100
▁prof 100
▁Wel 100
▁needs 100
lyn 100
▁Administ 100
35 100
Bill 100
▁80 100
▁institutions 100
rect 100
▁Marg 100
imens 100
▁contributed 100
▁documentary 100
▁Short 100
▁converted 100
▁onto 100
▁climate 100
▁arms 100
▁28, 100
▁ending 100
▁Zh 100
▁Greg 100
▁Today 100
▁focused 100
▁rot 100
▁Walk 100
▁Circ 100
▁storm 100
▁Legisl 100
rec 100
aria 100
▁airport 100
▁Indones 100
▁2002, 100
▁Rac 100
▁engineering 100
▁26, 100
▁Earl 100
▁Les 100
▁rang 100
ading 100
▁burn 100
onym 100
▁maximum 100
▁cancer 100
rog 100
▁crime 100
▁lect 100
erb 100
▁dipl 100
'. 100
▁Steve 100
▁Att 100
▁Gi 100
▁bul 100
▁cart 100
▁Int 100
▁contrast 100
oln 100
wise 100
▁citizens 100
▁Kim 100
▁inhabit 100
▁vehicles 100
organ 100
▁ways 100
enna 100
▁Lind 100
▁Bla 100
▁Power 100
▁adapt 100
▁entry 100
▁notes 100
▁learning 100
eman 100
gest 100
16 100
▁Time 100
▁27, 100
▁determined 100
text 100
▁retirement 100
14 100
orney 100
▁gar 100
▁application 100
▁tele 100
▁samp 100
▁advance 100
▁Prize 100
▁MP 100
▁worldwide 100
▁Federation 100
kh 100
anna 100
▁vent 100
inus 100
▁2001, 100
ivals 100
▁offices 100
▁Rom 100
▁Prior 100
▁dog 100
▁Marc 100
▁valley 100
owa 100
ownt 100
▁permanent 100
▁beyond 100
▁occurs 100
▁Khan 100
▁Vo 100
amin 100
▁basic 100
▁Anth 100
▁Slov 100
▁wrest 100
▁Lt 100
ropri 100
mun 100
▁1919 100
otic 100
inners 100
▁advant 100
OS 100
▁prepar 100
▁Junior 100
▁Ford 100
▁36 100
▁girls 100
ipe 100
osis 100
rowd 100
▁matter 100
▁Dor 100
pur 100
▁Medical 100
▁Squad 100
abad 100
▁setting 100
▁Spring 100
▁1984 100
umes 100
▁ultimately 100
▁Journal 100
▁background 100
▁letters 100
▁sought 100
▁existence 100
▁defense 100
▁Test 100
▁Wat 100
▁containing 100
ii 100
stream 100
▁touchdown 100
▁consult 100
▁Project 100
inder 100
▁reasons 100
pool 100
▁Us 100
▁refers 100
▁write 100
▁Lewis 100
▁opp 100
▁Further 100
wegian 100
anth 100
urches 100
former 100
▁developing 100
▁Pit 100
▁lands 100
▁slightly 100
▁resc 100
▁representing 100
▁corner 100
oured 100
▁rough 100
esota 100
▁convers 100
achelor 100
SP 100
iders 100
ulate 100
▁Ross 100
▁ends 100
▁structures 100
▁Su 100
ears 100
▁successfully 100
inth 100
▁Melbourne 100
', 100
▁unc 100
IC 100
It 100
while 100
▁70 100
▁enemy 100
Un 100
13 100
▁mind 100
▁virt 100
fully 100
▁derived 100
▁avoid 100
▁decre 100
▁qualified 100
yo 100
▁finds 100
▁attrib 100
▁Upon 100
▁guns 100
▁alternative 100
▁trust 100
▁invited 100
▁someone 100
▁grade 100
▁centuries 100
▁Leon 100
De 100
▁locations 100
anning 100
▁Americans 100
life 100
▁Hart 100
▁lyrics 100
olished 100
▁faced 100
▁pieces 100
▁hero 100
ocese 100
▁1987 100
▁properties 100
yt 100
▁ox 100
apore 100
▁Pier 100
▁flu 100
▁Ob 100
asy 100
▁vehicle 100
emic 100
▁Vi 100
▁Minnesota 100
▁acts 100
▁rein 100
▁wealth 100
▁Nap 100
rete 100
▁fer 100
▁domestic 100
▁finishing 100
▁seg 100
▁EP 100
▁Fire 100
▁try 100
▁walls 100
▁Philip 100
▁racing 100
▁fuel 100
▁cycl 100
▁funds 100
▁abandoned 100
▁Golden 100
onsin 100
alo 100
▁pup 100
▁holding 100
long 100
▁hotel 100
▁Moscow 100
▁2005. 100
▁Sav 100
▁functions 100
DS 100
aska 100
▁bronze 100
▁influenced 100
▁herself 100
▁supporting 100
▁Queensland 100
▁bor 100
▁Brother 100
▁coord 100
isconsin 100
We 100
uccess 100
AR 100
▁Bi 100
▁Then 100
▁Balt 100
▁Ra 100
▁stadium 100
pson 100
▁Country 100
▁6. 100
▁Cape 100
▁mayor 100
▁emphas 100
pot 100
▁generation 100
▁Gre 100
mes 100
79 100
▁Memorial 100
▁incorporated 100
▁1986 100
▁multi 100
▁Channel 100
▁expressed 100
▁doing 100
▁contained 100
▁identity 100
jan 100
▁proved 100
▁technical 100
▁Norwegian 100
▁Gil 100
▁deploy 100
igration 100
▁Missouri 100
▁Military 100
▁Bah 100
▁DVD 100
▁deliver 100
anger 100
▁Kansas 100
–3 100
▁speech 100
omew 100
▁Stock 100
▁hydro 100
▁Trust 100
▁decades 100
agh 100
▁Baron 100
▁partnership 100
▁Norway 100
outs 100
▁fleet 100
iments 100
▁Ut 100
▁castle 100
▁temperature 100
▁Ocean 100
▁ring 100
▁your 100
▁sust 100
▁NCAA 100
▁Cambridge 100
▁alleged 100
▁Wars 100
▁Bat 100
▁Tok 100
▁heavily 100
▁compar 100
car 100
▁Municip 100
78 100
▁glass 100
▁Command 100
▁bands 100
▁pul 100
▁plot 100
▁brown 100
enz 100
▁Native 100
▁Jos 100
ami 100
▁rival 100
▁Jews 100
▁calls 100
▁Wisconsin 100
▁pilot 100
▁guard 100
▁Week 100
▁Labor 100
▁equal 100
▁29, 100
▁planning 100
▁Albert 100
▁hockey 100
▁) 100
▁educational 100
illing 100
▁Ho 100
stead 100
▁volume 100
iang 100
prise 100
▁township 100
uese 100
▁establishment 100
▁Manchester 100
▁maintained 100
▁Though 100
▁scheduled 100
appe 100
▁33 100
▁bra 100
▁extrem 100
▁Pass 100
iations 100
▁fresh 100
▁educated 100
lets 100
▁entrance 100
▁Singapore 100
▁7. 100
▁spok 100
▁composer 100
76 100
▁reflect 100
▁300 100
Billboard 100
▁Sciences 100
▁Holy 100
incoln 100
▁passing 100
▁inaug 100
▁Final 100
▁auth 100
▁sector 100
lain 100
▁consecutive 100
ennessee 100
▁formal 100
▁aged 100
▁category 100
▁constant 100
▁1900 100
▁Philippines 100
icy 100
▁Malays 100
▁carry 100
fl 100
regon 100
▁merged 100
ecutive 100
2), 100
▁Ball 100
▁Cas 100
▁rise 100
▁quant 100
erc 100
▁literary 100
aming 100
▁detect 100
amm 100
▁Hou 100
▁Vietnam 100
▁laid 100
▁90 100
▁voted 100
▁stating 100
rees 100
▁nob 100
▁Six 100
eed 100
▁programme 100
▁escape 100
▁Bru 100
▁hired 100
king 100
▁Nick 100
ito 100
▁Pope 100
ika 100
▁weapons 100
SR 100
▁nuclear 100
haps 100
TC 100
▁swe 100
▁reign 100
▁flat 100
state 100
opher 100
▁resigned 100
▁connection 100
▁roll 100
▁trav 100
▁appoint 100
▁powers 100
orders 100
▁Sri 100
▁reaching 100
▁environmental 100
aki 100
after 100
▁scale 100
▁decor 100
▁Free 100
▁shape 100
▁install 100
▁patients 100
▁Indiana 100
uration 100
▁Studies 100
▁trying 100
▁harm 100
▁Bos 100
▁merch 100
▁page 100
▁Sunday 100
▁incident 100
fall 100
▁1985 100
▁About 100
▁candidates 100
▁Labour 100
▁Clark 100
lines 100
▁Rural 100
▁regarding 100
▁independence 100
aded 100
friend 100
iti 100
▁passes 100
▁producing 100
▁failure 100
▁argued 100
▁promote 100
▁Winter 100
acter 100
▁ceremony 100
ader 100
Don 100
equ 100
▁folk 100
▁Cab 100
▁toward 100
▁Tennessee 100
place 100
▁phase 100
▁diam 100
▁Bureau 100
▁engaged 100
▁Cra 100
ource 100
▁Census 100
tered 100
▁Lo 100
isf 100
▁marg 100
▁recognition 100
▁mel 100
▁specifically 100
▁mount 100
ateur 100
▁accompan 100
iny 100
▁judge 100
▁load 100
cts 100
▁importance 100
▁ast 100
▁Austria 100
▁god 100
▁moth 100
▁Christmas 100
▁Colorado 100
▁interse 100
▁sac 100
oster 100
▁Sem 100
▁internal 100
▁steel 100
▁kick 100
▁representative 100
▁rom 100
▁descend 100
▁exhibition 100
▁entirely 100
▁closely 100
▁constituency 100
▁swim 100
▁strength 100
▁journalist 100
owntown 100
▁investigation 100
▁Point 100
ão 100
▁prefer 100
▁Miller 100
▁starts 100
▁Id 100
▁quite 100
▁Jacob 100
▁inhabitants 100
▁believe 100
▁improve 100
▁installed 100
!" 100
▁Ka 100
▁standards 100
▁experien 100
▁scenes 100
iversary 100
wich 100
▁Lincoln 100
▁vice 100
▁twelve 100
▁observed 100
▁Fellow 100
▁ideas 100
La 100
▁1983 100
▁playoff 100
▁Oregon 100
▁gall 100
▁heard 100
65 100
▁Tony 100
▁price 100
▁doctor 100
▁protein 100
▁collected 100
▁ethnic 100
▁compl 100
▁foundation 100
▁classical 100
▁homes 100
▁Maryland 100
gor 100
▁Turkey 100
▁junior 100
raine 100
▁orders 100
▁visual 100
▁creat 100
▁violence 100
▁Kr 100
▁Ten 100
▁programming 100
▁watch 100
▁400 100
▁cricket 100
▁Places 100
▁Thus 100
▁occas 100
▁compete 100
▁Web 100
rate 100
▁clin 100
▁Stat 100
▁Portuguese 100
▁Now 100
▁Affairs 100
▁opportunity 100
▁Stone 100
▁volunte 100
▁fashion 100
ception 100
▁aid 100
aved 100
anton 100
▁request 100
▁budget 100
position 100
rizona 100
▁Gord 100
cell 100
▁Walter 100
▁concluded 100
Sp 100
▁Niger 100
acent 100
▁views 100
▁Infantry 100
▁Ot 100
ublin 100
▁joining 100
▁cas 100
▁trained 100
▁tall 100
▁consisting 100
erse 100
itzerland 100
▁Hard 100
ori 100
ilation 100
000. 100
risis 100
▁causing 100
▁Bon 100
▁opin 100
▁Even 100
▁sole 100
▁describes 100
▁Temple 100
ographer 100
▁registered 100
▁Ts 100
anguage 100
▁religion 100
PS 100
▁NFL 100
under 100
uties 100
▁regarded 100
agan 100
inally 100
▁bit 100
▁dates 100
▁suppor 100
olis 100
▁1999, 100
▁Turkish 100
▁employees 100
▁choice 100
▁obtain 100
▁Abd 100
▁Pa 100
▁draft 100
17 100
▁Vice 100
▁locomot 100
▁chemical 100
▁Harry 100
▁improved 100
poses 100
▁graduate 100
Se 100
▁negative 100
▁possess 100
▁brick 100
DA 100
▁survey 100
▁really 100
iva 100
oto 100
▁Barb 100
▁poetry 100
▁rugby 100
elle 100
▁impr 100
▁McG 100
▁poly 100
only 100
▁boat 100
▁edge 100
.” 100
▁Liberal 100
oes 100
▁praised 100
▁mathemat 100
isms 100
ikh 100
▁fram 100
▁initi 100
pa 100
▁1976 100
▁wins 100
▁map 100
then 100
–9 100
Sc 100
olars 100
▁passenger 100
come 100
▁34 100
▁limit 100
▁presidential 100
▁reading 100
▁Ast 100
▁profession 100
▁Od 100
▁2004. 100
▁animal 100
▁Ali 100
▁Switzerland 100
uther 100
▁1979 100
▁exped 100
▁Ron 100
▁crowd 100
zen 100
▁Arizona 100
▁Beng 100
▁Fa 100
urday 100
▁paintings 100
▁dress 100
▁operate 100
▁cru 100
▁Howard 100
anga 100
▁substant 100
▁Gab 100
1), 100
▁Roy 100
ushed 100
▁rebu 100
▁reserve 100
isa 100
clusion 100
▁landsc 100
▁briefly 100
▁sale 100
▁behavior 100
▁Only 100
aga 100
▁Gree 100
▁micro 100
▁Anne 100
▁Medal 100
▁1972 100
▁$3 100
▁Hamilton 100
▁chose 100
▁Simon 100
iful 100
▁san 100
▁selection 100
▁franch 100
▁ment 100
▁bodies 100
▁ruled 100
aro 100
▁Management 100
wealth 100
▁Building 100
▁strike 100
▁core 100
▁Tourn 100
ho 100
east 100
▁jur 100
▁strateg 100
▁birds 100
▁driver 100
▁Nich 100
vard 100
▁Writ 100
▁demonstr 100
ER 100
▁signal 100
▁1982 100
▁adap 100
▁affected 100
▁skills 100
▁Brigade 100
▁favour 100
▁paralle 100
▁engines 100
▁costs 100
▁drink 100
mb 100
▁courses 100
▁applications 100
▁reduce 100
▁values 100
▁northeast 100
utation 100
oly 100
alty 100
▁Jane 100
antic 100
▁users 100
▁Rose 100
▁ille 100
64 100
atures 100
▁mand 100
▁premiered 100
▁cooper 100
▁Turn 100
▁| 100
ghan 100
▁(4 100
▁seconds 100
heastern 100
▁IV 100
entially 100
▁replace 100
▁participate 100
▁Member 100
owned 100
▁causes 100
▁1968 100
▁Croat 100
▁tor 100
▁Executive 100
▁factory 100
▁Kentucky 100
▁controlled 100
▁diplom 100
usal 100
24 100
▁exact 100
-0 100
▁Kat 100
▁FM 100
▁Foreign 100
▁armed 100
▁synt 100
point 100
▁killing 100
▁Down 100
▁Hur 100
▁Gram 100
season 100
▁earliest 100
father 100
▁hun 100
gency 100
anes 100
▁Wall 100
▁agricultural 100
▁easily 100
▁Armen 100
He 100
igation 100
▁getting 100
▁Security 100
ryst 100
hist 100
▁Cer 100
▁criminal 100
▁door 100
▁emp 100
▁transform 100
ques 100
▁Swiss 100
▁reserv 100
▁survived 100
▁historian 100
▁drum 100
▁Television 100
▁opera 100
▁corpor 100
▁Square 100
▁seems 100
▁weather 100
▁Stand 100
▁tail 100
▁Coll 100
▁statement 100
▁singing 100
▁subsid 100
▁Adam 100
odox 100
▁divers 100
▁Prot 100
▁Engineering 100
ologies 100
▁Mit 100
▁Domin 100
arry 100
▁distributed 100
▁waters 100
▁agency 100
▁belief 100
▁1974 100
▁objects 100
▁acid 100
▁Whit 100
7), 100
▁portra 100
overty 100
pret 100
agues 100
-5 100
▁Staff 100
▁regularly 100
▁Magazine 100
▁interests 100
▁Gib 100
▁interior 100
23 100
▁leads 100
DP 100
▁pros 100
going 100
▁Tan 100
▁tropical 100
▁techniques 100
▁Belg 100
▁Sum 100
utor 100
▁Transport 100
US 100
▁repeated 100
ów 100
▁Frederick 100
▁Alb 100
▁symbol 100
▁Dougl 100
▁residence 100
▁Ren 100
▁Prim 100
▁consequ 100
▁invasion 100
▁deliv 100
▁adjacent 100
▁debuted 100
▁moment 100
▁Services 100
▁actual 100
box 100
▁accused 100
including 100
▁Eth 100
orage 100
ré 100
▁extension 100
▁roads 100
▁pione 100
olas 100
▁fine 100
▁racial 100
apes 100
har 100
▁steam 100
▁Hockey 100
▁personnel 100
▁38 100
antly 100
▁Brian 100
▁Tel 100
ía 100
▁Squadron 100
▁emot 100
▁Marine 100
▁fiction 100
▁advantage 100
icts 100
eke 100
▁row 100
▁ax 100
▁Pot 100
ourney 100
▁calling 100
▁Front 100
udi 100
▁sell 100
▁rating 100
▁ere 100
▁assess 100
▁possibly 100
▁opposite 100
▁Once 100
▁introduction 100
▁Burn 100
▁gene 100
▁Cre 100
▁sections 100
▁Ku 100
don 100
▁lat 100
icide 100
▁convent 100
▁humans 100
▁stands 100
ivalent 100
▁ones 100
ordan 100
hol 100
▁mole 100
▁1978 100
actions 100
▁combination 100
▁Naval 100
▁Forces 100
ifying 100
▁Early 100
icians 100
▁superv 100
▁Diego 100
BI 100
des 100
▁writers 100
run 100
▁operates 100
lock 100
▁Review 100
▁greatest 100
roit 100
▁jazz 100
▁islands 100
▁revolution 100
▁injured 100
▁items 100
▁witness 100
▁Fame 100
▁regiment 100
▁ahead 100
▁Well 100
▁crown 100
74 100
▁typical 100
▁shell 100
▁1981 100
▁Finn 100
▁seventh 100
▁comic 100
▁31, 100
▁nick 100
term 100
▁churches 100
▁Low 100
▁stores 100
▁Heart 100
▁Greece 100
▁advoc 100
vant 100
km 100
▁engineer 100
▁northwest 100
▁impress 100
active 100
▁hair 100
uct 100
ommod 100
▁Entertainment 100
▁Author 100
▁Lieutenant 100
▁resistance 100
▁grounds 100
cies 100
iot 100
▁designs 100
▁ans 100
▁Commonwealth 100
▁Bowl 100
▁railroad 100
▁Wy 100
rine 100
▁1975 100
▁mist 100
Ne 100
eler 100
▁decade 100
▁businesses 100
▁licens 100
▁secretary 100
▁Oak 100
▁1998, 100
▁arrang 100
▁dismiss 100
▁Plan 100
▁didn 100
▁Ark 100
▁surg 100
:00 100
▁Rab 100
▁medium 100
▁deleg 100
▁susp 100
▁web 100
ducing 100
iants 100
▁Colomb 100
▁Hans 100
▁ancest 100
▁enl 100
▁suburb 100
▁musicians 100
▁somew 100
▁Mean 100
ieval 100
▁8. 100
▁poll 100
▁benef 100
▁Farm 100
▁examples 100
idden 100
vens 100
ui 100
▁composition 100
▁Regional 100
▁Patrick 100
▁Tar 100
▁Senior 100
▁Islamic 100
▁Div 100
fe 100
▁purchase 100
oli 100
▁eg 100
uv 100
ür 100
▁Dep 100
ogy 100
▁dry 100
▁Dal 100
dam 100
▁hour 100
▁batter 100
▁cinem 100
ogen 100
▁shut 100
▁Tournament 100
rator 100
▁worth 100
▁faith 100
▁zone 100
▁clean 100
adow 100
rome 100
▁Houston 100
▁Vis 100
▁Jay 100
▁notably 100
3), 100
▁Mand 100
▁broken 100
▁Hotel 100
▁Anderson 100
▁standing 100
▁Bou 100
RC 100
▁Connect 100
▁Mississ 100
▁rejected 100
resents 100
▁Samuel 100
▁why 100
ES 100
▁strip 100
▁philosophy 100
▁attract 100
▁bottom 100
▁aware 100
▁Dur 100
zh 100
▁marine 100
▁committed 100
68 100
▁Israeli 100
▁Prix 100
▁grant 100
Man 100
▁goods 100
▁isol 100
▁Ale 100
▁rich 100
▁chain 100
idel 100
▁descript 100
zo 100
▁select 100
ceived 100
▁catal 100
▁selling 100
▁Allen 100
unch 100
▁Palest 100
▁charges 100
ippi 100
▁gets 100
adi 100
▁qual 100
dale 100
anned 100
ilst 100
▁device 100
▁Quebec 100
▁AD 100
▁copy 100
▁drawn 100
▁Sound 100
▁reality 100
▁Ban 100
▁hill 100
▁Family 100
enny 100
▁starred 100
▁accommod 100
▁trip 100
▁proced 100
▁duty 100
▁2003. 100
▁FA 100
Star 100
▁kilomet 100
▁Na 100
▁ban 100
stan 100
▁collaboration 100
▁Juan 100
▁residential 100
▁streets 100
obe 100
▁throw 100
▁wings 100
▁images 100
▁Alab 100
▁reaction 100
▁Dick 100
▁solid 100
▁Hug 100
▁retained 100
oming 100
▁looking 100
▁commit 100
200 100
▁enfor 100
▁piano 100
-18 100
zer 100
▁Brand 100
▁Hollywood 100
star 100
▁Additionally 100
▁passengers 100
▁1977 100
▁150 100
▁represents 100
▁demand 100
▁bond 100
▁1945 100
▁ped 100
level 100
▁Youth 100
▁Rand 100
ello 100
▁Fund 100
▁Hills 100
▁owners 100
uerto 100
▁degrees 100
▁capture 100
▁painted 100
▁renov 100
night 100
amic 100
▁stood 100
▁damaged 100
▁Gard 100
▁determine 100
▁remark 100
▁shall 100
vo 100
abled 100
▁heat 100
▁stages 100
▁vocals 100
▁obl 100
oslav 100
▁details 100
▁motion 100
▁Iowa 100
▁teachers 100
▁knock 100
hr 100
▁prize 100
▁tries 100
▁boys 100
▁nothing 100
▁bishop 100
▁immigr 100
lahoma 100
▁factors 100
▁admitted 100
election 100
▁sequence 100
▁Roc 100
igenous 100
ci 100
28 100
iami 100
▁Jesus 100
▁attached 100
cious 100
▁Village 100
▁advent 100
▁Nik 100
▁Mayor 100
▁session 100
pective 100
▁cod 100
▁refuge 100
icial 100
▁showing 100
▁Douglas 100
▁2002. 100
▁AC 100
aren 100
▁1973 100
▁charged 100
▁credited 100
▁Imperial 100
▁headed 100
insula 100
▁save 100
▁Jam 100
IT 100
hetic 100
▁Live 100
▁Prin 100
▁assumed 100
iller 100
▁rooms 100
▁Danish 100
thodox 100
▁Gordon 100
▁purposes 100
▁Wolf 100
who 100
▁displa 100
▁Buck 100
▁trail 100
▁shel 100
▁delivered 100
▁flying 100
raf 100
irt 100
▁transition 100
▁Ga 100
▁check 100
▁Rang 100
▁1969 100
▁Ltd 100
▁poverty 100
▁da 100
itage 100
▁2000. 100
▁Representatives 100
▁freedom 100
▁electronic 100
–4 100
ules 100
▁unus 100
othing 100
▁criticized 100
▁Sel 100
▁documents 100
enh 100
▁musician 100
▁accompanied 100
ogether 100
▁Chile 100
rolled 100
racy 100
▁accur 100
lov 100
agn 100
▁Anthony 100
▁Clin 100
▁Alabama 100
▁Kam 100
▁circum 100
▁experienced 100
▁Gallery 100
▁biggest 100
▁assault 100
icut 100
▁resign 100
▁Argentina 100
▁Cemetery 100
▁Ern 100
teenth 100
▁Puerto 100
▁caught 100
▁AM 100
▁defeating 100
▁Moore 100
6), 100
▁Administration 100
▁1964 100
▁chance 100
▁Space 100
▁driving 100
▁routes 100
aver 100
▁significantly 100
▁restored 100
▁soci 100
▁Album 100
▁Internet 100
▁investment 100
emble 100
▁nor 100
agu 100
onder 100
oa 100
yles 100
▁contributions 100
ategy 100
gon 100
cha 100
▁membership 100
▁southeast 100
yst 100
▁vary 100
▁Communist 100
▁Dublin 100
▁Shah 100
▁Bry 100
▁delay 100
▁bed 100
aux 100
▁Fac 100
▁tick 100
lad 100
▁intelligence 100
▁measures 100
▁veter 100
▁separated 100
▁user 100
cu 100
▁Stra 100
borough 100
-8 100
▁institution 100
▁1997, 100
▁unsuccess 100
▁Design 100
▁retail 100
▁upd 100
coming 100
Re 100
uster 100
▁Chairman 100
▁champions 100
▁Detroit 100
▁brain 100
▁suggests 100
▁1996, 100
▁Railroad 100
▁Silver 100
▁bran 100
vements 100
▁Ret 100
▁recip 100
▁franchise 100
related 100
▁milit 100
▁aer 100
▁coll 100
▁turns 100
▁learned 100
▁factor 100
olt 100
▁compris 100
ooth 100
▁mine 100
dis 100
rat 100
ners 100
▁duties 100
▁1971 100
▁Let 100
▁interested 100
▁conqu 100
▁minute 100
▁Oklahoma 100
69 100
▁Alber 100
▁popularity 100
▁innov 100
utt 100
▁Dig 100
coh 100
▁eye 100
▁Jordan 100
▁Real 100
ifications 100
▁understanding 100
▁fly 100
▁Harris 100
▁stopped 100
▁1967 100
▁depth 100
▁arrival 100
▁provincial 100
▁IS 100
▁thick 100
▁uniform 100
ture 100
▁southwest 100
▁subjects 100
▁persons 100
▁Denmark 100
▁demonst 100
▁garden 100
▁fan 100
▁pool 100
bal 100
▁wounded 100
▁releg 100
▁Third 100
▁44 100
argo 100
▁Harvard 100
avalry 100
uma 100
▁lawyer 100
▁flo 100
▁Hawai 100
▁painter 100
▁Taiwan 100
▁winners 100
▁Eric 100
chi 100
▁archae 100
issance 100
▁Baseball 100
▁renew 100
–8 100
▁Pap 100
eding 100
▁naval 100
ardo 100
gro 100
found 100
▁177 100
▁extremely 100
▁mort 100
▁Hal 100
▁prepared 100
▁Trib 100
ellite 100
inburgh 100
▁Rugby 100
▁communication 100
▁(), 100
▁returns 100
▁courts 100
▁thousands 100
pat 100
▁Reserve 100
▁CEO 100
unnel 100
▁Lanc 100
▁priest 100
▁Antonio 100
▁Cost 100
▁Pict 100
▁policies 100
▁difference 100
pse 100
agen 100
AM 100
▁involving 100
▁Stew 100
▁Chart 100
▁Alban 100
▁carrying 100
rently 100
eless 100
▁Mississippi 100
▁appropri 100
▁legend 100
▁Las 100
▁preced 100
▁Nag 100
]] 100
▁calc 100
▁Var 100
cop 100
rix 100
▁Belgium 100
PC 100
▁anniversary 100
21 100
▁Express 100
di 100
▁hits 100
▁10. 100
▁Here 100
▁util 100
▁Louisiana 100
▁faculty 100
▁Cooper 100
▁Saturday 100
▁2001. 100
▁adapted 100
angel 100
29 100
▁Lyn 100
▁legislation 100
istant 100
oyd 100
mers 100
ugar 100
▁severe 100
rons 100
▁translated 100
▁Inn 100
jo 100
▁responsibility 100
▁Treat 100
ailed 100
▁Matthew 100
▁sun 100
▁Lank 100
▁context 100
▁phen 100
All 100
▁universities 100
▁Roberts 100
▁inher 100
▁Children 100
▁Phill 100
▁Hamp 100
▁Battalion 100
▁Miami 100
▁grass 100
▁otherwise 100
▁Afghan 100
elson 100
▁Ottoman 100
▁aspects 100
▁colonial 100
▁doll 100
▁arranged 100
▁Bart 100
▁publishing 100
▁carbon 100
▁flows 100
38 100
▁shooting 100
▁Lin 100
▁fired 100
▁neighbour 100
▁organisation 100
▁Mountains 100
ads 100
▁cycle 100
▁UC 100
iley 100
bass 100
▁dating 100
aired 100
▁McK 100
▁ham 100
icate 100
▁Doctor 100
▁stayed 100
▁Pun 100
▁rates 100
mat 100
ructure 100
▁Dra 100
▁Constitution 100
▁expression 100
▁Independent 100
▁colour 100
▁ign 100
▁citizen 100
▁Liver 100
▁theater 100
▁scholars 100
▁perhaps 100
▁Edinburgh 100
▁Polit 100
etime 100
▁classic 100
▁Ukraine 100
burn 100
rong 100
▁defensive 100
▁2020 100
▁Modern 100
▁Palace 100
▁Deputy 100
▁meters 100
▁mouth 100
▁differences 100
▁refere 100
▁Brazilian 100
▁Eag 100
▁Kaz 100
hess 100
▁Meanwhile 100
heme 100
▁successor 100
laimed 100
▁terror 100
▁photograph 100
imore 100
▁stret 100
▁chair 100
▁Lam 100
▁Cow 100
▁Cook 100
▁Ryan 100
▁assistance 100
IV 100
▁windows 100
▁soundtrack 100
▁Alan 100
▁tank 100
▁Montreal 100
eland 100
ista 100
▁concerns 100
ships 100
cription 100
▁mining 100
▁challenge 100
▁divor 100
▁Nar 100
▁sed 100
▁Tamil 100
▁ri 100
dd 100
▁ensure 100
▁Gulf 100
▁protected 100
▁48 100
▁commune 100
uscript 100
▁devices 100
odge 100
▁Ped 100
▁sort 100
▁DC 100
▁1995, 100
▁publications 100
▁classified 100
otte 100
▁mobile 100
▁brig 100
▁Son 100
▁interpret 100
▁anth 100
ails 100
▁Micro 100
▁Disney 100
▁Rem 100
▁SR 100
▁Care 100
IN 100
tery 100
▁correct 100
▁Grant 100
▁myth 100
▁window 100
▁hors 100
▁Territ 100
▁NY 100
aked 100
▁Orchestra 100
▁stress 100
▁linked 100
eline 100
▁Austrian 100
▁Kev 100
unes 100
umin 100
▁divisions 100
▁vo 100
▁nickn 100
▁bat 100
▁Connecticut 100
ante 100
TS 100
▁tack 100
do 100
▁ownership 100
▁novels 100
▁weekly 100
▁37 100
▁buy 100
▁gender 100
profit 100
▁crossing 100
▁alleg 100
▁formally 100
▁actors 100
mina 100
▁banks 100
uri 100
▁Pitts 100
▁Dean 100
▁Officer 100
▁imprison 100
oen 100
▁relative 100
▁Whe 100
▁Lawrence 100
▁daughters 100
▁exception 100
▁roughly 100
▁fixed 100
▁veget 100
▁kid 100
▁teen 100
▁peaked 100
▁Alexand 100
▁requires 100
▁cold 100
▁Margaret 100
▁crisis 100
aby 100
▁parallel 100
▁49 100
▁wave 100
▁1965 100
aine 100
ctic 100
▁recru 100
▁Hand 100
▁equivalent 100
▁Maur 100
▁medicine 100
Mar 100
▁Lang 100
▁disappe 100
▁Rights 100
▁capable 100
▁practices 100
▁39 100
allas 100
▁Fern 100
▁restrict 100
▁Welsh 100
▁ago 100
LC 100
▁Run 100
▁evening 100
▁encounter 100
▁covering 100
▁seed 100
▁gang 100
▁instance 100
▁Operation 100
▁Back 100
Is 100
uous 100
</ 100
lades 100
▁Atlanta 100
▁competitions 100
veland 100
▁coastal 100
▁herit 100
▁1966 100
▁Aud 100
▁missing 100
▁Hispan 100
▁Commander 100
▁Anna 100
▁appearing 100
▁Associ 100
▁downtown 100
EA 100
▁ABC 100
▁squadron 100
▁frame 100
pers 100
TO 100
▁technique 100
▁scheme 100
enez 100
▁questions 100
ridges 100
▁heads 100
icks 100
▁Age 100
▁offering 100
rell 100
▁Cru 100
▁cous 100
ogan 100
▁Studios 100
inian 100
ymn 100
▁Morgan 100
▁replacement 100
▁Heritage 100
▁authors 100
▁juris 100
▁Legislative 100
▁requirements 100
▁Dave 100
crib 100
▁9. 100
▁Pear 100
▁solution 100
atically 100
▁1994, 100
igious 100
▁Sym 100
▁credit 100
▁dynasty 100
iece 100
hab 100
▁theore 100
55 100
▁option 100
▁Ow 100
▁CO 100
▁Ukrain 100
▁picture 100
▁[[ 100
22 100
lete 100
▁depos 100
▁dim 100
▁Liverpool 100
▁PC 100
▁enh 100
▁Bush 100
▁liqu 100
▁Fil 100
▁x 100
▁Portugal 100
▁tur 100
▁criticism 100
▁Five 100
▁Sport 100
▁Walker 100
eas 100
▁Crown 100
▁Metropolitan 100
hesis 100
▁rose 100
pir 100
▁Row 100
▁Voiv 100
▁testing 100
duct 100
▁Phys 100
▁declined 100
▁diagn 100
▁celebrated 100
ilk 100
intend 100
hyth 100
lected 100
▁Iron 100
▁Sky 100
▁synd 100
▁Cleveland 100
Ph 100
chang 100
34 100
▁surre 100
Pro 100
stances 100
▁translation 100
from 100
▁hosts 100
▁Tokyo 100
▁Il 100
▁raise 100
▁Vienna 100
▁Dol 100
▁Rick 100
mod 100
phone 100
▁achieve 100
▁commemor 100
▁falls 100
▁occupation 100
ahn 100
mosp 100
▁Malaysia 100
▁prisoners 100
odeship 100
▁storage 100
▁soil 100
▁victims 100
▁deputy 100
▁advis 100
▁qualifying 100
udden 100
▁truck 100
▁explos 100
▁perfect 100
▁influential 100
▁Kennedy 100
door 100
▁dies 100
ishment 100
▁Set 100
▁explained 100
▁components 100
▁frag 100
iency 100
ović 100
▁protest 100
▁suspend 100
▁increasingly 100
▁Fal 100
▁Ran 100
▁Ener 100
▁Kevin 100
▁accompl 100
▁Sud 100
▁Banglades 100
orf 100
grade 100
edding 100
▁expedition 100
▁Hop 100
▁Singh 100
▁adding 100
▁Local 100
▁Drag 100
▁Key 100
▁Indonesia 100
▁1948 100
▁Yug 100
100 100
roke 100
▁considerable 100
▁Colonel 100
ellect 100
▁restaurant 100
▁coverage 100
aron 100
▁note 100
▁wooden 100
miral 100
▁cited 100
": 100
▁Alfred 100
▁Peters 100
▁heritage 100
▁weak 100
▁reputation 100
▁medieval 100
▁graduating 100
acher 100
▁Seattle 100
▁José 100
▁filled 100
▁annually 100
▁prosec 100
▁opinion 100
astery 100
▁Laure 100
inding 100
hard 100
town 100
▁manner 100
aph 100
zi 100
▁charts 100
▁murd 100
ivated 100
▁Upper 100
▁recept 100
▁expect 100
rik 100
Cl 100
rant 100
▁instruments 100
estyle 100
▁flowers 100
▁Johann 100
▁contra 100
▁temporary 100
▁snow 100
▁manuscript 100
bach 100
▁childhood 100
amps 100
▁filed 100
ocracy 100
▁processes 100
▁guitarist 100
▁tennis 100
▁Voivodeship 100
where 100
▁poem 100
▁Prote 100
▁wheel 100
▁Meth 100
27 100
▁Chall 100
rapy 100
▁eyes 100
onom 100
▁filmed 100
▁expert 100
chell 100
66 100
tenance 100
hered 100
▁crop 100
▁couples 100
▁meets 100
▁Roger 100
▁forming 100
▁vert 100
▁strongly 100
39 100
ultan 100
ocks 100
▁DNA 100
▁branches 100
▁debate 100
▁markets 100
bishop 100
▁1992, 100
igg 100
▁landing 100
rastructure 100
▁Andre 100
▁supposed 100
▁plate 100
▁message 100
General 100
▁losses 100
▁journey 100
▁offensive 100
▁benefit 100
▁1999. 100
▁assembly 100
person 100
▁75 100
You 100
▁fra 100
▁kingdom 100
▁cool 100
)" 100
▁Agency 100
▁entering 100
ania 100
▁forests 100
atherine 100
die 100
ugu 100
▁Pow 100
▁somewhat 100
▁weeke 100
My 100
▁appointment 100
marine 100
▁existed 100
▁Lane 100
▁Yan 100
▁Unlike 100
▁visitors 100
▁threatened 100
▁64 100
▁Cathedral 100
▁Kelly 100
edia 100
▁Donald 100
▁Rot 100
sm 100
lie 100
▁vessels 100
▁Mrs 100
ovo 100
graduate 100
IP 100
▁dated 100
▁PA 100
▁finding 100
▁output 100
▁lov 100
ushing 100
itals 100
▁imag 100
▁Lev 100
lac 100
▁huge 100
▁Garden 100
▁helping 100
▁Conservative 100
▁bringing 100
▁Convention 100
merce 100
▁rent 100
▁memorial 100
▁ble 100
▁prime 100
El 100
▁signing 100
▁grown 100
cester 100
▁proposal 100
▁Hungarian 100
5,000 100
III 100
▁unf 100
▁replacing 100
▁Ry 100
lon 100
▁Rol 100
▁studying 100
▁alcoh 100
▁ru 100
ester 100
▁Baltimore 100
ifer 100
▁(5 100
▁recordings 100
▁Sha 100
Be 100
FM 100
las 100
ographical 100
▁Kings 100
gow 100
▁artistic 100
▁fit 100
called 100
▁Ward 100
▁Mach 100
▁prohib 100
rett 100
▁ur 100
▁experiences 100
▁extens 100
▁strategy 100
ideo 100
ibl 100
▁withdraw 100
▁tied 100
▁surrounded 100
▁fishing 100
▁Lower 100
▁struck 100
▁Nav 100
Con 100
▁warm 100
▁Mission 100
▁fict 100
finals 100
mingham 100
▁evolution 100
▁rend 100
▁Glas 100
▁prompt 100
▁relief 100
▁Defense 100
▁plane 100
"" 100
ework 100
arest 100
rav 100
hus 100
▁Hungary 100
break 100
▁cup 100
▁Schools 100
▁boundary 100
▁completion 100
▁justice 100
▁artillery 100
emen 100
asters 100
▁nations 100
▁Rap 100
▁lasted 100
▁Russell 100
▁Rub 100
story 100
pen 100
▁eval 100
▁Stewart 100
▁manufacturing 100
▁Bruce 100
▁Rio 100
▁Alliance 100
▁Originally 100
▁Metro 100
▁indicated 100
▁eleven 100
▁Peace 100
osm 100
▁Orthodox 100
▁Bull 100
▁accounts 100
ín 100
▁secure 100
▁medals 100
enses 100
▁Init 100
▁catch 100
apolis 100
▁gather 100
cular 100
▁Opera 100
cur 100
▁Sarah 100
▁Pas 100
ayan 100
▁Honor 100
▁denied 100
▁spiritual 100
▁Champions 100
▁competing 100
▁surviving 100
inter 100
▁1993, 100
▁Ay 100
dr 100
▁finals 100
ando 100
▁wides 100
▁Campbell 100
▁Buff 100
eping 100
▁É 100
▁tie 100
▁Global 100
iege 100
▁papers 100
▁nom 100
▁appeal 100
▁concrete 100
48 100
▁affairs 100
▁175 100
▁Moon 100
force 100
▁Dream 100
▁eliminated 100
▁Nort 100
▁Athletic 100
HS 100
xts 100
ithuan 100
sch 100
rage 100
▁Tig 100
nal 100
bridge 100
▁modified 100
▁1990, 100
▁fear 100
▁amend 100
▁rivers 100
▁happened 100
▁Ukrainian 100
▁Disc 100
▁pitch 100
▁Finland 100
aware 100
▁mountains 100
26 100
▁absor 100
aints 100
▁Your 100
mate 100
▁thirty 100
OC 100
▁plus 100
inations 100
host 100
▁Senator 100
▁net 100
▁react 100
▁Along 100
▁Pur 100
ighters 100
▁Tit 100
▁Gran 100
▁Environment 100
▁1991, 100
▁monument 100
▁collections 100
dy 100
▁nomination 100
▁lists 100
▁Yugoslav 100
▁Thompson 100
▁1944 100
leased 100
▁recre 100
seud 100
▁shif 100
▁fruit 100
uj 100
▁cards 100
anny 100
▁Norman 100
▁Ever 100
▁counties 100
▁satisf 100
phony 100
▁habitat 100
ogs 100
▁rounds 100
▁Crit 100
▁fal 100
▁sufficient 100
igible 100
▁edited 100
pread 100
▁Brothers 100
orial 100
itter 100
▁Vinc 100
essions 100
▁movements 100
acon 100
▁Saf 100
▁decline 100
▁Gon 100
▁Arn 100
▁amateur 100
inction 100
ige 100
▁cook 100
▁controversial 100
▁Confeder 100
inch 100
As 100
▁aggreg 100
ET 100
–5 100
▁1963 100
▁neut 100
▁Dyn 100
▁(197 100
▁speak 100
uy 100
▁Ll 100
▁Austin 100
poss 100
▁Nelson 100
▁jurisd 100
▁Ky 100
uda 100
atus 100
Ind 100
▁Nazi 100
▁circuit 100
▁occasionally 100
▁approval 100
▁camera 100
▁Gene 100
▁hur 100
▁reun 100
▁Broadway 100
▁Adams 100
ruption 100
▁Notable 100
▁drew 100
-9 100
▁fest 100
MP 100
▁equipped 100
▁Non 100
▁climb 100
▁mental 100
▁1962 100
▁Authority 100
look 100
asts 100
▁earn 100
▁distinguished 100
33 100
▁Beg 100
▁(195 100
osph 100
rak 100
▁involvement 100
▁Market 100
lem 100
▁license 100
nia 100
▁continuing 100
▁Franklin 100
▁frequency 100
olo 100
-6 100
▁attracted 100
▁acted 100
▁Horn 100
igrated 100
ref 100
ét 100
▁Nash 100
▁Birmingham 100
▁Pittsburgh 100
–200 100
xual 100
▁pric 100
▁bes 100
asure 100
▁assign 100
▁Round 100
▁executed 100
▁elder 100
shaped 100
cho 100
elli 100
sea 100
ED 100
▁Cole 100
This 100
amental 100
rient 100
▁print 100
▁Beck 100
▁vessel 100
▁Within 100
▁Morris 100
mi 100
aman 100
▁cm 100
▁Camer 100
tha 100
▁surf 100
orer 100
ni 100
net 100
aptist 100
▁eighth 100
▁Every 100
pes 100
▁Liter 100
▁1956 100
▁controversy 100
▁shares 100
▁effectively 100
rena 100
▁electoral 100
mal 100
▁mob 100
ranean 100
▁Fleet 100
▁whilst 100
▁shore 100
▁42 100
▁illegal 100
▁ster 100
▁die 100
aments 100
▁exerc 100
▁dream 100
▁Venez 100
▁whereas 100
▁penalty 100
▁turb 100
▁anything 100
▁assass 100
▁Wol 100
▁traveled 100
▁Judge 100
ounced 100
ials 100
▁hang 100
▁rapidly 100
▁Nep 100
▁hip 100
ported 100
race 100
top 100
▁Bed 100
▁remember 100
▁elevation 100
▁SS 100
▁genre 100
▁Chamber 100
arant 100
▁1998. 100
▁vic 100
▁designer 100
▁recommended 100
▁pray 100
▁donated 100
▁Gor 100
▁visible 100
olly 100
▁changing 100
▁newspapers 100
▁planet 100
▁Energy 100
▁Carter 100
▁1939 100
wall 100
▁Wright 100
▁skin 100
▁Chen 100
▁emergency 100
▁Nob 100
▁beet 100
▁Fel 100
▁minimum 100
▁championships 100
▁treated 100
▁draf 100
▁Sac 100
▁Vik 100
▁Dallas 100
roc 100
▁Marie 100
▁Leban 100
▁atmosp 100
▁Instead 100
▁tell 100
▁Champion 100
ensis 100
but 100
▁infantry 100
▁moder 100
▁bear 100
master 100
▁compilation 100
▁Boys 100
pha 100
▁meetings 100
▁excell 100
"- 100
▁greatly 100
▁55 100
▁Robinson 100
▁depending 100
▁missions 100
hai 100
▁Agricult 100
▁Shortly 100
▁adopt 100
otype 100
▁Hend 100
abilities 100
▁expos 100
▁widespread 100
aste 100
▁segment 100
▁directors 100
▁Chand 100
GA 100
▁Murray 100
▁Patri 100
gi 100
-201 100
▁canc 100
▁Arkansas 100
▁makeup 100
▁Gri 100
▁massive 100
▁battles 100
▁defence 100
▁Hit 100
?" 100
▁teach 100
▁underground 100
▁participation 100
▁Unt 100
▁portrayed 100
▁Hindu 100
icon 100
és 100
casting 100
▁SA 100
▁vision 100
isition 100
▁Dak 100
▁App 100
lap 100
antasy 100
▁visiting 100
attan 100
▁theat 100
▁AT 100
▁suicide 100
▁tools 100
cknow 100
theless 100
▁See 100
ailand 100
▁Mond 100
▁populations 100
gie 100
▁+ 100
GB 100
cia 100
▁Marshall 100
▁retain 100
▁Victorian 100
▁unusual 100
▁wine 100
▁rif 100
▁panel 100
▁prede 100
asa 100
▁entertainment 100
▁knew 100
▁hundreds 100
▁Lib 100
cons 100
▁intersection 100
▁fil 100
▁tests 100
ouver 100
▁remainder 100
▁Fried 100
▁Wrest 100
ector 100
▁Windows 100
▁lin 100
▁Beat 100
▁Architect 100
▁Information 100
▁Sn 100
▁definition 100
▁mode 100
rehens 100
▁ben 100
annels 100
idency 100
▁Basketball 100
▁versus 100
▁Rud 100
dest 100
▁spoken 100
▁occasions 100
icop 100
▁drawing 100
▁Frid 100
Bl 100
▁parliamentary 100
▁12. 100
▁mir 100
▁dang 100
▁contested 100
▁fled 100
▁posted 100
▁describe 100
▁Race 100
▁NBC 100
▁1961 100
▁intention 100
▁Christopher 100
▁1946 100
▁Karl 100
hand 100
▁Invest 100
–6 100
bat 100
▁begun 100
olds 100
▁intellect 100
iors 100
▁soccer 100
▁wick 100
▁1958 100
▁Kan 100
▁Utah 100
din 100
▁Prad 100
37 100
▁architectural 100
▁acknow 100
▁themes 100
▁everything 100
▁adaptation 100
ID 100
▁tact 100
ashed 100
ocol 100
▁exists 100
▁undert 100
▁maintenance 100
otton 100
▁understand 100
▁trading 100
ultane 100
usted 100
▁Stanley 100
▁UE 100
▁Graham 100
▁Jimmy 100
▁phone 100
▁CBS 100
▁concerned 100
▁inner 100
▁Bangladesh 100
▁furn 100
▁attributed 100
▁1942 100
▁proport 100
4), 100
▁concerts 100
▁Place 100
ruction 100
▁Event 100
▁chapter 100
isi 100
▁supplies 100
▁emerged 100
▁Romania 100
▁Brooklyn 100
▁Mong 100
ingly 100
estone 100
▁domain 100
ologists 100
▁1959 100
▁cousin 100
▁bot 100
▁Never 100
▁landscape 100
soft 100
▁Medicine 100
▁pregn 100
usk 100
leans 100
▁Protest 100
▁centers 100
stic 100
▁Guine 100
▁networks 100
▁agriculture 100
udes 100
▁celeb 100
uated 100
▁resolution 100
oca 100
▁sudden 100
▁supports 100
▁admin 100
▁youngest 100
▁injuries 100
iah 100
▁Derby 100
▁Indians 100
▁producers 100
▁Thailand 100
▁Py 100
For 100
▁dialect 100
▁videos 100
▁diameter 100
orporated 100
▁Sin 100
▁gradually 100
▁beach 100
▁useful 100
▁1989, 100
▁gone 100
▁chapel 100
▁pron 100
▁departure 100
▁Heb 100
izon 100
▁horses 100
▁longest 100
▁printed 100
▁Soon 100
▁1941 100
▁suspended 100
▁Training 100
▁Canal 100
▁valid 100
▁spoke 100
▁Dark 100
▁Constant 100
opal 100
▁mo 100
▁amongst 100
▁toured 100
▁turning 100
▁instrumental 100
orus 100
▁safe 100
▁erected 100
such 100
▁endemic 100
▁nav 100
▁Mack 100
▁1997. 100
▁surgery 100
▁encouraged 100
▁Friend 100
▁representation 100
▁Si 100
▁Venezuel 100
▁Kon 100
▁honour 100
▁marketing 100
▁supporters 100
▁Vic 100
▁repro 100
▁periods 100
▁venue 100
▁tow 100
▁satellite 100
▁afterwards 100
▁Theater 100
▁employment 100
▁classification 100
▁wrong 100
▁cable 100
▁colony 100
▁writes 100
▁preserved 100
rac 100
arth 100
ricane 100
▁predomin 100
▁NBA 100
▁spending 100
▁Tower 100
rang 100
36 100
▁operational 100
▁Trad 100
▁blocks 100
▁suffering 100
▁Bes 100
▁convention 100
zz 100
▁Around 100
olia 100
▁discovery 100
▁jobs 100
▁WW 100
▁Nord 100
▁boats 100
bean 100
▁astron 100
rations 100
▁Orleans 100
▁agencies 100
▁uncle 100
otes 100
▁Equ 100
▁loyal 100
▁Bernard 100
▁Knight 100
iterranean 100
▁Carib 100
iop 100
erted 100
▁1947 100
▁1952 100
▁Hum 100
▁apparently 100
▁opportunities 100
▁Wa 100
▁Singles 100
▁mart 100
▁1996. 100
▁defending 100
▁transportation 100
▁infrastructure 100
▁Glasgow 100
▁thing 100
▁ruling 100
▁demolished 100
▁innings 100
▁AP 100
▁Lithuan 100
▁competitive 100
▁FIFA 100
▁Billy 100
▁yield 100
▁fictional 100
▁Dub 100
▁Pad 100
▁Method 100
▁Hispanic 100
▁Belgian 100
ersed 100
rov 100
oba 100
▁send 100
▁none 100
▁representatives 100
rama 100
▁locality 100
▁characteristics 100
▁cul 100
▁Trophy 100
-10 100
▁Dom 100
▁Richmond 100
▁customers 100
▁immediate 100
▁CA 100
▁external 100
▁easy 100
▁arc 100
▁exceed 100
▁Germans 100
▁Thor 100
mates 100
▁extent 100
▁percentage 100
▁Brist 100
▁lob 100
▁sees 100
▁Trade 100
▁femin 100
rank 100
ellor 100
▁voting 100
▁Ald 100
▁Portland 100
▁grey 100
▁audio 100
oni 100
▁ranking 100
▁claiming 100
▁advertising 100
▁Lud 100
▁Dec 100
No 100
ancouver 100
▁Movement 100
pop 100
▁Again 100
▁Veg 100
▁Treaty 100
▁platforms 100
▁ratio 100
▁abroad 100
▁absence 100
▁Yorkshire 100
usalem 100
▁worship 100
▁Muham 100
▁enjoyed 100
final 100
▁Hampshire 100
RS 100
▁switch 100
amo 100
▁Apple 100
atur 100
bound 100
▁Gill 100
▁predecess 100
▁phr 100
▁dub 100
▁relationships 100
▁regime 100
hythm 100
▁viewed 100
▁Neb 100
▁tribe 100
▁Carlos 100
▁deaths 100
▁160 100
▁frequent 100
▁Princess 100
oven 100
oom 100
▁passage 100
-200 100
▁anch 100
▁participants 100
49 100
▁Milan 100
hu 100
▁Hell 100
▁Benj 100
▁benefits 100
cour 100
▁associate 100
▁Dance 100
▁Finnish 100
▁41 100
▁categories 100
▁normally 100
▁Girls 100
keeper 100
▁tenure 100
contin 100
fare 100
▁crash 100
archy 100
illo 100
▁creative 100
▁governments 100
▁mathematics 100
▁1957 100
▁Such 100
struct 100
▁reportedly 100
▁Maj 100
▁AS 100
▁Bachelor 100
▁1943 100
▁illness 100
▁substantial 100
▁sustain 100
▁11. 100
rock 100
.' 100
▁Sax 100
▁Fall 100
▁Kit 100
asi 100
cut 100
ricted 100
▁poems 100
▁thousand 100
▁contribution 100
eta 100
▁Cass 100
▁characterized 100
▁apply 100
▁Capital 100
▁discip 100
▁Works 100
▁cabinet 100
istical 100
later 100
MC 100
athy 100
Am 100
▁Egyptian 100
▁commanded 100
▁behalf 100
En 100
▁styles 100
▁worksh 100
▁wants 100
onian 100
fam 100
riel 100
▁territories 100
▁Aqu 100
▁agents 100
▁viewers 100
Ad 100
▁Norm 100
Com 100
▁Gmina 100
▁Mediterranean 100
▁indicate 100
cht 100
▁rescue 100
▁picked 100
phan 100
▁corporate 100
▁relocated 100
rot 100
▁1955 100
orous 100
▁Gary 100
▁Evans 100
▁movies 100
▁attending 100
▁dominated 100
▁sponsored 100
terior 100
oda 100
▁lieutenant 100
▁fur 100
▁Emer 100
uters 100
▁missed 100
▁Motor 100
32 100
▁choose 100
iac 100
▁UEFA 100
nik 100
▁aimed 100
▁hearing 100
▁1936 100
style 100
▁Nad 100
oga 100
▁rebuilt 100
▁pure 100
▁duo 100
▁Vancouver 100
leton 100
ivation 100
▁construct 100
▁Delhi 100
▁Cricket 100
ijing 100
▁publicly 100
On 100
▁Rico 100
▁friendly 100
atab 100
▁chamber 100
▁Benn 100
▁DJ 100
–7 100
▁channels 100
▁Until 100
▁casual 100
▁everyone 100
▁commented 100
ML 100
▁Nam 100
▁sentenced 100
▁borders 100
▁Flore 100
▁indigenous 100
▁proc 100
▁Dh 100
▁Angl 100
▁tribes 100
uble 100
archers 100
▁broadcasting 100
▁mounted 100
▁Limited 100
mund 100
▁Jason 100
▁confer 100
ilty 100
▁phenomen 100
ocation 100
▁Mem 100
erk 100
▁tempor 100
▁detailed 100
▁produces 100
▁Bris 100
▁insurance 100
zes 100
▁1949 100
▁recovered 100
▁ranks 100
▁AR 100
▁constitution 100
▁transmission 100
▁Unit 100
▁component 100
▁integrated 100
▁truth 100
NC 100
▁Guy 100
▁Andy 100
▁funded 100
▁Wor 100
▁Bomb 100
▁myster 100
mentary 100
▁statue 100
rub 100
erbai 100
▁ceased 100
▁Chem 100
abil 100
▁Romanian 100
▁176 100
▁Similar 100
▁processing 100
oples 100
▁vast 100
▁170 100
▁resemb 100
▁Cher 100
▁1995. 100
▁Nev 100
▁Catal 100
iration 100
▁Ext 100
▁Rain 100
igs 100
▁Manh 100
andal 100
▁bid 100
▁schedule 100
▁Girl 100
eneration 100
irds 100
▁credits 100
▁patient 100
▁Ko 100
ashi 100
▁researchers 100
▁facing 100
▁hal 100
▁Hold 100
▁Madrid 100
▁(17 100
len 100
ivan 100
▁descent 100
away 100
lington 100
ewhere 100
▁Mans 100
iph 100
▁Draft 100
▁Ent 100
▁infl 100
▁SC 100
▁subd 100
ductions 100
▁Bible 100
▁adults 100
erg 100
▁Defence 100
▁bon 100
▁Player 100
▁Mitchell 100
ounsel 100
▁invent 100
avan 100
▁identify 100
▁What 100
▁ready 100
▁Mort 100
▁Jerusalem 100
▁stable 100
▁Warner 100
▁Johnny 100
▁Warren 100
usc 100
pent 100
▁dual 100
eor 100
cribed 100
▁facilit 100
▁strict 100
▁Afghanistan 100
iture 100
▁experimental 100
▁merchant 100
encing 100
anner 100
▁releases 100
▁Publ 100
▁Luther 100
▁disband 100
▁seeking 100
▁organised 100
▁affiliated 100
▁Rena 100
▁Imp 100
▁hope 100
▁spaces 100
▁swit 100
ocratic 100
▁excess 100
eria 100
▁struggle 100
▁asks 100
▁premiere 100
▁Having 100
▁Monte 100
ulating 100
85 100
high 100
▁Benjamin 100
▁holid 100
▁beautiful 100
commun 100
▁description 100
▁wet 100
▁file 100
▁inaugural 100
▁Bud 100
ohn 100
castle 100
▁Wing 100
▁Ivan 100
▁conservative 100
▁junction 100
▁Barry 100
▁param 100
ivate 100
▁weapon 100
ducted 100
▁foss 100
▁inse 100
▁talent 100
▁electron 100
pol 100
▁drugs 100
▁destruction 100
▁highlight 100
▁AI 100
boy 100
▁Muhammad 100
▁bacter 100
▁Lanka 100
▁Bristol 100
obi 100
reck 100
▁volumes 100
SS 100
issue 100
▁possession 100
▁Natural 100
▁patrol 100
▁simultane 100
▁$4 100
OM 100
▁Food 100
▁lap 100
▁string 100
▁principles 100
▁(196 100
▁rated 100
▁Fitz 100
▁Hud 100
▁Tol 100
▁Conn 100
▁1994. 100
elected 100
fielder 100
▁kit 100
▁Has 100
▁possibility 100
▁wat 100
▁implemented 100
▁Trump 100
▁intent 100
▁Azerbai 100
▁settlers 100
hour 100
▁1954 100
bane 100
▁earning 100
▁Fr 100
▁Serbian 100
▁deployed 100
ingham 100
▁responded 100
atin 100
▁roots 100
▁1987, 100
TE 100
arma 100
▁congreg 100
): 100
eo 100
▁const 100
▁publisher 100
lik 100
arks 100
aran 100
sequently 100
▁1992. 100
▁keeping 100
▁Jun 100
▁grandfather 100
▁extreme 100
▁belonged 100
folk 100
▁Maine 100
▁tribut 100
▁Mes 100
▁monitor 100
ouses 100
stad 100
▁immigrants 100
acre 100
rove 100
▁exposed 100
▁partly 100
▁Athletics 100
plicit 100
▁EU 100
▁assets 100
ulu 100
▁Pir 100
▁restoration 100
▁liberal 100
fish 100
▁Arena 100
▁secured 100
▁conj 100
▁doesn 100
geon 100
▁matters 100
▁athletes 100
▁Throughout 100
▁Falls 100
prene 100
▁Serbia 100
▁trap 100
▁Wayne 100
▁wel 100
ussian 100
▁sentence 100
▁Initially 100
▁scientists 100
LS 100
-20 100
otal 100
▁Michel 100
include 100
▁partially 100
▁displayed 100
fire 100
▁driven 100
▁Mi 100
emed 100
▁subsidiary 100
▁1988, 100
reprene 100
▁speaking 100
▁Rav 100
▁Harrison 100
▁Baker 100
▁borough 100
▁partners 100
▁Pierre 100
▁reveals 100
▁steps 100
Col 100
brid 100
▁Scient 100
▁Eug 100
mm 100
▁120 100
▁depict 100
gun 100
▁Communications 100
▁debt 100
▁: 100
alia 100
▁Kum 100
▁weekend 100
OR 100
▁decides 100
▁Story 100
▁NHL 100
▁Father 100
▁reven 100
▁Burg 100
▁Sid 100
▁voters 100
▁explo 100
▁wedding 100
▁Construction 100
minute 100
bel 100
▁runner 100
▁personality 100
▁Economic 100
▁Season 100
uits 100
ör 100
▁concentration 100
▁revenue 100
jab 100
▁discussed 100
iri 100
borne 100
▁generated 100
▁Ian 100
▁Nicholas 100
▁opponents 100
▁ninth 100
▁1910 100
▁gay 100
▁outer 100
▁Prom 100
▁1938 100
▁conservation 100
abet 100
▁sponsor 100
▁Zone 100
▁locally 100
▁gate 100
▁touring 100
▁drafted 100
ulum 100
iveness 100
▁1953 100
▁provision 100
▁leaf 100
Wh 100
▁Wang 100
▁Charlie 100
▁Grade 100
▁swimming 100
▁anyone 100
▁Baptist 100
▁apartment 100
▁Code 100
▁intellectual 100
én 100
▁civilian 100
▁Greater 100
▁provinces 100
▁neck 100
▁alcohol 100
▁Students 100
▁businessman 100
▁throne 100
▁neither 100
fers 100
▁MA 100
▁1986, 100
urers 100
▁1951 100
▁patron 100
▁Shang 100
▁moves 100
zant 100
uki 100
gate 100
West 100
onlyinclude 100
▁Beijing 100
rose 100
▁1945, 100
▁Salv 100
▁Organization 100
▁farmers 100
▁Vel 100
▁Verm 100
▁diverse 100
gorith 100
agre 100
▁palace 100
▁assemb 100
▁animated 100
NS 100
▁Tob 100
▁interpre 100
▁download 100
▁liquid 100
▁appropriate 100
▁establishing 100
▁wire 100
▁pursue 100
umbent 100
Ex 100
▁terminal 100
▁Fine 100
▁43 100
ennial 100
▁abuse 100
▁Iv 100
inating 100
▁focuses 100
incorporated 100
aton 100
▁desire 100
▁judges 100
▁Om 100
▁excav 100
▁Parish 100
closed 100
▁terminus 100
▁Orange 100
arged 100
acht 100
▁Last 100
acks 100
▁Manhattan 100
▁Nigeria 100
unc 100
▁Conserv 100
▁jum 100
▁charity 100
rams 100
PR 100
▁Seven 100
▁Reform 100
iciency 100
▁Caribbean 100
agar 100
ugs 100
▁Track 100
▁Frances 100
▁legs 100
▁Pav 100
▁signs 100
▁timber 100
▁advice 100
body 100
owed 100
▁exclusively 100
▁(9 100
▁completing 100
▁Mars 100
▁hat 100
▁Clinton 100
uable 100
▁Trail 100
▁mines 100
1). 100
▁closer 100
▁Jama 100
eenth 100
▁lock 100
-7 100
▁Record 100
▁nurs 100
▁householder 100
▁Latino 100
▁mac 100
▁involves 100
▁1,000 100
▁Box 100
ambig 100
▁Ice 100
BM 100
▁Clar 100
▁texts 100
onymous 100
▁Members 100
▁Steel 100
▁"", 100
inental 100
▁Bengal 100
▁falling 100
▁unsuccessful 100
▁Ins 100
▁Chang 100
▁convin 100
▁mor 100
▁licensed 100
▁Griff 100
▁Parker 100
▁Cart 100
▁qualify 100
▁Branch 100
▁Death 100
span 100
▁46 100
▁sailed 100
▁attorney 100
▁1918 100
▁resort 100
uru 100
▁electrical 100
▁rub 100
▁initiated 100
▁escort 100
▁Alt 100
▁Tele 100
hill 100
▁cash 100
scale 100
▁tunnel 100
▁dismissed 100
DC 100
▁Hig 100
▁Ric 100
▁Therefore 100
▁Adela 100
▁Gray 100
▁Mess 100
acle 100
▁deck 100
▁Much 100
▁Start 100
abor 100
▁Rangers 100
▁Phoen 100
▁ther 100
▁Tun 100
eters 100
▁increases 100
▁rising 100
▁Commissioner 100
▁lose 100
▁Nation 100
▁cemetery 100
▁shock 100
▁clearly 100
▁profit 100
▁imperial 100
resident 100
▁2020, 100
oria 100
▁Vlad 100
44 100
▁Obs 100
endar 100
▁remove 100
▁initiative 100
▁compens 100
▁honorary 100
uper 100
▁Trinity 100
▁Sultan 100
▁1993. 100
▁Furthermore 100
▁drummer 100
▁Ship 100
ancellor 100
▁communications 100
▁Rest 100
▁Tak 100
azines 100
▁balance 100
▁Culture 100
▁Racing 100
▁scholarship 100
▁Vas 100
▁sessions 100
▁Ru 100
▁coalition 100
song 100
▁Psych 100
▁eldest 100
▁bright 100
roph 100
▁prest 100
▁Chel 100
▁lowest 100
▁circumstances 100
▁solar 100
▁limits 100
▁repair 100
▁Goth 100
▁links 100
ser 100
▁merger 100
▁1991. 100
▁substitute 100
weet 100
▁Arabic 100
▁stim 100
▁cann 100
▁principle 100
▁Josh 100
▁IC 100
▁assisted 100
▁cancelled 100
▁Jenn 100
▁Tib 100
▁demonstrated 100
▁migr 100
▁Kos 100
▁persu 100
bul 100
▁Dead 100
▁Tang 100
▁1928 100
▁1985, 100
▁Together 100
▁Charlotte 100
mo 100
▁survive 100
▁ocean 100
WA 100
▁47 100
▁municipalities 100
▁Cha 100
▁isolated 100
▁traditions 100
▁essential 100
▁1890 100
iliar 100
unct 100
case 100
▁mal 100
▁Hawaii 100
▁Municipality 100
care 100
”. 100
▁connecting 100
▁1990. 100
▁upgrad 100
▁ongoing 100
▁pull 100
▁coaching 100
▁housed 100
▁traded 100
▁conclusion 100
mel 100
▁Allied 100
▁Tu 100
▁withdrew 100
▁(15 100
▁fighter 100
enger 100
▁sculpture 100
▁Abbey 100
fly 100
▁bay 100
pany 100
▁Romanized 100
inos 100
▁beating 100
▁fold 100
▁suitable 100
▁romantic 100
rehensive 100
▁Guinea 100
▁Persian 100
▁minority 100
▁guilty 100
▁Lore 100
▁belonging 100
▁Abdul 100
▁notice 100
▁vs 100
▁decisions 100
athered 100
▁margin 100
▁13. 100
ampton 100
▁labour 100
idal 100
▁Alice 100
▁evac 100
▁charter 100
▁thereafter 100
▁dispute 100
▁Ple 100
▁underw 100
bes 100
ching 100
▁helicop 100
▁indicates 100
oded 100
itual 100
▁crossed 100
mont 100
▁treaty 100
▁(6 100
▁submitted 100
▁internationally 100
▁Muslims 100
▁coff 100
arked 100
▁continuous 100
opes 100
▁fitted 100
▁1000 100
▁Hunter 100
▁id 100
▁discontin 100
maker 100
▁algorith 100
▁Standard 100
▁Bron 100
▁opponent 100
47 100
▁closing 100
▁Ridge 100
▁Lad 100
▁Iranian 100
▁strategic 100
▁eat 100
making 100
nowiki 100
▁stem 100
▁superior 100
▁regulations 100
▁Assistant 100
▁Gaz 100
▁patterns 100
▁activist 100
95 100
▁soldier 100
▁acknowled 100
▁breaking 100
▁earthqu 100
▁Peninsula 100
▁congress 100
▁doubles 100
sis 100
pla 100
rystal 100
▁Finally 100
▁sympt 100
▁wearing 100
▁else 100
itable 100
elect 100
▁Broadcasting 100
8), 100
vi 100
▁Aer 100
▁pod 100
▁Call 100
▁Eston 100
sters 100
▁3- 100
▁requested 100
▁agree 100
akia 100
▁Wes 100
▁alliance 100
▁Glen 100
▁originated 100
olph 100
▁Section 100
▁sight 100
flow 100
foot 100
▁Adelaide 100
▁AA 100
▁soul 100
▁Isa 100
▁battalion 100
▁Universal 100
overe 100
▁; 100
▁seeing 100
▁NS 100
▁Mak 100
▁Mall 100
itis 100
▁golf 100
celand 100
▁Hom 100
▁dominant 100
leyball 100
iler 100
▁heir 100
▁manage 100
▁radical 100
▁Byzant 100
▁Electric 100
▁monastery 100
via 100
aja 100
▁spr 100
▁organis 100
▁locomotives 100
▁Pradesh 100
▁reduction 100
▁Turner 100
▁YouT 100
ipped 100
▁Wrestling 100
▁1937 100
▁Alberta 100
▁Face 100
ifies 100
▁cargo 100
▁Obl 100
▁colors 100
▁Near 100
certain 100
▁Maced 100
▁sang 100
▁Attorney 100
▁gross 100
▁cattle 100
▁Century 100
viously 100
hum 100
andy 100
uction 100
▁camps 100
▁Poly 100
▁operator 100
mediate 100
▁Cob 100
▁arrangement 100
▁hypot 100
▁productions 100
▁boundaries 100
▁believes 100
uka 100
ME 100
▁manufactured 100
language 100
▁marry 100
▁comed 100
▁Nova 100
▁aggress 100
▁surve 100
eton 100
winning 100
▁fifteen 100
▁false 100
▁integr 100
▁Syria 100
▁compla 100
gam 100
▁legislative 100
▁marks 100
▁Net 100
▁Friday 100
ère 100
▁Princip 100
▁1935 100
▁orchestra 100
▁Books 100
▁ninet 100
▁doors 100
▁tort 100
▁Advent 100
▁dangerous 100
▁1929 100
arat 100
▁52 100
Can 100
▁input 100
▁settlements 100
▁Pra 100
acts 100
▁Cuba 100
▁mechanism 100
▁unincorporated 100
▁jurisdiction 100
tr 100
▁Sr 100
▁expand 100
▁Barbara 100
▁playoffs 100
▁Advis 100
▁traditionally 100
bus 100
▁banned 100
▁Soccer 100
▁travelled 100
▁outbreak 100
▁strengthen 100
▁spin 100
▁serial 100
▁Microsoft 100
▁Our 100
▁tanks 100
▁controll 100
▁emperor 100
▁Who 100
aced 100
▁magazines 100
▁tool 100
▁Kirk 100
▁temperatures 100
▁1984, 100
▁Ug 100
▁Lis 100
▁1924 100
▁Maz 100
▁wealthy 100
▁manif 100
amese 100
▁1980, 100
_1 100
▁600 100
▁physics 100
feld 100
▁Grad 100
▁rand 100
▁electricity 100
▁conventional 100
▁respective 100
▁Jonathan 100
sa 100
▁devoted 100
▁py 100
▁Jazz 100
aha 100
▁clothing 100
▁landed 100
▁manufacturer 100
▁index 100
▁168 100
rypt 100
▁festivals 100
asant 100
▁Brisbane 100
quir 100
▁1880 100
onies 100
▁Buffalo 100
▁config 100
▁photography 100
▁discussion 100
▁recognised 100
▁eligible 100
icular 100
▁editions 100
▁extensively 100
▁ideal 100
▁crimes 100
▁practical 100
▁gard 100
▁Studio 100
imir 100
iya 100
▁Archbishop 100
▁constitutional 100
▁industries 100
ieth 100
▁• 100
def 100
▁Sign 100
▁Peru 100
▁permission 100
▁Cinc 100
▁torn 100
▁clinical 100
▁Socialist 100
46 100
lett 100
▁1914 100
▁wrestling 100
▁nucle 100
uez 100
itime 100
▁trials 100
atar 100
▁Springs 100
▁grows 100
▁Comple 100
ierra 100
▁exhibited 100
nex 100
owski 100
rows 100
▁negotiations 100
▁Pant 100
▁rect 100
▁Currently 100
▁Lloyd 100
▁fee 100
▁Fisher 100
3). 100
▁significance 100
▁eggs 100
▁drivers 100
▁Know 100
▁hunting 100
apping 100
▁Grey 100
▁Hudson 100
▁Barcel 100
▁tons 100
game 100
▁violent 100
uart 100
▁origins 100
olition 100
amics 100
▁overseas 100
trans 100
▁Cad 100
▁14. 100
▁YouTube 100
▁hear 100
▁diver 100
▁Challenge 100
▁mechanical 100
▁reorgan 100
acc 100
▁cinema 100
–201 100
▁Oliver 100
▁random 100
AA 100
ygen 100
▁rarely 100
▁alter 100
▁photographs 100
bing 100
iche 100
▁Bour 100
▁ha 100
▁twin 100
▁expensive 100
▁pale 100
▁els 100
▁Theod 100
▁Philippine 100
family 100
▁keyboard 100
▁connections 100
▁propag 100
▁Pon 100
▁implementation 100
▁MS 100
▁RAF 100
▁promoting 100
▁linear 100
▁baby 100
▁protests 100
31 100
▁Shel 100
ambiguation 100
▁influences 100
auge 100
phew 100
▁Lag 100
▁accord 100
▁ride 100
▁Ref 100
othy 100
▁1944, 100
▁1917 100
arus 100
▁Munich 100
▁Tigers 100
▁reaches 100
▁machines 100
aku 100
▁salt 100
▁Collins 100
▁Sig 100
▁Ja 100
▁165 100
▁Males 100
▁Years 100
▁Commons 100
▁1989. 100
▁sisters 100
▁Pil 100
▁jury 100
▁elsewhere 100
▁surviv 100
abric 100
▁Punjab 100
▁genetic 100
▁Diocese 100
▁Symphony 100
▁rig 100
zed 100
▁Stevens 100
▁Progress 100
▁flights 100
▁restricted 100
lane 100
▁venture 100
▁Clay 100
▁CP 100
formerly 100
▁pictures 100
▁Daily 100
▁Kap 100
▁Borough 100
▁vul 100
▁prices 100
▁Hav 100
▁Eventually 100
▁defended 100
▁Aber 100
▁surpr 100
▁Coal 100
▁Municipal 100
anim 100
▁ranging 100
oked 100
innati 100
roid 100
▁transmit 100
arrier 100
▁(8 100
▁Bulgar 100
mits 100
▁Mason 100
eli 100
▁Alaska 100
May 100
kov 100
disambiguation 100
bow 100
esc 100
rez 100
ixon 100
▁outstanding 100
▁looked 100
▁pip 100
▁acres 100
▁eigh 100
▁discrim 100
▁subt 100
▁Leeds 100
▁acquisition 100
▁Iceland 100
▁departed 100
▁(). 100
achment 100
▁Anglo 100
▁Moham 100
ishers 100
vision 100
type 100
▁Speed 100
▁Craig 100
issions 100
she 100
▁bases 100
zing 100
▁pages 100
▁Catherine 100
▁Amaz 100
orne 100
▁Vincent 100
▁Dakota 100
▁latest 100
▁delivery 100
▁Late 100
▁campaigns 100
occ 100
▁clock 100
▁Protestant 100
IL 100
enberg 100
▁PhD 100
holm 100
▁slaves 100
▁preferred 100
Or 100
▁participating 100
▁conversion 100
▁empt 100
▁rebell 100
▁Control 100
▁remix 100
▁exclud 100
▁accessible 100
▁approached 100
▁Appe 100
encer 100
tical 100
▁riding 100
works 100
At 100
▁Democrat 100
▁Mother 100
▁concerning 100
▁° 100
▁usual 100
released 100
▁enrolled 100
ethe 100
arv 100
▁gast 100
▁Model 100
awn 100
▁noble 100
▁Cultural 100
▁1983, 100
▁1982, 100
oj 100
urst 100
▁topics 100
▁1933 100
▁Saints 100
▁condem 100
▁ritual 100
▁Athens 100
othe 100
▁scores 100
▁colleges 100
▁canal 100
▁Democrats 100
ups 100
▁10,000 100
▁LP 100
▁proteins 100
month 100
▁Dod 100
▁collaborated 100
▁avo 100
venth 100
▁1934 100
onds 100
▁Conc 100
aser 100
▁contributing 100
▁battery 100
possible 100
elfare 100
eston 100
▁Urban 100
Donald 100
▁ties 100
outheastern 100
▁Fact 100
▁VI 100
▁shift 100
▁Hugh 100
▁interviews 100
▁rum 100
▁caps 100
▁helps 100
jection 100
icking 100
▁evolved 100
HA 100
ouncill 100
▁Yang 100
▁Digital 100
omon 100
▁kg 100
▁argument 100
▁inducted 100
▁unlike 100
▁identical 100
▁Tag 100
▁managing 100
omic 100
▁Barcelona 100
▁Ral 100
stance 100
▁describing 100
▁Cincinnati 100
▁exercise 100
▁Colombia 100
▁1972, 100
▁1979, 100
▁convicted 100
▁waste 100
▁Blues 100
▁Pictures 100
▁Christians 100
▁guarant 100
scar 100
▁Serge 100
▁intern 100
▁Norfolk 100
▁layer 100
angular 100
▁pointed 100
▁efficient 100
▁petition 100
▁800 100
▁dollars 100
cient 100
▁Sche 100
ibilities 100
Pr 100
▁Plant 100
▁CS 100
enia 100
▁specialized 100
▁Hem 100
▁Hamb 100
▁1922 100
▁corresponding 100
▁decide 100
▁preparation 100
▁fill 100
▁farming 100
▁wider 100
▁Territory 100
▁libr 100
▁funeral 100
▁spend 100
org 100
▁Small 100
▁16. 100
▁winds 100
▁Lan 100
▁tribute 100
▁Secret 100
aba 100
▁subsc 100
sha 100
▁rocks 100
▁incom 100
onomous 100
raham 100
pm 100
▁Ye 100
▁biological 100
▁Hebrew 100
▁exposure 100
▁shopping 100
▁Mult 100
▁rid 100
▁designation 100
▁belongs 100
bin 100
▁Rogers 100
▁Qual 100
▁Shar 100
▁sounds 100
9), 100
apped 100
▁tot 100
arriors 100
▁giant 100
▁1932 100
annon 100
▁Celt 100
▁Action 100
▁smooth 100
▁Constit 100
tar 100
▁Len 100
▁mos 100
asha 100
▁Pack 100
▁Herbert 100
▁Classic 100
▁kne 100
▁simpl 100
▁ambass 100
ON 100
▁Systems 100
itarian 100
▁Jerry 100
▁filming 100
▁Barn 100
▁Nevada 100
▁Terry 100
▁Freedom 100
▁Gun 100
▁nut 100
▁15. 100
▁Thir 100
▁certified 100
▁Diam 100
▁aqu 100
▁Armenian 100
▁Former 100
▁Masters 100
▁PS 100
▁submarine 100
▁$5 100
▁clim 100
▁1970, 100
▁inherited 100
ipper 100
▁1968, 100
families 100
ean 100
olen 100
▁victim 100
▁resignation 100
rors 100
▁Pin 100
▁pupils 100
▁Saudi 100
▁attempting 100
▁thin 100
cz 100
itional 100
▁Jefferson 100
Eng 100
▁comfort 100
▁disch 100
raska 100
rooms 100
▁Luis 100
▁pseud 100
▁inspiration 100
7). 100
▁arriving 100
▁1974, 100
▁Bath 100
▁Bog 100
▁mainstream 100
▁por 100
strong 100
▁execution 100
▁cooperation 100
nda 100
▁circle 100
▁beetle 100
rupted 100
▁Had 100
▁Phoenix 100
▁depression 100
▁saved 100
▁Mind 100
▁sequel 100
▁geomet 100
▁lingu 100
▁1988. 100
▁flew 100
▁ward 100
▁1925 100
▁Lov 100
▁Circuit 100
▁absol 100
▁inhib 100
sterdam 100
▁taxes 100
▁Case 100
▁guide 100
▁54 100
▁Nepal 100
▁Pay 100
▁Stre 100
compass 100
▁Bright 100
▁datab 100
▁Those 100
▁framework 100
▁coordin 100
▁explains 100
▁Provin 100
gio 100
▁Gate 100
py 100
sor 100
garian 100
▁Report 100
▁Buddhist 100
cycl 100
▁march 100
ivia 100
▁birthday 100
▁slowly 100
▁Lead 100
▁depicted 100
▁vertical 100
▁Industrial 100
iour 100
▁shops 100
▁cavalry 100
▁enthus 100
▁summit 100
▁1912 100
▁hyper 100
▁Azerbaijan 100
▁relegated 100
One 100
▁graduation 100
▁Herman 100
▁difficulties 100
emies 100
▁Perry 100
uzz 100
aration 100
RT 100
▁1921 100
▁Ground 100
▁1975, 100
hent 100
▁Living 100
igo 100
eties 100
enos 100
▁tag 100
▁alive 100
▁commenced 100
▁departments 100
ffect 100
ido 100
▁Admiral 100
▁ju 100
▁moral 100
▁tournaments 100
▁Kl 100
▁Chester 100
▁measured 100
▁Mul 100
▁1981, 100
▁internet 100
▁bag 100
▁cruc 100
▁acceler 100
ivic 100
cos 100
▁beauty 100
free 100
▁Tech 100
▁Obama 100
▁rib 100
rawn 100
two 100
▁gram 100
▁neutral 100
▁references 100
▁distinction 100
▁Argentine 100
Qu 100
power 100
▁exclusive 100
▁Magn 100
▁visits 100
▁cyl 100
▁assists 100
icing 100
▁56 100
▁capita 100
▁Confederate 100
▁powered 100
isp 100
ospitals 100
▁permitted 100
▁resumed 100
▁Ring 100
▁1927 100
▁bachelor 100
▁Full 100
▁walking 100
▁Minor 100
▁columns 100
▁burned 100
▁les 100
▁250 100
▁historians 100
▁guests 100
rep 100
▁Newcastle 100
▁interpretation 100
▁fundamental 100
▁recalled 100
▁nephew 100
▁Napole 100
oi 100
▁receives 100
▁Pel 100
▁Bert 100
▁Hope 100
▁(16 100
keley 100
▁copper 100
▁Vegas 100
ais 100
MI 100
▁Songs 100
▁51 100
▁spir 100
▁Kenya 100
lee 100
athon 100
ometimes 100
▁Cinem 100
wig 100
eway 100
ortion 100
▁carries 100
▁Faculty 100
▁Brew 100
▁(190 100
▁Cou 100
EP 100
▁Christianity 100
▁Lions 100
▁distinctive 100
itic 100
▁torped 100
▁conven 100
▁Liga 100
▁Comics 100
nan 100
▁quarterback 100
▁Mend 100
▁horror 100
ificial 100
▁ski 100
▁Antar 100
▁Steven 100
iev 100
▁consolid 100
▁informed 100
// 100
berry 100
▁nam 100
▁Sah 100
▁thinking 100
▁Moroc 100
▁Storm 100
▁forg 100
▁peoples 100
atra 100
▁sample 100
▁gallery 100
▁tens 100
▁reporter 100
ogle 100
▁58 100
▁stead 100
▁prove 100
▁Hann 100
▁Sad 100
▁challenges 100
helm 100
▁till 100
▁Oblast 100
▁decorated 100
▁Fem 100
▁tight 100
▁Lock 100
▁excellent 100
▁tub 100
▁1978, 100
▁intercept 100
▁confess 100
▁reporting 100
▁finance 100
▁1923 100
▁1931 100
▁ticket 100
▁neuro 100
▁Sz 100
▁narrative 100
▁fulf 100
▁grades 100
▁remote 100
mother 100
▁Nebraska 100
▁Hond 100
▁hence 100
▁Joy 100
▁usage 100
▁Industry 100
▁legislature 100
▁characteristic 100
iability 100
▁Woman 100
uber 100
▁Gonz 100
▁2- 100
▁Snow 100
000, 100
▁Seb 100
▁Jess 100
▁perspective 100
▁pulled 100
▁Croatia 100
▁Ghana 100
▁placing 100
▁CC 100
▁escaped 100
vol 100
▁Mahar 100
▁demands 100
▁Bav 100
▁reducing 100
▁Ethiop 100
rise 100
▁Ult 100
chers 100
▁writings 100
▁atmosphere 100
▁1986. 100
angle 100
velt 100
▁relevant 100
▁1926 100
▁disbanded 100
▁Bald 100
▁compiled 100
▁1976, 100
▁maps 100
tic 100
▁kidn 100
▁Costa 100
▁affair 100
German 100
▁raising 100
▁diplomatic 100
iginal 100
▁Sor 100
▁simultaneously 100
cules 100
▁Keith 100
▁cloud 100
rington 100
▁comprises 100
▁Fif 100
▁Stars 100
▁Rivers 100
00, 100
osexual 100
▁Edwards 100
▁disapp 100
length 100
four 100
▁aboard 100
▁crosses 100
▁Compet 100
▁166 100
▁resear 100
▁inhab 100
anne 100
–10 100
▁Helen 100
appy 100
▁symptoms 100
▁1987. 100
▁enters 100
▁Warsaw 100
▁physician 100
iji 100
▁Drive 100
▁murdered 100
▁Historical 100
▁entreprene 100
▁Buch 100
▁Side 100
▁Tas 100
▁deemed 100
▁instruction 100
alam 100
▁Pedro 100
▁answer 100
▁odd 100
▁options 100
noon 100
▁bath 100
▁sitting 100
▁Professional 100
▁Amsterdam 100
▁predecessor 100
▁Fu 100
▁endors 100
▁"[ 100
▁coinc 100
▁coached 100
▁Luke 100
▁tested 100
▁Merc 100
▁coup 100
▁Political 100
ampa 100
▁mamm 100
▁Petersburg 100
▁jump 100
▁residing 100
▁midfielder 100
▁annex 100
stown 100
gom 100
▁hills 100
▁1971, 100
▁gear 100
–15 100
▁resid 100
was 100
▁interchange 100
▁Exper 100
▁Block 100
▁Abu 100
▁promin 100
▁semif 100
▁targets 100
▁seemed 100
▁Ve 100
▁Holland 100
▁attendance 100
▁Cold 100
haus 100
Best 100
▁fighters 100
▁CN 100
▁ris 100
▁difficulty 100
clos 100
▁ministry 100
▁blow 100
▁portrait 100
oons 100
▁compound 100
▁phrase 100
42 100
▁Harbor 100
▁Denver 100
oking 100
▁Curt 100
▁Florence 100
enburg 100
:// 100
▁1942, 100
▁Video 100
▁partial 100
rous 100
▁1985. 100
▁1969, 100
▁Alger 100
▁elementary 100
▁coins 100
▁brigade 100
▁Henri 100
▁Brun 100
▁Murphy 100
irms 100
▁root 100
▁tenth 100
▁Chapel 100
▁incumbent 100
Sm 100
written 100
▁coat 100
▁nearest 100
▁switched 100
▁carrier 100
▁technologies 100
▁awareness 100
▁169 100
▁doct 100
▁economics 100
▁Jar 100
ishops 100
▁ages 100
▁encompass 100
▁Kath 100
▁honors 100
▁forty 100
▁revol 100
▁thor 100
▁1870 100
▁restaurants 100
▁66 100
–17 100
▁supplied 100
idad 100
irk 100
▁Technical 100
▁Mol 100
▁Shaw 100
ilia 100
▁sugar 100
▁diseases 100
▁emphasis 100
▁Spirit 100
ullivan 100
▁slave 100
BO 100
▁mans 100
▁Yale 100
err 100
And 100
▁unless 100
osy 100
rague 100
▁gal 100
▁Based 100
▁pairs 100
▁removal 100
orp 100
ablished 100
lection 100
▁Chair 100
▁Hob 100
▁1973, 100
▁1945. 100
▁accompany 100
▁spell 100
▁objective 100
child 100
phal 100
-17 100
▁Manuel 100
▁assum 100
▁Robin 100
▁enforcement 100
▁fasc 100
▁Players 100
ospel 100
▁6– 100
rency 100
▁Pic 100
oka 100
▁Mann 100
DF 100
ected 100
disc 100
▁Gay 100
irts 100
▁Policy 100
▁pharm 100
▁Esc 100
▁chron 100
entle 100
overed 100
▁variable 100
ificate 100
pin 100
▁enroll 100
▁Bund 100
▁1967, 100
▁regul 100
▁Bobby 100
▁studios 100
▁deter 100
▁siege 100
▁steep 100
▁worst 100
▁bats 100
rien 100
▁€ 100
rus 100
▁drums 100
▁butter 100
oric 100
▁closure 100
▁Venice 100
iscopal 100
ums 100
front 100
otten 100
▁prol 100
aco 100
▁recovery 100
iko 100
etary 100
▁sket 100
▁Ing 100
▁kilometers 100
▁1915 100
▁Hunt 100
▁recur 100
▁Š 100
upt 100
rary 100
▁exhibitions 100
oro 100
▁telling 100
▁Yam 100
▁historically 100
▁delayed 100
▁Stuart 100
▁2020. 100
▁pushed 100
▁fat 100
formance 100
▁soph 100
▁(10 100
▁hybrid 100
▁Grace 100
▁Bulgarian 100
▁descendants 100
that 100
▁meat 100
▁scope 100
▁recipient 100
▁1941, 100
▁Roose 100
ricketer 100
▁exactly 100
▁1977, 100
▁emotional 100
atche 100
▁dissolved 100
▁Ord 100
stand 100
▁ske 100
▁Sony 100
▁outdoor 100
zyme 100
▁Gust 100
▁orn 100
▁Delaware 100
▁Harold 100
▁tourist 100
ffield 100
▁sung 100
▁speaker 100
pow 100
▁chrom 100
▁improvements 100
▁Giants 100
▁temporarily 100
thlete 100
▁plain 100
▁connects 100
izer 100
tense 100
▁gran 100
▁Gw 100
▁Wu 100
▁dramatic 100
lax 100
▁essentially 100
▁Formula 100
▁undergraduate 100
▁rout 100
▁buses 100
▁Gas 100
▁Sierra 100
▁sure 100
▁variant 100
▁retreat 100
▁affiliate 100
▁pian 100
▁approaches 100
iper 100
▁Hughes 100
▁Bulgaria 100
▁Ton 100
ön 100
▁Type 100
▁comprehensive 100
▁impossible 100
▁IP 100
▁Á 100
▁feeling 100
What 100
eper 100
▁indicating 100
▁São 100
▁worn 100
▁Ottawa 100
▁mini 100
levard 100
▁gathered 100
▁1984. 100
▁Math 100
▁Larry 100
▁collapse 100
▁vel 100
▁Range 100
▁volunteers 100
▁Dog 100
▁Salt 100
▁organic 100
▁feud 100
▁controls 100
akespe 100
etta 100
▁Ralph 100
▁Filip 100
▁amounts 100
pine 100
▁comparison 100
▁Gregory 100
▁Yu 100
isting 100
employ 100
ropod 100
▁Vill 100
5), 100
▁Gilbert 100
▁uncertain 100
aceae 100
wald 100
née 100
▁Ni 100
▁1916 100
▁bankrupt 100
▁favorite 100
▁wasn 100
▁Support 100
▁bonus 100
▁error 100
▁Hitler 100
▁enemies 100
▁experiments 100
▁vocalist 100
"' 100
▁Survey 100
▁explain 100
▁(7 100
▁"". 100
irect 100
▁automatic 100
▁widow 100
▁explicit 100
▁Shanghai 100
▁alternate 100
▁monthly 100
imensional 100
▁abolished 100
▁gardens 100
yll 100
▁zero 100
▁organisations 100
▁Got 100
▁Say 100
▁Mig 100
▁mask 100
▁fifty 100
▁talks 100
week 100
oustic 100
▁Loc 100
ds 100
isan 100
▁Syrian 100
▁Cond 100
wings 100
▁hidden 100
▁Southeast 100
anni 100
▁Croatian 100
▁sleep 100
▁Bot 100
▁Campaign 100
▁flank 100
▁choir 100
▁collective 100
▁tours 100
▁consistent 100
▁parks 100
41 100
eras 100
▁Kab 100
esty 100
▁speakers 100
▁exhibit 100
▁thanks 100
▁IT 100
var 100
▁"( 100
▁namely 100
▁extinct 100
▁Exchange 100
▁recruited 100
▁resol 100
roe 100
▁collaps 100
▁basin 100
▁Fab 100
▁1980. 100
itro 100
aughter 100
▁angle 100
▁corruption 100
▁pitched 100
▁elevated 100
▁reception 100
▁theories 100
▁tox 100
▁Susan 100
▁therapy 100
▁17. 100
▁Madison 100
▁administered 100
▁Production 100
▁installation 100
bie 100
▁consumption 100
agonist 100
RI 100
▁Malay 100
▁Mey 100
▁veteran 100
▁attacking 100
vet 100
▁Ernest 100
core 100
▁57 100
▁1982. 100
▁Butler 100
▁1983. 100
▁arrives 100
▁Nevertheless 100
▁Lebanon 100
▁Nathan 100
▁looks 100
▁4- 100
▁Oil 100
▁Abraham 100
uckland 100
▁Ferr 100
▁Dennis 100
▁voy 100
▁1943, 100
fortun 100
attered 100
▁coaches 100
▁judg 100
▁18. 100
▁analy 100
▁Venezuela 100
▁ratings 100
▁Lux 100
▁compositions 100
▁corps 100
▁Lie 100
▁Wellington 100
eda 100
▁SP 100
▁nickname 100
asia 100
▁Roosevelt 100
▁waiting 100
achi 100
▁familiar 100
new 100
▁bridges 100
▁spots 100
kar 100
▁ruler 100
▁Anglican 100
▁Nan 100
▁travels 100
▁Berkeley 100
▁logo 100
▁apprec 100
▁aggregate 100
ictions 100
Black 100
▁NC 100
▁Ib 100
▁breeding 100
Car 100
▁orche 100
akespeare 100
aho 100
▁Moz 100
itary 100
▁prox 100
iast 100
▁Adv 100
▁1908 100
▁parking 100
atern 100
▁Language 100
▁Finance 100
▁clan 100
ocket 100
▁documented 100
▁permit 100
cca 100
Te 100
▁Blood 100
▁evil 100
dal 100
inking 100
▁convinced 100
▁Independence 100
▁Hamburg 100
▁sharing 100
▁conscious 100
rection 100
▁curric 100
▁Lion 100
▁contracts 100
utors 100
▁scen 100
▁Sic 100
▁Eg 100
▁posts 100
▁EC 100
▁tone 100
▁quad 100
orious 100
▁qualification 100
▁Heavy 100
▁disaster 100
▁consumer 100
▁Neil 100
▁yard 100
–16 100
▁gap 100
▁archaeological 100
▁Mills 100
Par 100
redited 100
▁symp 100
pled 100
▁lie 100
▁1940, 100
▁citing 100
▁Cork 100
▁plastic 100
▁roster 100
▁suspect 100
▁predominantly 100
ancer 100
▁scientist 100
▁failing 100
▁Bag 100
▁aims 100
▁drove 100
▁Wed 100
fecture 100
▁tum 100
▁Tibet 100
giate 100
▁20. 100
▁styl 100
▁laboratory 100
alling 100
▁structural 100
▁Albums 100
▁reforms 100
caster 100
▁procedure 100
▁sovere 100
regular 100
ju 100
▁prev 100
▁universe 100
▁USS 100
▁1911 100
▁oblig 100
▁Haz 100
▁accum 100
▁Byzantine 100
▁Wells 100
uis 100
▁earthquake 100
▁Kay 100
tz 100
▁Leo 100
Do 100
▁fib 100
▁photo 100
acked 100
▁Protection 100
▁Hein 100
▁happy 100
▁seeds 100
▁Soft 100
▁stops 100
▁Bass 100
▁thereby 100
▁64, 100
▁bell 100
▁Horse 100
rost 100
98 100
▁answ 100
▁Rat 100
▁Somers 100
▁Beth 100
▁supplement 100
▁Sheffield 100
wright 100
▁Kil 100
through 100
▁argues 100
▁rab 100
▁asking 100
ulus 100
▁Soph 100
▁bench 100
▁proof 100
▁explan 100
▁referring 100
▁oxygen 100
▁challenged 100
▁Watson 100
▁Google 100
▁Auckland 100
rapped 100
▁blind 100
▁unex 100
▁1965, 100
▁Treas 100
▁patent 100
▁Mut 100
sub 100
▁hind 100
▁suspension 100
▁retiring 100
▁programmes 100
▁radar 100
"| 100
film 100
▁lakes 100
▁concur 100
▁Newton 100
▁Secondary 100
▁Slav 100
▁rice 100
yler 100
▁Beginning 100
count 100
▁Operations 100
ften 100
▁touchdowns 100
▁Stanford 100
atta 100
▁virus 100
▁aw 100
▁disturb 100
▁casualties 100
▁44, 100
▁155 100
▁comments 100
ovich 100
minster 100
▁compress 100
ás 100
▁valuable 100
▁solutions 100
▁tourism 100
ieg 100
▁accommodate 100
▁flex 100
▁rhythm 100
▁landmark 100
▁Next 100
▁mainland 100
▁clar 100
▁feelings 100
▁colleagues 100
ussia 100
duces 100
▁rac 100
▁arrive 100
▁signals 100
▁align 100
amer 100
▁gymn 100
▁perceived 100
▁Toy 100
▁MTV 100
▁relay 100
▁calendar 100
▁Term 100
▁1979. 100
▁silent 100
▁imprisoned 100
▁defender 100
▁interaction 100
▁Ny 100
fan 100
▁Rah 100
mn 100
▁achievement 100
▁1913 100
▁chemistry 100
Hz 100
asm 100
▁neighboring 100
cker 100
▁elabor 100
▁Thai 100
Station 100
▁Guild 100
▁Primary 100
▁actively 100
▁Junction 100
▁willing 100
▁passion 100
▁Productions 100
▁Methodist 100
▁politicians 100
▁Arnold 100
alis 100
▁Eddie 100
▁revised 100
▁Bird 100
▁Ted 100
oker 100
named 100
▁renowned 100
▁Eagles 100
▁Cruz 100
▁cave 100
▁sustained 100
verse 100
▁Ambass 100
▁1964, 100
▁allies 100
▁interesting 100
▁Sask 100
▁locomotive 100
▁faster 100
▁broadcasts 100
▁drinking 100
UC 100
okes 100
▁grandson 100
▁gift 100
él 100
▁Gang 100
▁milk 100
▁functional 100
▁overt 100
▁53 100
▁airline 100
▁Deb 100
▁McM 100
▁reservoir 100
omed 100
▁Joint 100
▁Wallace 100
▁Crim 100
▁mail 100
ubb 100
▁Yugoslavia 100
▁prepare 100
▁variation 100
boat 100
join 100
▁traveling 100
▁victories 100
▁afford 100
▁bull 100
▁faces 100
86 100
▁thirteen 100
▁reflected 100
▁prestigious 100
▁genes 100
▁stake 100
▁maintaining 100
▁Krist 100
ashes 100
▁academy 100
▁Nashville 100
▁Delta 100
▁violin 100
▁culmin 100
▁celebration 100
iffer 100
▁Kle 100
▁cathedral 100
▁Ax 100
▁Nat 100
▁aviation 100
▁sav 100
▁Sut 100
▁putting 100
▁Collection 100
▁computers 100
LP 100
▁forth 100
▁extending 100
▁Vermont 100
cott 100
ults 100
▁Coach 100
▁drag 100
▁enzyme 100
▁Wag 100
anta 100
:30 100
aurus 100
▁Phillips 100
▁magic 100
▁Aviation 100
▁contribute 100
gebra 100
></ 100
▁beaten 100
▁discontinued 100
▁extends 100
▁Guardian 100
▁bombing 100
▁redes 100
liminary 100
▁Hab 100
▁underwent 100
hn 100
▁prevented 100
▁trick 100
▁fastest 100
▁flour 100
DE 100
team 100
artered 100
▁Grammy 100
▁ol 100
▁footage 100
▁masc 100
▁empire 100
▁printing 100
▁Ec 100
itudes 100
00. 100
▁hardware 100
▁verse 100
▁Prest 100
▁belt 100
▁Montana 100
▁1860 100
▁philos 100
▁Shakespeare 100
▁flee 100
▁cutting 100
▁Kash 100
writing 100
▁Palmer 100
namese 100
▁1966, 100
▁Roche 100
▁Isab 100
▁bone 100
▁grave 100
▁breast 100
▁cultures 100
▁regist 100
inery 100
▁efficiency 100
onial 100
▁jail 100
▁focusing 100
gomery 100
cycle 100
▁fault 100
▁crops 100
▁Past 100
▁payment 100
▁moll 100
▁sharp 100
BE 100
▁holiday 100
▁Bened 100
▁concepts 100
VP 100
ema 100
▁pap 100
▁Bond 100
▁Log 100
otion 100
▁improvement 100
▁gaining 100
▁boss 100
▁fame 100
▁Franç 100
speaking 100
▁Monday 100
rish 100
naissance 100
▁athletic 100
▁85 100
pic 100
fast 100
▁Crime 100
▁Marx 100
▁diet 100
▁loop 100
▁tru 100
▁vulner 100
▁grav 100
▁shield 100
▁virtual 100
▁ft 100
▁abund 100
▁numbered 100
▁Raymond 100
▁flash 100
▁addressed 100
▁phosph 100
▁colonies 100
▁hospitals 100
essed 100
▁venues 100
▁Esp 100
▁59 100
racks 100
▁desert 100
▁readers 100
▁LA 100
43 100
▁Shep 100
▁1972. 100
▁theatrical 100
▁refugees 100
▁Bosnia 100
▁2–1 100
▁shorter 100
▁Conservation 100
▁pioneer 100
▁Academ 100
▁Interstate 100
▁sick 100
post 100
▁worker 100
▁handed 100
afe 100
▁liv 100
▁fabric 100
umer 100
▁ordinary 100
▁reward 100
▁artificial 100
▁tributary 100
▁confused 100
cat 100
▁peer 100
▁behaviour 100
▁leagues 100
align 100
central 100
▁dict 100
▁equation 100
▁institute 100
▁Tow 100
▁ambassador 100
▁craft 100
▁1960, 100
Mon 100
airo 100
▁Grove 100
▁referend 100
▁Elementary 100
▁Map 100
▁fraud 100
acles 100
▁Og 100
▁accurate 100
▁preserve 100
▁fewer 100
▁Franco 100
If 100
▁tomb 100
made 100
▁situations 100
▁Note 100
▁disorder 100
▁Kun 100
▁counsel 100
▁abilities 100
▁Perth 100
arr 100
Love 100
▁independently 100
▁counterpart 100
▁sending 100
ente 100
▁forcing 100
his 100
▁Must 100
▁Leonard 100
▁Ori 100
white 100
piece 100
held 100
▁Intelligence 100
▁Pearl 100
▁Occ 100
omo 100
▁literacy 100
▁Stakes 100
▁firing 100
opol 100
▁19. 100
byter 100
▁displays 100
▁understood 100
▁Contemporary 100
▁22. 100
▁afternoon 100
▁Commerce 100
▁orb 100
▁Suz 100
ansk 100
▁Cameron 100
▁Pod 100
▁Prague 100
iu 100
▁triple 100
▁Transportation 100
▁25. 100
▁Sang 100
issa 100
▁relie 100
▁68 100
▁manip 100
▁Kerala 100
▁gauge 100
▁register 100
▁stored 100
▁tel 100
▁lifetime 100
ategory 100
aukee 100
ña 100
▁memor 100
▁Va 100
gence 100
▁threw 100
▁HD 100
▁Iraqi 100
▁relating 100
▁dialogue 100
inee 100
▁Vent 100
▁arena 100
▁samples 100
Big 100
inae 100
▁segments 100
▁1974. 100
▁flower 100
▁runners 100
▁handle 100
aping 100
▁inspe 100
▁tip 100
▁Plat 100
▁Sean 100
▁Montgomery 100
rah 100
▁regulation 100
▁ash 100
▁Northwest 100
-12 100
▁altitude 100
▁eventual 100
▁abst 100
▁sciences 100
▁Rhodes 100
▁portions 100
▁1939, 100
▁telephone 100
▁realized 100
▁generations 100
▁Bent 100
–199 100
▁cogn 100
▁progressive 100
▁Vers 100
▁coron 100
▁Harvey 100
▁Economics 100
illes 100
▁nest 100
▁deliber 100
▁updated 100
speed 100
▁employee 100
▁shipping 100
▁Berg 100
▁Indies 100
▁fourteen 100
eto 100
▁1978. 100
▁reinfor 100
▁ranges 100
/1 100
▁Put 100
▁intense 100
▁statements 100
unny 100
▁alien 100
elia 100
orient 100
▁21. 100
lived 100
▁enact 100
▁Tommy 100
▁discovers 100
ław 100
▁Sudan 100
▁boards 100
sur 100
▁Railways 100
▁Gabriel 100
tingham 100
▁Nature 100
▁1906 100
icity 100
fa 100
▁MD 100
▁Lear 100
umbai 100
atha 100
founded 100
dess 100
▁Swan 100
Music 100
spec 100
▁gif 100
pressed 100
▁tube 100
▁wish 100
▁reverse 100
arta 100
▁cad 100
”, 100
▁legit 100
acco 100
▁Oscar 100
▁tape 100
▁pilots 100
▁Kol 100
▁golden 100
▁Cabinet 100
▁examination 100
▁horn 100
▁NAS 100
imo 100
▁pist 100
▁Devon 100
▁communist 100
▁surprise 100
▁moderate 100
izz 100
▁requiring 100
uli 100
▁immigration 100
holders 100
▁warning 100
▁rifle 100
liga 100
▁Rams 100
▁engagement 100
▁Boulevard 100
▁Bach 100
▁1975. 100
99 100
▁sixteen 100
▁stationed 100
▁demanded 100
▁reviewed 100
▁Krish 100
▁Tong 100
▁Price 100
arvae 100
chief 100
asp 100
▁promised 100
▁Kur 100
▁clients 100
▁poison 100
▁Starting 100
▁Kra 100
▁psychology 100
▁1976. 100
▁Syl 100
▁punk 100
▁revival 100
▁23. 100
▁succession 100
▁freight 100
quer 100
▁Representative 100
▁Golf 100
▁dogs 100
▁manages 100
entieth 100
▁Buc 100
▁Kin 100
GC 100
▁Bruns 100
▁presents 100
rets 100
▁engage 100
▁fung 100
▁fallen 100
▁Hat 100
oses 100
rised 100
▁Liu 100
▁horizon 100
RE 100
rys 100
▁spokes 100
▁illustrated 100
ournals 100
icester 100
▁experts 100
idance 100
▁restrictions 100
gov 100
empl 100
▁repeatedly 100
▁Rif 100
opened 100
iffs 100
▁maintains 100
▁Provincial 100
▁Stein 100
▁surrender 100
▁Isaac 100
istani 100
▁dealing 100
▁clot 100
▁1981. 100
itol 100
▁merely 100
▁remembered 100
uced 100
▁listen 100
▁exha 100
auer 100
▁files 100
▁Workers 100
▁1970. 100
▁Eld 100
▁toler 100
▁Revival 100
▁bin 100
▁Otto 100
rod 100
▁skill 100
▁profile 100
▁athlete 100
▁mixture 100
uh 100
pit 100
▁Computer 100
▁Wilhelm 100
▁Besides 100
▁advertis 100
▁bars 100
▁Clarke 100
▁artwork 100
▁Flow 100
▁diesel 100
ittees 100
▁rede 100
▁metropolitan 100
▁Vietnamese 100
▁grid 100
eling 100
Gu 100
▁investigate 100
BL 100
▁indeed 100
▁lights 100
waukee 100
▁manufacturers 100
▁Concer 100
▁Jin 100
▁Giov 100
furt 100
▁Gothic 100
▁coffee 100
▁Artillery 100
five 100
▁backing 100
onna 100
ibn 100
▁vow 100
umni 100
▁memb 100
brev 100
▁1973. 100
▁Palestine 100
▁Celtic 100
▁elite 100
▁announcement 100
arts 100
▁CDP 100
▁Panama 100
4). 100
▁24. 100
IM 100
▁Indonesian 100
bek 100
▁Ahmed 100
▁permanently 100
▁Aj 100
umberland 100
▁orient 100
FF 100
lined 100
▁130 100
▁Higher 100
▁editorial 100
▁brew 100
elin 100
alymp 100
▁graphics 100
▁Ruth 100
▁1963, 100
▁fantasy 100
▁Exped 100
▁mit 100
▁1905 100
▁unanim 100
Ab 100
ulous 100
▁severely 100
▁Pul 100
▁Doc 100
▁tissue 100
▁orbit 100
▁PlayStation 100
▁seriously 100
▁friendship 100
▁dependent 100
▁HMS 100
▁reserves 100
▁Marqu 100
lights 100
▁renewed 100
iao 100
▁Syn 100
▁brings 100
▁Shir 100
▁72 100
▁animation 100
▁missile 100
▁patri 100
▁78 100
▁Carr 100
▁Agriculture 100
▁Danny 100
▁Joan 100
▁jew 100
▁Friedrich 100
▁Mathemat 100
▁divorce 100
▁Airlines 100
▁Lucas 100
▁Midd 100
NT 100
▁allegedly 100
entry 100
vanced 100
▁flav 100
▁prince 100
rowing 100
▁teeth 100
▁Valent 100
▁followers 100
log 100
▁client 100
▁professionals 100
▁statistics 100
John 100
asan 100
common 100
▁Days 100
▁fairly 100
▁Armed 100
apur 100
gart 100
▁radiation 100
▁Sak 100
▁Chan 100
▁Flight 100
▁developments 100
▁photographer 100
▁Any 100
▁songwriter 100
▁rebellion 100
▁cow 100
▁Boe 100
▁commitment 100
▁Environmental 100
▁centres 100
▁Spencer 100
▁circulation 100
▁76 100
lair 100
▁ordained 100
azi 100
boro 100
▁1946, 100
ighting 100
▁varied 100
ocent 100
▁Ara 100
overy 100
urated 100
▁variations 100
▁Bear 100
▁tasks 100
▁orange 100
▁clay 100
▁Essex 100
ourg 100
▁enabled 100
HF 100
▁magnetic 100
▁bord 100
▁exit 100
unning 100
▁Gy 100
▁martial 100
ixed 100
▁RA 100
▁prisoner 100
▁nominations 100
▁dancing 100
ometown 100
page 100
▁1971. 100
itus 100
whe 100
▁shifted 100
▁Ambassador 100
▁Tasman 100
istent 100
▁package 100
▁universal 100
▁Sof 100
▁beam 100
▁Somerset 100
▁Din 100
gus 100
▁intervention 100
▁molecular 100
ignated 100
umi 100
▁Beh 100
▁creates 100
▁drain 100
uros 100
oting 100
▁encourage 100
▁Lar 100
▁blog 100
mid 100
hibition 100
▁Renaissance 100
▁handling 100
▁breaks 100
iago 100
▁Columbus 100
▁shots 100
ahl 100
▁Gand 100
▁Wald 100
▁bears 100
▁observation 100
▁Reed 100
▁audiences 100
omes 100
▁suspic 100
ultural 100
bot 100
▁hyd 100
▁Mang 100
▁Lamb 100
▁empty 100
▁1948, 100
atorial 100
▁concentrated 100
▁morph 100
legraph 100
▁Brunswick 100
She 100
▁Financial 100
▁1962, 100
▁criteria 100
insky 100
ussels 100
▁Student 100
▁abandon 100
▁cuts 100
▁Anti 100
zon 100
ete 100
▁Reyn 100
▁privile 100
omber 100
GBT 100
▁Brah 100
▁Bennett 100
▁Rus 100
▁requirement 100
▁Cardinal 100
▁confron 100
quiry 100
▁Carn 100
▁neighbouring 100
randed 100
▁Vladimir 100
▁advocate 100
▁personally 100
▁beliefs 100
▁pitcher 100
▁Mumbai 100
aca 100
kan 100
▁Leader 100
▁McL 100
▁societies 100
▁celebrate 100
ateral 100
▁Todd 100
▁Manager 100
▁suspected 100
▁Jen 100
▁destination 100
▁queen 100
▁Friends 100
▁Dale 100
aus 100
▁Scar 100
▁Anim 100
▁grants 100
▁lawsuit 100
72 100
▁Altern 100
▁export 100
GM 100
▁Arabia 100
▁governing 100
▁waves 100
▁Diamond 100
▁bare 100
▁civilians 100
▁Stage 100
▁Raf 100
▁Gener 100
▁quiet 100
HC 100
avia 100
▁resource 100
▁je 100
▁1977. 100
▁releasing 100
adian 100
▁1907 100
gra 100
mill 100
▁transit 100
▁seized 100
▁inscription 100
▁anthrop 100
▁encountered 100
▁Stockholm 100
▁Cox 100
▁ERA 100
▁1947, 100
▁Paralymp 100
▁similarly 100
▁hole 100
▁diversity 100
omorph 100
▁Cov 100
▁referendum 100
fol 100
▁provisions 100
▁congregation 100
ambers 100
▁adjust 100
▁158 100
avian 100
▁canon 100
▁Get 100
▁autobi 100
Nov 100
▁raid 100
▁Where 100
▁Ronald 100
▁Leicester 100
▁1968. 100
▁anticip 100
▁enlisted 100
▁exile 100
▁varies 100
▁lad 100
▁1909 100
▁rivals 100
enson 100
▁convert 100
▁trouble 100
uto 100
▁Daw 100
▁separation 100
▁wars 100
▁Pent 100
CD 100
▁thesis 100
isch 100
▁hyp 100
▁presentation 100
March 100
thal 100
▁Abor 100
▁prototype 100
▁Aires 100
sized 100
ichi 100
▁volunteer 100
selling 100
–20 100
Aust 100
Jan 100
South 100
▁Lot 100
TP 100
▁Java 100
Sw 100
▁BA 100
inyl 100
▁Deep 100
▁Sebast 100
▁Foster 100
▁Pep 100
▁Using 100
handed 100
▁cir 100
▁Revolutionary 100
▁cotton 100
▁ports 100
▁fluid 100
▁signature 100
▁specialist 100
▁Jamaica 100
▁Ful 100
▁Winn 100
▁sin 100
▁Scout 100
boys 100
ouch 100
▁interface 100
anti 100
brook 100
▁fortress 100
yd 100
▁soc 100
▁owns 100
▁BM 100
ben 100
▁transformed 100
forming 100
▁improving 100
hev 100
onso 100
▁26. 100
▁110 100
adier 100
▁hoped 100
▁conjunction 100
▁1961, 100
ieties 100
senal 100
yers 100
▁symmet 100
RO 100
oshi 100
▁dubbed 100
▁nationwide 100
reated 100
▁Still 100
▁1969. 100
▁Person 100
▁tackles 100
▁Craw 100
▁Jacques 100
cor 100
taining 100
▁tier 100
▁invented 100
▁Bod 100
▁Fish 100
enhagen 100
▁considering 100
▁arrangements 100
▁Jak 100
▁ministers 100
uba 100
▁1904 100
▁cartoon 100
▁Miguel 100
▁curriculum 100
shore 100
▁suddenly 100
took 100
▁fisher 100
▁boot 100
ointed 100
▁chest 100
▁upcoming 100
▁Laura 100
▁Arc 100
makers 100
▁69 100
axy 100
▁exterior 100
▁Edmund 100
▁optim 100
▁Instit 100
▁Soul 100
▁Shin 100
-16 100
▁wore 100
▁Forum 100
00,000 100
▁recognize 100
▁allegations 100
▁Manila 100
▁2,000 100
▁Literature 100
▁interact 100
▁Rut 100
▁integration 100
▁pole 100
▁poster 100
▁procedures 100
ión 100
▁Lakes 100
▁floors 100
▁cricketer 100
▁noise 100
eded 100
▁aest 100
▁Palestinian 100
harm 100
▁Sullivan 100
▁founders 100
▁analog 100
world 100
▁electro 100
▁Reading 100
half 100
▁matrix 100
▁Facebook 100
Euro 100
▁Georgian 100
Christ 100
▁Oakland 100
▁hometown 100
▁pursued 100
▁closest 100
▁Roll 100
▁manual 100
hop 100
▁altered 100
parent 100
▁Tunis 100
ctorate 100
died 100
ussion 100
▁Sussex 100
▁Yellow 100
▁decrease 100
▁database 100
▁164 100
▁Mü 100
si 100
▁operators 100
▁Apart 100
▁survivors 100
▁Tir 100
▁headquartered 100
▁62 100
▁Jur 100
▁conductor 100
▁Heights 100
▁singers 100
▁Liberty 100
iens 100
▁destro 100
▁findings 100
▁Room 100
inf 100
▁Aaron 100
▁Owen 100
habilit 100
▁journals 100
▁doubt 100
▁Presbyter 100
▁clergy 100
▁noting 100
▁survival 100
▁Inv 100
about 100
▁comprising 100
▁Marvel 100
▁Suff 100
hal 100
,” 100
oslov 100
▁Nottingham 100
bet 100
▁potentially 100
▁adventure 100
▁Cec 100
▁MC 100
▁width 100
▁honored 100
▁diocese 100
mail 100
▁targeted 100
▁Serie 100
▁shed 100
▁Maurice 100
▁assessment 100
▁Ferdin 100
▁Princ 100
▁privately 100
irl 100
▁danger 100
–12 100
▁authorized 100
▁Sou 100
▁kills 100
munition 100
▁blues 100
▁5- 100
▁Magic 100
▁streams 100
▁overlook 100
▁indoor 100
▁suggesting 100
ucks 100
▁1918, 100
▁rever 100
▁Scotia 100
▁Wool 100
▁Tax 100
▁Motors 100
▁commentary 100
alin 100
erness 100
ska 100
▁mall 100
▁Kate 100
▁divorced 100
▁autumn 100
▁storyline 100
▁larvae 100
ashire 100
▁deals 100
▁trio 100
▁syndrome 100
▁Westminster 100
▁63 100
imen 100
▁stones 100
▁weaken 100
▁relatives 100
▁pregnant 100
▁Guide 100
▁farms 100
▁Cand 100
▁Left 100
▁#1 100
▁Congo 100
▁burial 100
▁Chron 100
▁Direct 100
▁Dominican 100
lic 100
lend 100
▁Kor 100
▁Fourth 100
▁compat 100
▁Lac 100
▁expanding 100
▁Bak 100
▁Buenos 100
▁Twenty 100
▁specimens 100
▁nationally 100
aders 100
▁Durham 100
tes 100
apest 100
▁lighting 100
▁rebels 100
▁chronic 100
▁27. 100
▁Raid 100
▁shelter 100
cal 100
ragon 100
▁lux 100
▁codice 100
▁quoted 100
▁praise 100
iw 100
▁reveal 100
▁1: 100
ovsky 100
GO 100
▁lectures 100
▁messages 100
Int 100
▁plates 100
▁Lak 100
77 100
▁psychological 100
▁inhabited 100
▁Milwaukee 100
▁1967. 100
▁push 100
intendo 100
imm 100
▁activists 100
▁volleyball 100
▁André 100
▁ampl 100
irus 100
▁garrison 100
rific 100
▁infection 100
▁Nak 100
▁Mik 100
▁Justin 100
inite 100
▁Cycl 100
▁Hous 100
▁intermediate 100
oucester 100
▁(20 100
▁journalists 100
▁Buddh 100
▁banking 100
▁prosper 100
▁159 100
▁Bros 100
▁Volunte 100
▁1850 100
▁1.5 100
▁bicy 100
ourag 100
▁Triple 100
▁impressive 100
eme 100
▁tram 100
zig 100
▁50% 100
▁restore 100
▁Zhang 100
Ju 100
▁95 100
ST 100
ulture 100
▁engineers 100
▁associations 100
▁Expedition 100
ipher 100
arms 100
▁Fam 100
▁NASA 100
▁pianist 100
▁discrimination 100
isha 100
▁goalkeeper 100
osophical 100
▁automatically 100
▁Laboratory 100
▁disappeared 100
▁Albanian 100
▁coc 100
▁guidance 100
may 100
ahan 100
▁liver 100
▁Knights 100
▁volunt 100
▁councill 100
▁McD 100
▁1950, 100
▁conflicts 100
▁Lor 100
▁span 100
▁ber 100
▁conducting 100
▁binding 100
▁batting 100
inguished 100
▁Weekly 100
lacier 100
▁VII 100
▁Fig 100
▁obsc 100
▁deeply 100
eting 100
▁99 100
ctuary 100
nut 100
▁implic 100
▁prospect 100
▁customer 100
icia 100
▁Cant 100
▁favourite 100
▁receiver 100
August 100
VA 100
▁auction 100
adows 100
▁Ober 100
▁inches 100
▁southeastern 100
▁Lancashire 100
▁stolen 100
▁panels 100
▁wickets 100
▁mentions 100
▁devast 100
▁consultant 100
▁Formation 100
World 100
▁enable 100
▁warfare 100
▁Ancient 100
second 100
▁10- 100
▁Newport 100
aire 100
▁Ahmad 100
▁minimal 100
▁revolutionary 100
▁Films 100
▁heading 100
icken 100
hall 100
▁Gardens 100
dire 100
ilian 100
▁memoir 100
▁Lem 100
ilo 100
▁scandal 100
erves 100
▁trend 100
▁Less 100
▁toll 100
▁irregular 100
▁exchang 100
▁Franz 100
▁staged 100
▁democracy 100
▁proportion 100
ovan 100
▁chapters 100
▁174 100
▁88 100
▁Indianapolis 100
▁Johannes 100
▁conferences 100
▁emerging 100
onomy 100
▁algorithm 100
▁enhance 100
▁Amazon 100
yon 100
orey 100
▁unve 100
inda 100
▁77 100
▁citizenship 100
▁Cyr 100
built 100
▁125 100
▁denomin 100
▁acoustic 100
enesis 100
▁140 100
species 100
vironments 100
▁1/ 100
▁Eight 100
athi 100
▁Julian 100
oints 100
▁conspir 100
▁Outstanding 100
▁Rovers 100
▁mineral 100
▁12- 100
atories 100
▁priests 100
▁Belarus 100
▁rocket 100
▁Nine 100
▁shaped 100
▁Eagle 100
▁upgraded 100
▁Mold 100
first 100
▁cla 100
backs 100
_2 100
iblings 100
▁easier 100
▁Kid 100
▁confidence 100
▁rebounds 100
iman 100
▁wait 100
▁Ecu 100
angered 100
▁forb 100
▁Walt 100
▁Amend 100
▁acknowledged 100
ormal 100
▁hydrogen 100
▁pir 100
Co 100
▁Imm 100
terbury 100
▁Cypr 100
anthrop 100
borg 100
▁practiced 100
▁investors 100
▁1944. 100
teg 100
▁Legion 100
▁Circle 100
ucker 100
▁urg 100
▁entity 100
▁Gloucester 100
▁Return 100
▁Vern 100
6). 100
▁travelling 100
▁Writing 100
▁1956, 100
▁withdrawn 100
▁1–0 100
▁Morning 100
▁doctorate 100
quarters 100
▁proceeded 100
▁essay 100
▁1901 100
▁threats 100
▁Paulo 100
UN 100
cano 100
▁Manit 100
▁duration 100
-15 100
lia 100
▁confront 100
▁Future 100
iatric 100
▁recruit 100
▁phenomenon 100
▁Ages 100
▁LGBT 100
▁Dame 100
▁Rice 100
SE 100
▁ridge 100
▁Quarter 100
Me 100
▁nineteenth 100
▁anime 100
▁Ng 100
▁2.5 100
awk 100
▁transported 100
▁hub 100
▁CF 100
▁deriv 100
▁topped 100
▁Pakistani 100
▁hem 100
▁deposits 100
▁Kas 100
▁striking 100
▁oral 100
Mad 100
–14 100
▁comics 100
▁vital 100
atoes 100
▁ferry 100
bone 100
erts 100
▁stability 100
▁hung 100
▁entrepreneur 100
▁1965. 100
▁1958, 100
▁Cuban 100
izard 100
▁Dragon 100
OP 100
▁rainfall 100
Sch 100
▁Prop 100
▁torpedo 100
RL 100
vy 100
orge 100
▁Copenhagen 100
omi 100
DI 100
▁preliminary 100
▁Pand 100
ija 100
▁Moreover 100
▁accomplished 100
AP 100
▁happen 100
founder 100
▁Cornwall 100
music 100
south 100
▁Artist 100
Red 100
▁doctors 100
building 100
▁attraction 100
▁estates 100
▁28. 100
▁Nancy 100
▁upset 100
▁governed 100
▁airfield 100
phis 100
bey 100
▁knee 100
▁Sox 100
▁particles 100
▁northeastern 100
▁performers 100
fortunately 100
▁supporter 100
▁Right 100
itely 100
herent 100
usa 100
▁haz 100
▁Dy 100
beat 100
▁1903 100
▁generate 100
▁61 100
▁carved 100
▁Napoleon 100
amy 100
▁Site 100
▁Isle 100
▁Czechoslov 100
▁Rhode 100
▁occasional 100
had 100
ounted 100
▁criticised 100
▁Data 100
ocity 100
icit 100
Time 100
▁Ports 100
mented 100
▁towers 100
▁ESP 100
▁unp 100
▁helicopter 100
aturally 100
intendent 100
▁Pi 100
tage 100
▁lineup 100
▁Davies 100
▁secular 100
acional 100
urse 100
▁backed 100
▁bearing 100
ér 100
▁breed 100
▁monarch 100
▁Armstrong 100
▁pub 100
ulsion 100
▁varying 100
▁surrend 100
▁Performance 100
aning 100
▁impressed 100
▁firms 100
▁1959, 100
▁armies 100
▁variants 100
▁Duc 100
There 100
▁Baronet 100
▁Dest 100
▁soap 100
math 100
▁punishment 100
tor 100
▁merc 100
▁streak 100
▁hier 100
three 100
▁onwards 100
effic 100
▁Gam 100
bank 100
▁identification 100
8). 100
▁Lok 100
▁Chi 100
▁circular 100
▁Laz 100
▁Ecuador 100
To 100
▁prey 100
▁Heath 100
▁artif 100
▁kilometres 100
rates 100
▁Geoff 100
▁Crow 100
dimensional 100
stage 100
iscal 100
▁sailing 100
sted 100
▁perpet 100
essa 100
▁polar 100
▁solely 100
▁Urugu 100
▁Lisa 100
▁jet 100
▁1902 100
▁hopes 100
▁ghost 100
▁Pont 100
▁Page 100
▁ruins 100
iliary 100
▁Expl 100
▁shrub 100
▁assembled 100
▁judicial 100
▁infer 100
▁Continental 100
▁biography 100
▁Guang 100
▁Uganda 100
alysis 100
▁Eis 100
▁beneath 100
▁Article 100
King 100
▁Cardinals 100
▁gastropod 100
▁htt 100
▁wreck 100
–13 100
iffe 100
osing 100
▁learns 100
▁Belf 100
▁Ess 100
▁chore 100
▁premier 100
▁Pete 100
▁sheep 100
▁Drama 100
lies 100
▁lift 100
▁temples 100
phabet 100
▁competitors 100
▁Phot 100
▁arbit 100
▁Meg 100
nesday 100
▁mutual 100
▁wheels 100
▁neighbourhood 100
▁photos 100
▁Link 100
▁1949, 100
▁Tat 100
▁tea 100
isons 100
produced 100
ellers 100
LB 100
▁overw 100
▁acquire 100
iology 100
▁1964. 100
member 100
▁paying 100
ollo 100
aining 100
▁Similarly 100
▁Grande 100
▁pounds 100
▁involve 100
▁muscle 100
▁Cred 100
▁integral 100
▁Holmes 100
ursday 100
▁stronger 100
than 100
▁Nintendo 100
▁bulk 100
▁migration 100
onne 100
▁quantum 100
quet 100
uchy 100
▁ammunition 100
▁feels 100
awks 100
ailing 100
onnie 100
▁stroke 100
▁drawings 100
▁configuration 100
▁interpreted 100
▁0.0 100
onnell 100
▁"... 100
▁unemploy 100
▁Kazakh 100
▁ow 100
sburg 100
▁fru 100
▁cens 100
▁sequences 100
▁hect 100
▁Artists 100
▁pill 100
▁Transit 100
alan 100
▁welfare 100
▁Subsequently 100
League 100
▁ing 100
▁1966. 100
▁Rush 100
▁Cort 100
▁Hass 100
▁67 100
▁Fat 100
▁Examp 100
ocene 100
▁1957, 100
offs 100
aji 100
odia 100
Family 100
▁fo 100
▁Private 100
▁libraries 100
▁thorough 100
▁imposed 100
atchewan 100
imer 100
▁BCE 100
▁achievements 100
plant 100
▁Fly 100
▁predict 100
▁Woods 100
▁Hus 100
▁Cut 100
▁consent 100
▁Aub 100
▁Pain 100
elong 100
▁revenge 100
▁publish 100
▁graphic 100
▁Citiz 100
▁Observ 100
▁theology 100
▁regardless 100
▁rally 100
▁shallow 100
▁mansion 100
▁30. 100
▁Mam 100
itting 100
▁occurring 100
▁homosexual 100
▁View 100
avier 100
woman 100
▁Roth 100
▁Ferdinand 100
▁compounds 100
abe 100
▁moist 100
▁lecturer 100
East 100
▁kings 100
▁flooding 100
▁Mario 100
▁democratic 100
▁unions 100
▁Brussels 100
▁Franc 100
▁explore 100
▁consequence 100
▁apprent 100
▁prompted 100
▁bore 100
▁Cyprus 100
▁distinguish 100
▁Vil 100
▁reads 100
list 100
▁stretch 100
green 100
▁Lodge 100
ounters 100
ilion 100
▁Ach 100
▁Raw 100
▁layers 100
▁Gol 100
▁Zimb 100
acular 100
▁compensation 100
▁watching 100
▁Meh 100
▁Brooks 100
▁CR 100
▁reluct 100
role 100
▁pace 100
▁Vid 100
▁Louise 100
▁struggled 100
official 100
stock 100
▁topic 100
cap 100
▁Cavalry 100
▁Cardiff 100
dem 100
▁dying 100
▁dors 100
▁stick 100
unda 100
▁OS 100
▁Canterbury 100
▁compact 100
▁167 100
alions 100
USA 100
▁metab 100
Ang 100
rift 100
▁Kingston 100
▁bassist 100
▁Bark 100
▁Ply 100
▁Emma 100
▁siblings 100
▁shoulder 100
▁environments 100
both 100
▁Kem 100
agger 100
izations 100
▁Amy 100
▁Compan 100
▁cock 100
▁rational 100
shi 100
▁Lithuania 100
▁HIV 100
isle 100
▁workshops 100
▁Presbyterian 100
▁Apost 100
▁lobby 100
icas 100
▁XV 100
▁bapt 100
▁vector 100
▁Hull 100
▁Advisory 100
▁attitude 100
▁acclaimed 100
▁Piet 100
▁knows 100
▁virtually 100
▁precip 100
▁properly 100
▁Bears 100
bery 100
▁hosting 100
▁explosion 100
English 100
▁define 100
nai 100
▁ic 100
▁comprom 100
▁Cauc 100
▁alumin 100
▁Malta 100
▁Hod 100
veloped 100
▁Fras 100
uta 100
▁Wildlife 100
rium 100
▁Rank 100
▁airing 100
▁testim 100
▁developers 100
olith 100
▁Dj 100
hin 100
▁Morocco 100
▁hook 100
▁Hir 100
▁bypass 100
ologically 100
▁decreased 100
ridor 100
▁Constantin 100
▁Cann 100
▁dock 100
▁rook 100
▁Gur 100
▁terrain 100
▁Saskatchewan 100
▁Dob 100
▁developer 100
amation 100
olics 100
▁Pom 100
▁Canton 100
▁Peak 100
▁Idaho 100
▁XI 100
▁dozen 100
▁lessons 100
illon 100
▁Flying 100
ophone 100
▁sits 100
▁bout 100
inas 100
▁fate 100
▁summ 100
EN 100
▁varieties 100
▁journalism 100
▁Giovanni 100
▁verte 100
▁acclaim 100
▁Princeton 100
▁Ellis 100
aru 100
auc 100
▁territorial 100
▁Foot 100
▁Advanced 100
prises 100
▁teammate 100
▁dece 100
abwe 100
▁handled 100
▁1955, 100
▁observations 100
▁amph 100
▁Plate 100
▁fees 100
▁Geneva 100
▁equally 100
dist 100
▁consensus 100
▁oct 100
▁Gael 100
▁insects 100
▁absent 100
edge 100
▁100,000 100
ieu 100
▁Pick 100
arded 100
▁tourists 100
▁Located 100
▁sword 100
▁aster 100
rators 100
▁averaged 100
▁calcul 100
alties 100
earing 100
bian 100
62 100
thouse 100
▁authent 100
▁lying 100
▁reass 100
▁Oz 100
▁evident 100
▁immun 100
▁ware 100
▁GT 100
umps 100
▁Estate 100
usters 100
▁ibn 100
▁colours 100
▁Santiago 100
▁Mull 100
rier 100
▁cancel 100
▁militia 100
ordinary 100
atem 100
▁reconstruction 100
▁tom 100
▁sulf 100
oque 100
▁Episcopal 100
eness 100
Pe 100
rike 100
▁Edition 100
oding 100
vas 100
▁surfaces 100
▁cleared 100
▁codes 100
National 100
oku 100
▁transformation 100
section 100
▁preparing 100
▁buff 100
▁imprisonment 100
▁constantly 100
▁manufacture 100
▁sacrif 100
▁prayer 100
arre 100
▁sweet 100
▁voyage 100
▁Worcester 100
▁Benedict 100
▁pm 100
▁maid 100
▁corporation 100
▁specified 100
▁undertaken 100
.< 100
▁schem 100
▁girlfriend 100
▁furniture 100
är 100
▁Dim 100
▁freestyle 100
rano 100
▁ensemble 100
▁array 100
▁trips 100
▁Basin 100
icz 100
▁(0. 100
pring 100
CAR 100
▁innovative 100
GS 100
arrior 100
▁sou 100
▁centered 100
▁interactions 100
▁vegetation 100
▁doctrine 100
▁Campus 100
▁anchor 100
▁Armenia 100
techn 100
▁advisor 100
▁depends 100
roscop 100
▁Aw 100
▁thrown 100
wart 100
▁refuses 100
▁complain 100
▁farmer 100
dorf 100
▁Andrews 100
▁Kumar 100
▁Engineers 100
▁Shield 100
▁southwestern 100
▁1917, 100
▁hull 100
▁Surrey 100
▁unclear 100
▁pink 100
▁Chelsea 100
▁Salvador 100
▁Flag 100
▁Hindi 100
▁ov 100
amine 100
course 100
▁habitats 100
ensen 100
▁craf 100
▁Rabbi 100
▁burning 100
▁Lutheran 100
shaw 100
▁Trin 100
▁Luxemb 100
zhou 100
▁literally 100
▁moments 100
▁epit 100
▁Fernando 100
▁troubl 100
imensions 100
vor 100
onal 100
▁magnitude 100
▁unexpected 100
▁Fighter 100
▁metre 100
▁Distinguished 100
▁kitchen 100
▁Aur 100
▁Nas 100
▁1954, 100
▁talking 100
▁sporting 100
▁adoption 100
▁cabin 100
▁FBI 100
base 100
icus 100
grand 100
▁missionary 100
▁Gibson 100
▁Colin 100
▁Richardson 100
▁Bradford 100
uke 100
▁Annual 100
▁mysterious 100
government 100
▁theorem 100
▁Sabha 100
▁clothes 100
songwriter 100
▁Ł 100
▁Ana 100
▁manor 100
▁capabilities 100
▁aerial 100
▁Liv 100
▁Marcus 100
▁bold 100
▁naming 100
▁abbrev 100
▁collecting 100
EL 100
▁Solomon 100
▁confusion 100
▁Competition 100
Brit 100
quest 100
best 100
▁lease 100
plete 100
Tr 100
▁Lex 100
▁algebra 100
▁badly 100
apa 100
ishi 100
▁cant 100
▁slavery 100
▁Kurt 100
▁Rodrig 100
ento 100
▁Karn 100
▁inclusion 100
▁Contest 100
▁reactions 100
▁Evangel 100
▁remn 100
▁absorbed 100
▁$1. 100
▁twentieth 100
▁considerably 100
▁Aboriginal 100
▁Dund 100
▁Mé 100
▁Source 100
▁Tampa 100
▁legendary 100
▁mathematical 100
▁Duncan 100
▁Voice 100
▁29. 100
▁Simpson 100
▁Gren 100
▁Cust 100
NP 100
300 100
non 100
June 100
▁joins 100
ān 100
▁Kill 100
▁dynamic 100
▁unw 100
▁Zimbabwe 100
▁grain 100
▁expelled 100
▁1953, 100
▁collapsed 100
▁beer 100
▁IBM 100
etry 100
layer 100
▁zones 100
▁revived 100
▁desired 100
▁proposals 100
chel 100
▁Actor 100
▁Bryan 100
▁Gerald 100
▁commanding 100
▁rotation 100
gener 100
oan 100
▁tribal 100
▁finale 100
▁accordance 100
anyon 100
▁absolute 100
▁suburbs 100
ardi 100
cock 100
rating 100
▁bread 100
▁Emmy 100
▁Legislature 100
▁ion 100
▁Finals 100
(" 100
▁kinds 100
▁Mobile 100
▁gla 100
▁Twitter 100
▁Belgrade 100
artet 100
▁encourag 100
DR 100
▁vicinity 100
▁preservation 100
▁faction 100
▁fossil 100
▁conce 100
▁Hurricane 100
▁poorly 100
▁Mine 100
▁Agre 100
▁Pos 100
▁Kurd 100
▁opens 100
▁Chase 100
▁theoretical 100
▁lib 100
him 100
▁1952, 100
quin 100
OT 100
▁AB 100
▁Path 100
▁chlor 100
▁relegation 100
▁argue 100
▁Guards 100
▁Cu 100
▁Albania 100
▁172 100
gary 100
▁Wonder 100
uras 100
▁fatal 100
▁gathering 100
▁Wednesday 100
▁intensity 100
▁cosm 100
▁uncon 100
89 100
▁assignment 100
ighthouse 100
▁exploration 100
...] 100
▁slopes 100
▁1938, 100
ilda 100
edo 100
ublished 100
▁Julia 100
▁1960. 100
▁1946. 100
▁Monten 100
▁Founded 100
▁disagre 100
▁bacteria 100
▁Desert 100
appro 100
▁discipline 100
▁advised 100
▁renovated 100
▁currency 100
▁curve 100
idi 100
eri 100
▁Tiger 100
▁Oslo 100
Ireland 100
▁1962. 100
▁intens 100
▁162 100
▁Beaut 100
missions 100
▁Soci 100
▁registration 100
estrian 100
▁Ming 100
▁symbols 100
400 100
iblical 100
▁architects 100
▁Chapter 100
▁promotional 100
▁ballot 100
gends 100
▁probability 100
atever 100
▁3,000 100
▁Clif 100
▁rivalry 100
▁Allan 100
▁separately 100
▁posthum 100
esters 100
▁pin 100
esar 100
IF 100
▁interviewed 100
erals 100
ango 100
▁creek 100
▁Bran 100
▁mild 100
▁sheet 100
▁portraits 100
ictionary 100
umm 100
▁mi 100
▁Tab 100
▁Bloom 100
▁northwestern 100
Af 100
▁Pink 100
airy 100
group 100
▁Henderson 100
▁opposing 100
▁Manitoba 100
▁rape 100
▁limestone 100
immer 100
When 100
▁Safety 100
▁renovation 100
stanbul 100
▁treas 100
▁Powell 100
▁distant 100
▁Qing 100
▁weigh 100
▁peninsula 100
canic 100
lif 100
▁Others 100
▁Scientific 100
▁estimates 100
▁consequences 100
▁Porter 100
ymph 100
▁rejoin 100
April 100
▁Blake 100
eu 100
▁Hopkins 100
▁sky 100
upe 100
▁Actress 100
▁confirm 100
avi 100
▁1942. 100
▁predicted 100
▁Rachel 100
▁riders 100
atics 100
▁monitoring 100
▁preval 100
imity 100
Ed 100
▁instructions 100
▁hitting 100
▁eighteen 100
▁continental 100
▁Lig 100
▁necessarily 100
uclear 100
▁Gö 100
▁Ster 100
▁Dynasty 100
Mal 100
▁Bil 100
addy 100
▁Crist 100
▁rounded 100
▁Chin 100
▁overwhel 100
▁retrie 100
oline 100
▁Bradley 100
▁1920, 100
Sec 100
inned 100
oriented 100
▁presidency 100
ritic 100
▁anten 100
▁Trent 100
▁introduce 100
itory 100
▁chorus 100
pert 100
▁Emily 100
alifax 100
anch 100
hero 100
▁blocked 100
▁Saw 100
▁voiced 100
▁Critics 100
▁Arsenal 100
▁oxid 100
▁Was 100
▁5,000 100
▁quarters 100
▁Veter 100
▁entries 100
wind 100
ahu 100
stable 100
▁1963. 100
▁lung 100
▁Natal 100
Ste 100
▁exempt 100
▁dancer 100
▁boarding 100
▁Tree 100
▁listing 100
▁agrees 100
▁Reich 100
▁Kenneth 100
▁Warwick 100
▁Prison 100
ww 100
▁spectrum 100
▁Machine 100
▁173 100
▁incidents 100
▁2" 100
▁wound 100
▁depicting 100
▁kin 100
▁sacred 100
▁conceived 100
▁convoy 100
▁Amendment 100
▁egg 100
▁aggressive 100
rene 100
▁Ard 100
▁Leslie 100
▁condemned 100
▁GP 100
▁Dow 100
October 100
▁borrow 100
adal 100
▁Worth 100
▁Eve 100
▁Palm 100
inished 100
San 100
▁cott 100
▁Plymouth 100
▁Kw 100
▁wildlife 100
▁repairs 100
screen 100
▁Parks 100
▁wake 100
▁manga 100
Per 100
▁AFL 100
▁Guj 100
▁layout 100
How 100
Pol 100
ennium 100
oye 100
▁biology 100
uxiliary 100
▁copyright 100
adh 100
▁paras 100
comp 100
▁74 100
▁withdrawal 100
eastern 100
▁Proper 100
etheless 100
▁smart 100
▁Brighton 100
▁investigated 100
▁Pine 100
ribution 100
71 100
monton 100
▁trig 100
▁af 100
▁stepped 100
▁Chad 100
▁Watch 100
▁Publishing 100
September 100
▁allocated 100
fr 100
arin 100
astics 100
linary 100
deen 100
▁1899 100
manuel 100
▁estimate 100
▁scattered 100
▁watched 100
phant 100
5). 100
▁ESPN 100
RP 100
▁Principal 100
laus 100
ndez 100
▁Preston 100
icals 100
▁1898 100
▁2–0 100
▁loved 100
omatic 100
Life 100
▁Talk 100
▁1914, 100
gue 100
algam 100
▁interim 100
chron 100
▁× 100
oko 100
▁Memphis 100
▁performs 100
July 100
▁Tyler 100
▁Parliamentary 100
▁Without 100
▁consideration 100
▁Herald 100
▁conversation 100
–11 100
▁Relations 100
▁measuring 100
▁71 100
▁Vale 100
▁clerk 100
▁salary 100
ylum 100
▁favorable 100
▁penet 100
▁promise 100
ouns 100
▁Teh 100
Brien 100
▁adequ 100
▁crucial 100
▁Eugene 100
▁legacy 100
▁colonel 100
uchi 100
▁discussions 100
▁Tennis 100
▁populated 100
elo 100
OW 100
hurst 100
OL 100
▁Lucy 100
Mr 100
Los 100
hou 100
▁frust 100
▁boxing 100
▁Universe 100
ipur 100
▁flagship 100
assy 100
EM 100
lando 100
▁manuscripts 100
▁Plaza 100
rud 100
▁Herm 100
lez 100
▁lun 100
▁Bend 100
▁2: 100
▁questioned 100
▁1951, 100
▁Alpha 100
▁1919, 100
▁Shore 100
never 100
Cent 100
horn 100
▁navy 100
▁Calgary 100
▁Bailey 100
▁customs 100
▁Additional 100
ár 100
▁brands 100
electric 100
listed 100
▁edges 100
▁Glass 100
▁boost 100
▁outcome 100
▁genera 100
gard 100
▁AF 100
▁Burton 100
▁considers 100
▁Made 100
▁embarked 100
▁Param 100
holder 100
▁mature 100
▁Anat 100
▁bankruptcy 100
▁Scholar 100
▁Caroline 100
rising 100
▁Comedy 100
▁guards 100
ints 100
▁conquest 100
iott 100
▁Deuts 100
▁hurricane 100
▁jack 100
▁seal 100
▁inaugurated 100
▁Editor 100
▁screenplay 100
▁composers 100
▁skull 100
▁naturally 100
rica 100
abling 100
▁Ö 100
▁minim 100
▁legally 100
pri 100
▁Milton 100
▁Harbour 100
▁vari 100
▁crack 100
oux 100
▁protagonist 100
gae 100
▁(189 100
anian 100
Que 100
▁neighb 100
▁Shop 100
cyclop 100
▁drives 100
▁Canyon 100
"". 100
▁enrollment 100
▁navig 100
▁dinner 100
▁Cert 100
▁Cord 100
▁botan 100
▁Archae 100
▁depicts 100
▁Thursday 100
▁horizontal 100
▁vinyl 100
▁Feder 100
▁emigrated 100
–198 100
▁Nadu 100
▁recreational 100
▁NATO 100
▁Curtis 100
asium 100
eer 100
▁assassination 100
▁163 100
▁autonomous 100
▁mechanisms 100
▁underlying 100
dan 100
▁physically 100
▁Sold 100
ancers 100
▁Testament 100
▁subspecies 100
▁telev 100
GP 100
▁Republicans 100
agi 100
▁Gamb 100
▁Directors 100
▁exhibits 100
Let 100
hl 100
▁intend 100
▁Doug 100
▁deterior 100
▁Carne 100
▁sor 100
▁tob 100
▁fertil 100
73 100
▁epid 100
alli 100
▁draws 100
▁sculptor 100
▁fro 100
▁proximity 100
itated 100
structed 100
▁700 100
author 100
▁synthes 100
▁tale 100
▁Miles 100
▁traff 100
▁manifest 100
Art 100
▁suburban 100
▁certainly 100
▁gameplay 100
▁lifestyle 100
▁Halifax 100
▁laps 100
▁marking 100
▁stere 100
▁explanation 100
Ant 100
▁171 100
▁Lah 100
▁receptor 100
▁premises 100
ductive 100
ellar 100
▁Sene 100
▁Edge 100
▁Glenn 100
▁Fraser 100
▁79 100
▁marri 100
achers 100
▁1937, 100
www 100
▁optical 100
▁dish 100
idelines 100
restrial 100
este 100
itative 100
▁Prefecture 100
▁rendered 100
▁arose 100
▁Vij 100
▁logic 100
▁dimensions 100
▁rapper 100
▁reconc 100
▁Cave 100
▁Faith 100
▁hamlet 100
▁aftermath 100
▁nose 100
aneous 100
six 100
▁Fergus 100
Super 100
▁Speaker 100
▁Dw 100
▁Reid 100
▁Gan 100
▁Slovenia 100
IR 100
walk 100
powered 100
▁Chancellor 100
▁1940. 100
path 100
GN 100
December 100
▁1936, 100
▁Balk 100
▁Leop 100
▁Wend 100
▁Bedford 100
▁Robertson 100
comes 100
▁Baby 100
▁Colonial 100
umble 100
▁Jung 100
▁Claud 100
▁Naples 100
▁Against 100
▁Catholics 100
▁knocked 100
ht 100
oyle 100
▁Basil 100
▁committees 100
xi 100
▁subfamily 100
pay 100
word 100
▁cameras 100
▁raw 100
▁consistently 100
▁lip 100
▁Folk 100
ettes 100
▁Number 100
▁Guatem 100
▁nicknamed 100
▁Frankfurt 100
▁CH 100
appa 100
▁facade 100
▁Store 100
awi 100
▁sensitive 100
▁hide 100
▁73 100
ikes 100
▁Raz 100
▁Lut 100
▁McDonald 100
▁offense 100
▁Ced 100
▁Sul 100
▁snail 100
▁proven 100
▁Interior 100
atty 100
▁prohibited 100
▁Vat 100
▁runway 100
cot 100
▁Rib 100
▁Highland 100
▁Filipino 100
▁reserved 100
▁1941. 100
▁alphabet 100
▁notion 100
istle 100
▁Rhine 100
▁1896 100
▁marsh 100
▁accus 100
▁Wesley 100
▁Philosophy 100
Har 100
▁obst 100
▁RBI 100
▁1961. 100
Hist 100
Europe 100
▁Lyon 100
grim 100
▁Estonia 100
▁recurring 100
▁companion 100
unal 100
inum 100
▁Complex 100
▁athletics 100
▁Resources 100
▁Mechan 100
▁servant 100
just 100
▁planted 100
▁USSR 100
▁marble 100
stadt 100
▁Study 100
stop 100
▁lesser 100
▁Musical 100
▁membrane 100
Hung 100
▁Boeing 100
▁Capitol 100
▁Sheriff 100
▁motif 100
▁Kang 100
MT 100
market 100
▁supervision 100
▁stabil 100
pp 100
▁Cit 100
▁contend 100
▁Albany 100
EF 100
▁activated 100
▁DS 100
▁Spec 100
▁vault 100
▁fires 100
▁1948. 100
▁orientation 100
▁Ign 100
▁Coalition 100
▁directing 100
▁vulnerable 100
inis 100
▁82 100
▁socialist 100
ém 100
hart 100
▁Lords 100
▁freed 100
▁Cinema 100
▁Adrian 100
ewise 100
▁strikes 100
educ 100
▁eating 100
▁Associate 100
▁scar 100
▁1895 100
▁semifinals 100
card 100
▁crowned 100
▁Sisters 100
jud 100
▁Commercial 100
▁holes 100
▁NSW 100
▁commercially 100
▁aside 100
▁instructor 100
▁kiss 100
▁Hes 100
-21 100
▁demonstrate 100
▁1943. 100
▁creator 100
▁Crus 100
▁strategies 100
▁Charter 100
▁jointly 100
ouncing 100
▁Edmonton 100
▁Windsor 100
▁lord 100
▁Nikol 100
▁sax 100
▁XX 100
has 100
enzie 100
▁molecules 100
▁Belfast 100
▁bills 100
▁persec 100
▁surpass 100
▁RNA 100
▁1840 100
▁Emir 100
▁taste 100
▁orch 100
▁phon 100
▁heter 100
▁Fun 100
▁unveiled 100
▁Cly 100
▁obvious 100
▁96 100
▁Reynolds 100
▁Prussia 100
▁Fra 100
▁mosque 100
▁Stafford 100
kees 100
▁facilitate 100
▁delegation 100
▁sculptures 100
▁Middles 100
▁referee 100
▁Ek 100
▁diagnosed 100
▁Bea 100
▁kids 100
avor 100
▁feeding 100
▁Architecture 100
▁politically 100
oves 100
▁interven 100
▁rehabilit 100
encia 100
▁substance 100
▁Tall 100
▁Tanz 100
kinson 100
▁performer 100
North 100
▁swing 100
▁Prof 100
▁successive 100
▁Lomb 100
▁pref 100
likely 100
▁basement 100
▁imported 100
▁terrorist 100
agle 100
▁calculated 100
amped 100
thood 100
▁François 100
November 100
ocate 100
▁Burns 100
▁preceding 100
▁removing 100
iar 100
▁Springfield 100
clusive 100
▁pig 100
▁scales 100
▁Portsmouth 100
andro 100
▁Chuck 100
▁portfol 100
▁Male 100
▁bonds 100
▁Fifth 100
▁Globe 100
ulates 100
▁Muk 100
▁tun 100
▁philosopher 100
▁Physics 100
▁Cos 100
▁WC 100
▁moon 100
▁bullet 100
ivo 100
▁tension 100
▁IF 100
▁rises 100
aze 100
▁hypothesis 100
▁inland 100
▁consumers 100
▁1897 100
▁reinforce 100
▁explored 100
▁Planning 100
▁Dew 100
▁Loren 100
▁agreements 100
▁Por 100
▁Berk 100
▁Examples 100
▁Zamb 100
▁advocated 100
antle 100
uesday 100
..." 100
▁trophy 100
▁tradem 100
▁finger 100
isers 100
January 100
▁disabled 100
▁AFC 100
▁analyst 100
▁[...] 100
▁genres 100
empor 100
▁united 100
▁investigations 100
▁101 100
tlement 100
▁Agreement 100
▁museums 100
▁Manor 100
▁156 100
zegov 100
imon 100
pending 100
established 100
▁millions 100
▁spite 100
mag 100
▁voices 100
uin 100
▁10% 100
iking 100
▁1956. 100
sal 100
▁indirect 100
gram 100
fold 100
how 100
▁subord 100
▁administrator 100
iden 100
▁rushing 100
▁Bever 100
▁surrendered 100
▁Jesse 100
▁Americas 100
▁arguments 100
▁Aberdeen 100
▁authored 100
Good 100
▁statistical 100
▁fron 100
▁Presidential 100
sole 100
▁bones 100
akk 100
▁Ig 100
Rock 100
▁consort 100
arium 100
ducer 100
▁novelist 100
▁VIII 100
▁researcher 100
▁directions 100
▁Ellen 100
plane 100
▁tonn 100
etti 100
▁orth 100
▁cub 100
this 100
▁Ari 100
▁Dud 100
▁audition 100
9). 100
▁axis 100
▁custody 100
▁abstract 100
▁arguing 100
album 100
▁healthy 100
▁Dum 100
▁replic 100
SCO 100
▁synthesis 100
▁digit 100
▁UA 100
▁remarkable 100
▁rebel 100
laws 100
▁payments 100
▁Lenn 100
▁Alexandria 100
reens 100
▁Utt 100
assis 100
cussion 100
▁Fellowship 100
▁bishops 100
criptions 100
▁Luxembourg 100
▁Rochester 100
▁Carroll 100
▁Ost 100
Port 100
▁Progressive 100
iating 100
▁accidentally 100
ør 100
▁utility 100
▁Seminary 100
▁tobacco 100
600 100
lla 100
▁Various 100
▁stair 100
▁Pomer 100
cin 100
▁tent 100
▁Comb 100
▁enterprise 100
▁tables 100
▁Billboard 100
▁(188 100
lord 100
▁continuously 100
▁Cel 100
▁CIA 100
▁Blu 100
▁Notre 100
▁Banks 100
▁Bord 100
▁reader 100
eps 100
▁Oct 100
▁defect 100
▁Mis 100
▁velocity 100
▁IA 100
▁WA 100
illiant 100
▁Original 100
▁Appro 100
▁McN 100
▁dense 100
seat 100
▁bowl 100
forest 100
▁Individual 100
▁Marines 100
▁impression 100
▁6- 100
▁Wagner 100
▁subdiv 100
▁lasting 100
▁Brid 100
▁Warriors 100
▁fract 100
▁monks 100
▁tornado 100
mand 100
erek 100
▁Spart 100
▁CB 100
▁oak 100
ifier 100
▁elaborate 100
▁circles 100
ioned 100
▁Task 100
▁item 100
iformes 100
▁comprised 100
▁Kann 100
▁labels 100
▁grandmother 100
illance 100
mus 100
▁Kyle 100
▁thermal 100
▁Lost 100
▁sustainable 100
▁Hoff 100
▁gates 100
▁dressed 100
▁Lancaster 100
▁Viol 100
▁suffer 100
▁cryst 100
▁Cohen 100
▁Clement 100
SU 100
▁Index 100
▁discipl 100
lis 100
EE 100
▁fier 100
▁1893 100
▁Wake 100
▁raids 100
pus 100
Pal 100
hey 100
▁antib 100
▁pret 100
▁pursuit 100
▁endangered 100
▁veterans 100
▁1933, 100
▁apolog 100
▁maternal 100
▁1947. 100
▁1959. 100
▁Writers 100
▁epic 100
▁Haven 100
▁Et 100
▁truly 100
▁fla 100
▁Monroe 100
Bar 100
▁philanthrop 100
▁Headquarters 100
▁achieving 100
ados 100
acing 100
eni 100
aceut 100
▁1930, 100
▁Lynn 100
▁hotels 100
▁Level 100
ding 100
▁1958. 100
▁geographical 100
elly 100
▁SO 100
▁Pé 100
heng 100
▁Brent 100
▁Recon 100
▁lig 100
▁Half 100
asse 100
▁(194 100
imental 100
▁harass 100
▁1935, 100
heric 100
▁examined 100
▁tactics 100
Her 100
▁slot 100
▁propri 100
▁foundations 100
houses 100
▁obtaining 100
urities 100
▁pronounced 100
Sat 100
▁Kom 100
▁humid 100
▁garn 100
▁longtime 100
▁pastor 100
▁sectors 100
▁1939. 100
adio 100
▁dealt 100
▁Own 100
▁Hels 100
▁nights 100
▁pine 100
▁workshop 100
▁ancestry 100
ayette 100
▁Orlando 100
enary 100
▁Liberation 100
alid 100
▁presum 100
▁vig 100
▁chess 100
▁Linda 100
aris 100
▁cere 100
▁Mail 100
▁Heat 100
estock 100
▁Travel 100
▁Morrison 100
▁proclaimed 100
zegovina 100
▁Bj 100
▁Being 100
▁proceedings 100
ylan 100
▁depot 100
▁fights 100
▁delegates 100
▁motorcycle 100
▁1894 100
Men 100
▁sunk 100
▁conve 100
▁Baltic 100
bles 100
▁contracted 100
▁tackle 100
▁innovation 100
▁89 100
▁invitation 100
▁Agricultural 100
▁cluster 100
▁intellig 100
▁lengths 100
▁1800 100
▁Crystal 100
aram 100
▁enorm 100
▁settings 100
▁Inspe 100
▁Depression 100
ercis 100
▁proceeds 100
▁batteries 100
ashtra 100
▁Troy 100
▁Exhibition 100
colm 100
▁AN 100
▁mystery 100
▁Movie 100
▁Harm 100
▁harbour 100
▁Nacional 100
▁arist 100
▁rulers 100
▁Angels 100
ablo 100
▁Moss 100
▁bombs 100
▁81 100
▁humor 100
▁counts 100
arians 100
▁98 100
▁engra 100
▁mud 100
▁reflects 100
atri 100
▁1957. 100
chair 100
▁Chal 100
eno 100
▁disputed 100
Sal 100
ych 100
lar 100
daughter 100
▁priority 100
▁unsuccessfully 100
rh 100
ondo 100
▁rings 100
▁contestants 100
▁enhanced 100
andin 100
▁divide 100
aternity 100
sup 100
▁1- 100
anca 100
▁allied 100
▁Dayton 100
▁na 100
Comm 100
▁Southwest 100
▁trim 100
▁leather 100
▁gamb 100
▁Ley 100
▁humanity 100
mic 100
clesiast 100
▁Anders 100
ycl 100
books 100
▁romance 100
▁Moses 100
mile 100
▁Theodore 100
▁Bohem 100
ught 100
▁undergo 100
▁Ki 100
▁ingred 100
▁initiatives 100
▁verb 100
otypes 100
▁bounded 100
▁complicated 100
▁mph 100
▁harsh 100
present 100
▁Barnes 100
▁1892 100
▁Wyoming 100
▁orchest 100
▁Antarctic 100
▁nationalist 100
▁preventing 100
▁Harper 100
▁Heaven 100
opy 100
etics 100
▁Mick 100
▁ceremonies 100
▁Richards 100
▁Chess 100
▁rescued 100
▁donations 100
▁SM 100
▁brut 100
▁Martha 100
itively 100
▁quit 100
formed 100
▁overcome 100
ndon 100
▁planes 100
▁organize 100
▁Dong 100
▁catalog 100
▁María 100
▁Month 100
▁Factory 100
▁artifacts 100
headed 100
▁intact 100
▁wrestler 100
ographers 100
▁Sacram 100
roat 100
56 100
▁Nigerian 100
isive 100
▁Hugo 100
▁Marian 100
andra 100
▁Rey 100
effect 100
▁balls 100
▁ori 100
▁presenter 100
▁rectangular 100
▁murders 100
▁accuracy 100
irie 100
ño 100
▁Account 100
▁parad 100
▁decree 100
▁factories 100
iza 100
▁86 100
▁outlets 100
▁disappear 100
hears 100
bern 100
arity 100
▁Excell 100
▁conspiracy 100
▁flowering 100
▁1885 100
▁diff 100
▁battalions 100
▁Blair 100
▁propaganda 100
▁Gustav 100
ibli 100
▁speaks 100
▁destroying 100
▁essays 100
orms 100
rill 100
▁Jennifer 100
ercises 100
ogo 100
▁Arctic 100
▁seeks 100
▁honours 100
▁Churchill 100
▁Seoul 100
▁Marion 100
▁1950. 100
▁thriller 100
▁Marcel 100
▁Đ 100
▁insisted 100
▁Hunting 100
▁presenting 100
58 100
▁deployment 100
▁controlling 100
▁1889 100
▁advancing 100
▁careers 100
▁Rosen 100
▁certificate 100
▁spur 100
▁wingspan 100
▁Lic 100
Cap 100
▁Istanbul 100
▁massacre 100
owner 100
"— 100
▁trucks 100
▁Nobel 100
bird 100
▁marketed 100
▁prominence 100
▁admission 100
▁mad 100
▁openly 100
▁illeg 100
▁RT 100
oya 100
▁challenging 100
▁poets 100
▁counted 100
▁Peng 100
Met 100
ipeg 100
although 100
▁neur 100
▁regiments 100
▁Congreg 100
▁ceiling 100
▁Dipl 100
▁accompanying 100
▁ITV 100
▁canton 100
▁nominee 100
last 100
▁invaded 100
▁believing 100
▁Edgar 100
▁rookie 100
▁voltage 100
▁submit 100
▁Riv 100
istence 100
▁Hayes 100
▁introducing 100
beck 100
▁ramp 100
▁Maxim 100
▁cater 100
▁1500 100
▁cream 100
▁specimen 100
▁Karen 100
▁84 100
club 100
cs 100
▁merchants 100
▁Spect 100
irical 100
lette 100
▁une 100
▁revolt 100
isode 100
▁Ethiopia 100
shan 100
abi 100
▁Lip 100
▁irrig 100
▁20,000 100
iaz 100
▁nan 100
rition 100
▁casting 100
agers 100
▁congressional 100
cession 100
ingle 100
▁errors 100
▁reliable 100
▁memories 100
▁killer 100
Ital 100
▁Cros 100
▁fortune 100
idan 100
▁Kad 100
▁Romans 100
▁crypt 100
ogical 100
Go 100
▁guided 100
▁Kot 100
▁Diet 100
▁objectives 100
hydro 100
▁substit 100
▁pollution 100
▁Marin 100
▁feather 100
▁protecting 100
▁Clear 100
▁vacant 100
azar 100
▁gods 100
▁Typ 100
▁crashed 100
rone 100
▁endorsed 100
▁feminist 100
▁acceptance 100
▁Sweet 100
▁Crawford 100
hend 100
▁Nu 100
▁variables 100
alla 100
▁Eb 100
colspan 100
▁tickets 100
▁auto 100
▁Sex 100
Austral 100
], 100
elfth 100
UP 100
▁suppl 100
▁Buddhism 100
▁breath 100
▁fare 100
▁Bagh 100
▁Carnegie 100
▁invested 100
▁batted 100
▁evaluation 100
▁Lay 100
▁derives 100
▁rolling 100
▁graduates 100
▁lover 100
▁solve 100
▁parade 100
▁Lav 100
Old 100
atsu 100
▁tune 100
▁pel 100
▁1929, 100
▁reopened 100
▁demonstration 100
▁Brom 100
modern 100
▁abortion 100
inded 100
▁Tuesday 100
▁saving 100
oche 100
▁managers 100
▁parishes 100
ochem 100
omical 100
▁pav 100
▁altar 100
▁tet 100
penter 100
▁Kosovo 100
ocaust 100
hra 100
record 100
isión 100
▁Institution 100
▁Mercury 100
▁Ish 100
atti 100
▁reunited 100
▁practition 100
▁fiscal 100
lave 100
aternal 100
Will 100
titled 100
▁filter 100
ufficient 100
smith 100
▁postp 100
▁Jeremy 100
▁Screen 100
▁Rever 100
▁ 100
e 100
a 100
t 100
n 100
i 100
o 100
r 100
s 100
h 100
l 100
d 100
c 100
u 100
m 100
f 100
g 100
p 100
w 100
y 100
b 100
, 100
. 100
v 100
k 100
1 100
" 100
S 100
T 100
A 100
0 100
C 100
2 100
M 100
9 100
I 100
B 100
P 100
H 100
- 100
D 100
R 100
F 100
L 100
x 100
' 100
) 100
N 100
( 100
G 100
8 100
W 100
E 100
5 100
3 100
J 100
O 100
4 100
6 100
7 100
z 100
K 100
j 100
U 100
q 100
V 100
: 100
– 100
Y 100
; 100
% 100
/ 100
Z 100
Q 100
é 100
X 100
$ 100
’ 100
& 100
á 100
— 100
] 100
[ 100
ó 100
_ 100
“ 100
! 100
í 100
” 100
> 100
< 100
ü 100
= 100
ö 100
ā 100
# 100
ä 100
ć 100
? 100
| 100
è 100
ō 100
£ 100
+ 100
ł 100
ç 100
š 100
‘ 100
ñ 100
ø 100
° 100
č 100
ã 100
ú 100
É 100
ū 100
* 100
â 100
ī 100
ı 100
ă 100
à 100
å 100
ń 100
ë 100
а 100
ô 100
о 100
α 100
ş 100
ž 100
× 100
и 100
• 100
ș 100
ß 100
Š 100
е 100
ê 100
æ 100
€ 100
Á 100
н 100
ę 100
− 100
р 100
Ö 100
ś 100
ا 100
ğ 100
′ 100
μ 100
⁄ 100
ο 100
Ł 100
с 100
в 100
т 100
к 100
ð 100
ï 100
Đ 100
ą 100
л 100
Č 100
ý 100
ř 100
β 100
ν 100
ι 100
ρ 100
Ž 100
~ 100
ț 100
τ 100
ε 100
ς 100
ʼ 100
Ó 100
ż 100
Ś 100
ा 100
İ 100
} 100
Å 100
î 100
ل 100
λ 100
ě 100
ò 100
ź 100
σ 100
{ 100
ʻ 100
Ō 100
д 100
ē 100
Ç 100
ə 100
· 100
đ 100
κ 100
ő 100
ì 100
у 100
ė 100
ر 100
π 100
् 100
õ 100
м 100
Ø 100
م 100
\ 100
ن 100
» 100
र 100
ي 100
« 100
γ 100
→ 100
Ş 100
ư 100
Ż 100
η 100
و 100
@ 100
δ 100
ệ 100
й 100
§ 100
Æ 100
ù 100
υ 100
` 100
Ü 100
г 100
я 100
د 100
Ā 100
п 100
ب 100
ω 100
י 100
ơ 100
Î 100
́ 100
Ú 100
± 100
ʿ 100
ạ 100
ḥ 100
б 100
ч 100
ί 100
† 100
ь 100
‐ 100
ṣ 100
θ 100
ы 100
С 100
س 100
з 100
त 100
ά 100
ṭ 100
ו 100
ŏ 100
न 100
ि 100
ả 100
் 100
म 100
ễ 100
ţ 100
क 100
û 100
ň 100
ό 100
ی 100
φ 100
Δ 100
ṇ 100
Í 100
स 100
村 100
、 100
œ 100
व 100
ी 100
े 100
ế 100
大 100
ت 100
ع 100
ר 100
中 100
ه 100
ầ 100
М 100
ה 100
К 100
य 100
ị 100
^ 100
א 100
Ș 100
Þ 100
า 100
州 100
ल 100
А 100
Ä 100
ц 100
х 100
П 100
ל 100
ح 100
χ 100
प 100
Ḩ 100
Σ 100
В 100
द 100
ร 100
ա 100
¥ 100
ồ 100
έ 100
ш 100
王 100
ḩ 100
Α 100
≤ 100
ु 100
„ 100
ं 100
ב 100
ņ 100
ů 100
Б 100
ύ 100
ة 100
ộ 100
Р 100
ή 100
山 100
і 100
ش 100
ह 100
מ 100
þ 100
Ḥ 100
ف 100
≥ 100
® 100
Π 100
া 100
ж 100
ج 100
Н 100
ש 100
ق 100
李 100
Д 100
ो 100
ḍ 100
Κ 100
น 100
Ω 100
ת 100
Г 100
ग 100
Ć 100
子 100
ー 100
ṃ 100
ி 100
க 100
് 100
ज 100
ǎ 100
Т 100
人 100
ọ 100
О 100
Ε 100
天 100
ũ 100
ŭ 100
נ 100
文 100
ز 100
Γ 100
ъ 100
ĩ 100
南 100
И 100
ك 100
ậ 100
ד 100
₹ 100
¡ 100
श 100
ờ 100
ắ 100
Ț 100
ง 100
ố 100
ע 100
ு 100
த 100
ம 100
ŋ 100
公 100
ர 100
∈ 100
ン 100
อ 100
ब 100
Λ 100
À 100
Μ 100
書 100
ก 100
ứ 100
Φ 100
道 100
の 100
平 100
≈ 100
ม 100
ն 100
ா 100
เ 100
一 100
ÿ 100
ʾ 100
ა 100
∞ 100
ζ 100
ħ 100
َ 100
ṛ 100
ľ 100
च 100
ั 100
三 100
ћ 100
¢ 100
武 100
ک 100
Τ 100
э 100
金 100
Л 100
ण 100
خ 100
ť 100
ξ 100
ј 100
新 100
ấ 100
্ 100
ი 100
ח 100
國 100
ր 100
র 100
ย 100
ớ 100
་ 100
ว 100
学 100
ส 100
ю 100
ώ 100
ิ 100
国 100
ф 100
Ι 100
海 100
西 100
ड 100
安 100
ק 100
太 100
家 100
東 100
ם 100
भ 100
Ñ 100
ː 100
郎 100
이 100
ן 100
ล 100
ص 100
Ο 100
高 100
ப 100
ề 100
ǔ 100
田 100
★ 100
أ 100
್ 100
日 100
ỳ 100
ļ 100
ṅ 100
ψ 100
劉 100
司 100
城 100
ू 100
之 100
่ 100
ո 100
ি 100
ǫ 100
ụ 100
Ν 100
江 100
的 100
小 100
פ 100
部 100
ǐ 100
Â 100
ط 100
У 100
ス 100
張 100
元 100
כ 100
ʔ 100
З 100
ủ 100
ġ 100
ध 100
ท 100
ல 100
明 100
北 100
ต 100
வ 100
ի 100
本 100
ợ 100
《 100
ե 100
พ 100
》 100
河 100
Θ 100
් 100
和 100
陽 100
門 100
上 100
社 100
ס 100
神 100
้ 100
ี 100
ɛ 100
ˈ 100
ष 100
ন 100
ன 100
₱ 100
Ţ 100
Β 100
イ 100
‡ 100
ų 100
光 100
石 100
林 100
Е 100
下 100
。 100
生 100
ด 100
ব 100
ट 100
Ф 100
사 100
有 100
ル 100
щ 100
馬 100
ക 100
軍 100
ห 100
ɔ 100
水 100
अ 100
ג 100
ட 100
ỹ 100
镇 100
ി 100
ּ 100
・ 100
会 100
گ 100
ё 100
ச 100
ে 100
ƒ 100
บ 100
川 100
義 100
ט 100
德 100
事 100
行 100
學 100
ะ 100
ָ 100
Х 100
ক 100
● 100
ŵ 100
ุ 100
年 100
ম 100
ữ 100
ய 100
ე 100
ರ 100
い 100
白 100
ى 100
ű 100
ւ 100
花 100
京 100
¿ 100
陳 100
民 100
史 100
ử 100
成 100
心 100
院 100
⟩ 100
区 100
五 100
ಿ 100
ラ 100
È 100
ト 100
同 100
⟨ 100
ল 100
ಾ 100
์ 100
ἀ 100
ِ 100
法 100
ď 100
आ 100
ख 100
ാ 100
校 100
士 100
ි 100
ை 100
్ 100
我 100
≠ 100
十 100
方 100
의 100
都 100
Ī 100
̄ 100
華 100
ా 100
ク 100
ত 100
龍 100
대 100
Χ 100
ḫ 100
ổ 100
長 100
ค 100
­ 100
ự 100
ッ 100
♭ 100
郡 100
ช 100
Ч 100
ා 100
ര 100
ַ 100
پ 100
通 100
़ 100
ְ 100
غ 100
ు 100
ਾ 100
不 100
侍 100
女 100
宗 100
原 100
Ρ 100
正 100
乡 100
ത 100
ǒ 100
Ľ 100
ہ 100
ἐ 100
リ 100
ර 100
צ 100
ന 100
რ 100
⋅ 100
二 100
थ 100
ɪ 100
ા 100
ḷ 100
地 100
― 100
ừ 100
ʃ 100
য 100
楊 100
美 100
ז 100
ै 100
尚 100
會 100
리 100
Η 100
Ṣ 100
ア 100
ந 100
Ш 100
ḳ 100
ẓ 100
স 100
青 100
จ 100
한 100
皇 100
路 100
世 100
Œ 100
ু 100
省 100
ķ 100
기 100
ִ 100
ి 100
四 100
آ 100
福 100
Ц 100
ു 100
ს 100
න 100
≡ 100
侯 100
দ 100
ర 100
清 100
Ἀ 100
周 100
章 100
학 100
星 100
ῦ 100
ん 100
木 100
ು 100
街 100
ನ 100
Ṭ 100
縣 100
阿 100
愛 100
മ 100
‰ 100
ḵ 100
信 100
Ħ 100
Υ 100
將 100
յ 100
정 100
ْ 100
ẕ 100
ὶ 100
氏 100
主 100
Ə 100
। 100
东 100
シ 100
八 100
지 100
ლ 100
Ж 100
ป 100
ُ 100
春 100
동 100
կ 100
Я 100
ῖ 100
り 100
志 100
立 100
集 100
ŷ 100
古 100
ئ 100
真 100
₤ 100
ල 100
し 100
忠 100
ẹ 100
寺 100
永 100
ற 100
教 100
ض 100
歌 100
ẩ 100
野 100
龙 100
် 100
Ψ 100
ක 100
ಕ 100
ო 100
̀ 100
ව 100
合 100
口 100
台 100
ठ 100
แ 100
英 100
¬ 100
న 100
仁 100
ꞌ 100
ῶ 100
ّ 100
黃 100
夫 100
市 100
月 100
ਰ 100
প 100
ම 100
고 100
建 100
ロ 100
പ 100
华 100
昌 100
る 100
도 100
̊ 100
̱ 100
ු 100
ɑ 100
陵 100
다 100
た 100
吉 100
아 100
☆ 100
Ř 100
全 100
タ 100
ം 100
ս 100
代 100
국 100
香 100
カ 100
玉 100
ள 100
マ 100
‚ 100
Э 100
성 100
ය 100
տ 100
化 100
朱 100
限 100
̃ 100
ằ 100
羅 100
문 100
시 100
科 100
ల 100
な 100
ể 100
師 100
إ 100
工 100
理 100
音 100
김 100
Ū 100
港 100
ở 100
う 100
昭 100
空 100
주 100
九 100
堂 100
ศ 100
帝 100
가 100
無 100
ɨ 100
ข 100
后 100
宣 100
© 100
մ 100
ὸ 100
第 100
ʽ 100
ല 100
定 100
記 100
় 100
ნ 100
ী 100
ස 100
ド 100
百 100
曲 100
∂ 100
か 100
レ 100
വ 100
ದ 100
수 100
常 100
寶 100
서 100
Ē 100
博 100
ಮ 100
と 100
宮 100
政 100
യ 100
โ 100
ண 100
～ 100
♦ 100
원 100
ジ 100
樂 100
̈ 100
黄 100
ಲ 100
ỗ 100
ವ 100
ः 100
手 100
自 100
្ 100
⊆ 100
興 100
ട 100
♯ 100
ὐ 100
里 100
∨ 100
̧ 100
徐 100
相 100
ం 100
梁 100
ੀ 100
吳 100
چ 100
你 100
利 100
孫 100
漢 100
物 100
ث 100
唐 100
나 100
胡 100
守 100
令 100
ತ 100
藤 100
ĭ 100
მ 100
語 100
雄 100
उ 100
夏 100
మ 100
景 100
君 100
溪 100
ɣ 100
保 100
御 100
ไ 100
ས 100
ĕ 100
」 100
ಗ 100
趙 100
重 100
ģ 100
̲ 100
వ 100
њ 100
ே 100
松 100
ї 100
「 100
ਸ 100
ვ 100
‒ 100
장 100
き 100
ἰ 100
스 100
湖 100
六 100
流 100
ද 100
思 100
盧 100
Ò 100
ֹ 100
ृ 100
인 100
朝 100
교 100
자 100
ῆ 100
∆ 100
島 100
ਿ 100
廣 100
ʊ 100
하 100
使 100
兵 100
魏 100
ත 100
상 100
ோ 100
ަ 100
良 100
↑ 100
經 100
শ 100
క 100
康 100
전 100
ذ 100
ู 100
少 100
선 100
名 100
外 100
フ 100
字 100
沙 100
، 100
業 100
テ 100
ǀ 100
ো 100
左 100
ौ 100
治 100
马 100
ೆ 100
Ọ 100
ặ 100
官 100
ṯ 100
∧ 100
風 100
Ô 100
出 100
গ 100
知 100
雲 100
鳳 100
ธ 100
に 100
₩ 100
॥ 100
府 100
⁠ 100
조 100
ಸ 100
式 100
신 100
ํ 100
ོ 100
ま 100
キ 100
千 100
ર 100
時 100
张 100
延 100
所 100
韓 100
是 100
弘 100
ء 100
ṟ 100
제 100
井 100
জ 100
禮 100
谷 100
Ա 100
曹 100
어 100
泉 100
言 100
ǁ 100
Ј 100
ར 100
ċ 100
Ġ 100
泰 100
衛 100
љ 100
ಂ 100
ಯ 100
ら 100
구 100
ା 100
虎 100
津 100
者 100
산 100
サ 100
技 100
プ 100
度 100
ག 100
コ 100
老 100
ミ 100
হ 100
源 100
鄭 100
ळ 100
ィ 100
ナ 100
秀 100
♥ 100
桥 100
마 100
우 100
화 100
七 100
ھ 100
ֵ 100
多 100
长 100
ウ 100
承 100
阳 100
ǃ 100
І 100
ە 100
何 100
玄 100
ए 100
త 100
く 100
園 100
宋 100
洪 100
郭 100
무 100
土 100
館 100
ბ 100
火 100
라 100
Ḳ 100
仙 100
ढ 100
可 100
竹 100
̓ 100
თ 100
ា 100
ム 100
坪 100
চ 100
て 100
オ 100
萬 100
घ 100
ỏ 100
力 100
Ю 100
作 100
好 100
부 100
ई 100
夜 100
尉 100
杜 100
ỉ 100
右 100
祖 100
ප 100
ာ 100
ظ 100
在 100
ך 100
း 100
お 100
グ 100
ἄ 100
∴ 100
族 100
聖 100
는 100
에 100
如 100
塘 100
로 100
უ 100
銀 100
ழ 100
寧 100
ื 100
← 100
ـ 100
फ 100
典 100
飛 100
ન 100
민 100
छ 100
錢 100
Õ 100
ә 100
ὰ 100
エ 100
育 100
さ 100
孝 100
소 100
ֶ 100
დ 100
伯 100
勝 100
സ 100
頭 100
͡ 100
チ 100
ャ 100
ള 100
は 100
傳 100
那 100
÷ 100
こ 100
崔 100
ે 100
영 100
命 100
宇 100
蕭 100
일 100
ಪ 100
バ 100
智 100
も 100
情 100
梅 100
鎮 100
আ 100
研 100
գ 100
パ 100
ブ 100
前 100
男 100
陈 100
Ý 100
오 100
進 100
அ 100
ʒ 100
լ 100
इ 100
보 100
先 100
友 100
等 100
乐 100
内 100
威 100
ང 100
程 100
រ 100
『 100
』 100
ち 100
慶 100
賀 100
ẵ 100
球 100
미 100
Ķ 100
Ά 100
ெ 100
∩ 100
ׁ 100
ਹ 100
ḏ 100
ք 100
Ḫ 100
富 100
界 100
加 100
臺 100
ங 100
⊂ 100
경 100
비 100
許 100
デ 100
紀 100
ਨ 100
敬 100
թ 100
基 100
ʕ 100
ց 100
後 100
ప 100
ṉ 100
ὁ 100
ད 100
っ 100
波 100
ँ 100
⊗ 100
嘉 100
車 100
達 100
̥ 100
ਕ 100
分 100
牛 100
į 100
Ζ 100
拳 100
洋 100
究 100
蘇 100
∪ 100
杨 100
特 100
♠ 100
은 100
园 100
회 100
ট 100
ਦ 100
貞 100
ө 100
မ 100
万 100
ਲ 100
વ 100
摩 100
천 100
ਤ 100
仲 100
ǵ 100
直 100
開 100
을 100
ક 100
∗ 100
ḗ 100
ི 100
▪ 100
ภ 100
າ 100
⊕ 100
壽 100
次 100
隆 100
හ 100
つ 100
丹 100
秋 100
が 100
れ 100
ニ 100
ூ 100
あ 100
員 100
容 100
葉 100
ณ 100
善 100
 100
以 100
角 100
也 100
刘 100
喜 100
屋 100
୍ 100
స 100
要 100
越 100
호 100
み 100
Ì 100
關 100
尾 100
柳 100
ے 100
્ 100
↔ 100
ュ 100
影 100
草 100
բ 100
റ 100
ダ 100
̤ 100
佛 100
回 100
す 100
崇 100
巴 100
Ð 100
Ẓ 100
范 100
과 100
여 100
見 100
Ď 100
ച 100
舞 100
연 100
진 100
居 100
峰 100
红 100
蘭 100
유 100
ద 100
丁 100
克 100
版 100
ް 100
茶 100
商 100
հ 100
云 100
双 100
洲 100
̂ 100
̍ 100
བ 100
久 100
內 100
박 100
ണ 100
ေ 100
█ 100
ղ 100
ਮ 100
గ 100
能 100
蔡 100
丸 100
ʀ 100
ṁ 100
超 100
間 100
ର 100
動 100
卿 100
ੇ 100
െ 100
င 100
伊 100
品 100
ග 100
酒 100
場 100
号 100
վ 100
མ 100
奇 100
殿 100
공 100
ү 100
ٹ 100
ോ 100
于 100
貴 100
સ 100
来 100
毛 100
雅 100
ў 100
ӏ 100
ស 100
ノ 100
報 100
解 100
ި 100
√ 100
を 100
盛 100
陸 100
ৰ 100
麻 100
Ê 100
Հ 100
ீ 100
察 100
秦 100
해 100
ȟ 100
ズ 100
駅 100
ษ 100
亭 100
门 100
∼ 100
夷 100
广 100
洞 100
ު 100
宝 100
最 100
∇ 100
电 100
ේ 100
ⴰ 100
ハ 100
術 100
局 100
ੁ 100
〜 100
呂 100
机 100
േ 100
翔 100
色 100
세 100
ガ 100
論 100
그 100
鬼 100
ǂ 100
ں 100
ే 100
起 100
య 100
功 100
县 100
航 100
남 100
俊 100
橋 100
风 100
メ 100
遠 100
ಡ 100
共 100
韋 100
ই 100
ビ 100
ญ 100
ု 100
გ 100
沈 100
ञ 100
兴 100
淮 100
̯ 100
ভ 100
得 100
િ 100
ಹ 100
佐 100
ੰ 100
현 100
ಳ 100
や 100
զ 100
ን 100
♣ 100
圖 100
당 100
મ 100
ી 100
ນ 100
交 100
修 100
戦 100
湾 100
親 100
ĝ 100
ក 100
節 100
電 100
ུ 100
布 100
彥 100
燕 100
目 100
連 100
› 100
头 100
用 100
婆 100
孔 100
岩 100
ɡ 100
դ 100
モ 100
团 100
ǝ 100
ฟ 100
₦ 100
〉 100
形 100
体 100
孟 100
臣 100
薛 100
ધ 100
で 100
岳 100
町 100
இ 100
け 100
段 100
若 100
面 100
よ 100
惠 100
造 100
珠 100
ਜ 100
̆ 100
任 100
為 100
紅 100
茂 100
ಬ 100
က 100
晉 100
話 100
食 100
Մ 100
军 100
護 100
ʹ 100
ẫ 100
僕 100
極 100
鄉 100
강 100
ܐ 100
ẽ 100
夢 100
将 100
庄 100
從 100
ხ 100
ḱ 100
ር 100
雪 100
ˌ 100
̣ 100
ङ 100
∠ 100
委 100
株 100
甲 100
랑 100
ෙ 100
ツ 100
刀 100
意 100
桂 100
觀 100
賢 100
〈 100
书 100
律 100
黎 100
ʌ 100
တ 100
身 100
雨 100
黑 100
Ξ 100
ދ 100
ି 100
米 100
補 100
團 100
场 100
奉 100
船 100
ধ 100
ਗ 100
機 100
深 100
足 100
车 100
ใ 100
Ἰ 100
射 100
森 100
ொ 100
็ 100
ὴ 100
术 100
պ 100
კ 100
了 100
靈 100
ϊ 100
ེ 100
區 100
灣 100
ষ 100
Ṛ 100
ケ 100
爱 100
雷 100
ѣ 100
ན 100
ὀ 100
順 100
바 100
종 100
ਪ 100
내 100
∅ 100
今 100
唱 100
獎 100
陰 100
ೇ 100
⇒ 100
首 100
안 100
ড 100
池 100
童 100
丘 100
幸 100
榮 100
단 100
झ 100
န 100
ន 100
房 100
无 100
念 100
恭 100
振 100
騎 100
재 100
ނ 100
ẻ 100
斯 100
濟 100
飞 100
շ 100
果 100
精 100
習 100
业 100
赤 100
ʉ 100
ἡ 100
ܝ 100
შ 100
袁 100
އ 100
ਵ 100
ョ 100
想 100
ާ 100
ී 100
ိ 100
え 100
希 100
普 100
ტ 100
恩 100
Ğ 100
密 100
画 100
紫 100
̌ 100
ђ 100
ڠ 100
ት 100
Ἐ 100
季 100
根 100
양 100
ദ 100
ェ 100
制 100
戶 100
ผ 100
∘ 100
才 100
望 100
母 100
熊 100
葛 100
ץ 100
ஸ 100
放 100
ქ 100
ἱ 100
死 100
演 100
傅 100
儀 100
兒 100
入 100
拔 100
聲 100
藏 100
关 100
向 100
客 100
拉 100
益 100
ʁ 100
է 100
ἔ 100
だ 100
佳 100
初 100
宏 100
管 100
罗 100
芳 100
니 100
比 100
來 100
祥 100
Ս 100
ং 100
ゃ 100
伝 100
吏 100
裴 100
관 100
ਬ 100
డ 100
들 100
ὑ 100
语 100
만 100
중 100
ಣ 100
ಶ 100
め 100
步 100
詩 100
ɬ 100
ስ 100
存 100
岡 100
舍 100
위 100
ീ 100
ត 100
Ḍ 100
丞 100
耶 100
蒙 100
議 100
군 100
অ 100
ુ 100
师 100
魚 100
މ 100
动 100
彭 100
珍 100
요 100
健 100
塔 100
懷 100
易 100
裕 100
運 100
Έ 100
ถ 100
派 100
Ő 100
ੋ 100
吴 100
瑞 100
監 100
站 100
靜 100
태 100
ಟ 100
じ 100
室 100
尼 100
慕 100
朗 100
楚 100
행 100
״ 100
ᾶ 100
─ 100
ボ 100
倉 100
半 100
苏 100
閣 100
명 100
ǣ 100
ရ 100
督 100
系 100
翰 100
臨 100
董 100
ɾ 100
ට 100
斗 100
與 100
說 100
魔 100
座 100
鄧 100
馮 100
ɕ 100
ރ 100
助 100
包 100
બ 100
ಜ 100
ං 100
‹ 100
セ 100
莫 100
බ 100
協 100
溫 100
豆 100
트 100
ĉ 100
ɲ 100
̨ 100
尹 100
由 100
紹 100
選 100
鐵 100
麗 100
齊 100
계 100
姚 100
铁 100
ף 100
ਂ 100
አ 100
∙ 100
羽 100
謝 100
潘 100
襄 100
야 100
운 100
叔 100
單 100
感 100
速 100
隊 100
용 100
ஆ 100
ម 100
店 100
應 100
敏 100
衣 100
象 100
ભ 100
ὲ 100
嗣 100
ೀ 100
ൂ 100
འ 100
ប 100
ὄ 100
发 100
哈 100
楼 100
노 100
ռ 100
到 100
樹 100
浦 100
澤 100
烏 100
왕 100
ŕ 100
亮 100
姬 100
父 100
鹿 100
ꜣ 100
개 100
ལ 100
宁 100
战 100
음 100
劍 100
є 100
ీ 100
桃 100
然 100
羊 100
치 100
∀ 100
ろ 100
別 100
洛 100
荊 100
방 100
최 100
ત 100
囉 100
宜 100
芝 100
兆 100
列 100
戰 100
留 100
魯 100
씨 100
¶ 100
జ 100
わ 100
ワ 100
廷 100
曾 100
實 100
烈 100
두 100
ڤ 100
再 100
散 100
格 100
经 100
খ 100
勇 100
嚴 100
妃 100
輝 100
遊 100
鳥 100
백 100
법 100
寨 100
庭 100
支 100
联 100
難 100
모 100
ନ 100
彦 100
性 100
統 100
繼 100
落 100
赵 100
청 100
타 100
থ 100
干 100
打 100
片 100
誠 100
드 100
래 100
қ 100
ܪ 100
శ 100
去 100
樓 100
浙 100
諸 100
చ 100
ശ 100
器 100
翼 100
년 100
ં 100
坊 100
莊 100
를 100
ැ 100
ង 100
務 100
提 100
爾 100
素 100
ば 100
寿 100
登 100
而 100
삼 100
ǧ 100
ો 100
ပ 100
ァ 100
条 100
树 100
範 100
丰 100
其 100
嶺 100
期 100
阮 100
際 100
ɓ 100
ങ 100
兰 100
坡 100
快 100
憲 100
氣 100
祭 100
群 100
聞 100
號 100
ซ 100
ວ 100
ḇ 100
↓ 100
そ 100
与 100
余 100
秘 100
近 100
陶 100
울 100
ො 100
ṓ 100
刑 100
慧 100
거 100
식 100
ˁ 100
則 100
揚 100
略 100
維 100
訓 100
錄 100
渡 100
盟 100
端 100
至 100
菜 100
ງ 100
封 100
尔 100
报 100
ণ 100
ମ 100
传 100
徳 100
活 100
考 100
輔 100
͟ 100
ජ 100
ベ 100
戸 100
창 100
ŝ 100
Й 100
ポ 100
央 100
姜 100
崎 100
琴 100
申 100
視 100
ও 100
လ 100
伏 100
奖 100
岭 100
甫 100
邑 100
雙 100
희 100
Վ 100
କ 100
ྱ 100
‟ 100
※ 100
ピ 100
他 100
冲 100
윤 100
ශ 100
ḻ 100
ὕ 100
介 100
簡 100
農 100
鮮 100
ብ 100
徽 100
甘 100
薩 100
면 100
ർ 100
ም 100
ネ 100
升 100
展 100
未 100
耀 100
게 100
예 100
평 100
ܡ 100
声 100
己 100
殷 100
約 100
蒲 100
藝 100
表 100
ը 100
ో 100
ഷ 100
せ 100
哲 100
幽 100
眼 100
組 100
간 100
Կ 100
પ 100
ె 100
ະ 100
休 100
尊 100
开 100
強 100
當 100
祿 100
鍾 100
포 100
ઠ 100
எ 100
↦ 100
亞 100
慈 100
拓 100
敦 100
潮 100
總 100
̠ 100
ზ 100
哥 100
浩 100
উ 100
倫 100
切 100
反 100
汝 100
穆 100
এ 100
ḡ 100
位 100
故 100
불 100
ਆ 100
ಅ 100
ණ 100
ソ 100
刺 100
油 100
防 100
խ 100
ছ 100
就 100
指 100
横 100
非 100
역 100
ྲ 100
ヤ 100
亚 100
固 100
柏 100
运 100
̪ 100
ؤ 100
ବ 100
ୁ 100
අ 100
သ 100
Ἄ 100
ひ 100
ゴ 100
ホ 100
义 100
劇 100
时 100
班 100
終 100
话 100
馆 100
ֲ 100
ೂ 100
印 100
汉 100
革 100
ɐ 100
உ 100
ట 100
ັ 100
། 100
ザ 100
剛 100
服 100
權 100
艺 100
警 100
陀 100
體 100
魂 100
Ë 100
ତ 100
ೋ 100
ඩ 100
ფ 100
∑ 100
乾 100
獨 100
肉 100
走 100
등 100
임 100
파 100
ɗ 100
ˀ 100
ど 100
医 100
微 100
棋 100
線 100
광 100
ɒ 100
ڈ 100
ੂ 100
ສ 100
ል 100
ἴ 100
件 100
施 100
照 100
獻 100
记 100
逸 100
석 100
冠 100
坂 100
広 100
股 100
Ċ 100
ލ 100
ପ 100
അ 100
ិ 100
ុ 100
■ 100
及 100
桓 100
鉄 100
孙 100
歸 100
發 100
蓮 100
謙 100
물 100
철 100
₫ 100
娘 100
沢 100
現 100
豐 100
遺 100
黒 100
హ 100
ഗ 100
པ 100
≅ 100
仔 100
型 100
徒 100
旗 100
蔵 100
衡 100
금 100
생 100
Ђ 100
厂 100
於 100
早 100
와 100
￼ 100
ょ 100
授 100
권 100
Ŭ 100
ӧ 100
Գ 100
္ 100
ძ 100
መ 100
ី 100
儿 100
兩 100
澄 100
级 100
병 100
ੱ 100
ജ 100
ກ 100
宿 100
潭 100
絵 100
达 100
집 100
ಚ 100
乙 100
汗 100
輪 100
ມ 100
ゲ 100
番 100
ĺ 100
ެ 100
જ 100
ึ 100
စ 100
为 100
矢 100
람 100
봉 100
ծ 100
ٽ 100
ც 100
∶ 100
個 100
參 100
吾 100
復 100
戴 100
柔 100
湘 100
處 100
靖 100
순 100
ޫ 100
ସ 100
ỷ 100
勳 100
庆 100
楽 100
游 100
舒 100
통 100
ফ 100
ອ 100
辛 100
邦 100
ੈ 100
ஜ 100
ይ 100
ῥ 100
取 100
始 100
梦 100
策 100
际 100
雍 100
鼓 100
扶 100
狐 100
賈 100
賞 100
터 100
չ 100
ऊ 100
દ 100
ွ 100
ማ 100
ព 100
呼 100
改 100
板 100
欽 100
湯 100
熙 100
牌 100
震 100
ꯥ 100
Ό 100
ល 100
凤 100
征 100
泥 100
礼 100
郑 100
승 100
Ù 100
ય 100
ດ 100
∃ 100
ふ 100
倭 100
又 100
叶 100
娑 100
蜀 100
豫 100
顯 100
디 100
¤ 100
ܲ 100
લ 100
ಷ 100
ြ 100
偉 100
勢 100
庫 100
猿 100
苑 100
蔣 100
鱼 100
송 100
환 100
ລ 100
Ἑ 100
孤 100
蛇 100
過 100
새 100
실 100
준 100
ܘ 100
₪ 100
₽ 100
◦ 100
ペ 100
因 100
均 100
奴 100
姑 100
完 100
納 100
韩 100
ἶ 100
へ 100
像 100
单 100
戲 100
飯 100
鸞 100
꞉ 100
길 100
Ã 100
ご 100
儒 100
奈 100
對 100
彩 100
苗 100
麟 100
토 100
በ 100
实 100
朴 100
符 100
虞 100
鶴 100
건 100
육 100
Щ 100
₣ 100
图 100
案 100
笑 100
荣 100
類 100
복 100
ڑ 100
Ḵ 100
異 100
計 100
豊 100
਼ 100
ગ 100
ደ 100
ⵉ 100
岛 100
柴 100
浪 100
級 100
胜 100
说 100
말 100
형 100
Ź 100
బ 100
ಭ 100
ራ 100
当 100
気 100
聯 100
鹰 100
반 100
배 100
ɫ 100
ਖ 100
ഹ 100
ἑ 100
ヨ 100
卓 100
岸 100
播 100
桑 100
破 100
致 100
네 100
황 100
ɦ 100
້ 100
ነ 100
个 100
備 100
协 100
杯 100
涼 100
票 100
队 100
顏 100
별 100
औ 100
○ 100
ヒ 100
求 100
沖 100
県 100
編 100
邵 100
鴻 100
설 100
Қ 100
ކ 100
ଦ 100
ὅ 100
ⵜ 100
乃 100
份 100
僧 100
怪 100
淑 100
祐 100
覺 100
静 100
韻 100
領 100
ঙ 100
ギ 100
ヴ 100
冀 100
匡 100
奥 100
妙 100
実 100
藥 100
詞 100
홍 100
훈 100
ȝ 100
ʋ 100
̩ 100
ސ 100
ూ 100
ῳ 100
₴ 100
ⵏ 100
ね 100
剧 100
受 100
昇 100
杉 100
牙 100
純 100
菩 100
藍 100
醫 100
骨 100
북 100
ȳ 100
ܬ 100
ျ 100
刊 100
圓 100
庵 100
曼 100
潤 100
雀 100
霸 100
피 100
Ï 100
ۇ 100
傑 100
咸 100
問 100
屯 100
役 100
灵 100
犬 100
著 100
餘 100
루 100
ǚ 100
̇ 100
ਚ 100
ൻ 100
勤 100
卫 100
滿 100
突 100
翁 100
血 100
訶 100
變 100
錦 100
阪 100
작 100
후 100
ĥ 100
ओ 100
ஞ 100
ず 100
们 100
判 100
旅 100
榜 100
殺 100
点 100
牧 100
環 100
畫 100
迦 100
郁 100
附 100
카 100
ѧ 100
ὺ 100
圣 100
斎 100
豪 100
덕 100
ީ 100
ਭ 100
భ 100
ទ 100
专 100
卡 100
巨 100
琳 100
質 100
钱 100
애 100
차 100
ɹ 100
ހ 100
੍ 100
ણ 100
ለ 100
Ẹ 100
总 100
懿 100
皮 100
隱 100
黨 100
鼎 100
판 100
ܢ 100
ເ 100
ཁ 100
□ 100
⦁ 100
住 100
栗 100
私 100
诗 100
辰 100
鄴 100
ꦺ 100
너 100
러 100
ŗ 100
ɯ 100
ෝ 100
წ 100
ላ 100
ẖ 100
勁 100
坝 100
枝 100
碧 100
苻 100
邪 100
르 100
େ 100
ተ 100
仏 100
属 100
廖 100
樊 100
温 100
胤 100
遇 100
霞 100
𐬀 100
Ģ 100
ʂ 100
Ө 100
ऽ 100
‛ 100
ゆ 100
歲 100
経 100
資 100
贊 100
鏡 100
零 100
 100
Ы 100
Բ 100
Տ 100
ڪ 100
ঁ 100
ഞ 100
ባ 100
ⵔ 100
々 100
佑 100
岐 100
渠 100
祝 100
贵 100
进 100
려 100
ƛ 100
џ 100
Ն 100
ژ 100
ೊ 100
ຫ 100
အ 100
យ 100
េ 100
弟 100
漫 100
澳 100
綱 100
耳 100
融 100
视 100
远 100
関 100
월 100
ң 100
ܒ 100
ਅ 100
ੜ 100
શ 100
ီ 100
ሰ 100
እ 100
ያ 100
ῷ 100
⊥ 100
候 100
允 100
只 100
嚩 100
失 100
恆 100
暉 100
菊 100
름 100
술 100
Ե 100
ਣ 100
味 100
悉 100
末 100
狼 100
篇 100
鲁 100
ꯤ 100
버 100
Ɛ 100
ድ 100
ᐊ 100
姫 100
息 100
柱 100
營 100
結 100
給 100
观 100
讓 100
Є 100
ബ 100
ഭ 100
የ 100
們 100
员 100
帥 100
持 100
毅 100
禪 100
芸 100
虔 100
鐘 100
间 100
속 100
으 100
Ņ 100
Ь 100
ణ 100
‖ 100
农 100
冰 100
剣 100
勿 100
底 100
送 100
須 100
외 100
ฤ 100
Ὀ 100
₺ 100
円 100
厚 100
寒 100
專 100
帶 100
彰 100
汪 100
淳 100
网 100
観 100
離 100
顧 100
녀 100
크 100
혜 100
️ 100
ғ 100
ৃ 100
ំ 100
優 100
卷 100
団 100
塞 100
尸 100
必 100
歩 100
汴 100
談 100
감 100
림 100
ĵ 100
ܕ 100
ވ 100
丽 100
告 100
宫 100
忘 100
恋 100
禅 100
遼 100
邊 100
鈴 100
더 100
악 100
초 100
ฉ 100
ྒ 100
梓 100
檀 100
病 100
荷 100
锦 100
레 100
심 100
ΐ 100
ֿ 100
ً 100
ష 100
ධ 100
ླ 100
ና 100
វ 100
ぼ 100
係 100
务 100
弓 100
竇 100
賓 100
降 100
프 100
ረ 100
♪ 100
ⵎ 100
什 100
党 100
兼 100
妹 100
炎 100
粉 100
紙 100
續 100
线 100
赛 100
돌 100
ਡ 100
პ 100
Ῥ 100
副 100
培 100
强 100
救 100
昆 100
杭 100
條 100
種 100
连 100
量 100
달 100
열 100
티 100
합 100
ɖ 100
創 100
对 100
弼 100
彝 100
止 100
歷 100
索 100
肅 100
講 100
譜 100
遂 100
霊 100
ୀ 100
့ 100
ግ 100
ជ 100
ḑ 100
ォ 100
依 100
俱 100
坐 100
夔 100
筆 100
譚 100
財 100
银 100
雜 100
적 100
 100
Ą 100
Ť 100
२ 100
່ 100
Ấ 100
模 100
注 100
滨 100
練 100
舟 100
調 100
날 100
눈 100
있 100
Պ 100
ջ 100
હ 100
ଗ 100
ஹ 100
ಧ 100
冬 100
句 100
哀 100
墨 100
戀 100
杰 100
济 100
狗 100
蓋 100
貝 100
목 100
추 100
향 100
օ 100
ଣ 100
▶ 100
図 100
姓 100
惟 100
慎 100
投 100
豹 100
追 100
邢 100
頼 100
點 100
꽃 100
독 100
저 100
എ 100
ළ 100
ฐ 100
ฬ 100
ົ 100
ໍ 100
ገ 100
む 100
乌 100
域 100
姐 100
引 100
欣 100
熱 100
纪 100
茅 100
计 100
願 100
ॉ 100
ൽ 100
ყ 100
幣 100
幹 100
抱 100
料 100
楷 100
淵 100
狄 100
眞 100
規 100
辞 100
边 100
霍 100
령 100
코 100
ਇ 100
ခ 100
ታ 100
Ἱ 100
凌 100
盤 100
緒 100
製 100
露 100
ȧ 100
փ 100
ഴ 100
ൊ 100
ฒ 100
ᓂ 100
乘 100
伽 100
充 100
塚 100
廉 100
忍 100
聚 100
迷 100
錫 100
鑑 100
Ɂ 100
१ 100
ొ 100
ཀ 100
ཆ 100
び 100
ユ 100
屈 100
悲 100
斌 100
潁 100
猛 100
玲 100
織 100
节 100
赫 100
銅 100
陆 100
隨 100
발 100
번 100
ଡ 100
๊ 100
គ 100
ἁ 100
ⵍ 100
垣 100
壁 100
審 100
巫 100
彌 100
探 100
朋 100
橫 100
璋 100
着 100
莉 100
諫 100
论 100
養 100
鳴 100
齋 100
근 100
𐌠 100
̋ 100
ূ 100
ਉ 100
Ἡ 100
Ὑ 100
伟 100
契 100
庙 100
急 100
晴 100
棒 100
欧 100
浮 100
爵 100
細 100
荒 100
许 100
ડ 100
ከ 100
ወ 100
់ 100
│ 100
弁 100
拾 100
掌 100
旦 100
栄 100
气 100
渾 100
総 100
统 100
维 100
翟 100
选 100
遵 100
采 100
매 100
체 100
 100
ɩ 100
ʑ 100
Ъ 100
ଲ 100
฿ 100
亦 100
夕 100
妖 100
幼 100
怡 100
浜 100
瀬 100
臧 100
雞 100
릉 100
̶ 100
ҳ 100
ܠ 100
ହ 100
ആ 100
ෂ 100
ክ 100
ᐃ 100
Ẕ 100
屆 100
恒 100
晓 100
猴 100
看 100
营 100
閻 100
韶 100
각 100
님 100
분 100
ɳ 100
ׂ 100
ঘ 100
ஷ 100
ံ 100
ខ 100
Ἁ 100
≪ 100
♀ 100
便 100
岗 100
梨 100
権 100
満 100
狂 100
猫 100
発 100
苦 100
글 100
춘 100
ɟ 100
Љ 100
ײ 100
ێ 100
ଳ 100
∫ 100
兄 100
处 100
桐 100
疆 100
算 100
设 100
載 100
述 100
陝 100
顺 100
류 100
립 100
빛 100
옥 100
ɸ 100
ճ 100
ۃ 100
ਟ 100
అ 100
ᑦ 100
ぐ 100
げ 100
具 100
勒 100
午 100
堅 100
幻 100
廬 100
戎 100
旋 100
晏 100
朔 100
歡 100
此 100
满 100
潞 100
独 100
琅 100
罪 100
舉 100
説 100
還 100
린 100
범 100
허 100
Ư 100
ɘ 100
ۆ 100
० 100
ທ 100
ច 100
两 100
别 100
喬 100
寛 100
導 100
峪 100
旺 100
肥 100
賽 100
这 100
隴 100
頓 100
鸡 100
鹃 100
ɜ 100
ಇ 100
ჩ 100
ዳ 100
ỡ 100
ⵓ 100
宅 100
巡 100
戏 100
漳 100
虹 100
迪 100
陣 100
손 100
숙 100
업 100
출 100
 100
ފ 100
ގ 100
ஒ 100
ై 100
ພ 100
ღ 100
ᐦ 100
ẏ 100
ぶ 100
例 100
参 100
坤 100
尋 100
廟 100
撫 100
查 100
汽 100
汾 100
消 100
禁 100
艦 100
貫 100
资 100
釋 100
죽 100
Ǝ 100
ှ 100
ោ 100
ἦ 100
ぎ 100
ゼ 100
兗 100
岑 100
数 100
映 100
植 100
短 100
谢 100
迎 100
브 100
Ă 100
ǰ 100
છ 100
ບ 100
≫ 100
ほ 100
变 100
壇 100
戒 100
排 100
牟 100
环 100
竜 100
莲 100
藩 100
麼 100
꧀ 100
본 100
Ё 100
ٍ 100
ధ 100
ฑ 100
ူ 100
ṫ 100
ῃ 100
べ 100
乞 100
嘯 100
埠 100
堡 100
序 100
斛 100
泗 100
滑 100
璧 100
祁 100
軒 100
邱 100
闕 100
頒 100
龐 100
ꦴ 100
곡 100
처 100
총 100
풍 100
 100
🇷 100
ⴻ 100
产 100
凡 100
媽 100
宙 100
巖 100
弥 100
折 100
晚 100
染 100
泽 100
现 100
背 100
脩 100
艾 100
誌 100
賦 100
편 100
함 100
헌 100
효 100
ʈ 100
Ә 100
־ 100
ූ 100
ṳ 100
ἵ 100
⊃ 100
◆ 100
临 100
伍 100
俠 100
冷 100
创 100
唯 100
孩 100
宛 100
屠 100
控 100
沒 100
沟 100
沮 100
準 100
獅 100
珪 100
砂 100
翠 100
職 100
虛 100
辉 100
駒 100
齐 100
ꦶ 100
누 100
늘 100
협 100
ժ 100
ἅ 100
ἕ 100
₵ 100
】 100
ぬ 100
卢 100
复 100
奚 100
婦 100
屏 100
庸 100
弦 100
待 100
招 100
數 100
更 100
朵 100
槍 100
瓜 100
盘 100
磨 100
秉 100
萧 100
극 100
란 100
찬 100
채 100
̅ 100
ې 100
ಆ 100
ဆ 100
ჯ 100
ኣ 100
ᖅ 100
♡ 100
【 100
乱 100
亡 100
卜 100
圭 100
奕 100
寇 100
极 100
瑤 100
産 100
皆 100
碑 100
组 100
衍 100
装 100
辭 100
這 100
🇧 100
̚ 100
ֻ 100
ཡ 100
ᐅ 100
✸ 100
儼 100
凰 100
彬 100
歐 100
混 100
禹 100
耿 100
般 100
蓝 100
麥 100
ꯕ 100
망 100
점 100
Ě 100
ɤ 100
Շ 100
ཚ 100
ယ 100
ⲁ 100
俗 100
兮 100
吕 100
墓 100
寬 100
嶋 100
巻 100
并 100
应 100
恵 100
捷 100
瓦 100
雁 100
ꜥ 100
즈 100
 100
Ү 100
ұ 100
Ո 100
ঠ 100
ৈ 100
ਘ 100
ಥ 100
ൾ 100
ິ 100
អ 100
冯 100
執 100
敵 100
柯 100
爆 100
琦 100
糖 100
肖 100
設 100
輿 100
録 100
龜 100
ꯡ 100
궁 100
규 100
변 100
살 100
언 100
ߊ 100
ฮ 100
ີ 100
ဲ 100
ហ 100
ូ 100
假 100
偏 100
增 100
売 100
怀 100
旭 100
晃 100
曜 100
決 100
洗 100
玫 100
祠 100
稲 100
綜 100
肇 100
蔚 100
裏 100
钟 100
까 100
데 100
밤 100
축 100
테 100
ќ 100
Յ 100
ው 100
ᒃ 100
ỵ 100
ὖ 100
℘ 100
♂ 100
历 100
导 100
嵩 100
已 100
庾 100
旧 100
暗 100
涇 100
炮 100
署 100
芬 100
蠻 100
암 100
투 100
Ŝ 100
Ǧ 100
Ί 100
ঞ 100
ὔ 100
‧ 100
‬ 100
丈 100
争 100
吹 100
圆 100
壹 100
宰 100
廚 100
徹 100
悟 100
暴 100
狮 100
琶 100
甄 100
移 100
綿 100
緣 100
識 100
轉 100
逢 100
遷 100
鄂 100
난 100
메 100
알 100
흥 100
͘ 100
׳ 100
ऐ 100
৳ 100
ଜ 100
ಎ 100
ᓇ 100
ὼ 100
儉 100
境 100
寄 100
悅 100
攻 100
敎 100
旨 100
权 100
桜 100
構 100
灯 100
炳 100
網 100
腐 100
莽 100
譯 100
辣 100
闻 100
駄 100
鼠 100
것 100
약 100
워 100
ѹ 100
ތ 100
ୋ 100
ຊ 100
ዓ 100
₡ 100
亨 100
仇 100
勃 100
寂 100
対 100
惡 100
抄 100
拜 100
焼 100
熟 100
綠 100
舊 100
邓 100
鹽 100
ꯂ 100
ꯃ 100
ꯔ 100
슬 100
족 100
ʎ 100
Լ 100
Խ 100
ձ 100
ৌ 100
ળ 100
ષ 100
ຍ 100
ຣ 100
ཕ 100
ཤ 100
ែ 100
⊢ 100
啓 100
幕 100
怛 100
托 100
整 100
曉 100
杠 100
示 100
绍 100
賴 100
跳 100
郷 100
饒 100
默 100
ꦤ 100
귀 100
없 100
온 100
ބ 100
ധ 100
ฎ 100
ည 100
ါ 100
ፍ 100
ះ 100
≃ 100
☃ 100
ざ 100
付 100
刻 100
媒 100
専 100
席 100
很 100
援 100
械 100
淡 100
濮 100
琵 100
祚 100
積 100
繁 100
蜜 100
蝶 100
裡 100
覽 100
财 100
陂 100
騰 100
록 100
막 100
직 100
친 100
혼 100
 100
ǜ 100
˥ 100
Դ 100
Ի 100
ৱ 100
અ 100
ଶ 100
↵ 100
傷 100
各 100
吐 100
坑 100
堤 100
妻 100
掛 100
操 100
汤 100
湛 100
焦 100
畢 100
覚 100
貢 100
锡 100
韜 100
ꯣ 100
빈 100
︎ 100
Û 100
˩ 100
Ћ 100
ऋ 100
ਧ 100
ఉ 100
ጋ 100
ᑲ 100
ヶ 100
似 100
厦 100
寅 100
幾 100
循 100
护 100
敷 100
斤 100
晶 100
烟 100
砲 100
絕 100
脚 100
舶 100
蒼 100
薄 100
虫 100
褚 100
週 100
铺 100
闘 100
雕 100
項 100
鬥 100
밀 100
̔ 100
ѕ 100
һ 100
ٰ 100
ॐ 100
ဖ 100
ဝ 100
ῇ 100
◌ 100
⠇ 100
ⲓ 100
严 100
俞 100
凱 100
剑 100
哩 100
啟 100
屬 100
峻 100
库 100
庚 100
忽 100
抗 100
晨 100
架 100
渔 100
眾 100
笛 100
粵 100
絲 100
置 100
菲 100
蛋 100
試 100
跡 100
退 100
逆 100
郝 100
駱 100
鷹 100
鹏 100
담 100
밥 100
절 100
충 100
Ĉ 100
ǽ 100
ٌ 100
۳ 100
ચ 100
ટ 100
ഇ 100
එ 100
ච 100
ཐ 100
ᑕ 100
仄 100
児 100
坦 100
堯 100
尖 100
推 100
棍 100
様 100
樞 100
沛 100
滩 100
燈 100
瓊 100
盈 100
睦 100
磁 100
翻 100
菱 100
被 100
诚 100
貨 100
遲 100
问 100
餅 100
髮 100
ꯁ 100
ꯨ 100
엔 100
항 100
🇺 100
Թ 100
ٱ 100
ۋ 100
ޮ 100
ఖ 100
ഡ 100
ආ 100
ຄ 100
串 100
优 100
即 100
哉 100
圳 100
晋 100
欢 100
毒 100
滅 100
濃 100
灰 100
睿 100
穎 100
结 100
继 100
荀 100
蓉 100
袖 100
読 100
證 100
買 100
軌 100
頑 100
베 100
입 100
품 100
Ĥ 100
Ļ 100
Ў 100
Џ 100
Ӏ 100
ଇ 100
ቅ 100
ដ 100
ណ 100
▲ 100
ゅ 100
匯 100
占 100
启 100
巢 100
悪 100
淸 100
琛 100
瑶 100
禄 100
约 100
萍 100
蟲 100
討 100
詠 100
贤 100
馱 100
验 100
머 100
벌 100
키 100
할 100
 100
Ė 100
Ơ 100
Ք 100
ڬ 100
ਈ 100
ჭ 100
ሪ 100
៉ 100
Ỷ 100
Ὁ 100
⇔ 100
仪 100
写 100
凯 100
含 100
堀 100
录 100
扬 100
撒 100
杏 100
楠 100
歙 100
汀 100
沼 100
琪 100
甜 100
簿 100
絳 100
縄 100
药 100
蒋 100
薇 100
见 100
訪 100
謹 100
过 100
醒 100
鸟 100
Ŋ 100
ӣ 100
٢ 100
થ 100
ຸ 100
ྡ 100
ሳ 100
∝ 100
偃 100
冒 100
嘴 100
変 100
奏 100
娜 100
差 100
往 100
曇 100
枫 100
没 100
滄 100
爭 100
皎 100
聽 100
評 100
諏 100
贺 100
階 100
題 100
鸢 100
급 100
놀 100
완 100
𐤌 100
̰ 100
Զ 100
ଚ 100
ళ 100
ฝ 100
ຈ 100
ဇ 100
ထ 100
ዮ 100
ḿ 100
ἠ 100
ⴷ 100
ゥ 100
乳 100
但 100
侃 100
剌 100
危 100
吧 100
奎 100
媛 100
寳 100
峡 100
廊 100
橘 100
欲 100
竺 100
笠 100
纳 100
耕 100
舜 100
苾 100
虢 100
辯 100
鈔 100
銘 100
鮑 100
鸿 100
麵 100
ꦸ 100
검 100
겨 100
룡 100
🇸 100
ܫ 100
આ 100
ඇ 100
ແ 100
伐 100
伸 100
婷 100
寸 100
尺 100
帖 100
彼 100
怒 100
換 100
敢 100
曩 100
札 100
毘 100
玛 100
珊 100
產 100
盆 100
监 100
稿 100
穴 100
答 100
筠 100
调 100
鄆 100
醉 100
頂 100
駿 100
麦 100
ꦠ 100
례 100
케 100
ǭ 100
ˆ 100
˧ 100
ಉ 100
ഉ 100
ฆ 100
ປ 100
ໄ 100
ዲ 100
ធ 100
ḃ 100
◄ 100
ⲛ 100
ⵙ 100
享 100
养 100
址 100
垂 100
崖 100
戈 100
曰 100
棠 100
每 100
涯 100
燒 100
疏 100
眉 100
种 100
籍 100
绿 100
萊 100
虚 100
衆 100
費 100
낙 100
책 100
택 100
𐤍 100
ڵ 100
ܥ 100
ଟ 100
ೃ 100
ྐ 100
ဂ 100
ဒ 100
ᐱ 100
Ả 100
ヌ 100
丑 100
丙 100
乂 100
亂 100
奮 100
娃 100
尤 100
恨 100
愚 100
扇 100
昂 100
滋 100
燧 100
献 100
芦 100
裁 100
襲 100
誰 100
謀 100
謨 100
閭 100
霧 100
顾 100
꿈 100
락 100
력 100
특 100
퍼 100
혁 100
𐬌 100
ƿ 100
ɴ 100
̦ 100
۱ 100
ૃ 100
ଆ 100
ୟ 100
ྟ 100
ẁ 100
ὡ 100
∉ 100
△ 100
从 100
憶 100
断 100
核 100
浅 100
渭 100
濱 100
煥 100
瑰 100
疑 100
盡 100
矩 100
箕 100
罔 100
萨 100
薊 100
輯 100
銖 100
갈 100
블 100
얼 100
침 100
필 100
ɽ 100
ʺ 100
١ 100
ሕ 100
ቀ 100
ኢ 100
ዝ 100
ᒥ 100
Ἴ 100
⋯ 100
ⵣ 100
ぞ 100
ゾ 100
亜 100
供 100
唎 100
奔 100
廠 100
愿 100
或 100
晟 100
梵 100
毓 100
瀛 100
瑜 100
禧 100
禾 100
穀 100
荆 100
蕃 100
蕉 100
锋 100
鹤 100
ꝏ 100
골 100
굴 100
맥 100
좋 100
𐭥 100
Ɔ 100
ܟ 100
ܣ 100
३ 100
ྗ 100
ᄅ 100
ἢ 100
么 100
仕 100
倒 100
做 100
刚 100
坳 100
帆 100
従 100
恐 100
撃 100
收 100
標 100
测 100
淨 100
爺 100
猪 100
琮 100
璠 100
矿 100
碩 100
競 100
衞 100
裔 100
誨 100
郢 100
錯 100
铜 100
鵬 100
농 100
떡 100
련 100
먼 100
ɻ 100
ʤ 100
ຂ 100
ἤ 100
☉ 100
亀 100
予 100
佩 100
冶 100
凝 100
唔 100
娥 100
婚 100
带 100
怕 100
敖 100
斜 100
斬 100
杂 100
煌 100
禿 100
筒 100
紇 100
縁 100
莎 100
醯 100
钢 100
閩 100
阴 100
飲 100
鲜 100
녕 100
른 100
맨 100
좌 100
참 100
표 100
˨ 100
ܗ 100
ܚ 100
ଧ 100
ஐ 100
ഒ 100
ൃ 100
ካ 100
ዋ 100
ῑ 100
⇌ 100
ㄎ 100
仰 100
众 100
伴 100
卞 100
吟 100
圍 100
埔 100
妮 100
嶼 100
巾 100
归 100
忌 100
昧 100
标 100
槐 100
涪 100
溝 100
漆 100
玕 100
窑 100
简 100
芒 100
葵 100
轮 100
阁 100
響 100
顕 100
饼 100
걸 100
맹 100
습 100
웅 100
플 100
ɵ 100
̑ 100
ӕ 100
ڻ 100
۔ 100
ޅ 100
ਥ 100
ຕ 100
ኤ 100
ᐧ 100
ញ 100
ួ 100
Ἔ 100
ᾱ 100
ⲙ 100
ㄇ 100
丝 100
並 100
些 100
倪 100
冉 100
吃 100
喇 100
囲 100
峨 100
昱 100
束 100
樣 100
爪 100
状 100
痛 100
祺 100
穂 100
笔 100
腰 100
膺 100
貓 100
迅 100
途 100
邕 100
邨 100
邽 100
鐸 100
领 100
驛 100
ꯅ 100
결 100
량 100
론 100
십 100
익 100
촌 100
탄 100
팔 100
 100
 100
ɢ 100
ҷ 100
ڕ 100
ګ 100
ܩ 100
ޖ 100
ખ 100
ฏ 100
ᄋ 100
ᅳ 100
ህ 100
Ẩ 100
∕ 100
乎 100
企 100
券 100
召 100
吒 100
响 100
哪 100
堆 100
堪 100
壮 100
壯 100
婁 100
屍 100
帰 100
廳 100
弄 100
彪 100
拍 100
昏 100
材 100
样 100
歳 100
洺 100
炭 100
爽 100
獄 100
率 100
禎 100
穿 100
笙 100
篆 100
罕 100
羌 100
腹 100
蝦 100
衝 100
讀 100
谭 100
轩 100
邠 100
闇 100
阜 100
鞭 100
题 100
갑 100
럼 100
𐤁 100
ǘ 100
ѓ 100
ڙ 100
ঃ 100
ೈ 100
ൈ 100
ᐢ 100
ភ 100
ⴳ 100
ゐ 100
决 100
划 100
叉 100
叡 100
她 100
巧 100
恪 100
悦 100
戊 100
挑 100
挺 100
接 100
揮 100
棟 100
泳 100
済 100
滝 100
潔 100
爷 100
琬 100
瓶 100
皓 100
禺 100
紗 100
綏 100
緯 100
羯 100
职 100
艇 100
褒 100
豬 100
辺 100
返 100
遮 100
鉢 100
黔 100
齡 100
ꞑ 100
ꯄ 100
된 100
묘 100
억 100
𐌢 100
𑣂 100
Ǫ 100
ɭ 100
ʐ 100
̕ 100
ܦ 100
ॆ 100
ॊ 100
භ 100
ฺ 100
ჷ 100
ᑐ 100
ṙ 100
Ἅ 100
ὤ 100
ⴱ 100
づ 100
倍 100
僑 100
则 100
劳 100
匠 100
卑 100
哨 100
妈 100
宵 100
弗 100
徵 100
杲 100
棣 100
榆 100
汶 100
沂 100
涿 100
潛 100
濕 100
炒 100
热 100
獣 100
瑟 100
瑩 100
瞿 100
耆 100
芙 100
虜 100
貘 100
輕 100
辽 100
遙 100
配 100
酸 100
铭 100
随 100
隠 100
隸 100
ꯢ 100
느 100
며 100
몽 100
않 100
앙 100
패 100
푸 100
히 100
Ή 100
ϝ 100
Һ 100
Ժ 100
Օ 100
ֱ 100
ຽ 100
ཏ 100
ཞ 100
ᄇ 100
ᐠ 100
ᐣ 100
ᓯ 100
Ḏ 100
├ 100
◾ 100
❤ 100
ⵡ 100
举 100
倩 100
卒 100
壺 100
奶 100
嶽 100
异 100
攝 100
毗 100
瑪 100
筑 100
紋 100
舌 100
舘 100
薬 100
蜂 100
誕 100
誼 100
词 100
賊 100
转 100
辟 100
鋒 100
鍋 100
霖 100
频 100
饭 100
鼻 100
ꦮ 100
ꯩ 100
벽 100
Ϝ 100
ґ 100
Җ 100
ӱ 100
ܵ 100
ޑ 100
६ 100
ঢ 100
ఆ 100
ູ 100
ჲ 100
ჿ 100
ዕ 100
Ὄ 100
⊇ 100
◊ 100
〔 100
〕 100
ヘ 100
仓 100
仮 100
侠 100
免 100
办 100
叢 100
叱 100
听 100
咲 100
啦 100
备 100
娛 100
宾 100
層 100
岁 100
巳 100
扎 100
汇 100
爸 100
玩 100
皋 100
皖 100
眠 100
碗 100
磐 100
罰 100
腾 100
膳 100
藻 100
詳 100
諒 100
译 100
負 100
賜 100
责 100
跋 100
鑫 100
餐 100
ꦱ 100
ꯏ 100
ꯦ 100
든 100
빠 100
왜 100
잠 100
 100
𐭩 100
𑀺 100
𑣁 100
ĸ 100
Ǵ 100
ϛ 100
Ғ 100
Ռ 100
Փ 100
ٿ 100
ܓ 100
ऱ 100
४ 100
ঝ 100
උ 100
ྫ 100
ሃ 100
ሐ 100
ቲ 100
ᑭ 100
ṡ 100
Ứ 100
ἷ 100
└ 100
互 100
倚 100
偶 100
准 100
勾 100
尙 100
嵐 100
幡 100
床 100
捨 100
梧 100
款 100
残 100
沉 100
炉 100
琉 100
璘 100
瓌 100
稚 100
粟 100
茉 100
茹 100
誥 100
譙 100
鎖 100
閔 100
隋 100
靳 100
顶 100
駕 100
麴 100
쇼 100
Ĝ 100
ȯ 100
Ύ 100
Њ 100
ੌ 100
ଂ 100
଼ 100
ஊ 100
ື 100
ᓄ 100
ὠ 100
₯ 100
♩ 100
仑 100
伦 100
借 100
勉 100
勘 100
厳 100
嚧 100
堰 100
壬 100
宴 100
岔 100
廈 100
惑 100
户 100
捕 100
撰 100
擊 100
昔 100
枚 100
樟 100
激 100
煙 100
狀 100
祈 100
稽 100
编 100
翊 100
艷 100
荼 100
螺 100
諾 100
评 100
遥 100
邳 100
銃 100
靑 100
颜 100
麒 100
ꦢ 100
Ę 100
Ŧ 100
ƕ 100
ʏ 100
ͤ 100
ӗ 100
٠ 100
ڊ 100
ړ 100
ށ 100
ৎ 100
ஓ 100
๋ 100
ဘ 100
ᄀ 100
ᑎ 100
ᑯ 100
ᕐ 100
Ἕ 100
∎ 100
❖ 100
ⲉ 100
ⲣ 100
ぜ 100
乔 100
俄 100
俟 100
割 100
劃 100
勛 100
吸 100
咒 100
圈 100
垭 100
套 100
害 100
届 100
巷 100
浚 100
涛 100
淇 100
漁 100
潼 100
珣 100
箭 100
箱 100
築 100
篤 100
舎 100
茨 100
蕩 100
蘆 100
补 100
谱 100
踏 100
除 100
飄 100
龔 100
ꯍ 100
균 100
션 100
읍 100
잡 100
𐤋 100
𐭠 100
 100
̞ 100
Ѓ 100
ҥ 100
ҫ 100
۵ 100
ૂ 100
ଅ 100
ృ 100
ഥ 100
ཟ 100
ᄂ 100
ሀ 100
ሎ 100
ᒪ 100
ឹ 100
ẞ 100
Ἠ 100
ᾳ 100
⊊ 100
且 100
丕 100
佬 100
億 100
冑 100
匹 100
卯 100
唄 100
围 100
坎 100
墀 100
峯 100
弾 100
愁 100
戚 100
把 100
斉 100
斷 100
曙 100
柿 100
涵 100
漠 100
狸 100
糕 100
缘 100
羲 100
袋 100
裂 100
詹 100
让 100
证 100
识 100
谈 100
跃 100
轻 100
郵 100
釜 100
鋼 100
鑒 100
ꦲ 100
ꯊ 100
ꯝ 100
끝 100
때 100
섬 100
센 100
쟁 100
춤 100
칠 100
했 100
Ň 100
ǯ 100
̴ 100
ӓ 100
Ӧ 100
ਫ 100
ଭ 100
ᄆ 100
ዘ 100
ጎ 100
ᴇ 100
Ḡ 100
ẳ 100
ἥ 100
☠ 100
ⵢ 100
〇 100
亲 100
佘 100
侨 100
勗 100
卦 100
坛 100
嫁 100
孚 100
寓 100
廢 100
慰 100
拏 100
杞 100
椒 100
沔 100
泡 100
渤 100
爲 100
犀 100
甸 100
瞻 100
碰 100
碼 100
稜 100
筋 100
籌 100
続 100
绝 100
腳 100
苍 100
蓬 100
訣 100
还 100
鉅 100
难 100
ꦏ 100
ꦥ 100
ꯀ 100
끼 100
능 100
릭 100
섭 100
욱 100
찾 100
𐤏 100
𐬭 100
Ɓ 100
ȇ 100
ȍ 100
ϋ 100
ӯ 100
ڭ 100
ߌ 100
ഖ 100
ໃ 100
ཛ 100
ჰ 100
ሮ 100
ሴ 100
ቡ 100
ች 100
ፈ 100
ᛁ 100
ᛋ 100
ṗ 100
Ṯ 100
⎯ 100
☷ 100
両 100
亳 100
兜 100
厲 100
嘛 100
塩 100
塵 100
寔 100
寫 100
幌 100
悠 100
慢 100
拂 100
揆 100
曆 100
杀 100
枪 100
汲 100
沃 100
溥 100
牢 100
猩 100
瑛 100
璜 100
継 100
菅 100
蛮 100
规 100
觉 100
豚 100
贾 100
輸 100
辦 100
鎭 100
雑 100
頌 100
顔 100
駆 100
驃 100
봄 100
탕 100
𑣉 100
Ń 100
ٴ 100
ښ 100
७ 100
ਏ 100
ଉ 100
ଖ 100
థ 100
ಒ 100
ഫ 100
ྦ 100
ྨ 100
ဗ 100
ሚ 100
ሲ 100
ጥ 100
ፋ 100
Ꭹ 100
ᒋ 100
Ḷ 100
⁊ 100
℗ 100
✓ 100
〖 100
〗 100
ぱ 100
低 100
冈 100
冥 100
凉 100
吻 100
哆 100
啜 100
塗 100
婉 100
寮 100
崩 100
帽 100
批 100
抜 100
搜 100
斋 100
泊 100
洁 100
涂 100
涉 100
渝 100
滎 100
畑 100
綸 100
纯 100
羨 100
芭 100
覧 100
诺 100
贞 100
釈 100
鈞 100
鎌 100
陕 100
険 100
驚 100
ꯟ 100
떠 100
색 100
슈 100
젓 100
𑣈 100
Į 100
Ŏ 100
ǖ 100
ȅ 100
ɚ 100
ˇ 100
ˊ 100
ѫ 100
җ 100
Է 100
ڌ 100
ܰ 100
ܳ 100
५ 100
ෑ 100
ဟ 100
ሥ 100
ḋ 100
Ḣ 100
Ế 100
ᾰ 100
∏ 100
⌊ 100
☰ 100
ⲟ 100
乗 100
亥 100
俺 100
停 100
兔 100
冊 100
击 100
嚕 100
履 100
彈 100
按 100
損 100
斑 100
旻 100
昶 100
泣 100
洙 100
涌 100
添 100
瀚 100
珂 100
瑾 100
痴 100
皤 100
盐 100
磯 100
祇 100
离 100
籠 100
綬 100
請 100
酉 100
醜 100
險 100
雯 100
需 100
頤 100
馨 100
験 100
ꦁ 100
같 100
돈 100
솔 100
첩 100
험 100
︠ 100
𐭲 100
𑣓 100
🥇 100
Ÿ 100
ǩ 100
ҡ 100
ޠ 100
ޭ 100
९ 100
ਯ 100
ఎ 100
ೌ 100
ഓ 100
ฅ 100
ሙ 100
ዊ 100
ጊ 100
ᓐ 100
ថ 100
ៃ 100
ῡ 100
₧ 100
☖ 100
ⴼ 100
ⴽ 100
伎 100
刃 100
厝 100
厥 100
嘎 100
娱 100
寞 100
尽 100
岱 100
庁 100
愍 100
拱 100
拿 100
既 100
暨 100
暮 100
櫻 100
猷 100
琚 100
瘋 100
窟 100
粿 100
絡 100
纂 100
脂 100
茲 100
荘 100
萱 100
蘿 100
贝 100
质 100
跑 100
踊 100
遍 100
郴 100
鄺 100
鎬 100
霆 100
鹅 100
되 100
증 100
페 100
︡ 100
𐭭 100
ƭ 100
ǟ 100
ʝ 100
Ѕ 100
Ї 100
ѐ 100
ѡ 100
Ѳ 100
ѳ 100
ӈ 100
ӑ 100
Ղ 100
۲ 100
ܛ 100
ໂ 100
ဓ 100
ሞ 100
፡ 100
⌘ 100
ⵛ 100
゚ 100
卖 100
咪 100
啊 100
増 100
宽 100
巽 100
帯 100
応 100
怎 100
悔 100
悼 100
摸 100
楞 100
殊 100
毋 100
沅 100
浄 100
渚 100
濤 100
炸 100
璃 100
疾 100
租 100
稱 100
稷 100
粲 100
緊 100
聰 100
葆 100
蘊 100
覆 100
詔 100
讃 100
谐 100
賁 100
贸 100
遗 100
邁 100
鄒 100
針 100
铃 100
镜 100
閬 100
顥 100
驗 100
鬱 100
魁 100
鸣 100
Ʞ 100
랜 100
못 100
응 100
커 100
𐬎 100
 100
 100
ƶ 100
ʟ 100
ʧ 100
٣ 100
ټ 100
ۍ 100
८ 100
ଓ 100
ଙ 100
ଯ 100
ඳ 100
ๆ 100
ཨ 100
ྷ 100
ᅵ 100
ሓ 100
ሽ 100
ṷ 100
☵ 100
ゑ 100
偕 100
兌 100
叟 100
哭 100
喪 100
宸 100
帅 100
弱 100
彙 100
恕 100
惜 100
懋 100
揭 100
曄 100
曽 100
淚 100
漂 100
潜 100
濠 100
煮 100
瑱 100
礁 100
綺 100
织 100
腔 100
莒 100
萌 100
葬 100
览 100
誓 100
议 100
读 100
谁 100
軽 100
迴 100
邹 100
鄰 100
酷 100
醬 100
鉉 100
閑 100
雒 100
頡 100
額 100
驍 100
ꯧ 100
뉴 100
쓰 100
올 100
웃 100
찰 100
¦ 100
ŧ 100
Ɣ 100
ƞ 100
ǥ 100
ˉ 100
ˑ 100
ѵ 100
Ң 100
ҧ 100
Ҳ 100
՛ 100
։ 100
ڄ 100
ߞ 100
ଷ 100
ஏ 100
ಖ 100
ඉ 100
ຜ 100
ྣ 100
ᄉ 100
ሊ 100
ቱ 100
ቶ 100
ᔅ 100
៊ 100
Ụ 100
Ὠ 100
∖ 100
⊙ 100
ⵖ 100
ぢ 100
凶 100
勐 100
勞 100
墳 100
奧 100
宪 100
恢 100
懂 100
戯 100
搖 100
摇 100
暢 100
暦 100
替 100
柄 100
殘 100
氷 100
沪 100
況 100
浴 100
滇 100
滾 100
灌 100
煩 100
瓷 100
畏 100
盖 100
睢 100
码 100
硬 100
称 100
稠 100
类 100
紳 100
緑 100
縱 100
终 100
苟 100
荻 100
裝 100
裸 100
訊 100
趾 100
転 100
适 100
[...]
