[PAD]	0
[UNK]	0
[BOS]	0
[EOS]	0
▁t	-0
he	-1
▁a	-2
in	-3
er	-4
▁the	-5
on	-6
re	-7
▁o	-8
ed	-9
nd	-10
▁s	-11
▁w	-12
at	-13
or	-14
is	-15
en	-16
an	-17
it	-18
ar	-19
▁of	-20
▁in	-21
al	-22
▁f	-23
es	-24
▁c	-25
▁b	-26
as	-27
▁p	-28
▁and	-29
ing	-30
ic	-31
ro	-32
ion	-33
▁to	-34
▁m	-35
le	-36
▁d	-37
▁h	-38
▁T	-39
ou	-40
▁S	-41
il	-42
▁A	-43
▁C	-44
ent	-45
▁1	-46
▁re	-47
st	-48
am	-49
om	-50
el	-51
▁M	-52
ol	-53
▁l	-54
▁was	-55
ct	-56
ad	-57
▁I	-58
▁n	-59
▁e	-60
▁th	-61
▁B	-62
▁The	-63
ur	-64
▁"	-65
et	-66
iv	-67
ch	-68
▁H	-69
▁on	-70
▁for	-71
▁is	-72
ation	-73
ly	-74
▁P	-75
id	-76
▁2	-77
ir	-78
ce	-79
ig	-80
im	-81
ot	-82
us	-83
▁g	-84
ut	-85
▁as	-86
la	-87
ter	-88
ow	-89
▁be	-90
ith	-91
ra	-92
▁R	-93
▁D	-94
▁(	-95
▁19	-96
ers	-97
▁st	-98
▁he	-99
▁F	-100
▁with	-101
un	-102
▁L	-103
em	-104
▁G	-105
▁by	-106
▁W	-107
▁N	-108
▁20	-109
ist	-110
ul	-111
th	-112
ver	-113
▁al	-114
▁at	-115
▁wh	-116
rom	-117
▁J	-118
os	-119
▁an	-120
ay	-121
▁con	-122
▁E	-123
her	-124
um	-125
ge	-126
▁that	-127
est	-128
ri	-129
▁In	-130
▁O	-131
▁from	-132
▁de	-133
op	-134
▁se	-135
▁pro	-136
▁v	-137
oc	-138
▁com	-139
▁it	-140
ain	-141
pe	-142
ity	-143
od	-144
and	-145
av	-146
▁his	-147
art	-148
up	-149
ber	-150
ac	-151
res	-152
ate	-153
ud	-154
ies	-155
if	-156
▁K	-157
ab	-158
▁U	-159
ew	-160
ort	-161
all	-162
▁or	-163
ich	-164
ian	-165
ard	-166
ore	-167
se	-168
ld	-169
ated	-170
ia	-171
ill	-172
ak	-173
igh	-174
▁are	-175
ub	-176
qu	-177
ere	-178
ip	-179
ess	-180
▁r	-181
ant	-182
ag	-183
▁201	-184
▁St	-185
ive	-186
▁ch	-187
▁ex	-188
ment	-189
ov	-190
▁were	-191
ap	-192
ug	-193
ary	-194
nt	-195
ong	-196
▁He	-197
ial	-198
ame	-199
und	-200
ear	-201
our	-202
▁Ch	-203
ast	-204
▁which	-205
▁le	-206
ell	-207
red	-208
ine	-209
ction	-210
ust	-211
▁200	-212
ost	-213
so	-214
▁V	-215
ish	-216
ord	-217
uc	-218
▁y	-219
▁sh	-220
ical	-221
te	-222
▁comp	-223
ther	-224
▁pla	-225
og	-226
mer	-227
ork	-228
cl	-229
▁k	-230
ran	-231
▁also	-232
▁It	-233
▁had	-234
ight	-235
irst	-236
ue	-237
ie	-238
▁has	-239
▁un	-240
pt	-241
ous	-242
▁not	-243
ure	-244
ition	-245
ff	-246
▁first	-247
▁whe	-248
ave	-249
ry	-250
fter	-251
ric	-252
▁18	-253
ok	-254
ign	-255
per	-256
ome	-257
erv	-258
iz	-259
▁te	-260
ire	-261
port	-262
ass	-263
▁ar	-264
▁Un	-265
ide	-266
▁us	-267
rit	-268
▁cont	-269
own	-270
",	-271
ond	-272
hed	-273
▁Th	-274
wo	-275
▁their	-276
▁its	-277
▁ro	-278
ater	-279
ount	-280
▁ad	-281
man	-282
▁part	-283
ice	-284
▁ap	-285
▁who	-286
ree	-287
ult	-288
00	-289
▁but	-290
▁res	-291
▁her	-292
▁cl	-293
clud	-294
ect	-295
sh	-296
),	-297
age	-298
▁year	-299
▁3	-300
ime	-301
to	-302
ational	-303
▁one	-304
ang	-305
ach	-306
▁play	-307
low	-308
land	-309
▁j	-310
amp	-311
ence	-312
ack	-313
out	-314
ound	-315
▁ab	-316
ens	-317
cc	-318
ould	-319
orn	-320
▁Al	-321
ally	-322
ugh	-323
ib	-324
▁have	-325
are	-326
".	-327
wn	-328
▁includ	-329
▁per	-330
▁bec	-331
▁two	-332
▁ag	-333
ations	-334
fer	-335
over	-336
▁Y	-337
▁this	-338
▁Re	-339
ru	-340
▁rec	-341
ool	-342
ke	-343
▁man	-344
uring	-345
ark	-346
ng	-347
ade	-348
ory	-349
tern	-350
▁been	-351
).	-352
ember	-353
ates	-354
ile	-355
ild	-356
oin	-357
▁199	-358
▁other	-359
▁work	-360
ubl	-361
ased	-362
old	-363
ck	-364
▁en	-365
for	-366
▁sc	-367
▁Se	-368
ne	-369
ited	-370
▁De	-371
vel	-372
ied	-373
ces	-374
▁after	-375
act	-376
▁comm	-377
uch	-378
ely	-379
gh	-380
we	-381
▁dis	-382
ph	-383
ents	-384
ts	-385
▁im	-386
les	-387
ite	-388
▁Ar	-389
chool	-390
urn	-391
▁sp	-392
aw	-393
▁up	-394
▁out	-395
ted	-396
one	-397
▁over	-398
▁des	-399
▁Mar	-400
ind	-401
▁they	-402
▁ne	-403
able	-404
ons	-405
oy	-406
ress	-407
▁spe	-408
ivers	-409
ail	-410
▁As	-411
ors	-412
▁she	-413
iss	-414
ced	-415
▁off	-416
▁ra	-417
▁4	-418
ose	-419
▁new	-420
ward	-421
ase	-422
gan	-423
▁Le	-424
▁into	-425
▁serv	-426
▁loc	-427
▁all	-428
▁ev	-429
▁und	-430
ough	-431
ath	-432
ance	-433
ions	-434
ob	-435
▁pre	-436
▁New	-437
inal	-438
ings	-439
pl	-440
▁tra	-441
ood	-442
▁time	-443
outh	-444
▁can	-445
▁gro	-446
rough	-447
cted	-448
ilm	-449
▁Com	-450
▁198	-451
ican	-452
▁form	-453
io	-454
▁under	-455
▁ele	-456
▁sec	-457
▁On	-458
▁col	-459
▁him	-460
way	-461
▁kn	-462
ished	-463
ason	-464
▁5	-465
▁bu	-466
ious	-467
rib	-468
▁bet	-469
orld	-470
▁pl	-471
oth	-472
▁reg	-473
ren	-474
ily	-475
▁when	-476
ft	-477
▁more	-478
du	-479
ram	-480
ake	-481
ollow	-482
▁would	-483
ral	-484
▁years	-485
▁Amer	-486
▁where	-487
orth	-488
ans	-489
ick	-490
▁cons	-491
▁publ	-492
cess	-493
ince	-494
▁197	-495
ween	-496
▁team	-497
ual	-498
▁stud	-499
rad	-500
▁This	-501
▁again	-502
ve	-503
ship	-504
ton	-505
▁ind	-506
oh	-507
ook	-508
▁ret	-509
form	-510
▁during	-511
▁op	-512
oun	-513
ener	-514
▁rep	-515
▁we	-516
▁only	-517
▁pr	-518
▁film	-519
▁me	-520
▁cent	-521
19	-522
ident	-523
▁Sh	-524
▁most	-525
▁sup	-526
ating	-527
▁sub	-528
ics	-529
The	-530
ular	-531
▁ear	-532
▁6	-533
▁found	-534
▁act	-535
▁She	-536
▁fam	-537
use	-538
ision	-539
▁inter	-540
▁pe	-541
▁rele	-542
iversity	-543
▁between	-544
ix	-545
ron	-546
che	-547
▁qu	-548
▁att	-549
olog	-550
duc	-551
▁ass	-552
0,	-553
ative	-554
ouse	-555
rans	-556
▁pol	-557
ered	-558
ah	-559
▁fe	-560
▁three	-561
▁acc	-562
cial	-563
▁through	-564
▁app	-565
▁there	-566
▁made	-567
any	-568
iel	-569
ict	-570
fore	-571
ins	-572
▁follow	-573
end	-574
▁196	-575
▁rem	-576
▁them	-577
ock	-578
▁co	-579
."	-580
overn	-581
▁then	-582
aj	-583
▁used	-584
▁sy	-585
▁later	-586
ank	-587
ities	-588
ik	-589
▁num	-590
pr	-591
▁Col	-592
▁pres	-593
▁mov	-594
▁rel	-595
▁Ind	-596
▁pop	-597
▁about	-598
▁such	-599
ived	-600
oot	-601
als	-602
▁season	-603
▁so	-604
▁end	-605
ball	-606
▁second	-607
reat	-608
▁dist	-609
ames	-610
▁United	-611
ann	-612
ace	-613
▁became	-614
ten	-615
▁known	-616
oci	-617
ific	-618
▁Z	-619
az	-620
▁some	-621
▁school	-622
▁than	-623
▁American	-624
7,	-625
▁ac	-626
▁prov	-627
▁University	-628
air	-629
ier	-630
emb	-631
▁inv	-632
ever	-633
▁inc	-634
inn	-635
arg	-636
ale	-637
▁def	-638
▁An	-639
att	-640
▁ent	-641
velop	-642
▁am	-643
5,	-644
led	-645
▁At	-646
ury	-647
▁well	-648
0.	-649
son	-650
▁Pro	-651
ject	-652
bum	-653
ober	-654
▁194	-655
▁dec	-656
▁being	-657
1,	-658
round	-659
erm	-660
▁call	-661
▁four	-662
4,	-663
ife	-664
ines	-665
ople	-666
▁trans	-667
▁record	-668
eries	-669
8,	-670
▁including	-671
▁Con	-672
usic	-673
▁set	-674
pos	-675
ather	-676
ley	-677
ars	-678
▁pos	-679
very	-680
ield	-681
hen	-682
iver	-683
ement	-684
▁do	-685
6,	-686
rict	-687
▁appe	-688
2,	-689
▁art	-690
ash	-691
▁Eng	-692
ros	-693
til	-694
▁album	-695
▁ed	-696
▁195	-697
▁Joh	-698
▁many	-699
ep	-700
▁After	-701
owever	-702
▁dire	-703
▁against	-704
iam	-705
▁Sc	-706
▁lead	-707
une	-708
other	-709
arri	-710
ina	-711
▁count	-712
tain	-713
ional	-714
ctor	-715
▁sing	-716
▁cre	-717
9,	-718
▁add	-719
▁before	-720
its	-721
ists	-722
ike	-723
▁may	-724
▁while	-725
ures	-726
▁7	-727
3,	-728
▁For	-729
eb	-730
ired	-731
ys	-732
▁sur	-733
enn	-734
urch	-735
▁own	-736
iew	-737
ern	-738
der	-739
▁rece	-740
▁ph	-741
▁group	-742
▁until	-743
▁est	-744
▁sign	-745
▁develop	-746
▁main	-747
ise	-748
stem	-749
▁show	-750
stit	-751
ters	-752
▁bro	-753
▁May	-754
cy	-755
▁both	-756
erman	-757
▁17	-758
▁high	-759
▁writ	-760
illa	-761
▁John	-762
▁med	-763
▁Jan	-764
▁Comm	-765
ll	-766
ty	-767
▁family	-768
▁Be	-769
ower	-770
ute	-771
ural	-772
ague	-773
▁Fran	-774
▁cap	-775
ized	-776
▁Is	-777
ism	-778
▁number	-779
▁oper	-780
overnment	-781
amed	-782
ven	-783
▁em	-784
▁fin	-785
▁people	-786
▁mod	-787
elf	-788
▁spec	-789
▁played	-790
▁States	-791
▁name	-792
▁sever	-793
▁no	-794
▁orig	-795
▁–	-796
▁go	-797
▁Q	-798
ting	-799
▁released	-800
aid	-801
▁World	-802
▁met	-803
ved	-804
▁8	-805
▁song	-806
▁Te	-807
▁dif	-808
▁National	-809
▁mon	-810
ulation	-811
▁build	-812
▁day	-813
uss	-814
▁area	-815
tend	-816
ek	-817
uro	-818
▁Aust	-819
ually	-820
▁start	-821
▁Ju	-822
▁Cl	-823
000	-824
▁exp	-825
▁min	-826
▁Count	-827
▁193	-828
▁series	-829
▁sm	-830
▁char	-831
ution	-832
▁fl	-833
▁won	-834
▁Car	-835
▁gener	-836
▁back	-837
ird	-838
▁design	-839
▁Brit	-840
▁prog	-841
▁9	-842
▁mat	-843
uary	-844
▁offic	-845
▁hist	-846
▁War	-847
ives	-848
▁will	-849
▁called	-850
▁comple	-851
ctions	-852
▁Ph	-853
▁Sp	-854
▁School	-855
ister	-856
ful	-857
▁Ad	-858
▁var	-859
▁Wh	-860
ugust	-861
ause	-862
▁Nov	-863
ract	-864
▁several	-865
1.	-866
▁feat	-867
▁long	-868
▁run	-869
▁ann	-870
▁German	-871
▁system	-872
2.	-873
▁His	-874
▁open	-875
▁suc	-876
ple	-877
▁same	-878
con	-879
ey	-880
▁ob	-881
imes	-882
ampion	-883
▁South	-884
▁August	-885
ptember	-886
rid	-887
ues	-888
ternational	-889
▁contin	-890
▁return	-891
▁Can	-892
my	-893
▁game	-894
erson	-895
▁music	-896
▁following	-897
ajor	-898
▁city	-899
▁16	-900
▁March	-901
▁early	-902
▁public	-903
ai	-904
▁state	-905
▁produ	-906
por	-907
eng	-908
▁aut	-909
ull	-910
ax	-911
ctober	-912
▁int	-913
▁September	-914
ootball	-915
▁these	-916
by	-917
▁They	-918
5.	-919
cept	-920
ission	-921
aking	-922
▁organ	-923
▁January	-924
ets	-925
xt	-926
ital	-927
ilt	-928
duced	-929
rop	-930
▁colle	-931
els	-932
▁June	-933
▁192	-934
iving	-935
fess	-936
▁cur	-937
▁use	-938
abl	-939
▁began	-940
rent	-941
ured	-942
▁October	-943
ene	-944
ior	-945
▁any	-946
ided	-947
ross	-948
▁bel	-949
pril	-950
rand	-951
▁July	-952
vent	-953
▁town	-954
ped	-955
▁former	-956
ised	-957
4.	-958
ium	-959
mber	-960
▁York	-961
rist	-962
▁near	-963
ible	-964
icip	-965
▁child	-966
3.	-967
ants	-968
▁inst	-969
ued	-970
▁There	-971
▁since	-972
▁15	-973
▁10	-974
ared	-975
ient	-976
▁Cent	-977
omen	-978
▁Me	-979
iet	-980
▁April	-981
ility	-982
▁remain	-983
▁air	-984
ined	-985
8.	-986
cember	-987
ments	-988
▁Euro	-989
▁join	-990
arm	-991
the	-992
▁government	-993
ange	-994
▁eff	-995
7.	-996
▁commun	-997
▁November	-998
▁head	-999
6.	-1000
▁land	-1001
▁located	-1002
▁support	-1003
▁prom	-1004
ically	-1005
▁inf	-1006
▁County	-1007
▁Ge	-1008
part	-1009
▁along	-1010
au	-1011
▁December	-1012
▁bl	-1013
ales	-1014
▁program	-1015
oard	-1016
▁book	-1017
ris	-1018
▁did	-1019
▁(19	-1020
oman	-1021
▁compet	-1022
▁place	-1023
▁small	-1024
▁villa	-1025
▁each	-1026
▁band	-1027
▁North	-1028
ology	-1029
▁population	-1030
▁held	-1031
▁Par	-1032
ink	-1033
▁All	-1034
▁pass	-1035
▁Or	-1036
▁occ	-1037
9.	-1038
ica	-1039
resent	-1040
▁result	-1041
▁disc	-1042
ret	-1043
▁dr	-1044
▁differ	-1045
▁sim	-1046
embers	-1047
▁took	-1048
arch	-1049
▁care	-1050
▁poin	-1051
ox	-1052
▁gu	-1053
ove	-1054
▁house	-1055
▁Austral	-1056
pend	-1057
▁named	-1058
hes	-1059
▁tit	-1060
▁'	-1061
▁local	-1062
rol	-1063
▁Ass	-1064
▁(1	-1065
▁str	-1066
ae	-1067
▁you	-1068
yl	-1069
▁club	-1070
aving	-1071
ner	-1072
▁major	-1073
▁British	-1074
ebru	-1075
ebruary	-1076
▁However	-1077
ec	-1078
▁12	-1079
▁polit	-1080
▁member	-1081
▁station	-1082
▁success	-1083
▁desc	-1084
▁home	-1085
ices	-1086
▁company	-1087
▁$	-1088
▁City	-1089
lay	-1090
ampionship	-1091
▁Europe	-1092
▁rev	-1093
min	-1094
▁Man	-1095
▁could	-1096
▁served	-1097
raph	-1098
chn	-1099
▁191	-1100
▁establ	-1101
▁age	-1102
▁world	-1103
▁received	-1104
ival	-1105
mp	-1106
illion	-1107
▁February	-1108
stru	-1109
arge	-1110
▁class	-1111
eter	-1112
▁Will	-1113
▁members	-1114
tle	-1115
wards	-1116
▁final	-1117
▁ins	-1118
▁Pol	-1119
▁born	-1120
▁Pr	-1121
▁around	-1122
ored	-1123
augh	-1124
born	-1125
ately	-1126
▁event	-1127
ring	-1128
▁Bar	-1129
▁US	-1130
af	-1131
orm	-1132
▁old	-1133
▁tr	-1134
20	-1135
ience	-1136
let	-1137
▁.	-1138
ator	-1139
cer	-1140
▁-	-1141
▁now	-1142
ble	-1143
▁built	-1144
▁par	-1145
though	-1146
▁ext	-1147
▁line	-1148
▁term	-1149
ilit	-1150
ling	-1151
▁Am	-1152
▁State	-1153
▁ref	-1154
ats	-1155
▁single	-1156
▁bus	-1157
▁Gu	-1158
▁League	-1159
ony	-1160
hor	-1161
lack	-1162
▁hel	-1163
▁eng	-1164
▁charact	-1165
▁based	-1166
▁last	-1167
ane	-1168
ording	-1169
ently	-1170
▁national	-1171
inc	-1172
▁refer	-1173
▁Bro	-1174
ians	-1175
ged	-1176
▁report	-1177
alif	-1178
▁include	-1179
med	-1180
iness	-1181
▁Ed	-1182
▁left	-1183
▁Colle	-1184
pro	-1185
ott	-1186
▁During	-1187
▁("	-1188
▁north	-1189
▁appro	-1190
▁II	-1191
oss	-1192
▁Canad	-1193
me	-1194
▁six	-1195
▁cour	-1196
ham	-1197
arried	-1198
reen	-1199
▁King	-1200
▁within	-1201
get	-1202
ula	-1203
▁list	-1204
ality	-1205
▁century	-1206
▁Co	-1207
ivision	-1208
▁Mon	-1209
▁because	-1210
▁car	-1211
▁Af	-1212
ster	-1213
▁law	-1214
pect	-1215
▁mark	-1216
yn	-1217
▁said	-1218
co	-1219
▁due	-1220
▁West	-1221
ounc	-1222
▁species	-1223
▁deb	-1224
uck	-1225
ches	-1226
ides	-1227
▁vers	-1228
ille	-1229
▁war	-1230
itions	-1231
▁published	-1232
▁Min	-1233
ung	-1234
ages	-1235
▁camp	-1236
▁football	-1237
▁profess	-1238
▁five	-1239
▁large	-1240
▁rest	-1241
▁top	-1242
iod	-1243
▁Har	-1244
▁village	-1245
▁present	-1246
▁ty	-1247
▁Christ	-1248
com	-1249
▁requ	-1250
▁consid	-1251
row	-1252
▁Dist	-1253
▁adv	-1254
rew	-1255
ask	-1256
aster	-1257
▁included	-1258
▁right	-1259
▁Her	-1260
que	-1261
▁down	-1262
▁describ	-1263
rench	-1264
▁building	-1265
ode	-1266
▁death	-1267
▁died	-1268
▁Geor	-1269
iven	-1270
lev	-1271
ively	-1272
▁current	-1273
atic	-1274
bor	-1275
▁represent	-1276
alth	-1277
▁south	-1278
ze	-1279
▁life	-1280
▁Mc	-1281
day	-1282
▁larg	-1283
▁tri	-1284
▁allow	-1285
cent	-1286
–1	-1287
▁det	-1288
ature	-1289
▁conf	-1290
▁&	-1291
▁third	-1292
lish	-1293
▁And	-1294
omin	-1295
▁fac	-1296
estern	-1297
ps	-1298
▁Sw	-1299
omet	-1300
gy	-1301
▁11	-1302
uff	-1303
▁different	-1304
ially	-1305
ien	-1306
alk	-1307
ety	-1308
▁post	-1309
▁manag	-1310
ief	-1311
▁person	-1312
used	-1313
▁incre	-1314
amb	-1315
▁just	-1316
▁short	-1317
reet	-1318
▁14	-1319
▁still	-1320
vious	-1321
ization	-1322
▁those	-1323
▁dem	-1324
ves	-1325
▁like	-1326
▁French	-1327
▁vis	-1328
laim	-1329
▁children	-1330
▁av	-1331
tal	-1332
▁William	-1333
▁El	-1334
ouncil	-1335
▁Ab	-1336
▁leg	-1337
eder	-1338
▁Reg	-1339
ration	-1340
▁High	-1341
▁Ex	-1342
ese	-1343
▁very	-1344
▁moved	-1345
▁stand	-1346
apan	-1347
▁13	-1348
▁lit	-1349
urg	-1350
▁ep	-1351
▁period	-1352
▁perform	-1353
▁College	-1354
▁English	-1355
inning	-1356
▁po	-1357
▁addition	-1358
▁trad	-1359
angu	-1360
work	-1361
▁million	-1362
tended	-1363
▁dra	-1364
akes	-1365
▁water	-1366
▁son	-1367
ays	-1368
▁another	-1369
▁190	-1370
▁cor	-1371
▁career	-1372
▁if	-1373
hip	-1374
▁led	-1375
oad	-1376
▁Part	-1377
▁appear	-1378
ining	-1379
par	-1380
▁District	-1381
ified	-1382
ning	-1383
▁power	-1384
▁Park	-1385
▁crit	-1386
▁iss	-1387
ocial	-1388
▁announ	-1389
ize	-1390
▁resp	-1391
alf	-1392
▁Bl	-1393
▁often	-1394
idd	-1395
▁exper	-1396
ondon	-1397
▁best	-1398
▁educ	-1399
ering	-1400
▁Char	-1401
side	-1402
▁men	-1403
riend	-1404
▁By	-1405
▁Air	-1406
▁original	-1407
ery	-1408
▁Rep	-1409
▁make	-1410
ata	-1411
▁River	-1412
ograph	-1413
▁level	-1414
▁X	-1415
▁Russ	-1416
▁Japan	-1417
▁equ	-1418
▁hand	-1419
ards	-1420
")	-1421
ness	-1422
ody	-1423
ford	-1424
urs	-1425
lor	-1426
▁though	-1427
▁Afric	-1428
▁Sy	-1429
▁import	-1430
▁Pres	-1431
ald	-1432
uk	-1433
▁constru	-1434
▁side	-1435
-1	-1436
▁even	-1437
▁When	-1438
▁London	-1439
▁among	-1440
ana	-1441
▁project	-1442
▁service	-1443
▁Acc	-1444
ency	-1445
▁non	-1446
attle	-1447
▁women	-1448
ison	-1449
▁country	-1450
▁father	-1451
adem	-1452
▁month	-1453
▁late	-1454
uted	-1455
ino	-1456
read	-1457
▁beg	-1458
▁win	-1459
▁sold	-1460
▁port	-1461
▁hum	-1462
▁came	-1463
vers	-1464
lu	-1465
ges	-1466
ched	-1467
▁Sec	-1468
▁pat	-1469
ney	-1470
▁order	-1471
▁every	-1472
▁189	-1473
▁district	-1474
▁la	-1475
▁Championship	-1476
▁attack	-1477
▁Dav	-1478
▁started	-1479
ilitary	-1480
▁games	-1481
ument	-1482
▁grad	-1483
▁poss	-1484
▁previous	-1485
▁established	-1486
rick	-1487
ases	-1488
▁much	-1489
ploy	-1490
osp	-1491
▁went	-1492
ugg	-1493
conom	-1494
▁role	-1495
ummer	-1496
▁Comp	-1497
▁turn	-1498
▁what	-1499
▁business	-1500
▁el	-1501
▁title	-1502
▁Cor	-1503
▁ship	-1504
na	-1505
▁Med	-1506
ilar	-1507
▁history	-1508
ries	-1509
▁kill	-1510
ington	-1511
▁award	-1512
▁Ital	-1513
▁invol	-1514
▁Ne	-1515
▁character	-1516
▁contain	-1517
▁es	-1518
▁aff	-1519
▁House	-1520
ele	-1521
ridge	-1522
▁track	-1523
ones	-1524
▁fore	-1525
▁field	-1526
ote	-1527
ourn	-1528
▁Cup	-1529
aul	-1530
▁Ang	-1531
▁announced	-1532
▁common	-1533
▁repla	-1534
ler	-1535
▁effect	-1536
yle	-1537
ray	-1538
levision	-1539
▁techn	-1540
sc	-1541
▁rad	-1542
empt	-1543
▁val	-1544
▁origin	-1545
ruct	-1546
ociation	-1547
▁sk	-1548
▁young	-1549
▁author	-1550
▁week	-1551
ara	-1552
de	-1553
▁sol	-1554
▁fact	-1555
▁become	-1556
ert	-1557
▁init	-1558
urther	-1559
reg	-1560
▁One	-1561
▁chang	-1562
rote	-1563
sk	-1564
▁cr	-1565
▁total	-1566
▁various	-1567
umb	-1568
▁San	-1569
▁del	-1570
hem	-1571
of	-1572
▁special	-1573
anc	-1574
▁control	-1575
▁1,	-1576
rest	-1577
▁sit	-1578
osed	-1579
ense	-1580
▁given	-1581
▁These	-1582
ament	-1583
▁worked	-1584
▁rese	-1585
▁few	-1586
▁Phil	-1587
▁appoin	-1588
▁International	-1589
▁Br	-1590
self	-1591
▁England	-1592
br	-1593
▁community	-1594
▁histor	-1595
▁cover	-1596
eneral	-1597
▁fre	-1598
▁tw	-1599
▁joined	-1600
▁next	-1601
▁arch	-1602
▁process	-1603
▁activ	-1604
sp	-1605
▁cult	-1606
partment	-1607
ords	-1608
eth	-1609
▁,	-1610
▁students	-1611
▁having	-1612
▁stat	-1613
mit	-1614
▁married	-1615
epend	-1616
▁player	-1617
▁produced	-1618
ached	-1619
hern	-1620
▁mag	-1621
▁With	-1622
▁Res	-1623
▁defe	-1624
lin	-1625
ivid	-1626
raft	-1627
▁Sup	-1628
▁claim	-1629
posed	-1630
▁fem	-1631
▁returned	-1632
▁development	-1633
iber	-1634
▁East	-1635
▁langu	-1636
▁using	-1637
ms	-1638
▁188	-1639
▁Indian	-1640
▁gr	-1641
▁described	-1642
avy	-1643
▁gen	-1644
▁way	-1645
ublic	-1646
oph	-1647
▁created	-1648
app	-1649
▁round	-1650
▁take	-1651
▁however	-1652
omb	-1653
▁general	-1654
cast	-1655
▁Tr	-1656
▁pain	-1657
aff	-1658
▁prote	-1659
hold	-1660
ront	-1661
oon	-1662
ociety	-1663
astern	-1664
isc	-1665
▁bre	-1666
ape	-1667
▁international	-1668
▁popular	-1669
▁Church	-1670
orthern	-1671
forman	-1672
▁wrote	-1673
ead	-1674
▁great	-1675
line	-1676
lands	-1677
▁La	-1678
ories	-1679
field	-1680
▁We	-1681
▁25	-1682
▁beh	-1683
▁rail	-1684
▁hig	-1685
▁ca	-1686
▁election	-1687
▁examp	-1688
aken	-1689
▁Mich	-1690
▁sent	-1691
oyal	-1692
▁need	-1693
off	-1694
ush	-1695
minist	-1696
irc	-1697
▁fun	-1698
▁written	-1699
▁prim	-1700
▁elect	-1701
▁According	-1702
ention	-1703
▁position	-1704
urb	-1705
▁tem	-1706
▁Pe	-1707
sequ	-1708
▁political	-1709
outher	-1710
ops	-1711
▁From	-1712
▁partic	-1713
▁(2	-1714
▁host	-1715
▁Ste	-1716
▁continued	-1717
▁100	-1718
be	-1719
outhern	-1720
ivil	-1721
▁sl	-1722
▁aver	-1723
▁production	-1724
▁times	-1725
ested	-1726
▁site	-1727
▁186	-1728
▁President	-1729
ta	-1730
ole	-1731
▁epis	-1732
▁similar	-1733
▁Australia	-1734
▁Roman	-1735
ander	-1736
ividual	-1737
▁European	-1738
▁India	-1739
▁church	-1740
ots	-1741
iron	-1742
▁Council	-1743
▁lab	-1744
ogn	-1745
▁squ	-1746
▁match	-1747
▁particip	-1748
▁intro	-1749
▁region	-1750
ville	-1751
ests	-1752
▁No	-1753
unicip	-1754
▁Street	-1755
▁full	-1756
▁without	-1757
▁Port	-1758
▁version	-1759
▁pract	-1760
▁direct	-1761
itor	-1762
▁Art	-1763
▁works	-1764
lect	-1765
▁Army	-1766
aliforn	-1767
less	-1768
ript	-1769
▁Per	-1770
▁official	-1771
reek	-1772
▁attempt	-1773
ountain	-1774
▁pri	-1775
▁Ac	-1776
etwork	-1777
▁military	-1778
▁vide	-1779
▁Gro	-1780
▁friend	-1781
▁Sch	-1782
▁comb	-1783
ger	-1784
iment	-1785
▁Gl	-1786
▁France	-1787
▁television	-1788
formation	-1789
stitute	-1790
▁considered	-1791
▁Party	-1792
▁Em	-1793
alifornia	-1794
ti	-1795
▁30	-1796
▁Mal	-1797
▁road	-1798
▁brother	-1799
▁indust	-1800
▁performan	-1801
▁Bel	-1802
▁days	-1803
arn	-1804
▁sw	-1805
▁founded	-1806
ha	-1807
arent	-1808
uel	-1809
▁lim	-1810
▁lost	-1811
▁find	-1812
▁opened	-1813
▁En	-1814
useum	-1815
▁Hol	-1816
utes	-1817
▁story	-1818
▁broad	-1819
▁real	-1820
▁Ag	-1821
▁187	-1822
▁Ber	-1823
▁James	-1824
▁California	-1825
▁important	-1826
▁Thom	-1827
ellow	-1828
ances	-1829
ico	-1830
▁engine	-1831
▁half	-1832
▁recorded	-1833
gether	-1834
▁together	-1835
▁ident	-1836
atter	-1837
▁proper	-1838
rem	-1839
▁individual	-1840
▁Pl	-1841
▁Nor	-1842
▁Division	-1843
▁disp	-1844
ama	-1845
▁debut	-1846
▁George	-1847
▁appeared	-1848
hib	-1849
▁Des	-1850
ination	-1851
▁General	-1852
▁Rober	-1853
▁further	-1854
▁bas	-1855
▁vol	-1856
ports	-1857
ying	-1858
now	-1859
ream	-1860
▁Cour	-1861
▁2010	-1862
int	-1863
van	-1864
oor	-1865
▁view	-1866
▁daugh	-1867
▁research	-1868
itte	-1869
lex	-1870
▁influ	-1871
▁ter	-1872
▁social	-1873
ably	-1874
▁party	-1875
key	-1876
▁Que	-1877
▁ke	-1878
▁mult	-1879
▁Sm	-1880
ights	-1881
▁Val	-1882
▁professional	-1883
▁promot	-1884
bs	-1885
▁America	-1886
▁east	-1887
press	-1888
▁point	-1889
▁deg	-1890
▁econom	-1891
olution	-1892
lear	-1893
ising	-1894
ological	-1895
year	-1896
▁invest	-1897
ius	-1898
▁priv	-1899
▁signed	-1900
▁particular	-1901
▁hold	-1902
▁Canada	-1903
▁elected	-1904
ping	-1905
era	-1906
▁formed	-1907
▁appointed	-1908
pecial	-1909
▁president	-1910
▁gradu	-1911
▁Act	-1912
imately	-1913
▁offer	-1914
▁Bra	-1915
uit	-1916
▁formula	-1917
▁less	-1918
▁“	-1919
lymp	-1920
▁areas	-1921
▁dest	-1922
▁grow	-1923
ope	-1924
▁wife	-1925
▁fund	-1926
▁working	-1927
▁Mor	-1928
▁tradition	-1929
▁While	-1930
▁ren	-1931
ither	-1932
aign	-1933
▁mid	-1934
▁Rec	-1935
ls	-1936
▁west	-1937
,"	-1938
▁struct	-1939
rap	-1940
▁Rich	-1941
▁developed	-1942
▁Pal	-1943
dom	-1944
ishing	-1945
▁average	-1946
▁meet	-1947
oe	-1948
ership	-1949
▁Olymp	-1950
▁making	-1951
▁Association	-1952
▁good	-1953
▁You	-1954
▁Ant	-1955
▁read	-1956
▁cer	-1957
▁mer	-1958
iles	-1959
ference	-1960
▁low	-1961
▁example	-1962
ills	-1963
▁avail	-1964
▁reported	-1965
ensus	-1966
▁release	-1967
BC	-1968
▁hous	-1969
anish	-1970
nect	-1971
aper	-1972
▁nov	-1973
alt	-1974
▁teams	-1975
ex	-1976
idence	-1977
▁star	-1978
ours	-1979
▁arr	-1980
▁Union	-1981
wh	-1982
▁vict	-1983
▁exist	-1984
▁himself	-1985
▁should	-1986
▁Lou	-1987
view	-1988
▁review	-1989
most	-1990
ells	-1991
ained	-1992
ences	-1993
▁does	-1994
▁others	-1995
▁div	-1996
▁fail	-1997
▁employ	-1998
▁Dr	-1999
▁gl	-2000
▁ten	-2001
▁Royal	-2002
▁cond	-2003
▁get	-2004
▁Tra	-2005
▁typ	-2006
iol	-2007
iddle	-2008
▁ground	-2009
▁Ap	-2010
▁office	-2011
plic	-2012
ael	-2013
▁living	-2014
▁never	-2015
▁race	-2016
▁case	-2017
▁director	-2018
▁points	-2019
▁rock	-2020
ways	-2021
▁produc	-2022
▁conc	-2023
▁although	-2024
▁Qu	-2025
ule	-2026
▁2011	-2027
▁signific	-2028
▁successful	-2029
▁playing	-2030
▁mater	-2031
ij	-2032
rie	-2033
▁coach	-2034
nder	-2035
iding	-2036
▁Germany	-2037
▁David	-2038
uf	-2039
▁belie	-2040
▁across	-2041
ma	-2042
ournal	-2043
olic	-2044
▁Paul	-2045
▁Award	-2046
▁hon	-2047
pite	-2048
▁Hall	-2049
▁rank	-2050
atch	-2051
▁video	-2052
▁Dem	-2053
cing	-2054
▁services	-2055
ks	-2056
▁Australian	-2057
▁modern	-2058
▁strong	-2059
itive	-2060
▁Road	-2061
▁contrib	-2062
▁body	-2063
▁independ	-2064
▁recogn	-2065
ee	-2066
▁live	-2067
▁21	-2068
itect	-2069
anted	-2070
shire	-2071
▁Hen	-2072
ittee	-2073
estival	-2074
craft	-2075
▁laun	-2076
ont	-2077
▁mother	-2078
▁Ear	-2079
▁hy	-2080
▁24	-2081
▁events	-2082
▁Some	-2083
▁mot	-2084
ya	-2085
oll	-2086
St	-2087
▁available	-2088
wood	-2089
▁somet	-2090
▁tro	-2091
▁human	-2092
ocr	-2093
liam	-2094
iting	-2095
rated	-2096
▁Sen	-2097
▁separ	-2098
▁education	-2099
▁ide	-2100
go	-2101
ensive	-2102
▁how	-2103
▁Kh	-2104
ceed	-2105
ari	-2106
▁administ	-2107
▁Red	-2108
▁cost	-2109
val	-2110
▁foc	-2111
liament	-2112
▁cast	-2113
▁my	-2114
▁language	-2115
▁suff	-2116
▁Company	-2117
▁free	-2118
▁2006	-2119
▁gave	-2120
▁Mary	-2121
▁followed	-2122
ming	-2123
▁black	-2124
▁ord	-2125
▁light	-2126
oney	-2127
▁months	-2128
▁[	-2129
▁away	-2130
▁finished	-2131
ipp	-2132
▁campaign	-2133
▁Hist	-2134
▁vot	-2135
▁Che	-2136
▁performed	-2137
igned	-2138
men	-2139
▁taken	-2140
▁fire	-2141
▁2012	-2142
ought	-2143
aut	-2144
▁mar	-2145
▁daughter	-2146
▁base	-2147
▁Court	-2148
▁assist	-2149
ators	-2150
istic	-2151
▁becom	-2152
utive	-2153
west	-2154
▁cross	-2155
▁league	-2156
▁rul	-2157
ili	-2158
▁Pri	-2159
▁dev	-2160
eh	-2161
▁style	-2162
▁185	-2163
▁dep	-2164
▁tour	-2165
band	-2166
ification	-2167
chie	-2168
ened	-2169
▁2008	-2170
▁songs	-2171
▁Pat	-2172
▁Central	-2173
▁household	-2174
▁remained	-2175
▁once	-2176
ibr	-2177
icle	-2178
hers	-2179
▁municip	-2180
▁completed	-2181
▁designed	-2182
▁China	-2183
▁regular	-2184
▁currently	-2185
odes	-2186
▁Mex	-2187
▁let	-2188
▁Stud	-2189
▁help	-2190
.,	-2191
▁Mac	-2192
▁Off	-2193
▁market	-2194
▁construction	-2195
▁put	-2196
▁impro	-2197
ederal	-2198
▁Mart	-2199
▁Island	-2200
▁Although	-2201
▁includes	-2202
▁product	-2203
CA	-2204
▁features	-2205
ential	-2206
▁()	-2207
alls	-2208
▁Rail	-2209
ademy	-2210
▁agre	-2211
aur	-2212
ique	-2213
▁must	-2214
▁largest	-2215
ilies	-2216
▁Town	-2217
ashington	-2218
rag	-2219
▁throughout	-2220
ston	-2221
anding	-2222
burg	-2223
▁acqu	-2224
▁contract	-2225
▁sour	-2226
▁2014	-2227
▁expl	-2228
▁enc	-2229
▁2009	-2230
▁material	-2231
▁Club	-2232
ateg	-2233
cis	-2234
▁players	-2235
▁originally	-2236
▁Department	-2237
elling	-2238
▁featured	-2239
▁Sam	-2240
ett	-2241
▁Since	-2242
ude	-2243
▁To	-2244
▁significant	-2245
▁Thomas	-2246
▁Vir	-2247
itz	-2248
▁associ	-2249
▁doc	-2250
gin	-2251
atural	-2252
▁Black	-2253
▁circ	-2254
▁UK	-2255
▁press	-2256
▁Ser	-2257
▁Jack	-2258
ago	-2259
▁Je	-2260
▁seen	-2261
azine	-2262
▁Group	-2263
▁Center	-2264
▁phys	-2265
roy	-2266
time	-2267
▁First	-2268
rian	-2269
ospital	-2270
▁seven	-2271
rain	-2272
▁red	-2273
▁Robert	-2274
▁2013	-2275
acy	-2276
▁proble	-2277
▁ste	-2278
▁leading	-2279
201	-2280
▁sugg	-2281
▁consist	-2282
▁eight	-2283
▁dam	-2284
▁plan	-2285
▁Mag	-2286
▁schools	-2287
leg	-2288
▁study	-2289
▁front	-2290
iers	-2291
▁eventually	-2292
▁Bay	-2293
ores	-2294
fic	-2295
▁directed	-2296
▁earl	-2297
▁Washington	-2298
▁forces	-2299
▁entire	-2300
here	-2301
viron	-2302
▁training	-2303
▁access	-2304
▁tre	-2305
inese	-2306
hest	-2307
▁sele	-2308
▁involved	-2309
▁22	-2310
▁Institute	-2311
▁condu	-2312
▁bank	-2313
aint	-2314
▁Charles	-2315
atory	-2316
ilities	-2317
▁sound	-2318
▁Its	-2319
▁goal	-2320
▁groups	-2321
▁awarded	-2322
▁Prov	-2323
..	-2324
erous	-2325
▁Gr	-2326
▁able	-2327
rab	-2328
▁flow	-2329
▁Cap	-2330
▁episode	-2331
▁2007	-2332
ability	-2333
arian	-2334
berg	-2335
aged	-2336
▁Law	-2337
▁board	-2338
▁network	-2339
▁bo	-2340
▁relig	-2341
▁2015	-2342
▁Cong	-2343
▁radio	-2344
aker	-2345
▁Alex	-2346
▁inj	-2347
▁Cath	-2348
asons	-2349
▁phot	-2350
▁Western	-2351
▁subsequ	-2352
50	-2353
▁added	-2354
▁performance	-2355
▁liter	-2356
ala	-2357
asing	-2358
bert	-2359
▁Jew	-2360
▁cou	-2361
ware	-2362
▁anim	-2363
▁information	-2364
▁stage	-2365
ani	-2366
▁2016	-2367
▁relation	-2368
▁Mad	-2369
▁know	-2370
ades	-2371
arter	-2372
overnor	-2373
▁Tur	-2374
ength	-2375
▁Angel	-2376
ym	-2377
▁respons	-2378
▁But	-2379
▁countries	-2380
▁test	-2381
▁wid	-2382
▁km	-2383
Ch	-2384
▁Fl	-2385
▁Society	-2386
isl	-2387
–19	-2388
omm	-2389
▁Christian	-2390
▁exec	-2391
▁private	-2392
aries	-2393
▁Sim	-2394
▁health	-2395
▁(18	-2396
▁replaced	-2397
▁Other	-2398
▁provided	-2399
mercial	-2400
▁white	-2401
tt	-2402
▁z	-2403
▁23	-2404
▁either	-2405
ida	-2406
▁past	-2407
ements	-2408
▁court	-2409
▁close	-2410
▁Music	-2411
back	-2412
ply	-2413
▁park	-2414
▁novel	-2415
icated	-2416
▁Canadian	-2417
▁stated	-2418
▁tourn	-2419
▁reb	-2420
ev	-2421
hel	-2422
▁range	-2423
ranch	-2424
▁architect	-2425
incip	-2426
cle	-2427
-2	-2428
▁transfer	-2429
▁meth	-2430
airs	-2431
ned	-2432
▁surv	-2433
▁usually	-2434
oms	-2435
▁2,	-2436
▁see	-2437
atives	-2438
▁model	-2439
▁saw	-2440
rey	-2441
▁prot	-2442
▁capt	-2443
▁killed	-2444
▁Sing	-2445
rought	-2446
▁Minister	-2447
▁fight	-2448
iction	-2449
▁cand	-2450
▁states	-2451
▁African	-2452
▁Commun	-2453
sel	-2454
▁Louis	-2455
▁TV	-2456
▁Academy	-2457
▁central	-2458
▁approx	-2459
▁Sal	-2460
sy	-2461
▁command	-2462
head	-2463
▁above	-2464
▁Serv	-2465
▁competition	-2466
▁mus	-2467
▁stri	-2468
▁Japanese	-2469
▁pur	-2470
▁colla	-2471
▁Chinese	-2472
oice	-2473
utions	-2474
▁situ	-2475
▁Miss	-2476
▁Ir	-2477
▁aud	-2478
▁Grand	-2479
▁Scott	-2480
▁Lat	-2481
▁wind	-2482
▁reached	-2483
▁subject	-2484
▁fav	-2485
▁bar	-2486
▁college	-2487
udd	-2488
▁achie	-2489
▁degree	-2490
▁Met	-2491
▁hit	-2492
▁Mark	-2493
▁respect	-2494
▁Ze	-2495
▁184	-2496
aching	-2497
▁upon	-2498
▁Russian	-2499
atre	-2500
▁Great	-2501
▁discover	-2502
▁civil	-2503
▁fourth	-2504
▁White	-2505
▁anal	-2506
▁dou	-2507
▁polic	-2508
medi	-2509
▁Italian	-2510
hood	-2511
▁sem	-2512
right	-2513
emor	-2514
▁least	-2515
ids	-2516
▁Rad	-2517
sec	-2518
▁Don	-2519
▁clos	-2520
▁accept	-2521
▁decided	-2522
▁occur	-2523
▁shows	-2524
bour	-2525
▁loss	-2526
▁Sk	-2527
▁space	-2528
board	-2529
▁interest	-2530
▁Tex	-2531
vironment	-2532
▁cop	-2533
▁capital	-2534
▁Vict	-2535
▁50	-2536
▁police	-2537
arily	-2538
▁ill	-2539
▁bi	-2540
▁express	-2541
▁Lake	-2542
ems	-2543
▁travel	-2544
▁change	-2545
ving	-2546
▁1990	-2547
▁compos	-2548
▁Up	-2549
▁placed	-2550
iff	-2551
▁constit	-2552
▁Michael	-2553
ishop	-2554
▁night	-2555
▁treat	-2556
▁critic	-2557
▁1980	-2558
▁scored	-2559
▁look	-2560
▁Green	-2561
▁introduced	-2562
▁Spanish	-2563
▁mean	-2564
▁provide	-2565
annel	-2566
▁arg	-2567
▁size	-2568
lo	-2569
-19	-2570
itch	-2571
▁Africa	-2572
30	-2573
▁Dan	-2574
▁1.	-2575
aled	-2576
imate	-2577
idae	-2578
▁sen	-2579
▁Gold	-2580
▁attended	-2581
ka	-2582
▁Del	-2583
za	-2584
▁families	-2585
▁Ham	-2586
uture	-2587
▁center	-2588
aval	-2589
▁aircraft	-2590
▁pot	-2591
▁effort	-2592
ician	-2593
uses	-2594
▁Mer	-2595
serv	-2596
▁viol	-2597
▁fif	-2598
▁say	-2599
▁Henry	-2600
▁connect	-2601
▁Jose	-2602
▁2.	-2603
▁fig	-2604
▁26	-2605
iation	-2606
rd	-2607
mar	-2608
▁rights	-2609
▁rather	-2610
▁meas	-2611
▁Virgin	-2612
▁lo	-2613
face	-2614
▁far	-2615
stant	-2616
apt	-2617
istry	-2618
▁28	-2619
▁river	-2620
▁candid	-2621
vert	-2622
▁2017	-2623
▁miss	-2624
▁plant	-2625
reland	-2626
rup	-2627
▁Penn	-2628
▁Cons	-2629
ography	-2630
▁Francis	-2631
▁Democr	-2632
▁ser	-2633
▁stre	-2634
▁distrib	-2635
▁Film	-2636
▁pay	-2637
▁brought	-2638
▁films	-2639
▁broadcast	-2640
▁female	-2641
▁der	-2642
▁farm	-2643
och	-2644
gen	-2645
▁imp	-2646
▁2000	-2647
▁27	-2648
▁prem	-2649
▁commercial	-2650
road	-2651
urity	-2652
▁Frank	-2653
aves	-2654
▁method	-2655
▁gun	-2656
aland	-2657
"),	-2658
▁instead	-2659
▁Op	-2660
▁Wil	-2661
▁parts	-2662
▁purch	-2663
▁studio	-2664
▁Pet	-2665
pecially	-2666
▁census	-2667
▁hom	-2668
▁almost	-2669
ena	-2670
▁occup	-2671
▁whose	-2672
▁mix	-2673
unk	-2674
▁Tom	-2675
▁compan	-2676
0,000	-2677
▁behind	-2678
▁books	-2679
▁listed	-2680
order	-2681
▁reve	-2682
▁Peter	-2683
icles	-2684
ria	-2685
▁northern	-2686
ona	-2687
▁parent	-2688
▁sil	-2689
▁Dire	-2690
▁Follow	-2691
oul	-2692
▁Richard	-2693
iqu	-2694
lav	-2695
▁cy	-2696
▁deal	-2697
▁Tor	-2698
▁possible	-2699
rael	-2700
▁pred	-2701
▁hard	-2702
olf	-2703
▁Museum	-2704
▁via	-2705
ume	-2706
▁section	-2707
▁Pla	-2708
▁Hill	-2709
▁approximately	-2710
▁account	-2711
▁neigh	-2712
▁Paris	-2713
▁2018	-2714
▁active	-2715
▁southern	-2716
▁Mus	-2717
▁frequ	-2718
ufact	-2719
▁0.	-2720
▁force	-2721
▁trib	-2722
mon	-2723
▁Republic	-2724
▁Catholic	-2725
▁sex	-2726
▁buildings	-2727
▁Kingdom	-2728
▁2010,	-2729
embly	-2730
rown	-2731
▁mass	-2732
▁Football	-2733
ump	-2734
▁gold	-2735
▁Following	-2736
▁division	-2737
▁jud	-2738
▁winning	-2739
▁exhib	-2740
asket	-2741
▁changed	-2742
▁relationship	-2743
▁previously	-2744
▁units	-2745
▁Texas	-2746
▁championship	-2747
▁neg	-2748
▁Smith	-2749
▁1970	-2750
lam	-2751
lim	-2752
▁Victor	-2753
▁defeated	-2754
▁plann	-2755
tained	-2756
▁data	-2757
uter	-2758
▁Lab	-2759
▁outside	-2760
▁Commission	-2761
▁Not	-2762
▁My	-2763
▁tax	-2764
▁Ter	-2765
▁tournament	-2766
oring	-2767
▁opt	-2768
pan	-2769
▁lik	-2770
▁soon	-2771
▁railway	-2772
▁bur	-2773
idents	-2774
▁cut	-2775
▁Arch	-2776
hi	-2777
asc	-2778
▁fall	-2779
▁Bu	-2780
▁chart	-2781
edy	-2782
▁runs	-2783
▁regard	-2784
▁Kore	-2785
,000	-2786
▁type	-2787
▁Im	-2788
▁Sov	-2789
▁Mont	-2790
▁represented	-2791
▁Sant	-2792
▁itself	-2793
▁organization	-2794
olk	-2795
▁Most	-2796
▁industry	-2797
▁action	-2798
▁coast	-2799
▁draw	-2800
ground	-2801
▁island	-2802
like	-2803
▁allowed	-2804
▁Lu	-2805
▁media	-2806
▁writing	-2807
▁Ma	-2808
▁sym	-2809
elt	-2810
▁ended	-2811
alled	-2812
▁2011,	-2813
irth	-2814
▁Two	-2815
▁Cal	-2816
▁nomin	-2817
▁movement	-2818
ini	-2819
oint	-2820
ibrary	-2821
▁ever	-2822
▁2012,	-2823
ites	-2824
rig	-2825
erve	-2826
inent	-2827
unn	-2828
str	-2829
oper	-2830
▁beginning	-2831
based	-2832
▁object	-2833
▁Second	-2834
kn	-2835
▁Mel	-2836
▁owned	-2837
ror	-2838
▁plays	-2839
▁ran	-2840
▁sch	-2841
ancial	-2842
▁pers	-2843
rel	-2844
▁ask	-2845
▁esc	-2846
–2	-2847
rial	-2848
▁length	-2849
▁lower	-2850
▁Wal	-2851
elled	-2852
retary	-2853
▁taking	-2854
▁Swed	-2855
irm	-2856
▁summer	-2857
▁2005	-2858
▁Carol	-2859
▁spent	-2860
▁Bur	-2861
▁2014,	-2862
gr	-2863
oz	-2864
clus	-2865
▁Camp	-2866
▁determ	-2867
▁little	-2868
▁Ben	-2869
▁Trans	-2870
▁2013,	-2871
▁Cont	-2872
▁grand	-2873
abit	-2874
▁Committee	-2875
▁qualif	-2876
▁Best	-2877
▁document	-2878
▁primary	-2879
enced	-2880
▁too	-2881
▁Inter	-2882
duction	-2883
▁artist	-2884
▁especially	-2885
▁Israel	-2886
uty	-2887
▁Government	-2888
▁Los	-2889
▁investig	-2890
–0	-2891
ota	-2892
▁2015,	-2893
▁40	-2894
▁anc	-2895
▁princip	-2896
▁whom	-2897
ires	-2898
▁king	-2899
▁Year	-2900
▁imm	-2901
▁stop	-2902
▁journal	-2903
iety	-2904
▁Ireland	-2905
heast	-2906
▁Day	-2907
iences	-2908
▁according	-2909
▁wood	-2910
▁systems	-2911
ension	-2912
▁towards	-2913
▁Rock	-2914
ita	-2915
ows	-2916
▁natural	-2917
istan	-2918
porary	-2919
▁function	-2920
▁Rev	-2921
▁required	-2922
icago	-2923
thlet	-2924
▁cred	-2925
▁higher	-2926
▁structure	-2927
▁below	-2928
▁gir	-2929
▁""	-2930
▁Zealand	-2931
▁oppos	-2932
SA	-2933
▁traditional	-2934
▁Fin	-2935
▁block	-2936
ounter	-2937
▁Just	-2938
▁Fore	-2939
▁noted	-2940
ios	-2941
▁sus	-2942
▁transl	-2943
...	-2944
rative	-2945
ye	-2946
10	-2947
▁2004	-2948
▁highest	-2949
▁Cast	-2950
unt	-2951
▁defend	-2952
▁Records	-2953
ready	-2954
▁army	-2955
▁food	-2956
▁Festival	-2957
▁break	-2958
rack	-2959
▁generally	-2960
▁except	-2961
▁complex	-2962
▁Many	-2963
▁God	-2964
hing	-2965
orpor	-2966
▁observ	-2967
fit	-2968
aps	-2969
pected	-2970
lant	-2971
▁1960	-2972
▁2016,	-2973
▁Flor	-2974
atal	-2975
▁Saint	-2976
▁instit	-2977
▁money	-2978
▁concern	-2979
▁independent	-2980
▁manufact	-2981
ises	-2982
▁leader	-2983
▁studies	-2984
adium	-2985
▁cele	-2986
umn	-2987
▁prison	-2988
ada	-2989
▁enter	-2990
▁means	-2991
▁Sir	-2992
▁multip	-2993
ola	-2994
▁Soviet	-2995
▁remov	-2996
▁quest	-2997
▁Congress	-2998
▁operations	-2999
▁plat	-3000
▁come	-3001
ano	-3002
▁closed	-3003
▁future	-3004
▁2009,	-3005
▁Board	-3006
▁conv	-3007
▁Super	-3008
▁route	-3009
▁standard	-3010
▁key	-3011
▁magazine	-3012
▁county	-3013
▁battle	-3014
▁property	-3015
▁collection	-3016
va	-3017
▁self	-3018
asion	-3019
▁teac	-3020
▁destroy	-3021
▁ge	-3022
▁29	-3023
asketball	-3024
▁thus	-3025
oys	-3026
ocal	-3027
▁sometimes	-3028
NA	-3029
ergy	-3030
▁Women	-3031
▁2017,	-3032
wer	-3033
cher	-3034
▁sett	-3035
itar	-3036
▁studied	-3037
▁earlier	-3038
▁Rob	-3039
").	-3040
chan	-3041
ibility	-3042
▁personal	-3043
▁lived	-3044
ylvan	-3045
▁student	-3046
▁surround	-3047
▁Kar	-3048
inner	-3049
not	-3050
▁Educ	-3051
▁Arts	-3052
ils	-3053
▁Histor	-3054
▁Brown	-3055
▁launched	-3056
▁certain	-3057
▁numerous	-3058
▁contains	-3059
oo	-3060
▁Pac	-3061
▁Play	-3062
aring	-3063
aught	-3064
▁entered	-3065
▁anti	-3066
ficult	-3067
▁opening	-3068
sych	-3069
▁adop	-3070
▁don	-3071
▁183	-3072
▁nar	-3073
▁companies	-3074
olar	-3075
oid	-3076
▁commission	-3077
venue	-3078
▁Greek	-3079
▁settle	-3080
▁Olympics	-3081
▁Force	-3082
▁older	-3083
▁sat	-3084
iter	-3085
▁dram	-3086
usband	-3087
▁Angeles	-3088
▁Navy	-3089
▁income	-3090
▁newsp	-3091
▁related	-3092
overs	-3093
▁Du	-3094
▁applic	-3095
▁practice	-3096
▁ball	-3097
▁2019	-3098
TV	-3099
plied	-3100
▁territ	-3101
▁2008,	-3102
oke	-3103
▁cal	-3104
utch	-3105
▁Mil	-3106
▁difficult	-3107
enc	-3108
known	-3109
▁Italy	-3110
▁Parliament	-3111
▁increased	-3112
oma	-3113
▁Mr	-3114
▁lack	-3115
▁already	-3116
mark	-3117
▁Summer	-3118
▁course	-3119
▁Chicago	-3120
5%	-3121
vey	-3122
▁location	-3123
▁issues	-3124
▁running	-3125
▁Gra	-3126
▁Mexico	-3127
▁Found	-3128
▁(200	-3129
▁Scot	-3130
well	-3131
▁staff	-3132
ura	-3133
▁super	-3134
ands	-3135
ylvania	-3136
▁percent	-3137
▁appearance	-3138
▁Virginia	-3139
▁move	-3140
2)	-3141
▁2018,	-3142
▁prior	-3143
▁date	-3144
▁Championships	-3145
▁clear	-3146
uth	-3147
▁Georg	-3148
3)	-3149
▁Bank	-3150
▁pie	-3151
arriage	-3152
▁big	-3153
▁western	-3154
▁den	-3155
rying	-3156
ban	-3157
teen	-3158
lag	-3159
itiz	-3160
▁senior	-3161
▁woman	-3162
▁score	-3163
het	-3164
action	-3165
▁keep	-3166
▁better	-3167
▁hor	-3168
▁wide	-3169
▁Later	-3170
anded	-3171
▁Bo	-3172
writ	-3173
uz	-3174
ether	-3175
▁becoming	-3176
▁environment	-3177
ado	-3178
▁matches	-3179
▁Under	-3180
▁victory	-3181
▁majority	-3182
▁annual	-3183
▁mountain	-3184
▁terms	-3185
▁mur	-3186
▁selected	-3187
igan	-3188
▁characters	-3189
▁link	-3190
▁associated	-3191
▁seat	-3192
▁31	-3193
ams	-3194
▁goals	-3195
▁scient	-3196
▁che	-3197
▁famous	-3198
▁thought	-3199
▁emer	-3200
▁Fort	-3201
▁husband	-3202
▁prob	-3203
▁minor	-3204
den	-3205
inct	-3206
▁additional	-3207
▁Mass	-3208
ulated	-3209
▁Kn	-3210
▁unit	-3211
▁artists	-3212
uments	-3213
reme	-3214
▁singer	-3215
▁caused	-3216
▁Squ	-3217
▁musical	-3218
▁Bet	-3219
eds	-3220
▁Cur	-3221
▁emb	-3222
▁feature	-3223
iled	-3224
▁mission	-3225
ste	-3226
▁manager	-3227
▁decision	-3228
▁Old	-3229
▁cust	-3230
▁Joseph	-3231
mitted	-3232
▁3,	-3233
FL	-3234
▁retired	-3235
1)	-3236
▁centre	-3237
yr	-3238
▁writer	-3239
▁sea	-3240
▁decl	-3241
▁transport	-3242
▁competed	-3243
▁Liber	-3244
▁2007,	-3245
zil	-3246
▁programs	-3247
▁immedi	-3248
ricult	-3249
▁gra	-3250
▁Emp	-3251
inary	-3252
▁attend	-3253
▁genus	-3254
▁drop	-3255
▁love	-3256
▁exc	-3257
lying	-3258
▁abs	-3259
▁equip	-3260
▁forced	-3261
▁concept	-3262
airman	-3263
ault	-3264
▁Penns	-3265
▁dig	-3266
▁activities	-3267
▁initially	-3268
▁bene	-3269
▁complete	-3270
▁veh	-3271
▁trade	-3272
▁Leg	-3273
izing	-3274
▁passed	-3275
ingu	-3276
▁Wales	-3277
▁create	-3278
▁Northern	-3279
▁limited	-3280
▁operated	-3281
▁interview	-3282
▁Er	-3283
▁financial	-3284
5)	-3285
▁municipality	-3286
▁di	-3287
eg	-3288
▁dom	-3289
▁remains	-3290
cript	-3291
▁economic	-3292
▁squad	-3293
onn	-3294
▁threat	-3295
In	-3296
▁Mur	-3297
enth	-3298
▁Battle	-3299
▁mostly	-3300
▁Games	-3301
▁Mill	-3302
▁supported	-3303
etic	-3304
▁legal	-3305
▁give	-3306
▁Pennsylvania	-3307
hy	-3308
▁Wood	-3309
▁Russia	-3310
▁If	-3311
▁Valley	-3312
bers	-3313
▁er	-3314
plement	-3315
▁changes	-3316
4)	-3317
bur	-3318
wide	-3319
▁Province	-3320
ift	-3321
▁going	-3322
ux	-3323
▁particularly	-3324
down	-3325
▁Pan	-3326
Amer	-3327
▁collabor	-3328
ockey	-3329
▁quick	-3330
anced	-3331
▁forest	-3332
▁ens	-3333
▁science	-3334
▁Sl	-3335
▁et	-3336
▁job	-3337
▁Mos	-3338
▁serving	-3339
0%	-3340
▁Florida	-3341
▁pen	-3342
▁hours	-3343
▁Oper	-3344
▁accom	-3345
▁shown	-3346
▁religious	-3347
▁Gar	-3348
▁Bill	-3349
▁quarter	-3350
▁indic	-3351
▁Irish	-3352
▁train	-3353
change	-3354
▁saf	-3355
▁chief	-3356
▁evidence	-3357
▁claimed	-3358
▁hot	-3359
earch	-3360
▁Go	-3361
▁edition	-3362
vention	-3363
standing	-3364
▁Their	-3365
▁fle	-3366
isions	-3367
▁shot	-3368
▁Den	-3369
▁amount	-3370
▁Atlant	-3371
▁nine	-3372
▁lines	-3373
▁discuss	-3374
▁establish	-3375
▁names	-3376
▁sum	-3377
▁larger	-3378
▁subsequently	-3379
ublican	-3380
▁Iran	-3381
▁cases	-3382
▁got	-3383
unior	-3384
▁issue	-3385
▁text	-3386
ky	-3387
▁Fer	-3388
▁ded	-3389
▁news	-3390
▁management	-3391
▁Techn	-3392
rief	-3393
▁Hot	-3394
▁Win	-3395
stra	-3396
▁university	-3397
▁results	-3398
▁Pre	-3399
▁consider	-3400
▁editor	-3401
6)	-3402
▁CD	-3403
▁officer	-3404
FA	-3405
cel	-3406
▁longer	-3407
▁culture	-3408
▁increase	-3409
▁raised	-3410
▁Sur	-3411
ua	-3412
inals	-3413
▁weeks	-3414
▁Education	-3415
▁helped	-3416
▁Brazil	-3417
▁stay	-3418
▁referred	-3419
8)	-3420
selves	-3421
▁medical	-3422
▁themselves	-3423
▁Columb	-3424
▁earned	-3425
7)	-3426
▁believed	-3427
▁takes	-3428
▁word	-3429
ider	-3430
▁Ke	-3431
▁today	-3432
▁failed	-3433
house	-3434
ternal	-3435
▁leaving	-3436
▁meeting	-3437
▁rate	-3438
gn	-3439
▁minutes	-3440
▁presented	-3441
▁Ha	-3442
▁happ	-3443
see	-3444
▁sports	-3445
using	-3446
ero	-3447
ras	-3448
▁rap	-3449
▁birth	-3450
▁Ros	-3451
▁federal	-3452
▁Aut	-3453
azz	-3454
▁offered	-3455
▁Public	-3456
cement	-3457
▁instr	-3458
bon	-3459
itt	-3460
▁composed	-3461
▁Martin	-3462
▁bound	-3463
spe	-3464
▁2019,	-3465
▁Chief	-3466
▁guitar	-3467
▁complet	-3468
▁arm	-3469
▁prop	-3470
▁Profess	-3471
Th	-3472
▁Sa	-3473
▁arrest	-3474
raw	-3475
▁Southern	-3476
▁2003	-3477
▁medal	-3478
▁norm	-3479
▁Fred	-3480
▁screen	-3481
60	-3482
▁parents	-3483
▁Despite	-3484
▁Ann	-3485
▁lay	-3486
▁That	-3487
▁variety	-3488
▁Pacific	-3489
▁Arab	-3490
▁concer	-3491
gl	-3492
ees	-3493
roll	-3494
anda	-3495
▁Class	-3496
▁uses	-3497
▁altern	-3498
atively	-3499
onse	-3500
imb	-3501
▁consists	-3502
▁soft	-3503
▁#	-3504
▁individuals	-3505
▁step	-3506
▁Spe	-3507
BA	-3508
▁carried	-3509
isation	-3510
▁eastern	-3511
iring	-3512
▁specific	-3513
ients	-3514
▁Awards	-3515
▁chall	-3516
▁seasons	-3517
▁Lord	-3518
▁energy	-3519
iance	-3520
▁Spain	-3521
▁vir	-3522
▁forms	-3523
aches	-3524
▁status	-3525
▁ant	-3526
▁foreign	-3527
▁inte	-3528
▁provides	-3529
▁inn	-3530
ulf	-3531
▁du	-3532
▁Do	-3533
▁Mic	-3534
▁insp	-3535
▁policy	-3536
▁box	-3537
▁Sar	-3538
ato	-3539
uan	-3540
rim	-3541
▁belong	-3542
▁middle	-3543
▁2006,	-3544
▁mention	-3545
▁remaining	-3546
▁Mountain	-3547
▁phil	-3548
▁room	-3549
▁arran	-3550
▁Service	-3551
▁Assembly	-3552
ss	-3553
▁sister	-3554
▁Sun	-3555
▁visit	-3556
▁Cla	-3557
▁regional	-3558
▁mach	-3559
ette	-3560
▁overall	-3561
ging	-3562
▁legisl	-3563
bury	-3564
ati	-3565
▁Jim	-3566
▁stations	-3567
ties	-3568
▁Work	-3569
▁sequ	-3570
itan	-3571
▁troops	-3572
imum	-3573
▁List	-3574
▁label	-3575
ication	-3576
▁separate	-3577
bre	-3578
uge	-3579
mond	-3580
▁platform	-3581
▁2002	-3582
▁always	-3583
▁<	-3584
▁surface	-3585
▁Mo	-3586
▁colon	-3587
obal	-3588
rast	-3589
▁4,	-3590
▁Sil	-3591
enty	-3592
▁latter	-3593
▁mainly	-3594
reater	-3595
▁acquired	-3596
▁Haw	-3597
ols	-3598
▁detail	-3599
▁3.	-3600
▁poet	-3601
urban	-3602
arters	-3603
isk	-3604
ón	-3605
▁estim	-3606
80	-3607
▁theory	-3608
▁square	-3609
▁McC	-3610
ić	-3611
▁Ol	-3612
▁Mod	-3613
▁graduated	-3614
▁batt	-3615
▁council	-3616
▁Both	-3617
▁proposed	-3618
▁Sub	-3619
▁Oh	-3620
▁turned	-3621
inet	-3622
▁fort	-3623
▁done	-3624
▁Science	-3625
▁Jewish	-3626
ario	-3627
▁finally	-3628
▁movie	-3629
▁recording	-3630
▁meaning	-3631
pre	-3632
▁starting	-3633
▁appears	-3634
▁experience	-3635
▁recent	-3636
▁Poland	-3637
▁Pak	-3638
▁Railway	-3639
iy	-3640
▁require	-3641
▁1950	-3642
▁eas	-3643
▁bring	-3644
ady	-3645
▁2001	-3646
▁Times	-3647
▁Britain	-3648
▁continu	-3649
▁demon	-3650
▁targ	-3651
▁Out	-3652
▁Cam	-3653
▁More	-3654
▁lic	-3655
▁houses	-3656
▁prevent	-3657
▁Rou	-3658
▁Edward	-3659
9)	-3660
▁Bus	-3661
▁adj	-3662
▁Director	-3663
aters	-3664
American	-3665
▁Over	-3666
▁bomb	-3667
▁society	-3668
▁Republican	-3669
▁might	-3670
▁native	-3671
▁multiple	-3672
▁Vol	-3673
▁poor	-3674
uman	-3675
▁Tour	-3676
itation	-3677
ih	-3678
▁Ro	-3679
▁male	-3680
▁source	-3681
iro	-3682
aily	-3683
▁heavy	-3684
irit	-3685
▁succeed	-3686
▁temper	-3687
ga	-3688
▁depart	-3689
▁Inc	-3690
ffic	-3691
▁promoted	-3692
▁department	-3693
gian	-3694
▁pil	-3695
▁brief	-3696
▁nearly	-3697
40	-3698
▁Queen	-3699
▁Democratic	-3700
▁Governor	-3701
ipl	-3702
▁influence	-3703
▁tracks	-3704
▁problems	-3705
▁vote	-3706
▁hospital	-3707
▁Dou	-3708
▁Jer	-3709
▁Ill	-3710
▁bridge	-3711
ken	-3712
▁Ele	-3713
▁Ev	-3714
▁citiz	-3715
▁learn	-3716
ously	-3717
▁marriage	-3718
▁technology	-3719
▁chap	-3720
▁Research	-3721
iana	-3722
▁Lee	-3723
pose	-3724
▁academ	-3725
▁peak	-3726
▁crew	-3727
▁Big	-3728
▁Empire	-3729
▁Mah	-3730
▁Mat	-3731
▁responsible	-3732
▁Carl	-3733
▁enough	-3734
▁Fre	-3735
▁log	-3736
▁celebr	-3737
▁depend	-3738
▁Conference	-3739
ache	-3740
itude	-3741
▁professor	-3742
▁categ	-3743
▁(201	-3744
▁$1	-3745
▁webs	-3746
▁arrived	-3747
arden	-3748
oir	-3749
▁Star	-3750
▁nearby	-3751
lah	-3752
▁Dutch	-3753
▁organiz	-3754
▁Gal	-3755
▁Radio	-3756
▁makes	-3757
▁mem	-3758
▁charg	-3759
▁Bow	-3760
ares	-3761
play	-3762
▁ships	-3763
▁Carolina	-3764
▁eth	-3765
lit	-3766
▁Spr	-3767
▁historical	-3768
emporary	-3769
▁constructed	-3770
▁182	-3771
▁conditions	-3772
▁Men	-3773
▁serve	-3774
▁despite	-3775
▁(199	-3776
▁partn	-3777
▁politician	-3778
▁operation	-3779
▁ver	-3780
▁increasing	-3781
▁managed	-3782
▁=	-3783
ession	-3784
▁response	-3785
ensity	-3786
▁Cro	-3787
▁asked	-3788
▁expla	-3789
▁Long	-3790
▁Jud	-3791
uries	-3792
II	-3793
▁los	-3794
▁elections	-3795
▁Def	-3796
▁Another	-3797
▁cell	-3798
3%	-3799
▁Prog	-3800
▁Creek	-3801
wan	-3802
▁Eastern	-3803
▁Hel	-3804
▁cities	-3805
mission	-3806
▁Book	-3807
col	-3808
ny	-3809
▁0	-3810
▁£	-3811
▁producer	-3812
▁Main	-3813
▁Rh	-3814
▁Line	-3815
▁affect	-3816
esh	-3817
▁necess	-3818
▁plans	-3819
▁told	-3820
▁fifth	-3821
▁shoot	-3822
vement	-3823
▁records	-3824
▁discovered	-3825
▁issued	-3826
ify	-3827
▁Land	-3828
▁products	-3829
▁diss	-3830
▁capac	-3831
wa	-3832
▁incorpor	-3833
antry	-3834
ugby	-3835
oura	-3836
undred	-3837
iger	-3838
inated	-3839
▁households	-3840
ki	-3841
ysis	-3842
ao	-3843
▁fellow	-3844
▁leave	-3845
▁saying	-3846
▁Latin	-3847
▁pick	-3848
war	-3849
▁directly	-3850
▁cause	-3851
▁Cle	-3852
▁face	-3853
▁cultural	-3854
▁sched	-3855
▁levels	-3856
ledge	-3857
▁extended	-3858
▁mechan	-3859
put	-3860
▁whole	-3861
▁Social	-3862
nding	-3863
▁III	-3864
▁dise	-3865
▁elements	-3866
unction	-3867
▁decla	-3868
▁primarily	-3869
▁transferred	-3870
▁passeng	-3871
▁How	-3872
▁har	-3873
peror	-3874
add	-3875
oston	-3876
▁Jo	-3877
bit	-3878
ali	-3879
▁nature	-3880
▁Bas	-3881
▁wanted	-3882
umed	-3883
bl	-3884
emorial	-3885
2%	-3886
▁comment	-3887
▁Tw	-3888
▁i	-3889
▁basketball	-3890
▁sn	-3891
▁females	-3892
▁covered	-3893
▁Young	-3894
▁appearances	-3895
▁181	-3896
▁Arg	-3897
light	-3898
▁domin	-3899
▁residents	-3900
▁oil	-3901
▁border	-3902
poration	-3903
▁lives	-3904
RA	-3905
▁here	-3906
▁likely	-3907
▁psych	-3908
▁Middle	-3909
▁our	-3910
▁65	-3911
▁firm	-3912
▁prin	-3913
▁Are	-3914
▁Tri	-3915
▁think	-3916
1%	-3917
4%	-3918
▁progress	-3919
▁Bob	-3920
iant	-3921
▁Scotland	-3922
omer	-3923
▁BC	-3924
▁Bh	-3925
ental	-3926
▁Theatre	-3927
▁lies	-3928
▁pra	-3929
ersey	-3930
ittle	-3931
▁180	-3932
fect	-3933
▁participated	-3934
yan	-3935
▁brand	-3936
▁5,	-3937
itted	-3938
▁honor	-3939
▁Jul	-3940
▁corn	-3941
▁whether	-3942
▁Station	-3943
rice	-3944
illed	-3945
ca	-3946
8%	-3947
▁kind	-3948
ansas	-3949
▁numbers	-3950
▁Bre	-3951
▁Luc	-3952
▁youth	-3953
7%	-3954
▁idea	-3955
▁median	-3956
▁walk	-3957
igr	-3958
▁Av	-3959
▁Also	-3960
▁Portug	-3961
▁museum	-3962
6%	-3963
▁friends	-3964
▁newspaper	-3965
osh	-3966
▁paper	-3967
kins	-3968
▁sla	-3969
▁spread	-3970
▁br	-3971
▁pow	-3972
gypt	-3973
rupt	-3974
awa	-3975
▁univers	-3976
▁ess	-3977
ias	-3978
portun	-3979
▁province	-3980
▁display	-3981
▁value	-3982
ador	-3983
▁Civil	-3984
▁Jones	-3985
▁Foundation	-3986
▁speed	-3987
▁Kent	-3988
▁neighbor	-3989
▁double	-3990
▁grew	-3991
▁Coast	-3992
rich	-3993
70	-3994
resp	-3995
▁Ram	-3996
▁master	-3997
class	-3998
▁Williams	-3999
▁premi	-4000
▁Francisco	-4001
uten	-4002
ervation	-4003
▁Inf	-4004
je	-4005
▁address	-4006
▁ult	-4007
▁Prince	-4008
ims	-4009
▁notable	-4010
▁share	-4011
▁initial	-4012
▁inh	-4013
▁Hy	-4014
▁heart	-4015
▁reason	-4016
▁actor	-4017
▁chem	-4018
▁2010.	-4019
▁Bul	-4020
▁People	-4021
▁produce	-4022
▁officially	-4023
▁continue	-4024
▁Broad	-4025
Ar	-4026
iano	-4027
▁highly	-4028
▁Asian	-4029
istics	-4030
▁Bor	-4031
▁foot	-4032
▁administrative	-4033
velopment	-4034
▁parish	-4035
▁Major	-4036
AS	-4037
▁So	-4038
burgh	-4039
gar	-4040
amily	-4041
▁quickly	-4042
more	-4043
enes	-4044
▁Sund	-4045
onic	-4046
ications	-4047
▁Tro	-4048
ech	-4049
cean	-4050
▁candidate	-4051
cont	-4052
BS	-4053
▁prominent	-4054
▁deep	-4055
▁2005,	-4056
▁Dar	-4057
▁projects	-4058
▁headqu	-4059
▁Ty	-4060
aya	-4061
▁Centre	-4062
▁conver	-4063
▁dark	-4064
▁revealed	-4065
▁Boston	-4066
▁renamed	-4067
▁drug	-4068
ulations	-4069
▁Prem	-4070
▁—	-4071
▁Michigan	-4072
isher	-4073
▁Series	-4074
▁divided	-4075
▁Matt	-4076
▁follows	-4077
▁Sat	-4078
▁races	-4079
aped	-4080
AC	-4081
ully	-4082
rison	-4083
▁Order	-4084
nes	-4085
▁Mot	-4086
abeth	-4087
tainment	-4088
▁FC	-4089
▁Team	-4090
▁smaller	-4091
▁maintain	-4092
▁Ohio	-4093
▁Secretary	-4094
▁autom	-4095
▁1999	-4096
▁scene	-4097
▁ancient	-4098
▁basis	-4099
ips	-4100
▁talk	-4101
▁Open	-4102
▁dead	-4103
▁Philipp	-4104
▁Egypt	-4105
▁path	-4106
▁conducted	-4107
▁Hung	-4108
▁Jac	-4109
▁intended	-4110
▁nation	-4111
akers	-4112
adel	-4113
▁growth	-4114
▁rural	-4115
osoph	-4116
▁stories	-4117
nds	-4118
▁officers	-4119
▁Stan	-4120
▁confl	-4121
▁soldiers	-4122
mir	-4123
▁Johnson	-4124
▁alongside	-4125
phy	-4126
▁ordered	-4127
▁words	-4128
▁Islam	-4129
▁Health	-4130
itled	-4131
▁Os	-4132
ables	-4133
▁Charl	-4134
▁Ver	-4135
▁179	-4136
▁yet	-4137
9%	-4138
▁removed	-4139
▁extra	-4140
▁7,	-4141
▁channel	-4142
ocated	-4143
▁Ly	-4144
▁rule	-4145
Le	-4146
▁stars	-4147
▁opportun	-4148
▁Hon	-4149
▁Bal	-4150
▁collect	-4151
ellig	-4152
▁sal	-4153
lace	-4154
no	-4155
▁Sand	-4156
iated	-4157
▁Tod	-4158
▁Earth	-4159
▁Senate	-4160
▁BBC	-4161
▁News	-4162
▁pan	-4163
icted	-4164
▁positive	-4165
▁Asia	-4166
▁letter	-4167
ko	-4168
bed	-4169
▁purs	-4170
dney	-4171
▁Ur	-4172
▁planned	-4173
▁Wind	-4174
▁immediately	-4175
orning	-4176
vis	-4177
▁potential	-4178
▁Camb	-4179
▁Az	-4180
▁Avenue	-4181
▁Add	-4182
thing	-4183
rif	-4184
▁touch	-4185
▁purchased	-4186
ounds	-4187
▁Cross	-4188
▁moving	-4189
▁commonly	-4190
▁implement	-4191
▁dedicated	-4192
▁Sea	-4193
law	-4194
▁Uk	-4195
oud	-4196
aging	-4197
▁historic	-4198
isters	-4199
▁laws	-4200
▁places	-4201
▁effects	-4202
ela	-4203
▁color	-4204
▁defeat	-4205
stone	-4206
▁Engine	-4207
▁Scottish	-4208
▁solo	-4209
▁miles	-4210
▁capacity	-4211
ources	-4212
▁Tim	-4213
aka	-4214
▁website	-4215
▁Ox	-4216
▁security	-4217
▁Polish	-4218
astic	-4219
▁Columbia	-4220
win	-4221
zy	-4222
▁Dis	-4223
▁Dev	-4224
▁Van	-4225
▁overs	-4226
ronic	-4227
▁sail	-4228
▁System	-4229
▁6,	-4230
▁efforts	-4231
▁Jes	-4232
▁Post	-4233
▁ang	-4234
▁Born	-4235
▁question	-4236
met	-4237
▁wor	-4238
irmed	-4239
▁Of	-4240
oned	-4241
▁workers	-4242
▁Step	-4243
▁Each	-4244
ieuten	-4245
▁Mount	-4246
▁18,	-4247
▁comes	-4248
▁Four	-4249
inem	-4250
▁weap	-4251
▁2011.	-4252
ube	-4253
▁1998	-4254
▁Mid	-4255
chester	-4256
ricket	-4257
▁Sol	-4258
▁cle	-4259
Al	-4260
▁Eliz	-4261
▁direction	-4262
ja	-4263
▁inside	-4264
izes	-4265
▁settlement	-4266
obile	-4267
▁Office	-4268
▁15,	-4269
ella	-4270
▁Di	-4271
rance	-4272
ila	-4273
▁counter	-4274
▁protect	-4275
▁needed	-4276
yard	-4277
ima	-4278
iga	-4279
▁destroyed	-4280
▁Head	-4281
▁gas	-4282
iest	-4283
dro	-4284
▁Top	-4285
▁Corps	-4286
ns	-4287
▁recently	-4288
can	-4289
▁Est	-4290
▁contact	-4291
▁types	-4292
▁withd	-4293
▁bird	-4294
25	-4295
▁housing	-4296
▁treatment	-4297
▁upper	-4298
▁8,	-4299
▁feel	-4300
▁ability	-4301
▁repe	-4302
▁Mu	-4303
▁Alexander	-4304
▁facilities	-4305
▁attention	-4306
edd	-4307
▁problem	-4308
alle	-4309
▁reach	-4310
emy	-4311
▁featuring	-4312
▁Gall	-4313
AF	-4314
▁widely	-4315
anks	-4316
▁agricult	-4317
▁assigned	-4318
▁Tem	-4319
▁focus	-4320
▁Georgia	-4321
▁forward	-4322
▁street	-4323
▁reform	-4324
ora	-4325
▁Muslim	-4326
▁impact	-4327
▁activity	-4328
▁2012.	-4329
grad	-4330
▁gain	-4331
stein	-4332
▁gained	-4333
▁behav	-4334
▁offers	-4335
▁article	-4336
ederation	-4337
▁adopted	-4338
hat	-4339
▁Sydney	-4340
▁computer	-4341
ira	-4342
▁store	-4343
▁physical	-4344
▁/	-4345
▁floor	-4346
▁respectively	-4347
▁stra	-4348
▁Historic	-4349
▁Hospital	-4350
▁administration	-4351
istered	-4352
500	-4353
▁agreed	-4354
▁branch	-4355
▁giving	-4356
▁Jackson	-4357
ening	-4358
▁winner	-4359
nam	-4360
apers	-4361
▁serves	-4362
▁uns	-4363
▁Song	-4364
greg	-4365
▁Cy	-4366
▁Tam	-4367
▁lif	-4368
▁favor	-4369
ieutenant	-4370
▁largely	-4371
rovers	-4372
▁Far	-4373
▁executive	-4374
▁hundred	-4375
▁organized	-4376
▁nuc	-4377
▁probably	-4378
▁1996	-4379
▁rare	-4380
▁2013.	-4381
▁roles	-4382
▁recover	-4383
ampions	-4384
▁quality	-4385
▁Jean	-4386
ennis	-4387
inois	-4388
▁60	-4389
▁Show	-4390
▁slow	-4391
etts	-4392
▁declared	-4393
▁assistant	-4394
▁adult	-4395
▁estimated	-4396
▁seek	-4397
▁conne	-4398
▁charge	-4399
▁2014.	-4400
hew	-4401
▁Ash	-4402
▁online	-4403
▁captured	-4404
umber	-4405
▁Love	-4406
▁streng	-4407
▁typically	-4408
▁green	-4409
▁mic	-4410
▁ut	-4411
▁dyn	-4412
▁rat	-4413
▁card	-4414
respond	-4415
▁2009.	-4416
ogue	-4417
▁Ok	-4418
▁wing	-4419
▁approach	-4420
▁Bern	-4421
▁accepted	-4422
fort	-4423
ried	-4424
▁leaves	-4425
▁suffered	-4426
ski	-4427
▁format	-4428
▁academic	-4429
▁Ray	-4430
uting	-4431
▁10,	-4432
▁Ken	-4433
onia	-4434
▁stone	-4435
▁leaders	-4436
▁12,	-4437
duce	-4438
▁distance	-4439
▁operating	-4440
illy	-4441
▁Tre	-4442
Sh	-4443
▁blood	-4444
▁metal	-4445
ulpt	-4446
ilding	-4447
▁Water	-4448
▁Andrew	-4449
▁Cr	-4450
▁Three	-4451
▁perman	-4452
▁clubs	-4453
▁Jersey	-4454
ption	-4455
▁therefore	-4456
▁thr	-4457
▁languages	-4458
yer	-4459
▁Bang	-4460
▁footballer	-4461
▁titled	-4462
▁episodes	-4463
gu	-4464
▁estate	-4465
▁45	-4466
▁2015.	-4467
▁reviews	-4468
▁1930	-4469
▁Sever	-4470
ograp	-4471
▁Kong	-4472
▁(,	-4473
▁Route	-4474
▁Professor	-4475
▁Viet	-4476
enge	-4477
▁symb	-4478
rics	-4479
▁Gh	-4480
includ	-4481
▁heav	-4482
▁occurred	-4483
pton	-4484
▁Ott	-4485
▁target	-4486
▁compared	-4487
▁cerem	-4488
▁Card	-4489
▁Max	-4490
▁Brook	-4491
ione	-4492
▁Fe	-4493
▁max	-4494
ropical	-4495
onto	-4496
▁Illinois	-4497
▁electric	-4498
▁communities	-4499
▁Ell	-4500
▁singles	-4501
▁Mas	-4502
▁combined	-4503
▁Field	-4504
▁albums	-4505
▁elev	-4506
▁Federal	-4507
▁resulted	-4508
ancy	-4509
ounded	-4510
▁Ak	-4511
▁equipment	-4512
▁beat	-4513
▁Kenn	-4514
oration	-4515
onents	-4516
▁awards	-4517
achus	-4518
▁Pen	-4519
▁fa	-4520
▁drama	-4521
lab	-4522
▁ice	-4523
▁24,	-4524
▁semi	-4525
12	-4526
▁coin	-4527
▁dance	-4528
▁Berlin	-4529
▁territory	-4530
▁Argent	-4531
icient	-4532
▁Before	-4533
▁amb	-4534
▁1997	-4535
with	-4536
rical	-4537
ricts	-4538
akh	-4539
▁Gir	-4540
▁Hong	-4541
.)	-4542
ropol	-4543
▁concent	-4544
▁table	-4545
▁agreement	-4546
da	-4547
▁fr	-4548
▁Corn	-4549
▁Jr	-4550
▁CE	-4551
▁exam	-4552
gers	-4553
▁sources	-4554
bo	-4555
mad	-4556
▁recognized	-4557
▁aband	-4558
▁cat	-4559
▁FI	-4560
▁Blue	-4561
▁Rome	-4562
▁union	-4563
▁..	-4564
▁scholar	-4565
▁Corporation	-4566
cul	-4567
isted	-4568
▁controvers	-4569
mas	-4570
ishes	-4571
▁yards	-4572
agement	-4573
▁hosted	-4574
▁Raj	-4575
▁constitu	-4576
▁apart	-4577
aling	-4578
▁voice	-4579
▁era	-4580
▁2008.	-4581
rane	-4582
worth	-4583
perial	-4584
▁Brig	-4585
wick	-4586
▁Victoria	-4587
▁split	-4588
▁Development	-4589
▁expanded	-4590
sen	-4591
▁fell	-4592
▁sens	-4593
▁presence	-4594
New	-4595
▁202	-4596
hens	-4597
▁pressure	-4598
▁coming	-4599
pression	-4600
▁industrial	-4601
▁2004,	-4602
oles	-4603
▁campus	-4604
▁actually	-4605
▁taught	-4606
▁Elizabeth	-4607
urt	-4608
▁conclud	-4609
▁peace	-4610
▁expected	-4611
▁municipal	-4612
▁continues	-4613
▁Queens	-4614
▁Univers	-4615
▁density	-4616
▁mixed	-4617
▁ly	-4618
▁newly	-4619
▁champion	-4620
▁Li	-4621
▁conference	-4622
▁cars	-4623
▁resident	-4624
▁Daniel	-4625
▁Cat	-4626
▁owner	-4627
▁mill	-4628
▁acting	-4629
osen	-4630
▁distinct	-4631
icine	-4632
thur	-4633
range	-4634
▁reduced	-4635
▁sevent	-4636
inity	-4637
▁2016.	-4638
▁Bridge	-4639
▁mentioned	-4640
▁leadership	-4641
▁sales	-4642
▁Olympic	-4643
achusetts	-4644
▁pit	-4645
▁affili	-4646
▁males	-4647
▁Among	-4648
▁pet	-4649
edom	-4650
olved	-4651
▁content	-4652
oral	-4653
cles	-4654
▁Little	-4655
▁Jeff	-4656
▁identified	-4657
▁Ba	-4658
▁recon	-4659
▁pack	-4660
aces	-4661
▁flight	-4662
▁11,	-4663
▁felt	-4664
▁Ministry	-4665
▁2000,	-4666
oted	-4667
nic	-4668
▁Justice	-4669
▁Prime	-4670
▁retire	-4671
pass	-4672
▁bad	-4673
▁1992	-4674
▁rules	-4675
▁consec	-4676
▁joint	-4677
▁silver	-4678
▁Bec	-4679
▁correspond	-4680
▁becomes	-4681
▁girl	-4682
▁Ca	-4683
▁!	-4684
▁prep	-4685
resh	-4686
▁murder	-4687
▁providing	-4688
iate	-4689
▁spons	-4690
▁Hor	-4691
▁elim	-4692
▁couple	-4693
▁Bishop	-4694
▁Wild	-4695
▁Good	-4696
▁nominated	-4697
▁recomm	-4698
▁Common	-4699
▁wa	-4700
▁trial	-4701
▁labor	-4702
▁4.	-4703
stitution	-4704
▁coal	-4705
▁serious	-4706
▁Massachusetts	-4707
▁critical	-4708
▁Ul	-4709
ivity	-4710
ibly	-4711
encies	-4712
▁votes	-4713
aly	-4714
▁propos	-4715
▁teacher	-4716
▁Airport	-4717
▁models	-4718
▁Villa	-4719
cend	-4720
▁parliament	-4721
▁Str	-4722
▁alone	-4723
▁thous	-4724
▁titles	-4725
▁Tay	-4726
▁digital	-4727
▁paid	-4728
▁pal	-4729
▁ir	-4730
-3	-4731
▁granted	-4732
▁Child	-4733
▁tells	-4734
▁9,	-4735
▁parties	-4736
▁resulting	-4737
▁plants	-4738
ba	-4739
▁feet	-4740
set	-4741
▁buried	-4742
which	-4743
▁motor	-4744
ented	-4745
▁positions	-4746
75	-4747
uer	-4748
▁ranked	-4749
▁urban	-4750
▁situated	-4751
▁Base	-4752
▁twice	-4753
TA	-4754
án	-4755
▁kept	-4756
▁surrounding	-4757
▁fast	-4758
riz	-4759
▁figure	-4760
▁Highway	-4761
▁greater	-4762
▁minister	-4763
▁twenty	-4764
▁mess	-4765
wing	-4766
▁Rog	-4767
▁organizations	-4768
gs	-4769
ighter	-4770
istance	-4771
▁damage	-4772
▁showed	-4773
▁strugg	-4774
itness	-4775
unte	-4776
▁condition	-4777
miss	-4778
▁Lew	-4779
▁1994	-4780
▁Hind	-4781
▁scoring	-4782
▁captain	-4783
▁1995	-4784
▁confirmed	-4785
▁Islands	-4786
▁suggested	-4787
▁knowledge	-4788
▁2007.	-4789
▁losing	-4790
CC	-4791
amber	-4792
hemat	-4793
▁says	-4794
▁vess	-4795
iform	-4796
yal	-4797
▁2017.	-4798
emeter	-4799
▁receive	-4800
li	-4801
▁hop	-4802
emetery	-4803
▁pict	-4804
bourne	-4805
rence	-4806
▁Stadium	-4807
▁contemporary	-4808
11	-4809
▁Life	-4810
▁flag	-4811
▁performances	-4812
▁billion	-4813
▁Rod	-4814
water	-4815
90	-4816
▁35	-4817
▁Brad	-4818
▁Pakistan	-4819
IS	-4820
MS	-4821
▁search	-4822
adelph	-4823
▁blue	-4824
iat	-4825
▁spring	-4826
▁creation	-4827
▁purpose	-4828
onent	-4829
▁pattern	-4830
▁su	-4831
▁growing	-4832
▁Korea	-4833
▁true	-4834
▁obtained	-4835
▁fix	-4836
▁provin	-4837
▁Enter	-4838
▁slight	-4839
▁doub	-4840
agon	-4841
▁Supreme	-4842
ervative	-4843
▁Duke	-4844
▁Way	-4845
ef	-4846
▁instrument	-4847
▁recommend	-4848
ager	-4849
▁inform	-4850
▁contest	-4851
▁wild	-4852
uation	-4853
▁literature	-4854
▁paint	-4855
ologist	-4856
▁unique	-4857
aug	-4858
▁Because	-4859
▁Turk	-4860
▁Ira	-4861
▁Pop	-4862
kee	-4863
▁cam	-4864
mann	-4865
ansion	-4866
alion	-4867
▁14,	-4868
▁16,	-4869
▁task	-4870
estic	-4871
▁Cop	-4872
▁tried	-4873
▁sculpt	-4874
▁Ont	-4875
▁distribution	-4876
▁Det	-4877
MA	-4878
gal	-4879
▁Game	-4880
▁gives	-4881
▁500	-4882
vin	-4883
book	-4884
▁mm	-4885
nel	-4886
▁secondary	-4887
▁Swedish	-4888
▁nort	-4889
adelphia	-4890
▁Boy	-4891
▁...	-4892
▁Library	-4893
▁sexual	-4894
ronze	-4895
iced	-4896
▁allows	-4897
▁Es	-4898
urer	-4899
▁boy	-4900
han	-4901
olid	-4902
▁claims	-4903
odies	-4904
outheast	-4905
▁Toronto	-4906
▁comedy	-4907
▁finish	-4908
▁Nether	-4909
▁secret	-4910
▁association	-4911
▁marked	-4912
▁applied	-4913
ez	-4914
▁disease	-4915
▁succeeded	-4916
▁Chap	-4917
ctors	-4918
▁traffic	-4919
▁1920	-4920
▁Revolution	-4921
▁analysis	-4922
▁prec	-4923
▁simply	-4924
sex	-4925
▁formation	-4926
▁committee	-4927
▁officials	-4928
▁painting	-4929
▁Dun	-4930
▁wall	-4931
▁2018.	-4932
▁Ep	-4933
▁festival	-4934
▁cannot	-4935
▁column	-4936
▁32	-4937
▁Bol	-4938
ker	-4939
▁Offic	-4940
▁sites	-4941
▁vac	-4942
▁pun	-4943
▁software	-4944
▁begins	-4945
▁Lim	-4946
▁Guard	-4947
▁achieved	-4948
▁13,	-4949
▁facility	-4950
▁governor	-4951
ternet	-4952
▁Special	-4953
▁Joe	-4954
▁‘	-4955
▁stream	-4956
▁Arm	-4957
een	-4958
vest	-4959
▁Program	-4960
▁enj	-4961
▁Bell	-4962
▁teaching	-4963
▁Network	-4964
PA	-4965
▁wear	-4966
▁spot	-4967
▁Athlet	-4968
western	-4969
▁seats	-4970
inger	-4971
An	-4972
ancing	-4973
▁integ	-4974
▁ce	-4975
▁Santa	-4976
▁cells	-4977
yond	-4978
▁attacks	-4979
▁Press	-4980
usion	-4981
▁sport	-4982
▁experiment	-4983
ova	-4984
▁Ontario	-4985
▁library	-4986
ouri	-4987
▁Oxford	-4988
ulty	-4989
▁code	-4990
▁connected	-4991
lers	-4992
15	-4993
▁shop	-4994
IA	-4995
▁liber	-4996
▁designated	-4997
▁bow	-4998
▁concert	-4999
▁cab	-5000
▁17,	-5001
▁younger	-5002
▁injury	-5003
▁consum	-5004
iable	-5005
▁ve	-5006
▁Police	-5007
▁spirit	-5008
▁bal	-5009
▁tim	-5010
▁versions	-5011
▁completely	-5012
▁chairman	-5013
▁Nations	-5014
bu	-5015
▁trains	-5016
load	-5017
chen	-5018
▁Dam	-5019
▁Philadelphia	-5020
";	-5021
▁Township	-5022
▁Through	-5023
▁Fle	-5024
ighth	-5025
EC	-5026
ji	-5027
▁fully	-5028
▁supply	-5029
▁Sports	-5030
▁actress	-5031
bec	-5032
chestra	-5033
▁launch	-5034
▁weight	-5035
▁classes	-5036
▁Represent	-5037
▁headquarters	-5038
omy	-5039
iling	-5040
▁extend	-5041
▁Ven	-5042
▁allowing	-5043
bro	-5044
▁$2	-5045
ender	-5046
▁Anton	-5047
▁habit	-5048
▁Ger	-5049
orter	-5050
▁existing	-5051
▁Independ	-5052
▁(198	-5053
▁aim	-5054
▁custom	-5055
urname	-5056
▁regions	-5057
ucky	-5058
ctoral	-5059
▁Rel	-5060
uts	-5061
oty	-5062
uled	-5063
–18	-5064
uate	-5065
▁meant	-5066
eld	-5067
▁authorities	-5068
▁Register	-5069
▁chosen	-5070
▁Castle	-5071
▁Jon	-5072
▁Band	-5073
▁Conf	-5074
▁Atlantic	-5075
▁mom	-5076
▁situation	-5077
▁Ah	-5078
real	-5079
▁1940	-5080
▁1991	-5081
▁25,	-5082
▁Mir	-5083
▁Bab	-5084
▁defined	-5085
VD	-5086
▁rapid	-5087
▁suit	-5088
▁thir	-5089
▁want	-5090
▁figures	-5091
▁Aff	-5092
▁Forest	-5093
▁carri	-5094
▁Captain	-5095
▁Elect	-5096
▁goes	-5097
▁Sher	-5098
▁opposition	-5099
▁relatively	-5100
inson	-5101
▁USA	-5102
▁Mike	-5103
▁suggest	-5104
▁measure	-5105
▁sides	-5106
▁scientific	-5107
▁1993	-5108
eller	-5109
▁History	-5110
▁stock	-5111
▁challeng	-5112
▁hall	-5113
▁theme	-5114
▁inspired	-5115
weight	-5116
▁Wilson	-5117
elligence	-5118
zech	-5119
▁bought	-5120
▁Budd	-5121
▁things	-5122
ses	-5123
▁founder	-5124
iser	-5125
FC	-5126
▁Bir	-5127
▁advanced	-5128
▁dial	-5129
▁20,	-5130
▁districts	-5131
▁Naz	-5132
▁critics	-5133
itzer	-5134
▁settled	-5135
▁fans	-5136
▁athlet	-5137
▁govern	-5138
▁illust	-5139
gress	-5140
▁villages	-5141
▁portion	-5142
▁Sab	-5143
▁lot	-5144
▁holds	-5145
imal	-5146
▁Serb	-5147
sky	-5148
▁aired	-5149
▁refused	-5150
▁Fair	-5151
▁materials	-5152
▁oldest	-5153
▁returning	-5154
ashion	-5155
▁hands	-5156
▁Netherlands	-5157
▁partner	-5158
▁reports	-5159
room	-5160
▁magn	-5161
arp	-5162
2).	-5163
▁Kir	-5164
▁Home	-5165
▁2003,	-5166
▁fish	-5167
ennes	-5168
▁conflict	-5169
▁tree	-5170
▁Several	-5171
erved	-5172
▁instru	-5173
▁arrested	-5174
▁graph	-5175
iki	-5176
▁Hay	-5177
▁fighting	-5178
▁image	-5179
▁tower	-5180
arc	-5181
▁von	-5182
▁loan	-5183
▁occasion	-5184
SC	-5185
inate	-5186
▁Fox	-5187
▁frequently	-5188
▁Emperor	-5189
▁Premier	-5190
uns	-5191
▁Ta	-5192
▁entitled	-5193
▁Regiment	-5194
▁necessary	-5195
▁risk	-5196
▁brothers	-5197
▁sixth	-5198
▁narrow	-5199
▁Iraq	-5200
▁Sus	-5201
▁Die	-5202
▁sons	-5203
▁2006.	-5204
aks	-5205
▁lear	-5206
hedral	-5207
▁script	-5208
▁Due	-5209
-4	-5210
▁Mexican	-5211
▁Mov	-5212
▁Like	-5213
ples	-5214
▁Korean	-5215
▁advert	-5216
ifically	-5217
lan	-5218
▁conduct	-5219
▁ple	-5220
itors	-5221
heim	-5222
▁creating	-5223
ava	-5224
▁principal	-5225
▁audience	-5226
occer	-5227
▁authority	-5228
ilton	-5229
▁pair	-5230
omot	-5231
▁Sweden	-5232
utional	-5233
▁(3	-5234
▁van	-5235
▁roof	-5236
▁Master	-5237
▁UN	-5238
ruit	-5239
una	-5240
igen	-5241
▁Indust	-5242
asty	-5243
yes	-5244
▁proceed	-5245
▁defin	-5246
iner	-5247
HL	-5248
▁seem	-5249
gend	-5250
also	-5251
▁Ker	-5252
▁Between	-5253
iary	-5254
ée	-5255
▁attra	-5256
▁commander	-5257
▁something	-5258
▁tend	-5259
▁cert	-5260
▁theatre	-5261
ographic	-5262
▁ven	-5263
▁aspect	-5264
aven	-5265
▁voc	-5266
▁Der	-5267
▁Czech	-5268
▁element	-5269
▁subs	-5270
osa	-5271
▁Minn	-5272
▁Colon	-5273
▁starring	-5274
pet	-5275
▁lake	-5276
▁politics	-5277
century	-5278
▁visited	-5279
▁Cub	-5280
▁feed	-5281
▁relations	-5282
▁temple	-5283
sey	-5284
▁Chris	-5285
▁copies	-5286
▁Econom	-5287
▁Han	-5288
▁mut	-5289
▁Taylor	-5290
bi	-5291
▁5.	-5292
▁Mun	-5293
▁rain	-5294
▁winter	-5295
▁Nic	-5296
▁publication	-5297
▁unable	-5298
▁metres	-5299
▁Moh	-5300
LA	-5301
▁21,	-5302
▁accident	-5303
▁restaur	-5304
struction	-5305
osophy	-5306
▁bill	-5307
ection	-5308
▁Marsh	-5309
▁arts	-5310
▁consisted	-5311
▁subsequent	-5312
▁etc	-5313
▁fought	-5314
▁Technology	-5315
▁Night	-5316
▁NA	-5317
ropolitan	-5318
▁1988	-5319
kes	-5320
▁Alf	-5321
▁broke	-5322
▁covers	-5323
▁promotion	-5324
tra	-5325
▁attempted	-5326
▁Kal	-5327
▁alle	-5328
ois	-5329
▁approved	-5330
orph	-5331
▁22,	-5332
▁portray	-5333
18	-5334
▁Kel	-5335
▁crim	-5336
▁Community	-5337
▁Arthur	-5338
▁syn	-5339
▁sets	-5340
▁dropped	-5341
▁Media	-5342
="	-5343
▁flood	-5344
▁Tai	-5345
▁funding	-5346
▁underst	-5347
▁bass	-5348
▁Beach	-5349
▁daily	-5350
▁Batt	-5351
▁attacked	-5352
bra	-5353
▁piece	-5354
▁animals	-5355
▁attempts	-5356
▁Bad	-5357
▁Som	-5358
plies	-5359
▁reject	-5360
udget	-5361
writer	-5362
▁effective	-5363
▁baseball	-5364
▁Da	-5365
illery	-5366
▁employed	-5367
▁mile	-5368
uing	-5369
▁respond	-5370
▁neighborhood	-5371
elve	-5372
▁ec	-5373
▁Cult	-5374
▁fair	-5375
▁Organ	-5376
▁Light	-5377
▁royal	-5378
ains	-5379
▁exclus	-5380
▁straight	-5381
▁Human	-5382
▁surname	-5383
▁opposed	-5384
45	-5385
▁begin	-5386
▁30,	-5387
▁drive	-5388
▁global	-5389
▁commissioned	-5390
CAA	-5391
▁extensive	-5392
▁simple	-5393
▁Stephen	-5394
▁performing	-5395
▁Area	-5396
▁methods	-5397
▁receiving	-5398
▁19,	-5399
▁guest	-5400
▁distingu	-5401
▁Business	-5402
▁tal	-5403
▁Addition	-5404
▁reference	-5405
▁cho	-5406
▁Pers	-5407
▁Region	-5408
▁Orig	-5409
▁enjoy	-5410
▁dia	-5411
▁formerly	-5412
rin	-5413
▁kil	-5414
▁occupied	-5415
▁unknown	-5416
▁safety	-5417
▁actions	-5418
▁Tal	-5419
▁mis	-5420
aret	-5421
▁vocal	-5422
▁earth	-5423
▁combat	-5424
nce	-5425
track	-5426
▁protection	-5427
▁Lady	-5428
▁powerful	-5429
▁Maria	-5430
▁Hun	-5431
▁2019.	-5432
▁178	-5433
▁economy	-5434
▁Color	-5435
▁highway	-5436
iques	-5437
▁1989	-5438
▁towns	-5439
▁Davis	-5440
▁iron	-5441
▁exchange	-5442
▁sense	-5443
▁Gen	-5444
▁rob	-5445
▁morning	-5446
▁apparent	-5447
);	-5448
urd	-5449
▁founding	-5450
athan	-5451
▁expansion	-5452
▁horse	-5453
▁sand	-5454
cow	-5455
▁23,	-5456
▁yellow	-5457
rip	-5458
▁fields	-5459
▁normal	-5460
kin	-5461
uls	-5462
▁architecture	-5463
▁rear	-5464
▁memory	-5465
▁machine	-5466
idge	-5467
▁alt	-5468
▁Form	-5469
▁resources	-5470
▁Abb	-5471
▁Hu	-5472
▁beaut	-5473
▁spect	-5474
▁encoura	-5475
▁sle	-5476
▁Freder	-5477
bar	-5478
▁trees	-5479
▁bott	-5480
▁Po	-5481
▁articles	-5482
▁shortly	-5483
ureau	-5484
eral	-5485
mouth	-5486
po	-5487
▁(;	-5488
▁agent	-5489
▁shared	-5490
rum	-5491
▁End	-5492
urance	-5493
bell	-5494
phas	-5495
▁negot	-5496
lywood	-5497
▁height	-5498
▁prof	-5499
▁Wel	-5500
▁needs	-5501
lyn	-5502
▁Administ	-5503
35	-5504
Bill	-5505
▁80	-5506
▁institutions	-5507
rect	-5508
▁Marg	-5509
imens	-5510
▁contributed	-5511
▁documentary	-5512
▁Short	-5513
▁converted	-5514
▁onto	-5515
▁climate	-5516
▁arms	-5517
▁28,	-5518
▁ending	-5519
▁Zh	-5520
▁Greg	-5521
▁Today	-5522
▁focused	-5523
▁rot	-5524
▁Walk	-5525
▁Circ	-5526
▁storm	-5527
▁Legisl	-5528
rec	-5529
aria	-5530
▁airport	-5531
▁Indones	-5532
▁2002,	-5533
▁Rac	-5534
▁engineering	-5535
▁26,	-5536
▁Earl	-5537
▁Les	-5538
▁rang	-5539
ading	-5540
▁burn	-5541
onym	-5542
▁maximum	-5543
▁cancer	-5544
rog	-5545
▁crime	-5546
▁lect	-5547
erb	-5548
▁dipl	-5549
'.	-5550
▁Steve	-5551
▁Att	-5552
▁Gi	-5553
▁bul	-5554
▁cart	-5555
▁Int	-5556
▁contrast	-5557
oln	-5558
wise	-5559
▁citizens	-5560
▁Kim	-5561
▁inhabit	-5562
▁vehicles	-5563
organ	-5564
▁ways	-5565
enna	-5566
▁Lind	-5567
▁Bla	-5568
▁Power	-5569
▁adapt	-5570
▁entry	-5571
▁notes	-5572
▁learning	-5573
eman	-5574
gest	-5575
16	-5576
▁Time	-5577
▁27,	-5578
▁determined	-5579
text	-5580
▁retirement	-5581
14	-5582
orney	-5583
▁gar	-5584
▁application	-5585
▁tele	-5586
▁samp	-5587
▁advance	-5588
▁Prize	-5589
▁MP	-5590
▁worldwide	-5591
▁Federation	-5592
kh	-5593
anna	-5594
▁vent	-5595
inus	-5596
▁2001,	-5597
ivals	-5598
▁offices	-5599
▁Rom	-5600
▁Prior	-5601
▁dog	-5602
▁Marc	-5603
▁valley	-5604
owa	-5605
ownt	-5606
▁permanent	-5607
▁beyond	-5608
▁occurs	-5609
▁Khan	-5610
▁Vo	-5611
amin	-5612
▁basic	-5613
▁Anth	-5614
▁Slov	-5615
▁wrest	-5616
▁Lt	-5617
ropri	-5618
mun	-5619
▁1919	-5620
otic	-5621
inners	-5622
▁advant	-5623
OS	-5624
▁prepar	-5625
▁Junior	-5626
▁Ford	-5627
▁36	-5628
▁girls	-5629
ipe	-5630
osis	-5631
rowd	-5632
▁matter	-5633
▁Dor	-5634
pur	-5635
▁Medical	-5636
▁Squad	-5637
abad	-5638
▁setting	-5639
▁Spring	-5640
▁1984	-5641
umes	-5642
▁ultimately	-5643
▁Journal	-5644
▁background	-5645
▁letters	-5646
▁sought	-5647
▁existence	-5648
▁defense	-5649
▁Test	-5650
▁Wat	-5651
▁containing	-5652
ii	-5653
stream	-5654
▁touchdown	-5655
▁consult	-5656
▁Project	-5657
inder	-5658
▁reasons	-5659
pool	-5660
▁Us	-5661
▁refers	-5662
▁write	-5663
▁Lewis	-5664
▁opp	-5665
▁Further	-5666
wegian	-5667
anth	-5668
urches	-5669
former	-5670
▁developing	-5671
▁Pit	-5672
▁lands	-5673
▁slightly	-5674
▁resc	-5675
▁representing	-5676
▁corner	-5677
oured	-5678
▁rough	-5679
esota	-5680
▁convers	-5681
achelor	-5682
SP	-5683
iders	-5684
ulate	-5685
▁Ross	-5686
▁ends	-5687
▁structures	-5688
▁Su	-5689
ears	-5690
▁successfully	-5691
inth	-5692
▁Melbourne	-5693
',	-5694
▁unc	-5695
IC	-5696
It	-5697
while	-5698
▁70	-5699
▁enemy	-5700
Un	-5701
13	-5702
▁mind	-5703
▁virt	-5704
fully	-5705
▁derived	-5706
▁avoid	-5707
▁decre	-5708
▁qualified	-5709
yo	-5710
▁finds	-5711
▁attrib	-5712
▁Upon	-5713
▁guns	-5714
▁alternative	-5715
▁trust	-5716
▁invited	-5717
▁someone	-5718
▁grade	-5719
▁centuries	-5720
▁Leon	-5721
De	-5722
▁locations	-5723
anning	-5724
▁Americans	-5725
life	-5726
▁Hart	-5727
▁lyrics	-5728
olished	-5729
▁faced	-5730
▁pieces	-5731
▁hero	-5732
ocese	-5733
▁1987	-5734
▁properties	-5735
yt	-5736
▁ox	-5737
apore	-5738
▁Pier	-5739
▁flu	-5740
▁Ob	-5741
asy	-5742
▁vehicle	-5743
emic	-5744
▁Vi	-5745
▁Minnesota	-5746
▁acts	-5747
▁rein	-5748
▁wealth	-5749
▁Nap	-5750
rete	-5751
▁fer	-5752
▁domestic	-5753
▁finishing	-5754
▁seg	-5755
▁EP	-5756
▁Fire	-5757
▁try	-5758
▁walls	-5759
▁Philip	-5760
▁racing	-5761
▁fuel	-5762
▁cycl	-5763
▁funds	-5764
▁abandoned	-5765
▁Golden	-5766
onsin	-5767
alo	-5768
▁pup	-5769
▁holding	-5770
long	-5771
▁hotel	-5772
▁Moscow	-5773
▁2005.	-5774
▁Sav	-5775
▁functions	-5776
DS	-5777
aska	-5778
▁bronze	-5779
▁influenced	-5780
▁herself	-5781
▁supporting	-5782
▁Queensland	-5783
▁bor	-5784
▁Brother	-5785
▁coord	-5786
isconsin	-5787
We	-5788
uccess	-5789
AR	-5790
▁Bi	-5791
▁Then	-5792
▁Balt	-5793
▁Ra	-5794
▁stadium	-5795
pson	-5796
▁Country	-5797
▁6.	-5798
▁Cape	-5799
▁mayor	-5800
▁emphas	-5801
pot	-5802
▁generation	-5803
▁Gre	-5804
mes	-5805
79	-5806
▁Memorial	-5807
▁incorporated	-5808
▁1986	-5809
▁multi	-5810
▁Channel	-5811
▁expressed	-5812
▁doing	-5813
▁contained	-5814
▁identity	-5815
jan	-5816
▁proved	-5817
▁technical	-5818
▁Norwegian	-5819
▁Gil	-5820
▁deploy	-5821
igration	-5822
▁Missouri	-5823
▁Military	-5824
▁Bah	-5825
▁DVD	-5826
▁deliver	-5827
anger	-5828
▁Kansas	-5829
–3	-5830
▁speech	-5831
omew	-5832
▁Stock	-5833
▁hydro	-5834
▁Trust	-5835
▁decades	-5836
agh	-5837
▁Baron	-5838
▁partnership	-5839
▁Norway	-5840
outs	-5841
▁fleet	-5842
iments	-5843
▁Ut	-5844
▁castle	-5845
▁temperature	-5846
▁Ocean	-5847
▁ring	-5848
▁your	-5849
▁sust	-5850
▁NCAA	-5851
▁Cambridge	-5852
▁alleged	-5853
▁Wars	-5854
▁Bat	-5855
▁Tok	-5856
▁heavily	-5857
▁compar	-5858
car	-5859
▁Municip	-5860
78	-5861
▁glass	-5862
▁Command	-5863
▁bands	-5864
▁pul	-5865
▁plot	-5866
▁brown	-5867
enz	-5868
▁Native	-5869
▁Jos	-5870
ami	-5871
▁rival	-5872
▁Jews	-5873
▁calls	-5874
▁Wisconsin	-5875
▁pilot	-5876
▁guard	-5877
▁Week	-5878
▁Labor	-5879
▁equal	-5880
▁29,	-5881
▁planning	-5882
▁Albert	-5883
▁hockey	-5884
▁)	-5885
▁educational	-5886
illing	-5887
▁Ho	-5888
stead	-5889
▁volume	-5890
iang	-5891
prise	-5892
▁township	-5893
uese	-5894
▁establishment	-5895
▁Manchester	-5896
▁maintained	-5897
▁Though	-5898
▁scheduled	-5899
appe	-5900
▁33	-5901
▁bra	-5902
▁extrem	-5903
▁Pass	-5904
iations	-5905
▁fresh	-5906
▁educated	-5907
lets	-5908
▁entrance	-5909
▁Singapore	-5910
▁7.	-5911
▁spok	-5912
▁composer	-5913
76	-5914
▁reflect	-5915
▁300	-5916
Billboard	-5917
▁Sciences	-5918
▁Holy	-5919
incoln	-5920
▁passing	-5921
▁inaug	-5922
▁Final	-5923
▁auth	-5924
▁sector	-5925
lain	-5926
▁consecutive	-5927
ennessee	-5928
▁formal	-5929
▁aged	-5930
▁category	-5931
▁constant	-5932
▁1900	-5933
▁Philippines	-5934
icy	-5935
▁Malays	-5936
▁carry	-5937
fl	-5938
regon	-5939
▁merged	-5940
ecutive	-5941
2),	-5942
▁Ball	-5943
▁Cas	-5944
▁rise	-5945
▁quant	-5946
erc	-5947
▁literary	-5948
aming	-5949
▁detect	-5950
amm	-5951
▁Hou	-5952
▁Vietnam	-5953
▁laid	-5954
▁90	-5955
▁voted	-5956
▁stating	-5957
rees	-5958
▁nob	-5959
▁Six	-5960
eed	-5961
▁programme	-5962
▁escape	-5963
▁Bru	-5964
▁hired	-5965
king	-5966
▁Nick	-5967
ito	-5968
▁Pope	-5969
ika	-5970
▁weapons	-5971
SR	-5972
▁nuclear	-5973
haps	-5974
TC	-5975
▁swe	-5976
▁reign	-5977
▁flat	-5978
state	-5979
opher	-5980
▁resigned	-5981
▁connection	-5982
▁roll	-5983
▁trav	-5984
▁appoint	-5985
▁powers	-5986
orders	-5987
▁Sri	-5988
▁reaching	-5989
▁environmental	-5990
aki	-5991
after	-5992
▁scale	-5993
▁decor	-5994
▁Free	-5995
▁shape	-5996
▁install	-5997
▁patients	-5998
▁Indiana	-5999
uration	-6000
▁Studies	-6001
▁trying	-6002
▁harm	-6003
▁Bos	-6004
▁merch	-6005
▁page	-6006
▁Sunday	-6007
▁incident	-6008
fall	-6009
▁1985	-6010
▁About	-6011
▁candidates	-6012
▁Labour	-6013
▁Clark	-6014
lines	-6015
▁Rural	-6016
▁regarding	-6017
▁independence	-6018
aded	-6019
friend	-6020
iti	-6021
▁passes	-6022
▁producing	-6023
▁failure	-6024
▁argued	-6025
▁promote	-6026
▁Winter	-6027
acter	-6028
▁ceremony	-6029
ader	-6030
Don	-6031
equ	-6032
▁folk	-6033
▁Cab	-6034
▁toward	-6035
▁Tennessee	-6036
place	-6037
▁phase	-6038
▁diam	-6039
▁Bureau	-6040
▁engaged	-6041
▁Cra	-6042
ource	-6043
▁Census	-6044
tered	-6045
▁Lo	-6046
isf	-6047
▁marg	-6048
▁recognition	-6049
▁mel	-6050
▁specifically	-6051
▁mount	-6052
ateur	-6053
▁accompan	-6054
iny	-6055
▁judge	-6056
▁load	-6057
cts	-6058
▁importance	-6059
▁ast	-6060
▁Austria	-6061
▁god	-6062
▁moth	-6063
▁Christmas	-6064
▁Colorado	-6065
▁interse	-6066
▁sac	-6067
oster	-6068
▁Sem	-6069
▁internal	-6070
▁steel	-6071
▁kick	-6072
▁representative	-6073
▁rom	-6074
▁descend	-6075
▁exhibition	-6076
▁entirely	-6077
▁closely	-6078
▁constituency	-6079
▁swim	-6080
▁strength	-6081
▁journalist	-6082
owntown	-6083
▁investigation	-6084
▁Point	-6085
ão	-6086
▁prefer	-6087
▁Miller	-6088
▁starts	-6089
▁Id	-6090
▁quite	-6091
▁Jacob	-6092
▁inhabitants	-6093
▁believe	-6094
▁improve	-6095
▁installed	-6096
!"	-6097
▁Ka	-6098
▁standards	-6099
▁experien	-6100
▁scenes	-6101
iversary	-6102
wich	-6103
▁Lincoln	-6104
▁vice	-6105
▁twelve	-6106
▁observed	-6107
▁Fellow	-6108
▁ideas	-6109
La	-6110
▁1983	-6111
▁playoff	-6112
▁Oregon	-6113
▁gall	-6114
▁heard	-6115
65	-6116
▁Tony	-6117
▁price	-6118
▁doctor	-6119
▁protein	-6120
▁collected	-6121
▁ethnic	-6122
▁compl	-6123
▁foundation	-6124
▁classical	-6125
▁homes	-6126
▁Maryland	-6127
gor	-6128
▁Turkey	-6129
▁junior	-6130
raine	-6131
▁orders	-6132
▁visual	-6133
▁creat	-6134
▁violence	-6135
▁Kr	-6136
▁Ten	-6137
▁programming	-6138
▁watch	-6139
▁400	-6140
▁cricket	-6141
▁Places	-6142
▁Thus	-6143
▁occas	-6144
▁compete	-6145
▁Web	-6146
rate	-6147
▁clin	-6148
▁Stat	-6149
▁Portuguese	-6150
▁Now	-6151
▁Affairs	-6152
▁opportunity	-6153
▁Stone	-6154
▁volunte	-6155
▁fashion	-6156
ception	-6157
▁aid	-6158
aved	-6159
anton	-6160
▁request	-6161
▁budget	-6162
position	-6163
rizona	-6164
▁Gord	-6165
cell	-6166
▁Walter	-6167
▁concluded	-6168
Sp	-6169
▁Niger	-6170
acent	-6171
▁views	-6172
▁Infantry	-6173
▁Ot	-6174
ublin	-6175
▁joining	-6176
▁cas	-6177
▁trained	-6178
▁tall	-6179
▁consisting	-6180
erse	-6181
itzerland	-6182
▁Hard	-6183
ori	-6184
ilation	-6185
000.	-6186
risis	-6187
▁causing	-6188
▁Bon	-6189
▁opin	-6190
▁Even	-6191
▁sole	-6192
▁describes	-6193
▁Temple	-6194
ographer	-6195
▁registered	-6196
▁Ts	-6197
anguage	-6198
▁religion	-6199
PS	-6200
▁NFL	-6201
under	-6202
uties	-6203
▁regarded	-6204
agan	-6205
inally	-6206
▁bit	-6207
▁dates	-6208
▁suppor	-6209
olis	-6210
▁1999,	-6211
▁Turkish	-6212
▁employees	-6213
▁choice	-6214
▁obtain	-6215
▁Abd	-6216
▁Pa	-6217
▁draft	-6218
17	-6219
▁Vice	-6220
▁locomot	-6221
▁chemical	-6222
▁Harry	-6223
▁improved	-6224
poses	-6225
▁graduate	-6226
Se	-6227
▁negative	-6228
▁possess	-6229
▁brick	-6230
DA	-6231
▁survey	-6232
▁really	-6233
iva	-6234
oto	-6235
▁Barb	-6236
▁poetry	-6237
▁rugby	-6238
elle	-6239
▁impr	-6240
▁McG	-6241
▁poly	-6242
only	-6243
▁boat	-6244
▁edge	-6245
.”	-6246
▁Liberal	-6247
oes	-6248
▁praised	-6249
▁mathemat	-6250
isms	-6251
ikh	-6252
▁fram	-6253
▁initi	-6254
pa	-6255
▁1976	-6256
▁wins	-6257
▁map	-6258
then	-6259
–9	-6260
Sc	-6261
olars	-6262
▁passenger	-6263
come	-6264
▁34	-6265
▁limit	-6266
▁presidential	-6267
▁reading	-6268
▁Ast	-6269
▁profession	-6270
▁Od	-6271
▁2004.	-6272
▁animal	-6273
▁Ali	-6274
▁Switzerland	-6275
uther	-6276
▁1979	-6277
▁exped	-6278
▁Ron	-6279
▁crowd	-6280
zen	-6281
▁Arizona	-6282
▁Beng	-6283
▁Fa	-6284
urday	-6285
▁paintings	-6286
▁dress	-6287
▁operate	-6288
▁cru	-6289
▁Howard	-6290
anga	-6291
▁substant	-6292
▁Gab	-6293
1),	-6294
▁Roy	-6295
ushed	-6296
▁rebu	-6297
▁reserve	-6298
isa	-6299
clusion	-6300
▁landsc	-6301
▁briefly	-6302
▁sale	-6303
▁behavior	-6304
▁Only	-6305
aga	-6306
▁Gree	-6307
▁micro	-6308
▁Anne	-6309
▁Medal	-6310
▁1972	-6311
▁$3	-6312
▁Hamilton	-6313
▁chose	-6314
▁Simon	-6315
iful	-6316
▁san	-6317
▁selection	-6318
▁franch	-6319
▁ment	-6320
▁bodies	-6321
▁ruled	-6322
aro	-6323
▁Management	-6324
wealth	-6325
▁Building	-6326
▁strike	-6327
▁core	-6328
▁Tourn	-6329
ho	-6330
east	-6331
▁jur	-6332
▁strateg	-6333
▁birds	-6334
▁driver	-6335
▁Nich	-6336
vard	-6337
▁Writ	-6338
▁demonstr	-6339
ER	-6340
▁signal	-6341
▁1982	-6342
▁adap	-6343
▁affected	-6344
▁skills	-6345
▁Brigade	-6346
▁favour	-6347
▁paralle	-6348
▁engines	-6349
▁costs	-6350
▁drink	-6351
mb	-6352
▁courses	-6353
▁applications	-6354
▁reduce	-6355
▁values	-6356
▁northeast	-6357
utation	-6358
oly	-6359
alty	-6360
▁Jane	-6361
antic	-6362
▁users	-6363
▁Rose	-6364
▁ille	-6365
64	-6366
atures	-6367
▁mand	-6368
▁premiered	-6369
▁cooper	-6370
▁Turn	-6371
▁|	-6372
ghan	-6373
▁(4	-6374
▁seconds	-6375
heastern	-6376
▁IV	-6377
entially	-6378
▁replace	-6379
▁participate	-6380
▁Member	-6381
owned	-6382
▁causes	-6383
▁1968	-6384
▁Croat	-6385
▁tor	-6386
▁Executive	-6387
▁factory	-6388
▁Kentucky	-6389
▁controlled	-6390
▁diplom	-6391
usal	-6392
24	-6393
▁exact	-6394
-0	-6395
▁Kat	-6396
▁FM	-6397
▁Foreign	-6398
▁armed	-6399
▁synt	-6400
point	-6401
▁killing	-6402
▁Down	-6403
▁Hur	-6404
▁Gram	-6405
season	-6406
▁earliest	-6407
father	-6408
▁hun	-6409
gency	-6410
anes	-6411
▁Wall	-6412
▁agricultural	-6413
▁easily	-6414
▁Armen	-6415
He	-6416
igation	-6417
▁getting	-6418
▁Security	-6419
ryst	-6420
hist	-6421
▁Cer	-6422
▁criminal	-6423
▁door	-6424
▁emp	-6425
▁transform	-6426
ques	-6427
▁Swiss	-6428
▁reserv	-6429
▁survived	-6430
▁historian	-6431
▁drum	-6432
▁Television	-6433
▁opera	-6434
▁corpor	-6435
▁Square	-6436
▁seems	-6437
▁weather	-6438
▁Stand	-6439
▁tail	-6440
▁Coll	-6441
▁statement	-6442
▁singing	-6443
▁subsid	-6444
▁Adam	-6445
odox	-6446
▁divers	-6447
▁Prot	-6448
▁Engineering	-6449
ologies	-6450
▁Mit	-6451
▁Domin	-6452
arry	-6453
▁distributed	-6454
▁waters	-6455
▁agency	-6456
▁belief	-6457
▁1974	-6458
▁objects	-6459
▁acid	-6460
▁Whit	-6461
7),	-6462
▁portra	-6463
overty	-6464
pret	-6465
agues	-6466
-5	-6467
▁Staff	-6468
▁regularly	-6469
▁Magazine	-6470
▁interests	-6471
▁Gib	-6472
▁interior	-6473
23	-6474
▁leads	-6475
DP	-6476
▁pros	-6477
going	-6478
▁Tan	-6479
▁tropical	-6480
▁techniques	-6481
▁Belg	-6482
▁Sum	-6483
utor	-6484
▁Transport	-6485
US	-6486
▁repeated	-6487
ów	-6488
▁Frederick	-6489
▁Alb	-6490
▁symbol	-6491
▁Dougl	-6492
▁residence	-6493
▁Ren	-6494
▁Prim	-6495
▁consequ	-6496
▁invasion	-6497
▁deliv	-6498
▁adjacent	-6499
▁debuted	-6500
▁moment	-6501
▁Services	-6502
▁actual	-6503
box	-6504
▁accused	-6505
including	-6506
▁Eth	-6507
orage	-6508
ré	-6509
▁extension	-6510
▁roads	-6511
▁pione	-6512
olas	-6513
▁fine	-6514
▁racial	-6515
apes	-6516
har	-6517
▁steam	-6518
▁Hockey	-6519
▁personnel	-6520
▁38	-6521
antly	-6522
▁Brian	-6523
▁Tel	-6524
ía	-6525
▁Squadron	-6526
▁emot	-6527
▁Marine	-6528
▁fiction	-6529
▁advantage	-6530
icts	-6531
eke	-6532
▁row	-6533
▁ax	-6534
▁Pot	-6535
ourney	-6536
▁calling	-6537
▁Front	-6538
udi	-6539
▁sell	-6540
▁rating	-6541
▁ere	-6542
▁assess	-6543
▁possibly	-6544
▁opposite	-6545
▁Once	-6546
▁introduction	-6547
▁Burn	-6548
▁gene	-6549
▁Cre	-6550
▁sections	-6551
▁Ku	-6552
don	-6553
▁lat	-6554
icide	-6555
▁convent	-6556
▁humans	-6557
▁stands	-6558
ivalent	-6559
▁ones	-6560
ordan	-6561
hol	-6562
▁mole	-6563
▁1978	-6564
actions	-6565
▁combination	-6566
▁Naval	-6567
▁Forces	-6568
ifying	-6569
▁Early	-6570
icians	-6571
▁superv	-6572
▁Diego	-6573
BI	-6574
des	-6575
▁writers	-6576
run	-6577
▁operates	-6578
lock	-6579
▁Review	-6580
▁greatest	-6581
roit	-6582
▁jazz	-6583
▁islands	-6584
▁revolution	-6585
▁injured	-6586
▁items	-6587
▁witness	-6588
▁Fame	-6589
▁regiment	-6590
▁ahead	-6591
▁Well	-6592
▁crown	-6593
74	-6594
▁typical	-6595
▁shell	-6596
▁1981	-6597
▁Finn	-6598
▁seventh	-6599
▁comic	-6600
▁31,	-6601
▁nick	-6602
term	-6603
▁churches	-6604
▁Low	-6605
▁stores	-6606
▁Heart	-6607
▁Greece	-6608
▁advoc	-6609
vant	-6610
km	-6611
▁engineer	-6612
▁northwest	-6613
▁impress	-6614
active	-6615
▁hair	-6616
uct	-6617
ommod	-6618
▁Entertainment	-6619
▁Author	-6620
▁Lieutenant	-6621
▁resistance	-6622
▁grounds	-6623
cies	-6624
iot	-6625
▁designs	-6626
▁ans	-6627
▁Commonwealth	-6628
▁Bowl	-6629
▁railroad	-6630
▁Wy	-6631
rine	-6632
▁1975	-6633
▁mist	-6634
Ne	-6635
eler	-6636
▁decade	-6637
▁businesses	-6638
▁licens	-6639
▁secretary	-6640
▁Oak	-6641
▁1998,	-6642
▁arrang	-6643
▁dismiss	-6644
▁Plan	-6645
▁didn	-6646
▁Ark	-6647
▁surg	-6648
:00	-6649
▁Rab	-6650
▁medium	-6651
▁deleg	-6652
▁susp	-6653
▁web	-6654
ducing	-6655
iants	-6656
▁Colomb	-6657
▁Hans	-6658
▁ancest	-6659
▁enl	-6660
▁suburb	-6661
▁musicians	-6662
▁somew	-6663
▁Mean	-6664
ieval	-6665
▁8.	-6666
▁poll	-6667
▁benef	-6668
▁Farm	-6669
▁examples	-6670
idden	-6671
vens	-6672
ui	-6673
▁composition	-6674
▁Regional	-6675
▁Patrick	-6676
▁Tar	-6677
▁Senior	-6678
▁Islamic	-6679
▁Div	-6680
fe	-6681
▁purchase	-6682
oli	-6683
▁eg	-6684
uv	-6685
ür	-6686
▁Dep	-6687
ogy	-6688
▁dry	-6689
▁Dal	-6690
dam	-6691
▁hour	-6692
▁batter	-6693
▁cinem	-6694
ogen	-6695
▁shut	-6696
▁Tournament	-6697
rator	-6698
▁worth	-6699
▁faith	-6700
▁zone	-6701
▁clean	-6702
adow	-6703
rome	-6704
▁Houston	-6705
▁Vis	-6706
▁Jay	-6707
▁notably	-6708
3),	-6709
▁Mand	-6710
▁broken	-6711
▁Hotel	-6712
▁Anderson	-6713
▁standing	-6714
▁Bou	-6715
RC	-6716
▁Connect	-6717
▁Mississ	-6718
▁rejected	-6719
resents	-6720
▁Samuel	-6721
▁why	-6722
ES	-6723
▁strip	-6724
▁philosophy	-6725
▁attract	-6726
▁bottom	-6727
▁aware	-6728
▁Dur	-6729
zh	-6730
▁marine	-6731
▁committed	-6732
68	-6733
▁Israeli	-6734
▁Prix	-6735
▁grant	-6736
Man	-6737
▁goods	-6738
▁isol	-6739
▁Ale	-6740
▁rich	-6741
▁chain	-6742
idel	-6743
▁descript	-6744
zo	-6745
▁select	-6746
ceived	-6747
▁catal	-6748
▁selling	-6749
▁Allen	-6750
unch	-6751
▁Palest	-6752
▁charges	-6753
ippi	-6754
▁gets	-6755
adi	-6756
▁qual	-6757
dale	-6758
anned	-6759
ilst	-6760
▁device	-6761
▁Quebec	-6762
▁AD	-6763
▁copy	-6764
▁drawn	-6765
▁Sound	-6766
▁reality	-6767
▁Ban	-6768
▁hill	-6769
▁Family	-6770
enny	-6771
▁starred	-6772
▁accommod	-6773
▁trip	-6774
▁proced	-6775
▁duty	-6776
▁2003.	-6777
▁FA	-6778
Star	-6779
▁kilomet	-6780
▁Na	-6781
▁ban	-6782
stan	-6783
▁collaboration	-6784
▁Juan	-6785
▁residential	-6786
▁streets	-6787
obe	-6788
▁throw	-6789
▁wings	-6790
▁images	-6791
▁Alab	-6792
▁reaction	-6793
▁Dick	-6794
▁solid	-6795
▁Hug	-6796
▁retained	-6797
oming	-6798
▁looking	-6799
▁commit	-6800
200	-6801
▁enfor	-6802
▁piano	-6803
-18	-6804
zer	-6805
▁Brand	-6806
▁Hollywood	-6807
star	-6808
▁Additionally	-6809
▁passengers	-6810
▁1977	-6811
▁150	-6812
▁represents	-6813
▁demand	-6814
▁bond	-6815
▁1945	-6816
▁ped	-6817
level	-6818
▁Youth	-6819
▁Rand	-6820
ello	-6821
▁Fund	-6822
▁Hills	-6823
▁owners	-6824
uerto	-6825
▁degrees	-6826
▁capture	-6827
▁painted	-6828
▁renov	-6829
night	-6830
amic	-6831
▁stood	-6832
▁damaged	-6833
▁Gard	-6834
▁determine	-6835
▁remark	-6836
▁shall	-6837
vo	-6838
abled	-6839
▁heat	-6840
▁stages	-6841
▁vocals	-6842
▁obl	-6843
oslav	-6844
▁details	-6845
▁motion	-6846
▁Iowa	-6847
▁teachers	-6848
▁knock	-6849
hr	-6850
▁prize	-6851
▁tries	-6852
▁boys	-6853
▁nothing	-6854
▁bishop	-6855
▁immigr	-6856
lahoma	-6857
▁factors	-6858
▁admitted	-6859
election	-6860
▁sequence	-6861
▁Roc	-6862
igenous	-6863
ci	-6864
28	-6865
iami	-6866
▁Jesus	-6867
▁attached	-6868
cious	-6869
▁Village	-6870
▁advent	-6871
▁Nik	-6872
▁Mayor	-6873
▁session	-6874
pective	-6875
▁cod	-6876
▁refuge	-6877
icial	-6878
▁showing	-6879
▁Douglas	-6880
▁2002.	-6881
▁AC	-6882
aren	-6883
▁1973	-6884
▁charged	-6885
▁credited	-6886
▁Imperial	-6887
▁headed	-6888
insula	-6889
▁save	-6890
▁Jam	-6891
IT	-6892
hetic	-6893
▁Live	-6894
▁Prin	-6895
▁assumed	-6896
iller	-6897
▁rooms	-6898
▁Danish	-6899
thodox	-6900
▁Gordon	-6901
▁purposes	-6902
▁Wolf	-6903
who	-6904
▁displa	-6905
▁Buck	-6906
▁trail	-6907
▁shel	-6908
▁delivered	-6909
▁flying	-6910
raf	-6911
irt	-6912
▁transition	-6913
▁Ga	-6914
▁check	-6915
▁Rang	-6916
▁1969	-6917
▁Ltd	-6918
▁poverty	-6919
▁da	-6920
itage	-6921
▁2000.	-6922
▁Representatives	-6923
▁freedom	-6924
▁electronic	-6925
–4	-6926
ules	-6927
▁unus	-6928
othing	-6929
▁criticized	-6930
▁Sel	-6931
▁documents	-6932
enh	-6933
▁musician	-6934
▁accompanied	-6935
ogether	-6936
▁Chile	-6937
rolled	-6938
racy	-6939
▁accur	-6940
lov	-6941
agn	-6942
▁Anthony	-6943
▁Clin	-6944
▁Alabama	-6945
▁Kam	-6946
▁circum	-6947
▁experienced	-6948
▁Gallery	-6949
▁biggest	-6950
▁assault	-6951
icut	-6952
▁resign	-6953
▁Argentina	-6954
▁Cemetery	-6955
▁Ern	-6956
teenth	-6957
▁Puerto	-6958
▁caught	-6959
▁AM	-6960
▁defeating	-6961
▁Moore	-6962
6),	-6963
▁Administration	-6964
▁1964	-6965
▁chance	-6966
▁Space	-6967
▁driving	-6968
▁routes	-6969
aver	-6970
▁significantly	-6971
▁restored	-6972
▁soci	-6973
▁Album	-6974
▁Internet	-6975
▁investment	-6976
emble	-6977
▁nor	-6978
agu	-6979
onder	-6980
oa	-6981
yles	-6982
▁contributions	-6983
ategy	-6984
gon	-6985
cha	-6986
▁membership	-6987
▁southeast	-6988
yst	-6989
▁vary	-6990
▁Communist	-6991
▁Dublin	-6992
▁Shah	-6993
▁Bry	-6994
▁delay	-6995
▁bed	-6996
aux	-6997
▁Fac	-6998
▁tick	-6999
lad	-7000
▁intelligence	-7001
▁measures	-7002
▁veter	-7003
▁separated	-7004
▁user	-7005
cu	-7006
▁Stra	-7007
borough	-7008
-8	-7009
▁institution	-7010
▁1997,	-7011
▁unsuccess	-7012
▁Design	-7013
▁retail	-7014
▁upd	-7015
coming	-7016
Re	-7017
uster	-7018
▁Chairman	-7019
▁champions	-7020
▁Detroit	-7021
▁brain	-7022
▁suggests	-7023
▁1996,	-7024
▁Railroad	-7025
▁Silver	-7026
▁bran	-7027
vements	-7028
▁Ret	-7029
▁recip	-7030
▁franchise	-7031
related	-7032
▁milit	-7033
▁aer	-7034
▁coll	-7035
▁turns	-7036
▁learned	-7037
▁factor	-7038
olt	-7039
▁compris	-7040
ooth	-7041
▁mine	-7042
dis	-7043
rat	-7044
ners	-7045
▁duties	-7046
▁1971	-7047
▁Let	-7048
▁interested	-7049
▁conqu	-7050
▁minute	-7051
▁Oklahoma	-7052
69	-7053
▁Alber	-7054
▁popularity	-7055
▁innov	-7056
utt	-7057
▁Dig	-7058
coh	-7059
▁eye	-7060
▁Jordan	-7061
▁Real	-7062
ifications	-7063
▁understanding	-7064
▁fly	-7065
▁Harris	-7066
▁stopped	-7067
▁1967	-7068
▁depth	-7069
▁arrival	-7070
▁provincial	-7071
▁IS	-7072
▁thick	-7073
▁uniform	-7074
ture	-7075
▁southwest	-7076
▁subjects	-7077
▁persons	-7078
▁Denmark	-7079
▁demonst	-7080
▁garden	-7081
▁fan	-7082
▁pool	-7083
bal	-7084
▁wounded	-7085
▁releg	-7086
▁Third	-7087
▁44	-7088
argo	-7089
▁Harvard	-7090
avalry	-7091
uma	-7092
▁lawyer	-7093
▁flo	-7094
▁Hawai	-7095
▁painter	-7096
▁Taiwan	-7097
▁winners	-7098
▁Eric	-7099
chi	-7100
▁archae	-7101
issance	-7102
▁Baseball	-7103
▁renew	-7104
–8	-7105
▁Pap	-7106
eding	-7107
▁naval	-7108
ardo	-7109
gro	-7110
found	-7111
▁177	-7112
▁extremely	-7113
▁mort	-7114
▁Hal	-7115
▁prepared	-7116
▁Trib	-7117
ellite	-7118
inburgh	-7119
▁Rugby	-7120
▁communication	-7121
▁(),	-7122
▁returns	-7123
▁courts	-7124
▁thousands	-7125
pat	-7126
▁Reserve	-7127
▁CEO	-7128
unnel	-7129
▁Lanc	-7130
▁priest	-7131
▁Antonio	-7132
▁Cost	-7133
▁Pict	-7134
▁policies	-7135
▁difference	-7136
pse	-7137
agen	-7138
AM	-7139
▁involving	-7140
▁Stew	-7141
▁Chart	-7142
▁Alban	-7143
▁carrying	-7144
rently	-7145
eless	-7146
▁Mississippi	-7147
▁appropri	-7148
▁legend	-7149
▁Las	-7150
▁preced	-7151
▁Nag	-7152
]]	-7153
▁calc	-7154
▁Var	-7155
cop	-7156
rix	-7157
▁Belgium	-7158
PC	-7159
▁anniversary	-7160
21	-7161
▁Express	-7162
di	-7163
▁hits	-7164
▁10.	-7165
▁Here	-7166
▁util	-7167
▁Louisiana	-7168
▁faculty	-7169
▁Cooper	-7170
▁Saturday	-7171
▁2001.	-7172
▁adapted	-7173
angel	-7174
29	-7175
▁Lyn	-7176
▁legislation	-7177
istant	-7178
oyd	-7179
mers	-7180
ugar	-7181
▁severe	-7182
rons	-7183
▁translated	-7184
▁Inn	-7185
jo	-7186
▁responsibility	-7187
▁Treat	-7188
ailed	-7189
▁Matthew	-7190
▁sun	-7191
▁Lank	-7192
▁context	-7193
▁phen	-7194
All	-7195
▁universities	-7196
▁Roberts	-7197
▁inher	-7198
▁Children	-7199
▁Phill	-7200
▁Hamp	-7201
▁Battalion	-7202
▁Miami	-7203
▁grass	-7204
▁otherwise	-7205
▁Afghan	-7206
elson	-7207
▁Ottoman	-7208
▁aspects	-7209
▁colonial	-7210
▁doll	-7211
▁arranged	-7212
▁Bart	-7213
▁publishing	-7214
▁carbon	-7215
▁flows	-7216
38	-7217
▁shooting	-7218
▁Lin	-7219
▁fired	-7220
▁neighbour	-7221
▁organisation	-7222
▁Mountains	-7223
ads	-7224
▁cycle	-7225
▁UC	-7226
iley	-7227
bass	-7228
▁dating	-7229
aired	-7230
▁McK	-7231
▁ham	-7232
icate	-7233
▁Doctor	-7234
▁stayed	-7235
▁Pun	-7236
▁rates	-7237
mat	-7238
ructure	-7239
▁Dra	-7240
▁Constitution	-7241
▁expression	-7242
▁Independent	-7243
▁colour	-7244
▁ign	-7245
▁citizen	-7246
▁Liver	-7247
▁theater	-7248
▁scholars	-7249
▁perhaps	-7250
▁Edinburgh	-7251
▁Polit	-7252
etime	-7253
▁classic	-7254
▁Ukraine	-7255
burn	-7256
rong	-7257
▁defensive	-7258
▁2020	-7259
▁Modern	-7260
▁Palace	-7261
▁Deputy	-7262
▁meters	-7263
▁mouth	-7264
▁differences	-7265
▁refere	-7266
▁Brazilian	-7267
▁Eag	-7268
▁Kaz	-7269
hess	-7270
▁Meanwhile	-7271
heme	-7272
▁successor	-7273
laimed	-7274
▁terror	-7275
▁photograph	-7276
imore	-7277
▁stret	-7278
▁chair	-7279
▁Lam	-7280
▁Cow	-7281
▁Cook	-7282
▁Ryan	-7283
▁assistance	-7284
IV	-7285
▁windows	-7286
▁soundtrack	-7287
▁Alan	-7288
▁tank	-7289
▁Montreal	-7290
eland	-7291
ista	-7292
▁concerns	-7293
ships	-7294
cription	-7295
▁mining	-7296
▁challenge	-7297
▁divor	-7298
▁Nar	-7299
▁sed	-7300
▁Tamil	-7301
▁ri	-7302
dd	-7303
▁ensure	-7304
▁Gulf	-7305
▁protected	-7306
▁48	-7307
▁commune	-7308
uscript	-7309
▁devices	-7310
odge	-7311
▁Ped	-7312
▁sort	-7313
▁DC	-7314
▁1995,	-7315
▁publications	-7316
▁classified	-7317
otte	-7318
▁mobile	-7319
▁brig	-7320
▁Son	-7321
▁interpret	-7322
▁anth	-7323
ails	-7324
▁Micro	-7325
▁Disney	-7326
▁Rem	-7327
▁SR	-7328
▁Care	-7329
IN	-7330
tery	-7331
▁correct	-7332
▁Grant	-7333
▁myth	-7334
▁window	-7335
▁hors	-7336
▁Territ	-7337
▁NY	-7338
aked	-7339
▁Orchestra	-7340
▁stress	-7341
▁linked	-7342
eline	-7343
▁Austrian	-7344
▁Kev	-7345
unes	-7346
umin	-7347
▁divisions	-7348
▁vo	-7349
▁nickn	-7350
▁bat	-7351
▁Connecticut	-7352
ante	-7353
TS	-7354
▁tack	-7355
do	-7356
▁ownership	-7357
▁novels	-7358
▁weekly	-7359
▁37	-7360
▁buy	-7361
▁gender	-7362
profit	-7363
▁crossing	-7364
▁alleg	-7365
▁formally	-7366
▁actors	-7367
mina	-7368
▁banks	-7369
uri	-7370
▁Pitts	-7371
▁Dean	-7372
▁Officer	-7373
▁imprison	-7374
oen	-7375
▁relative	-7376
▁Whe	-7377
▁Lawrence	-7378
▁daughters	-7379
▁exception	-7380
▁roughly	-7381
▁fixed	-7382
▁veget	-7383
▁kid	-7384
▁teen	-7385
▁peaked	-7386
▁Alexand	-7387
▁requires	-7388
▁cold	-7389
▁Margaret	-7390
▁crisis	-7391
aby	-7392
▁parallel	-7393
▁49	-7394
▁wave	-7395
▁1965	-7396
aine	-7397
ctic	-7398
▁recru	-7399
▁Hand	-7400
▁equivalent	-7401
▁Maur	-7402
▁medicine	-7403
Mar	-7404
▁Lang	-7405
▁disappe	-7406
▁Rights	-7407
▁capable	-7408
▁practices	-7409
▁39	-7410
allas	-7411
▁Fern	-7412
▁restrict	-7413
▁Welsh	-7414
▁ago	-7415
LC	-7416
▁Run	-7417
▁evening	-7418
▁encounter	-7419
▁covering	-7420
▁seed	-7421
▁gang	-7422
▁instance	-7423
▁Operation	-7424
▁Back	-7425
Is	-7426
uous	-7427
</	-7428
lades	-7429
▁Atlanta	-7430
▁competitions	-7431
veland	-7432
▁coastal	-7433
▁herit	-7434
▁1966	-7435
▁Aud	-7436
▁missing	-7437
▁Hispan	-7438
▁Commander	-7439
▁Anna	-7440
▁appearing	-7441
▁Associ	-7442
▁downtown	-7443
EA	-7444
▁ABC	-7445
▁squadron	-7446
▁frame	-7447
pers	-7448
TO	-7449
▁technique	-7450
▁scheme	-7451
enez	-7452
▁questions	-7453
ridges	-7454
▁heads	-7455
icks	-7456
▁Age	-7457
▁offering	-7458
rell	-7459
▁Cru	-7460
▁cous	-7461
ogan	-7462
▁Studios	-7463
inian	-7464
ymn	-7465
▁Morgan	-7466
▁replacement	-7467
▁Heritage	-7468
▁authors	-7469
▁juris	-7470
▁Legislative	-7471
▁requirements	-7472
▁Dave	-7473
crib	-7474
▁9.	-7475
▁Pear	-7476
▁solution	-7477
atically	-7478
▁1994,	-7479
igious	-7480
▁Sym	-7481
▁credit	-7482
▁dynasty	-7483
iece	-7484
hab	-7485
▁theore	-7486
55	-7487
▁option	-7488
▁Ow	-7489
▁CO	-7490
▁Ukrain	-7491
▁picture	-7492
▁[[	-7493
22	-7494
lete	-7495
▁depos	-7496
▁dim	-7497
▁Liverpool	-7498
▁PC	-7499
▁enh	-7500
▁Bush	-7501
▁liqu	-7502
▁Fil	-7503
▁x	-7504
▁Portugal	-7505
▁tur	-7506
▁criticism	-7507
▁Five	-7508
▁Sport	-7509
▁Walker	-7510
eas	-7511
▁Crown	-7512
▁Metropolitan	-7513
hesis	-7514
▁rose	-7515
pir	-7516
▁Row	-7517
▁Voiv	-7518
▁testing	-7519
duct	-7520
▁Phys	-7521
▁declined	-7522
▁diagn	-7523
▁celebrated	-7524
ilk	-7525
intend	-7526
hyth	-7527
lected	-7528
▁Iron	-7529
▁Sky	-7530
▁synd	-7531
▁Cleveland	-7532
Ph	-7533
chang	-7534
34	-7535
▁surre	-7536
Pro	-7537
stances	-7538
▁translation	-7539
from	-7540
▁hosts	-7541
▁Tokyo	-7542
▁Il	-7543
▁raise	-7544
▁Vienna	-7545
▁Dol	-7546
▁Rick	-7547
mod	-7548
phone	-7549
▁achieve	-7550
▁commemor	-7551
▁falls	-7552
▁occupation	-7553
ahn	-7554
mosp	-7555
▁Malaysia	-7556
▁prisoners	-7557
odeship	-7558
▁storage	-7559
▁soil	-7560
▁victims	-7561
▁deputy	-7562
▁advis	-7563
▁qualifying	-7564
udden	-7565
▁truck	-7566
▁explos	-7567
▁perfect	-7568
▁influential	-7569
▁Kennedy	-7570
door	-7571
▁dies	-7572
ishment	-7573
▁Set	-7574
▁explained	-7575
▁components	-7576
▁frag	-7577
iency	-7578
ović	-7579
▁protest	-7580
▁suspend	-7581
▁increasingly	-7582
▁Fal	-7583
▁Ran	-7584
▁Ener	-7585
▁Kevin	-7586
▁accompl	-7587
▁Sud	-7588
▁Banglades	-7589
orf	-7590
grade	-7591
edding	-7592
▁expedition	-7593
▁Hop	-7594
▁Singh	-7595
▁adding	-7596
▁Local	-7597
▁Drag	-7598
▁Key	-7599
▁Indonesia	-7600
▁1948	-7601
▁Yug	-7602
100	-7603
roke	-7604
▁considerable	-7605
▁Colonel	-7606
ellect	-7607
▁restaurant	-7608
▁coverage	-7609
aron	-7610
▁note	-7611
▁wooden	-7612
miral	-7613
▁cited	-7614
":	-7615
▁Alfred	-7616
▁Peters	-7617
▁heritage	-7618
▁weak	-7619
▁reputation	-7620
▁medieval	-7621
▁graduating	-7622
acher	-7623
▁Seattle	-7624
▁José	-7625
▁filled	-7626
▁annually	-7627
▁prosec	-7628
▁opinion	-7629
astery	-7630
▁Laure	-7631
inding	-7632
hard	-7633
town	-7634
▁manner	-7635
aph	-7636
zi	-7637
▁charts	-7638
▁murd	-7639
ivated	-7640
▁Upper	-7641
▁recept	-7642
▁expect	-7643
rik	-7644
Cl	-7645
rant	-7646
▁instruments	-7647
estyle	-7648
▁flowers	-7649
▁Johann	-7650
▁contra	-7651
▁temporary	-7652
▁snow	-7653
▁manuscript	-7654
bach	-7655
▁childhood	-7656
amps	-7657
▁filed	-7658
ocracy	-7659
▁processes	-7660
▁guitarist	-7661
▁tennis	-7662
▁Voivodeship	-7663
where	-7664
▁poem	-7665
▁Prote	-7666
▁wheel	-7667
▁Meth	-7668
27	-7669
▁Chall	-7670
rapy	-7671
▁eyes	-7672
onom	-7673
▁filmed	-7674
▁expert	-7675
chell	-7676
66	-7677
tenance	-7678
hered	-7679
▁crop	-7680
▁couples	-7681
▁meets	-7682
▁Roger	-7683
▁forming	-7684
▁vert	-7685
▁strongly	-7686
39	-7687
ultan	-7688
ocks	-7689
▁DNA	-7690
▁branches	-7691
▁debate	-7692
▁markets	-7693
bishop	-7694
▁1992,	-7695
igg	-7696
▁landing	-7697
rastructure	-7698
▁Andre	-7699
▁supposed	-7700
▁plate	-7701
▁message	-7702
General	-7703
▁losses	-7704
▁journey	-7705
▁offensive	-7706
▁benefit	-7707
▁1999.	-7708
▁assembly	-7709
person	-7710
▁75	-7711
You	-7712
▁fra	-7713
▁kingdom	-7714
▁cool	-7715
)"	-7716
▁Agency	-7717
▁entering	-7718
ania	-7719
▁forests	-7720
atherine	-7721
die	-7722
ugu	-7723
▁Pow	-7724
▁somewhat	-7725
▁weeke	-7726
My	-7727
▁appointment	-7728
marine	-7729
▁existed	-7730
▁Lane	-7731
▁Yan	-7732
▁Unlike	-7733
▁visitors	-7734
▁threatened	-7735
▁64	-7736
▁Cathedral	-7737
▁Kelly	-7738
edia	-7739
▁Donald	-7740
▁Rot	-7741
sm	-7742
lie	-7743
▁vessels	-7744
▁Mrs	-7745
ovo	-7746
graduate	-7747
IP	-7748
▁dated	-7749
▁PA	-7750
▁finding	-7751
▁output	-7752
▁lov	-7753
ushing	-7754
itals	-7755
▁imag	-7756
▁Lev	-7757
lac	-7758
▁huge	-7759
▁Garden	-7760
▁helping	-7761
▁Conservative	-7762
▁bringing	-7763
▁Convention	-7764
merce	-7765
▁rent	-7766
▁memorial	-7767
▁ble	-7768
▁prime	-7769
El	-7770
▁signing	-7771
▁grown	-7772
cester	-7773
▁proposal	-7774
▁Hungarian	-7775
5,000	-7776
III	-7777
▁unf	-7778
▁replacing	-7779
▁Ry	-7780
lon	-7781
▁Rol	-7782
▁studying	-7783
▁alcoh	-7784
▁ru	-7785
ester	-7786
▁Baltimore	-7787
ifer	-7788
▁(5	-7789
▁recordings	-7790
▁Sha	-7791
Be	-7792
FM	-7793
las	-7794
ographical	-7795
▁Kings	-7796
gow	-7797
▁artistic	-7798
▁fit	-7799
called	-7800
▁Ward	-7801
▁Mach	-7802
▁prohib	-7803
rett	-7804
▁ur	-7805
▁experiences	-7806
▁extens	-7807
▁strategy	-7808
ideo	-7809
ibl	-7810
▁withdraw	-7811
▁tied	-7812
▁surrounded	-7813
▁fishing	-7814
▁Lower	-7815
▁struck	-7816
▁Nav	-7817
Con	-7818
▁warm	-7819
▁Mission	-7820
▁fict	-7821
finals	-7822
mingham	-7823
▁evolution	-7824
▁rend	-7825
▁Glas	-7826
▁prompt	-7827
▁relief	-7828
▁Defense	-7829
▁plane	-7830
""	-7831
ework	-7832
arest	-7833
rav	-7834
hus	-7835
▁Hungary	-7836
break	-7837
▁cup	-7838
▁Schools	-7839
▁boundary	-7840
▁completion	-7841
▁justice	-7842
▁artillery	-7843
emen	-7844
asters	-7845
▁nations	-7846
▁Rap	-7847
▁lasted	-7848
▁Russell	-7849
▁Rub	-7850
story	-7851
pen	-7852
▁eval	-7853
▁Stewart	-7854
▁manufacturing	-7855
▁Bruce	-7856
▁Rio	-7857
▁Alliance	-7858
▁Originally	-7859
▁Metro	-7860
▁indicated	-7861
▁eleven	-7862
▁Peace	-7863
osm	-7864
▁Orthodox	-7865
▁Bull	-7866
▁accounts	-7867
ín	-7868
▁secure	-7869
▁medals	-7870
enses	-7871
▁Init	-7872
▁catch	-7873
apolis	-7874
▁gather	-7875
cular	-7876
▁Opera	-7877
cur	-7878
▁Sarah	-7879
▁Pas	-7880
ayan	-7881
▁Honor	-7882
▁denied	-7883
▁spiritual	-7884
▁Champions	-7885
▁competing	-7886
▁surviving	-7887
inter	-7888
▁1993,	-7889
▁Ay	-7890
dr	-7891
▁finals	-7892
ando	-7893
▁wides	-7894
▁Campbell	-7895
▁Buff	-7896
eping	-7897
▁É	-7898
▁tie	-7899
▁Global	-7900
iege	-7901
▁papers	-7902
▁nom	-7903
▁appeal	-7904
▁concrete	-7905
48	-7906
▁affairs	-7907
▁175	-7908
▁Moon	-7909
force	-7910
▁Dream	-7911
▁eliminated	-7912
▁Nort	-7913
▁Athletic	-7914
HS	-7915
xts	-7916
ithuan	-7917
sch	-7918
rage	-7919
▁Tig	-7920
nal	-7921
bridge	-7922
▁modified	-7923
▁1990,	-7924
▁fear	-7925
▁amend	-7926
▁rivers	-7927
▁happened	-7928
▁Ukrainian	-7929
▁Disc	-7930
▁pitch	-7931
▁Finland	-7932
aware	-7933
▁mountains	-7934
26	-7935
▁absor	-7936
aints	-7937
▁Your	-7938
mate	-7939
▁thirty	-7940
OC	-7941
▁plus	-7942
inations	-7943
host	-7944
▁Senator	-7945
▁net	-7946
▁react	-7947
▁Along	-7948
▁Pur	-7949
ighters	-7950
▁Tit	-7951
▁Gran	-7952
▁Environment	-7953
▁1991,	-7954
▁monument	-7955
▁collections	-7956
dy	-7957
▁nomination	-7958
▁lists	-7959
▁Yugoslav	-7960
▁Thompson	-7961
▁1944	-7962
leased	-7963
▁recre	-7964
seud	-7965
▁shif	-7966
▁fruit	-7967
uj	-7968
▁cards	-7969
anny	-7970
▁Norman	-7971
▁Ever	-7972
▁counties	-7973
▁satisf	-7974
phony	-7975
▁habitat	-7976
ogs	-7977
▁rounds	-7978
▁Crit	-7979
▁fal	-7980
▁sufficient	-7981
igible	-7982
▁edited	-7983
pread	-7984
▁Brothers	-7985
orial	-7986
itter	-7987
▁Vinc	-7988
essions	-7989
▁movements	-7990
acon	-7991
▁Saf	-7992
▁decline	-7993
▁Gon	-7994
▁Arn	-7995
▁amateur	-7996
inction	-7997
ige	-7998
▁cook	-7999
▁controversial	-8000
▁Confeder	-8001
inch	-8002
As	-8003
▁aggreg	-8004
ET	-8005
–5	-8006
▁1963	-8007
▁neut	-8008
▁Dyn	-8009
▁(197	-8010
▁speak	-8011
uy	-8012
▁Ll	-8013
▁Austin	-8014
poss	-8015
▁Nelson	-8016
▁jurisd	-8017
▁Ky	-8018
uda	-8019
atus	-8020
Ind	-8021
▁Nazi	-8022
▁circuit	-8023
▁occasionally	-8024
▁approval	-8025
▁camera	-8026
▁Gene	-8027
▁hur	-8028
▁reun	-8029
▁Broadway	-8030
▁Adams	-8031
ruption	-8032
▁Notable	-8033
▁drew	-8034
-9	-8035
▁fest	-8036
MP	-8037
▁equipped	-8038
▁Non	-8039
▁climb	-8040
▁mental	-8041
▁1962	-8042
▁Authority	-8043
look	-8044
asts	-8045
▁earn	-8046
▁distinguished	-8047
33	-8048
▁Beg	-8049
▁(195	-8050
osph	-8051
rak	-8052
▁involvement	-8053
▁Market	-8054
lem	-8055
▁license	-8056
nia	-8057
▁continuing	-8058
▁Franklin	-8059
▁frequency	-8060
olo	-8061
-6	-8062
▁attracted	-8063
▁acted	-8064
▁Horn	-8065
igrated	-8066
ref	-8067
ét	-8068
▁Nash	-8069
▁Birmingham	-8070
▁Pittsburgh	-8071
–200	-8072
xual	-8073
▁pric	-8074
▁bes	-8075
asure	-8076
▁assign	-8077
▁Round	-8078
▁executed	-8079
▁elder	-8080
shaped	-8081
cho	-8082
elli	-8083
sea	-8084
ED	-8085
▁Cole	-8086
This	-8087
amental	-8088
rient	-8089
▁print	-8090
▁Beck	-8091
▁vessel	-8092
▁Within	-8093
▁Morris	-8094
mi	-8095
aman	-8096
▁cm	-8097
▁Camer	-8098
tha	-8099
▁surf	-8100
orer	-8101
ni	-8102
net	-8103
aptist	-8104
▁eighth	-8105
▁Every	-8106
pes	-8107
▁Liter	-8108
▁1956	-8109
▁controversy	-8110
▁shares	-8111
▁effectively	-8112
rena	-8113
▁electoral	-8114
mal	-8115
▁mob	-8116
ranean	-8117
▁Fleet	-8118
▁whilst	-8119
▁shore	-8120
▁42	-8121
▁illegal	-8122
▁ster	-8123
▁die	-8124
aments	-8125
▁exerc	-8126
▁dream	-8127
▁Venez	-8128
▁whereas	-8129
▁penalty	-8130
▁turb	-8131
▁anything	-8132
▁assass	-8133
▁Wol	-8134
▁traveled	-8135
▁Judge	-8136
ounced	-8137
ials	-8138
▁hang	-8139
▁rapidly	-8140
▁Nep	-8141
▁hip	-8142
ported	-8143
race	-8144
top	-8145
▁Bed	-8146
▁remember	-8147
▁elevation	-8148
▁SS	-8149
▁genre	-8150
▁Chamber	-8151
arant	-8152
▁1998.	-8153
▁vic	-8154
▁designer	-8155
▁recommended	-8156
▁pray	-8157
▁donated	-8158
▁Gor	-8159
▁visible	-8160
olly	-8161
▁changing	-8162
▁newspapers	-8163
▁planet	-8164
▁Energy	-8165
▁Carter	-8166
▁1939	-8167
wall	-8168
▁Wright	-8169
▁skin	-8170
▁Chen	-8171
▁emergency	-8172
▁Nob	-8173
▁beet	-8174
▁Fel	-8175
▁minimum	-8176
▁championships	-8177
▁treated	-8178
▁draf	-8179
▁Sac	-8180
▁Vik	-8181
▁Dallas	-8182
roc	-8183
▁Marie	-8184
▁Leban	-8185
▁atmosp	-8186
▁Instead	-8187
▁tell	-8188
▁Champion	-8189
ensis	-8190
but	-8191
▁infantry	-8192
▁moder	-8193
▁bear	-8194
master	-8195
▁compilation	-8196
▁Boys	-8197
pha	-8198
▁meetings	-8199
▁excell	-8200
"-	-8201
▁greatly	-8202
▁55	-8203
▁Robinson	-8204
▁depending	-8205
▁missions	-8206
hai	-8207
▁Agricult	-8208
▁Shortly	-8209
▁adopt	-8210
otype	-8211
▁Hend	-8212
abilities	-8213
▁expos	-8214
▁widespread	-8215
aste	-8216
▁segment	-8217
▁directors	-8218
▁Chand	-8219
GA	-8220
▁Murray	-8221
▁Patri	-8222
gi	-8223
-201	-8224
▁canc	-8225
▁Arkansas	-8226
▁makeup	-8227
▁Gri	-8228
▁massive	-8229
▁battles	-8230
▁defence	-8231
▁Hit	-8232
?"	-8233
▁teach	-8234
▁underground	-8235
▁participation	-8236
▁Unt	-8237
▁portrayed	-8238
▁Hindu	-8239
icon	-8240
és	-8241
casting	-8242
▁SA	-8243
▁vision	-8244
isition	-8245
▁Dak	-8246
▁App	-8247
lap	-8248
antasy	-8249
▁visiting	-8250
attan	-8251
▁theat	-8252
▁AT	-8253
▁suicide	-8254
▁tools	-8255
cknow	-8256
theless	-8257
▁See	-8258
ailand	-8259
▁Mond	-8260
▁populations	-8261
gie	-8262
▁+	-8263
GB	-8264
cia	-8265
▁Marshall	-8266
▁retain	-8267
▁Victorian	-8268
▁unusual	-8269
▁wine	-8270
▁rif	-8271
▁panel	-8272
▁prede	-8273
asa	-8274
▁entertainment	-8275
▁knew	-8276
▁hundreds	-8277
▁Lib	-8278
cons	-8279
▁intersection	-8280
▁fil	-8281
▁tests	-8282
ouver	-8283
▁remainder	-8284
▁Fried	-8285
▁Wrest	-8286
ector	-8287
▁Windows	-8288
▁lin	-8289
▁Beat	-8290
▁Architect	-8291
▁Information	-8292
▁Sn	-8293
▁definition	-8294
▁mode	-8295
rehens	-8296
▁ben	-8297
annels	-8298
idency	-8299
▁Basketball	-8300
▁versus	-8301
▁Rud	-8302
dest	-8303
▁spoken	-8304
▁occasions	-8305
icop	-8306
▁drawing	-8307
▁Frid	-8308
Bl	-8309
▁parliamentary	-8310
▁12.	-8311
▁mir	-8312
▁dang	-8313
▁contested	-8314
▁fled	-8315
▁posted	-8316
▁describe	-8317
▁Race	-8318
▁NBC	-8319
▁1961	-8320
▁intention	-8321
▁Christopher	-8322
▁1946	-8323
▁Karl	-8324
hand	-8325
▁Invest	-8326
–6	-8327
bat	-8328
▁begun	-8329
olds	-8330
▁intellect	-8331
iors	-8332
▁soccer	-8333
▁wick	-8334
▁1958	-8335
▁Kan	-8336
▁Utah	-8337
din	-8338
▁Prad	-8339
37	-8340
▁architectural	-8341
▁acknow	-8342
▁themes	-8343
▁everything	-8344
▁adaptation	-8345
ID	-8346
▁tact	-8347
ashed	-8348
ocol	-8349
▁exists	-8350
▁undert	-8351
▁maintenance	-8352
otton	-8353
▁understand	-8354
▁trading	-8355
ultane	-8356
usted	-8357
▁Stanley	-8358
▁UE	-8359
▁Graham	-8360
▁Jimmy	-8361
▁phone	-8362
▁CBS	-8363
▁concerned	-8364
▁inner	-8365
▁Bangladesh	-8366
▁furn	-8367
▁attributed	-8368
▁1942	-8369
▁proport	-8370
4),	-8371
▁concerts	-8372
▁Place	-8373
ruction	-8374
▁Event	-8375
▁chapter	-8376
isi	-8377
▁supplies	-8378
▁emerged	-8379
▁Romania	-8380
▁Brooklyn	-8381
▁Mong	-8382
ingly	-8383
estone	-8384
▁domain	-8385
ologists	-8386
▁1959	-8387
▁cousin	-8388
▁bot	-8389
▁Never	-8390
▁landscape	-8391
soft	-8392
▁Medicine	-8393
▁pregn	-8394
usk	-8395
leans	-8396
▁Protest	-8397
▁centers	-8398
stic	-8399
▁Guine	-8400
▁networks	-8401
▁agriculture	-8402
udes	-8403
▁celeb	-8404
uated	-8405
▁resolution	-8406
oca	-8407
▁sudden	-8408
▁supports	-8409
▁admin	-8410
▁youngest	-8411
▁injuries	-8412
iah	-8413
▁Derby	-8414
▁Indians	-8415
▁producers	-8416
▁Thailand	-8417
▁Py	-8418
For	-8419
▁dialect	-8420
▁videos	-8421
▁diameter	-8422
orporated	-8423
▁Sin	-8424
▁gradually	-8425
▁beach	-8426
▁useful	-8427
▁1989,	-8428
▁gone	-8429
▁chapel	-8430
▁pron	-8431
▁departure	-8432
▁Heb	-8433
izon	-8434
▁horses	-8435
▁longest	-8436
▁printed	-8437
▁Soon	-8438
▁1941	-8439
▁suspended	-8440
▁Training	-8441
▁Canal	-8442
▁valid	-8443
▁spoke	-8444
▁Dark	-8445
▁Constant	-8446
opal	-8447
▁mo	-8448
▁amongst	-8449
▁toured	-8450
▁turning	-8451
▁instrumental	-8452
orus	-8453
▁safe	-8454
▁erected	-8455
such	-8456
▁endemic	-8457
▁nav	-8458
▁Mack	-8459
▁1997.	-8460
▁surgery	-8461
▁encouraged	-8462
▁Friend	-8463
▁representation	-8464
▁Si	-8465
▁Venezuel	-8466
▁Kon	-8467
▁honour	-8468
▁marketing	-8469
▁supporters	-8470
▁Vic	-8471
▁repro	-8472
▁periods	-8473
▁venue	-8474
▁tow	-8475
▁satellite	-8476
▁afterwards	-8477
▁Theater	-8478
▁employment	-8479
▁classification	-8480
▁wrong	-8481
▁cable	-8482
▁colony	-8483
▁writes	-8484
▁preserved	-8485
rac	-8486
arth	-8487
ricane	-8488
▁predomin	-8489
▁NBA	-8490
▁spending	-8491
▁Tower	-8492
rang	-8493
36	-8494
▁operational	-8495
▁Trad	-8496
▁blocks	-8497
▁suffering	-8498
▁Bes	-8499
▁convention	-8500
zz	-8501
▁Around	-8502
olia	-8503
▁discovery	-8504
▁jobs	-8505
▁WW	-8506
▁Nord	-8507
▁boats	-8508
bean	-8509
▁astron	-8510
rations	-8511
▁Orleans	-8512
▁agencies	-8513
▁uncle	-8514
otes	-8515
▁Equ	-8516
▁loyal	-8517
▁Bernard	-8518
▁Knight	-8519
iterranean	-8520
▁Carib	-8521
iop	-8522
erted	-8523
▁1947	-8524
▁1952	-8525
▁Hum	-8526
▁apparently	-8527
▁opportunities	-8528
▁Wa	-8529
▁Singles	-8530
▁mart	-8531
▁1996.	-8532
▁defending	-8533
▁transportation	-8534
▁infrastructure	-8535
▁Glasgow	-8536
▁thing	-8537
▁ruling	-8538
▁demolished	-8539
▁innings	-8540
▁AP	-8541
▁Lithuan	-8542
▁competitive	-8543
▁FIFA	-8544
▁Billy	-8545
▁yield	-8546
▁fictional	-8547
▁Dub	-8548
▁Pad	-8549
▁Method	-8550
▁Hispanic	-8551
▁Belgian	-8552
ersed	-8553
rov	-8554
oba	-8555
▁send	-8556
▁none	-8557
▁representatives	-8558
rama	-8559
▁locality	-8560
▁characteristics	-8561
▁cul	-8562
▁Trophy	-8563
-10	-8564
▁Dom	-8565
▁Richmond	-8566
▁customers	-8567
▁immediate	-8568
▁CA	-8569
▁external	-8570
▁easy	-8571
▁arc	-8572
▁exceed	-8573
▁Germans	-8574
▁Thor	-8575
mates	-8576
▁extent	-8577
▁percentage	-8578
▁Brist	-8579
▁lob	-8580
▁sees	-8581
▁Trade	-8582
▁femin	-8583
rank	-8584
ellor	-8585
▁voting	-8586
▁Ald	-8587
▁Portland	-8588
▁grey	-8589
▁audio	-8590
oni	-8591
▁ranking	-8592
▁claiming	-8593
▁advertising	-8594
▁Lud	-8595
▁Dec	-8596
No	-8597
ancouver	-8598
▁Movement	-8599
pop	-8600
▁Again	-8601
▁Veg	-8602
▁Treaty	-8603
▁platforms	-8604
▁ratio	-8605
▁abroad	-8606
▁absence	-8607
▁Yorkshire	-8608
usalem	-8609
▁worship	-8610
▁Muham	-8611
▁enjoyed	-8612
final	-8613
▁Hampshire	-8614
RS	-8615
▁switch	-8616
amo	-8617
▁Apple	-8618
atur	-8619
bound	-8620
▁Gill	-8621
▁predecess	-8622
▁phr	-8623
▁dub	-8624
▁relationships	-8625
▁regime	-8626
hythm	-8627
▁viewed	-8628
▁Neb	-8629
▁tribe	-8630
▁Carlos	-8631
▁deaths	-8632
▁160	-8633
▁frequent	-8634
▁Princess	-8635
oven	-8636
oom	-8637
▁passage	-8638
-200	-8639
▁anch	-8640
▁participants	-8641
49	-8642
▁Milan	-8643
hu	-8644
▁Hell	-8645
▁Benj	-8646
▁benefits	-8647
cour	-8648
▁associate	-8649
▁Dance	-8650
▁Finnish	-8651
▁41	-8652
▁categories	-8653
▁normally	-8654
▁Girls	-8655
keeper	-8656
▁tenure	-8657
contin	-8658
fare	-8659
▁crash	-8660
archy	-8661
illo	-8662
▁creative	-8663
▁governments	-8664
▁mathematics	-8665
▁1957	-8666
▁Such	-8667
struct	-8668
▁reportedly	-8669
▁Maj	-8670
▁AS	-8671
▁Bachelor	-8672
▁1943	-8673
▁illness	-8674
▁substantial	-8675
▁sustain	-8676
▁11.	-8677
rock	-8678
.'	-8679
▁Sax	-8680
▁Fall	-8681
▁Kit	-8682
asi	-8683
cut	-8684
ricted	-8685
▁poems	-8686
▁thousand	-8687
▁contribution	-8688
eta	-8689
▁Cass	-8690
▁characterized	-8691
▁apply	-8692
▁Capital	-8693
▁discip	-8694
▁Works	-8695
▁cabinet	-8696
istical	-8697
later	-8698
MC	-8699
athy	-8700
Am	-8701
▁Egyptian	-8702
▁commanded	-8703
▁behalf	-8704
En	-8705
▁styles	-8706
▁worksh	-8707
▁wants	-8708
onian	-8709
fam	-8710
riel	-8711
▁territories	-8712
▁Aqu	-8713
▁agents	-8714
▁viewers	-8715
Ad	-8716
▁Norm	-8717
Com	-8718
▁Gmina	-8719
▁Mediterranean	-8720
▁indicate	-8721
cht	-8722
▁rescue	-8723
▁picked	-8724
phan	-8725
▁corporate	-8726
▁relocated	-8727
rot	-8728
▁1955	-8729
orous	-8730
▁Gary	-8731
▁Evans	-8732
▁movies	-8733
▁attending	-8734
▁dominated	-8735
▁sponsored	-8736
terior	-8737
oda	-8738
▁lieutenant	-8739
▁fur	-8740
▁Emer	-8741
uters	-8742
▁missed	-8743
▁Motor	-8744
32	-8745
▁choose	-8746
iac	-8747
▁UEFA	-8748
nik	-8749
▁aimed	-8750
▁hearing	-8751
▁1936	-8752
style	-8753
▁Nad	-8754
oga	-8755
▁rebuilt	-8756
▁pure	-8757
▁duo	-8758
▁Vancouver	-8759
leton	-8760
ivation	-8761
▁construct	-8762
▁Delhi	-8763
▁Cricket	-8764
ijing	-8765
▁publicly	-8766
On	-8767
▁Rico	-8768
▁friendly	-8769
atab	-8770
▁chamber	-8771
▁Benn	-8772
▁DJ	-8773
–7	-8774
▁channels	-8775
▁Until	-8776
▁casual	-8777
▁everyone	-8778
▁commented	-8779
ML	-8780
▁Nam	-8781
▁sentenced	-8782
▁borders	-8783
▁Flore	-8784
▁indigenous	-8785
▁proc	-8786
▁Dh	-8787
▁Angl	-8788
▁tribes	-8789
uble	-8790
archers	-8791
▁broadcasting	-8792
▁mounted	-8793
▁Limited	-8794
mund	-8795
▁Jason	-8796
▁confer	-8797
ilty	-8798
▁phenomen	-8799
ocation	-8800
▁Mem	-8801
erk	-8802
▁tempor	-8803
▁detailed	-8804
▁produces	-8805
▁Bris	-8806
▁insurance	-8807
zes	-8808
▁1949	-8809
▁recovered	-8810
▁ranks	-8811
▁AR	-8812
▁constitution	-8813
▁transmission	-8814
▁Unit	-8815
▁component	-8816
▁integrated	-8817
▁truth	-8818
NC	-8819
▁Guy	-8820
▁Andy	-8821
▁funded	-8822
▁Wor	-8823
▁Bomb	-8824
▁myster	-8825
mentary	-8826
▁statue	-8827
rub	-8828
erbai	-8829
▁ceased	-8830
▁Chem	-8831
abil	-8832
▁Romanian	-8833
▁176	-8834
▁Similar	-8835
▁processing	-8836
oples	-8837
▁vast	-8838
▁170	-8839
▁resemb	-8840
▁Cher	-8841
▁1995.	-8842
▁Nev	-8843
▁Catal	-8844
iration	-8845
▁Ext	-8846
▁Rain	-8847
igs	-8848
▁Manh	-8849
andal	-8850
▁bid	-8851
▁schedule	-8852
▁Girl	-8853
eneration	-8854
irds	-8855
▁credits	-8856
▁patient	-8857
▁Ko	-8858
ashi	-8859
▁researchers	-8860
▁facing	-8861
▁hal	-8862
▁Hold	-8863
▁Madrid	-8864
▁(17	-8865
len	-8866
ivan	-8867
▁descent	-8868
away	-8869
lington	-8870
ewhere	-8871
▁Mans	-8872
iph	-8873
▁Draft	-8874
▁Ent	-8875
▁infl	-8876
▁SC	-8877
▁subd	-8878
ductions	-8879
▁Bible	-8880
▁adults	-8881
erg	-8882
▁Defence	-8883
▁bon	-8884
▁Player	-8885
▁Mitchell	-8886
ounsel	-8887
▁invent	-8888
avan	-8889
▁identify	-8890
▁What	-8891
▁ready	-8892
▁Mort	-8893
▁Jerusalem	-8894
▁stable	-8895
▁Warner	-8896
▁Johnny	-8897
▁Warren	-8898
usc	-8899
pent	-8900
▁dual	-8901
eor	-8902
cribed	-8903
▁facilit	-8904
▁strict	-8905
▁Afghanistan	-8906
iture	-8907
▁experimental	-8908
▁merchant	-8909
encing	-8910
anner	-8911
▁releases	-8912
▁Publ	-8913
▁Luther	-8914
▁disband	-8915
▁seeking	-8916
▁organised	-8917
▁affiliated	-8918
▁Rena	-8919
▁Imp	-8920
▁hope	-8921
▁spaces	-8922
▁swit	-8923
ocratic	-8924
▁excess	-8925
eria	-8926
▁struggle	-8927
▁asks	-8928
▁premiere	-8929
▁Having	-8930
▁Monte	-8931
ulating	-8932
85	-8933
high	-8934
▁Benjamin	-8935
▁holid	-8936
▁beautiful	-8937
commun	-8938
▁description	-8939
▁wet	-8940
▁file	-8941
▁inaugural	-8942
▁Bud	-8943
ohn	-8944
castle	-8945
▁Wing	-8946
▁Ivan	-8947
▁conservative	-8948
▁junction	-8949
▁Barry	-8950
▁param	-8951
ivate	-8952
▁weapon	-8953
ducted	-8954
▁foss	-8955
▁inse	-8956
▁talent	-8957
▁electron	-8958
pol	-8959
▁drugs	-8960
▁destruction	-8961
▁highlight	-8962
▁AI	-8963
boy	-8964
▁Muhammad	-8965
▁bacter	-8966
▁Lanka	-8967
▁Bristol	-8968
obi	-8969
reck	-8970
▁volumes	-8971
SS	-8972
issue	-8973
▁possession	-8974
▁Natural	-8975
▁patrol	-8976
▁simultane	-8977
▁$4	-8978
OM	-8979
▁Food	-8980
▁lap	-8981
▁string	-8982
▁principles	-8983
▁(196	-8984
▁rated	-8985
▁Fitz	-8986
▁Hud	-8987
▁Tol	-8988
▁Conn	-8989
▁1994.	-8990
elected	-8991
fielder	-8992
▁kit	-8993
▁Has	-8994
▁possibility	-8995
▁wat	-8996
▁implemented	-8997
▁Trump	-8998
▁intent	-8999
▁Azerbai	-9000
▁settlers	-9001
hour	-9002
▁1954	-9003
bane	-9004
▁earning	-9005
▁Fr	-9006
▁Serbian	-9007
▁deployed	-9008
ingham	-9009
▁responded	-9010
atin	-9011
▁roots	-9012
▁1987,	-9013
TE	-9014
arma	-9015
▁congreg	-9016
):	-9017
eo	-9018
▁const	-9019
▁publisher	-9020
lik	-9021
arks	-9022
aran	-9023
sequently	-9024
▁1992.	-9025
▁keeping	-9026
▁Jun	-9027
▁grandfather	-9028
▁extreme	-9029
▁belonged	-9030
folk	-9031
▁Maine	-9032
▁tribut	-9033
▁Mes	-9034
▁monitor	-9035
ouses	-9036
stad	-9037
▁immigrants	-9038
acre	-9039
rove	-9040
▁exposed	-9041
▁partly	-9042
▁Athletics	-9043
plicit	-9044
▁EU	-9045
▁assets	-9046
ulu	-9047
▁Pir	-9048
▁restoration	-9049
▁liberal	-9050
fish	-9051
▁Arena	-9052
▁secured	-9053
▁conj	-9054
▁doesn	-9055
geon	-9056
▁matters	-9057
▁athletes	-9058
▁Throughout	-9059
▁Falls	-9060
prene	-9061
▁Serbia	-9062
▁trap	-9063
▁Wayne	-9064
▁wel	-9065
ussian	-9066
▁sentence	-9067
▁Initially	-9068
▁scientists	-9069
LS	-9070
-20	-9071
otal	-9072
▁Michel	-9073
include	-9074
▁partially	-9075
▁displayed	-9076
fire	-9077
▁driven	-9078
▁Mi	-9079
emed	-9080
▁subsidiary	-9081
▁1988,	-9082
reprene	-9083
▁speaking	-9084
▁Rav	-9085
▁Harrison	-9086
▁Baker	-9087
▁borough	-9088
▁partners	-9089
▁Pierre	-9090
▁reveals	-9091
▁steps	-9092
Col	-9093
brid	-9094
▁Scient	-9095
▁Eug	-9096
mm	-9097
▁120	-9098
▁depict	-9099
gun	-9100
▁Communications	-9101
▁debt	-9102
▁:	-9103
alia	-9104
▁Kum	-9105
▁weekend	-9106
OR	-9107
▁decides	-9108
▁Story	-9109
▁NHL	-9110
▁Father	-9111
▁reven	-9112
▁Burg	-9113
▁Sid	-9114
▁voters	-9115
▁explo	-9116
▁wedding	-9117
▁Construction	-9118
minute	-9119
bel	-9120
▁runner	-9121
▁personality	-9122
▁Economic	-9123
▁Season	-9124
uits	-9125
ör	-9126
▁concentration	-9127
▁revenue	-9128
jab	-9129
▁discussed	-9130
iri	-9131
borne	-9132
▁generated	-9133
▁Ian	-9134
▁Nicholas	-9135
▁opponents	-9136
▁ninth	-9137
▁1910	-9138
▁gay	-9139
▁outer	-9140
▁Prom	-9141
▁1938	-9142
▁conservation	-9143
abet	-9144
▁sponsor	-9145
▁Zone	-9146
▁locally	-9147
▁gate	-9148
▁touring	-9149
▁drafted	-9150
ulum	-9151
iveness	-9152
▁1953	-9153
▁provision	-9154
▁leaf	-9155
Wh	-9156
▁Wang	-9157
▁Charlie	-9158
▁Grade	-9159
▁swimming	-9160
▁anyone	-9161
▁Baptist	-9162
▁apartment	-9163
▁Code	-9164
▁intellectual	-9165
én	-9166
▁civilian	-9167
▁Greater	-9168
▁provinces	-9169
▁neck	-9170
▁alcohol	-9171
▁Students	-9172
▁businessman	-9173
▁throne	-9174
▁neither	-9175
fers	-9176
▁MA	-9177
▁1986,	-9178
urers	-9179
▁1951	-9180
▁patron	-9181
▁Shang	-9182
▁moves	-9183
zant	-9184
uki	-9185
gate	-9186
West	-9187
onlyinclude	-9188
▁Beijing	-9189
rose	-9190
▁1945,	-9191
▁Salv	-9192
▁Organization	-9193
▁farmers	-9194
▁Vel	-9195
▁Verm	-9196
▁diverse	-9197
gorith	-9198
agre	-9199
▁palace	-9200
▁assemb	-9201
▁animated	-9202
NS	-9203
▁Tob	-9204
▁interpre	-9205
▁download	-9206
▁liquid	-9207
▁appropriate	-9208
▁establishing	-9209
▁wire	-9210
▁pursue	-9211
umbent	-9212
Ex	-9213
▁terminal	-9214
▁Fine	-9215
▁43	-9216
ennial	-9217
▁abuse	-9218
▁Iv	-9219
inating	-9220
▁focuses	-9221
incorporated	-9222
aton	-9223
▁desire	-9224
▁judges	-9225
▁Om	-9226
▁excav	-9227
▁Parish	-9228
closed	-9229
▁terminus	-9230
▁Orange	-9231
arged	-9232
acht	-9233
▁Last	-9234
acks	-9235
▁Manhattan	-9236
▁Nigeria	-9237
unc	-9238
▁Conserv	-9239
▁jum	-9240
▁charity	-9241
rams	-9242
PR	-9243
▁Seven	-9244
▁Reform	-9245
iciency	-9246
▁Caribbean	-9247
agar	-9248
ugs	-9249
▁Track	-9250
▁Frances	-9251
▁legs	-9252
▁Pav	-9253
▁signs	-9254
▁timber	-9255
▁advice	-9256
body	-9257
owed	-9258
▁exclusively	-9259
▁(9	-9260
▁completing	-9261
▁Mars	-9262
▁hat	-9263
▁Clinton	-9264
uable	-9265
▁Trail	-9266
▁mines	-9267
1).	-9268
▁closer	-9269
▁Jama	-9270
eenth	-9271
▁lock	-9272
-7	-9273
▁Record	-9274
▁nurs	-9275
▁householder	-9276
▁Latino	-9277
▁mac	-9278
▁involves	-9279
▁1,000	-9280
▁Box	-9281
ambig	-9282
▁Ice	-9283
BM	-9284
▁Clar	-9285
▁texts	-9286
onymous	-9287
▁Members	-9288
▁Steel	-9289
▁"",	-9290
inental	-9291
▁Bengal	-9292
▁falling	-9293
▁unsuccessful	-9294
▁Ins	-9295
▁Chang	-9296
▁convin	-9297
▁mor	-9298
▁licensed	-9299
▁Griff	-9300
▁Parker	-9301
▁Cart	-9302
▁qualify	-9303
▁Branch	-9304
▁Death	-9305
span	-9306
▁46	-9307
▁sailed	-9308
▁attorney	-9309
▁1918	-9310
▁resort	-9311
uru	-9312
▁electrical	-9313
▁rub	-9314
▁initiated	-9315
▁escort	-9316
▁Alt	-9317
▁Tele	-9318
hill	-9319
▁cash	-9320
scale	-9321
▁tunnel	-9322
▁dismissed	-9323
DC	-9324
▁Hig	-9325
▁Ric	-9326
▁Therefore	-9327
▁Adela	-9328
▁Gray	-9329
▁Mess	-9330
acle	-9331
▁deck	-9332
▁Much	-9333
▁Start	-9334
abor	-9335
▁Rangers	-9336
▁Phoen	-9337
▁ther	-9338
▁Tun	-9339
eters	-9340
▁increases	-9341
▁rising	-9342
▁Commissioner	-9343
▁lose	-9344
▁Nation	-9345
▁cemetery	-9346
▁shock	-9347
▁clearly	-9348
▁profit	-9349
▁imperial	-9350
resident	-9351
▁2020,	-9352
oria	-9353
▁Vlad	-9354
44	-9355
▁Obs	-9356
endar	-9357
▁remove	-9358
▁initiative	-9359
▁compens	-9360
▁honorary	-9361
uper	-9362
▁Trinity	-9363
▁Sultan	-9364
▁1993.	-9365
▁Furthermore	-9366
▁drummer	-9367
▁Ship	-9368
ancellor	-9369
▁communications	-9370
▁Rest	-9371
▁Tak	-9372
azines	-9373
▁balance	-9374
▁Culture	-9375
▁Racing	-9376
▁scholarship	-9377
▁Vas	-9378
▁sessions	-9379
▁Ru	-9380
▁coalition	-9381
song	-9382
▁Psych	-9383
▁eldest	-9384
▁bright	-9385
roph	-9386
▁prest	-9387
▁Chel	-9388
▁lowest	-9389
▁circumstances	-9390
▁solar	-9391
▁limits	-9392
▁repair	-9393
▁Goth	-9394
▁links	-9395
ser	-9396
▁merger	-9397
▁1991.	-9398
▁substitute	-9399
weet	-9400
▁Arabic	-9401
▁stim	-9402
▁cann	-9403
▁principle	-9404
▁Josh	-9405
▁IC	-9406
▁assisted	-9407
▁cancelled	-9408
▁Jenn	-9409
▁Tib	-9410
▁demonstrated	-9411
▁migr	-9412
▁Kos	-9413
▁persu	-9414
bul	-9415
▁Dead	-9416
▁Tang	-9417
▁1928	-9418
▁1985,	-9419
▁Together	-9420
▁Charlotte	-9421
mo	-9422
▁survive	-9423
▁ocean	-9424
WA	-9425
▁47	-9426
▁municipalities	-9427
▁Cha	-9428
▁isolated	-9429
▁traditions	-9430
▁essential	-9431
▁1890	-9432
iliar	-9433
unct	-9434
case	-9435
▁mal	-9436
▁Hawaii	-9437
▁Municipality	-9438
care	-9439
”.	-9440
▁connecting	-9441
▁1990.	-9442
▁upgrad	-9443
▁ongoing	-9444
▁pull	-9445
▁coaching	-9446
▁housed	-9447
▁traded	-9448
▁conclusion	-9449
mel	-9450
▁Allied	-9451
▁Tu	-9452
▁withdrew	-9453
▁(15	-9454
▁fighter	-9455
enger	-9456
▁sculpture	-9457
▁Abbey	-9458
fly	-9459
▁bay	-9460
pany	-9461
▁Romanized	-9462
inos	-9463
▁beating	-9464
▁fold	-9465
▁suitable	-9466
▁romantic	-9467
rehensive	-9468
▁Guinea	-9469
▁Persian	-9470
▁minority	-9471
▁guilty	-9472
▁Lore	-9473
▁belonging	-9474
▁Abdul	-9475
▁notice	-9476
▁vs	-9477
▁decisions	-9478
athered	-9479
▁margin	-9480
▁13.	-9481
ampton	-9482
▁labour	-9483
idal	-9484
▁Alice	-9485
▁evac	-9486
▁charter	-9487
▁thereafter	-9488
▁dispute	-9489
▁Ple	-9490
▁underw	-9491
bes	-9492
ching	-9493
▁helicop	-9494
▁indicates	-9495
oded	-9496
itual	-9497
▁crossed	-9498
mont	-9499
▁treaty	-9500
▁(6	-9501
▁submitted	-9502
▁internationally	-9503
▁Muslims	-9504
▁coff	-9505
arked	-9506
▁continuous	-9507
opes	-9508
▁fitted	-9509
▁1000	-9510
▁Hunter	-9511
▁id	-9512
▁discontin	-9513
maker	-9514
▁algorith	-9515
▁Standard	-9516
▁Bron	-9517
▁opponent	-9518
47	-9519
▁closing	-9520
▁Ridge	-9521
▁Lad	-9522
▁Iranian	-9523
▁strategic	-9524
▁eat	-9525
making	-9526
nowiki	-9527
▁stem	-9528
▁superior	-9529
▁regulations	-9530
▁Assistant	-9531
▁Gaz	-9532
▁patterns	-9533
▁activist	-9534
95	-9535
▁soldier	-9536
▁acknowled	-9537
▁breaking	-9538
▁earthqu	-9539
▁Peninsula	-9540
▁congress	-9541
▁doubles	-9542
sis	-9543
pla	-9544
rystal	-9545
▁Finally	-9546
▁sympt	-9547
▁wearing	-9548
▁else	-9549
itable	-9550
elect	-9551
▁Broadcasting	-9552
8),	-9553
vi	-9554
▁Aer	-9555
▁pod	-9556
▁Call	-9557
▁Eston	-9558
sters	-9559
▁3-	-9560
▁requested	-9561
▁agree	-9562
akia	-9563
▁Wes	-9564
▁alliance	-9565
▁Glen	-9566
▁originated	-9567
olph	-9568
▁Section	-9569
▁sight	-9570
flow	-9571
foot	-9572
▁Adelaide	-9573
▁AA	-9574
▁soul	-9575
▁Isa	-9576
▁battalion	-9577
▁Universal	-9578
overe	-9579
▁;	-9580
▁seeing	-9581
▁NS	-9582
▁Mak	-9583
▁Mall	-9584
itis	-9585
▁golf	-9586
celand	-9587
▁Hom	-9588
▁dominant	-9589
leyball	-9590
iler	-9591
▁heir	-9592
▁manage	-9593
▁radical	-9594
▁Byzant	-9595
▁Electric	-9596
▁monastery	-9597
via	-9598
aja	-9599
▁spr	-9600
▁organis	-9601
▁locomotives	-9602
▁Pradesh	-9603
▁reduction	-9604
▁Turner	-9605
▁YouT	-9606
ipped	-9607
▁Wrestling	-9608
▁1937	-9609
▁Alberta	-9610
▁Face	-9611
ifies	-9612
▁cargo	-9613
▁Obl	-9614
▁colors	-9615
▁Near	-9616
certain	-9617
▁Maced	-9618
▁sang	-9619
▁Attorney	-9620
▁gross	-9621
▁cattle	-9622
▁Century	-9623
viously	-9624
hum	-9625
andy	-9626
uction	-9627
▁camps	-9628
▁Poly	-9629
▁operator	-9630
mediate	-9631
▁Cob	-9632
▁arrangement	-9633
▁hypot	-9634
▁productions	-9635
▁boundaries	-9636
▁believes	-9637
uka	-9638
ME	-9639
▁manufactured	-9640
language	-9641
▁marry	-9642
▁comed	-9643
▁Nova	-9644
▁aggress	-9645
▁surve	-9646
eton	-9647
winning	-9648
▁fifteen	-9649
▁false	-9650
▁integr	-9651
▁Syria	-9652
▁compla	-9653
gam	-9654
▁legislative	-9655
▁marks	-9656
▁Net	-9657
▁Friday	-9658
ère	-9659
▁Princip	-9660
▁1935	-9661
▁orchestra	-9662
▁Books	-9663
▁ninet	-9664
▁doors	-9665
▁tort	-9666
▁Advent	-9667
▁dangerous	-9668
▁1929	-9669
arat	-9670
▁52	-9671
Can	-9672
▁input	-9673
▁settlements	-9674
▁Pra	-9675
acts	-9676
▁Cuba	-9677
▁mechanism	-9678
▁unincorporated	-9679
▁jurisdiction	-9680
tr	-9681
▁Sr	-9682
▁expand	-9683
▁Barbara	-9684
▁playoffs	-9685
▁Advis	-9686
▁traditionally	-9687
bus	-9688
▁banned	-9689
▁Soccer	-9690
▁travelled	-9691
▁outbreak	-9692
▁strengthen	-9693
▁spin	-9694
▁serial	-9695
▁Microsoft	-9696
▁Our	-9697
▁tanks	-9698
▁controll	-9699
▁emperor	-9700
▁Who	-9701
aced	-9702
▁magazines	-9703
▁tool	-9704
▁Kirk	-9705
▁temperatures	-9706
▁1984,	-9707
▁Ug	-9708
▁Lis	-9709
▁1924	-9710
▁Maz	-9711
▁wealthy	-9712
▁manif	-9713
amese	-9714
▁1980,	-9715
_1	-9716
▁600	-9717
▁physics	-9718
feld	-9719
▁Grad	-9720
▁rand	-9721
▁electricity	-9722
▁conventional	-9723
▁respective	-9724
▁Jonathan	-9725
sa	-9726
▁devoted	-9727
▁py	-9728
▁Jazz	-9729
aha	-9730
▁clothing	-9731
▁landed	-9732
▁manufacturer	-9733
▁index	-9734
▁168	-9735
rypt	-9736
▁festivals	-9737
asant	-9738
▁Brisbane	-9739
quir	-9740
▁1880	-9741
onies	-9742
▁Buffalo	-9743
▁config	-9744
▁photography	-9745
▁discussion	-9746
▁recognised	-9747
▁eligible	-9748
icular	-9749
▁editions	-9750
▁extensively	-9751
▁ideal	-9752
▁crimes	-9753
▁practical	-9754
▁gard	-9755
▁Studio	-9756
imir	-9757
iya	-9758
▁Archbishop	-9759
▁constitutional	-9760
▁industries	-9761
ieth	-9762
▁•	-9763
def	-9764
▁Sign	-9765
▁Peru	-9766
▁permission	-9767
▁Cinc	-9768
▁torn	-9769
▁clinical	-9770
▁Socialist	-9771
46	-9772
lett	-9773
▁1914	-9774
▁wrestling	-9775
▁nucle	-9776
uez	-9777
itime	-9778
▁trials	-9779
atar	-9780
▁Springs	-9781
▁grows	-9782
▁Comple	-9783
ierra	-9784
▁exhibited	-9785
nex	-9786
owski	-9787
rows	-9788
▁negotiations	-9789
▁Pant	-9790
▁rect	-9791
▁Currently	-9792
▁Lloyd	-9793
▁fee	-9794
▁Fisher	-9795
3).	-9796
▁significance	-9797
▁eggs	-9798
▁drivers	-9799
▁Know	-9800
▁hunting	-9801
apping	-9802
▁Grey	-9803
▁Hudson	-9804
▁Barcel	-9805
▁tons	-9806
game	-9807
▁violent	-9808
uart	-9809
▁origins	-9810
olition	-9811
amics	-9812
▁overseas	-9813
trans	-9814
▁Cad	-9815
▁14.	-9816
▁YouTube	-9817
▁hear	-9818
▁diver	-9819
▁Challenge	-9820
▁mechanical	-9821
▁reorgan	-9822
acc	-9823
▁cinema	-9824
–201	-9825
▁Oliver	-9826
▁random	-9827
AA	-9828
ygen	-9829
▁rarely	-9830
▁alter	-9831
▁photographs	-9832
bing	-9833
iche	-9834
▁Bour	-9835
▁ha	-9836
▁twin	-9837
▁expensive	-9838
▁pale	-9839
▁els	-9840
▁Theod	-9841
▁Philippine	-9842
family	-9843
▁keyboard	-9844
▁connections	-9845
▁propag	-9846
▁Pon	-9847
▁implementation	-9848
▁MS	-9849
▁RAF	-9850
▁promoting	-9851
▁linear	-9852
▁baby	-9853
▁protests	-9854
31	-9855
▁Shel	-9856
ambiguation	-9857
▁influences	-9858
auge	-9859
phew	-9860
▁Lag	-9861
▁accord	-9862
▁ride	-9863
▁Ref	-9864
othy	-9865
▁1944,	-9866
▁1917	-9867
arus	-9868
▁Munich	-9869
▁Tigers	-9870
▁reaches	-9871
▁machines	-9872
aku	-9873
▁salt	-9874
▁Collins	-9875
▁Sig	-9876
▁Ja	-9877
▁165	-9878
▁Males	-9879
▁Years	-9880
▁Commons	-9881
▁1989.	-9882
▁sisters	-9883
▁Pil	-9884
▁jury	-9885
▁elsewhere	-9886
▁surviv	-9887
abric	-9888
▁Punjab	-9889
▁genetic	-9890
▁Diocese	-9891
▁Symphony	-9892
▁rig	-9893
zed	-9894
▁Stevens	-9895
▁Progress	-9896
▁flights	-9897
▁restricted	-9898
lane	-9899
▁venture	-9900
▁Clay	-9901
▁CP	-9902
formerly	-9903
▁pictures	-9904
▁Daily	-9905
▁Kap	-9906
▁Borough	-9907
▁vul	-9908
▁prices	-9909
▁Hav	-9910
▁Eventually	-9911
▁defended	-9912
▁Aber	-9913
▁surpr	-9914
▁Coal	-9915
▁Municipal	-9916
anim	-9917
▁ranging	-9918
oked	-9919
innati	-9920
roid	-9921
▁transmit	-9922
arrier	-9923
▁(8	-9924
▁Bulgar	-9925
mits	-9926
▁Mason	-9927
eli	-9928
▁Alaska	-9929
May	-9930
kov	-9931
disambiguation	-9932
bow	-9933
esc	-9934
rez	-9935
ixon	-9936
▁outstanding	-9937
▁looked	-9938
▁pip	-9939
▁acres	-9940
▁eigh	-9941
▁discrim	-9942
▁subt	-9943
▁Leeds	-9944
▁acquisition	-9945
▁Iceland	-9946
▁departed	-9947
▁().	-9948
achment	-9949
▁Anglo	-9950
▁Moham	-9951
ishers	-9952
vision	-9953
type	-9954
▁Speed	-9955
▁Craig	-9956
issions	-9957
she	-9958
▁bases	-9959
zing	-9960
▁pages	-9961
▁Catherine	-9962
▁Amaz	-9963
orne	-9964
▁Vincent	-9965
▁Dakota	-9966
▁latest	-9967
▁delivery	-9968
▁Late	-9969
▁campaigns	-9970
occ	-9971
▁clock	-9972
▁Protestant	-9973
IL	-9974
enberg	-9975
▁PhD	-9976
holm	-9977
▁slaves	-9978
▁preferred	-9979
Or	-9980
▁participating	-9981
▁conversion	-9982
▁empt	-9983
▁rebell	-9984
▁Control	-9985
▁remix	-9986
▁exclud	-9987
▁accessible	-9988
▁approached	-9989
▁Appe	-9990
encer	-9991
tical	-9992
▁riding	-9993
works	-9994
At	-9995
▁Democrat	-9996
▁Mother	-9997
▁concerning	-9998
▁°	-9999
▁usual	-10000
released	-10001
▁enrolled	-10002
ethe	-10003
arv	-10004
▁gast	-10005
▁Model	-10006
awn	-10007
▁noble	-10008
▁Cultural	-10009
▁1983,	-10010
▁1982,	-10011
oj	-10012
urst	-10013
▁topics	-10014
▁1933	-10015
▁Saints	-10016
▁condem	-10017
▁ritual	-10018
▁Athens	-10019
othe	-10020
▁scores	-10021
▁colleges	-10022
▁canal	-10023
▁Democrats	-10024
ups	-10025
▁10,000	-10026
▁LP	-10027
▁proteins	-10028
month	-10029
▁Dod	-10030
▁collaborated	-10031
▁avo	-10032
venth	-10033
▁1934	-10034
onds	-10035
▁Conc	-10036
aser	-10037
▁contributing	-10038
▁battery	-10039
possible	-10040
elfare	-10041
eston	-10042
▁Urban	-10043
Donald	-10044
▁ties	-10045
outheastern	-10046
▁Fact	-10047
▁VI	-10048
▁shift	-10049
▁Hugh	-10050
▁interviews	-10051
▁rum	-10052
▁caps	-10053
▁helps	-10054
jection	-10055
icking	-10056
▁evolved	-10057
HA	-10058
ouncill	-10059
▁Yang	-10060
▁Digital	-10061
omon	-10062
▁kg	-10063
▁argument	-10064
▁inducted	-10065
▁unlike	-10066
▁identical	-10067
▁Tag	-10068
▁managing	-10069
omic	-10070
▁Barcelona	-10071
▁Ral	-10072
stance	-10073
▁describing	-10074
▁Cincinnati	-10075
▁exercise	-10076
▁Colombia	-10077
▁1972,	-10078
▁1979,	-10079
▁convicted	-10080
▁waste	-10081
▁Blues	-10082
▁Pictures	-10083
▁Christians	-10084
▁guarant	-10085
scar	-10086
▁Serge	-10087
▁intern	-10088
▁Norfolk	-10089
▁layer	-10090
angular	-10091
▁pointed	-10092
▁efficient	-10093
▁petition	-10094
▁800	-10095
▁dollars	-10096
cient	-10097
▁Sche	-10098
ibilities	-10099
Pr	-10100
▁Plant	-10101
▁CS	-10102
enia	-10103
▁specialized	-10104
▁Hem	-10105
▁Hamb	-10106
▁1922	-10107
▁corresponding	-10108
▁decide	-10109
▁preparation	-10110
▁fill	-10111
▁farming	-10112
▁wider	-10113
▁Territory	-10114
▁libr	-10115
▁funeral	-10116
▁spend	-10117
org	-10118
▁Small	-10119
▁16.	-10120
▁winds	-10121
▁Lan	-10122
▁tribute	-10123
▁Secret	-10124
aba	-10125
▁subsc	-10126
sha	-10127
▁rocks	-10128
▁incom	-10129
onomous	-10130
raham	-10131
pm	-10132
▁Ye	-10133
▁biological	-10134
▁Hebrew	-10135
▁exposure	-10136
▁shopping	-10137
▁Mult	-10138
▁rid	-10139
▁designation	-10140
▁belongs	-10141
bin	-10142
▁Rogers	-10143
▁Qual	-10144
▁Shar	-10145
▁sounds	-10146
9),	-10147
apped	-10148
▁tot	-10149
arriors	-10150
▁giant	-10151
▁1932	-10152
annon	-10153
▁Celt	-10154
▁Action	-10155
▁smooth	-10156
▁Constit	-10157
tar	-10158
▁Len	-10159
▁mos	-10160
asha	-10161
▁Pack	-10162
▁Herbert	-10163
▁Classic	-10164
▁kne	-10165
▁simpl	-10166
▁ambass	-10167
ON	-10168
▁Systems	-10169
itarian	-10170
▁Jerry	-10171
▁filming	-10172
▁Barn	-10173
▁Nevada	-10174
▁Terry	-10175
▁Freedom	-10176
▁Gun	-10177
▁nut	-10178
▁15.	-10179
▁Thir	-10180
▁certified	-10181
▁Diam	-10182
▁aqu	-10183
▁Armenian	-10184
▁Former	-10185
▁Masters	-10186
▁PS	-10187
▁submarine	-10188
▁$5	-10189
▁clim	-10190
▁1970,	-10191
▁inherited	-10192
ipper	-10193
▁1968,	-10194
families	-10195
ean	-10196
olen	-10197
▁victim	-10198
▁resignation	-10199
rors	-10200
▁Pin	-10201
▁pupils	-10202
▁Saudi	-10203
▁attempting	-10204
▁thin	-10205
cz	-10206
itional	-10207
▁Jefferson	-10208
Eng	-10209
▁comfort	-10210
▁disch	-10211
raska	-10212
rooms	-10213
▁Luis	-10214
▁pseud	-10215
▁inspiration	-10216
7).	-10217
▁arriving	-10218
▁1974,	-10219
▁Bath	-10220
▁Bog	-10221
▁mainstream	-10222
▁por	-10223
strong	-10224
▁execution	-10225
▁cooperation	-10226
nda	-10227
▁circle	-10228
▁beetle	-10229
rupted	-10230
▁Had	-10231
▁Phoenix	-10232
▁depression	-10233
▁saved	-10234
▁Mind	-10235
▁sequel	-10236
▁geomet	-10237
▁lingu	-10238
▁1988.	-10239
▁flew	-10240
▁ward	-10241
▁1925	-10242
▁Lov	-10243
▁Circuit	-10244
▁absol	-10245
▁inhib	-10246
sterdam	-10247
▁taxes	-10248
▁Case	-10249
▁guide	-10250
▁54	-10251
▁Nepal	-10252
▁Pay	-10253
▁Stre	-10254
compass	-10255
▁Bright	-10256
▁datab	-10257
▁Those	-10258
▁framework	-10259
▁coordin	-10260
▁explains	-10261
▁Provin	-10262
gio	-10263
▁Gate	-10264
py	-10265
sor	-10266
garian	-10267
▁Report	-10268
▁Buddhist	-10269
cycl	-10270
▁march	-10271
ivia	-10272
▁birthday	-10273
▁slowly	-10274
▁Lead	-10275
▁depicted	-10276
▁vertical	-10277
▁Industrial	-10278
iour	-10279
▁shops	-10280
▁cavalry	-10281
▁enthus	-10282
▁summit	-10283
▁1912	-10284
▁hyper	-10285
▁Azerbaijan	-10286
▁relegated	-10287
One	-10288
▁graduation	-10289
▁Herman	-10290
▁difficulties	-10291
emies	-10292
▁Perry	-10293
uzz	-10294
aration	-10295
RT	-10296
▁1921	-10297
▁Ground	-10298
▁1975,	-10299
hent	-10300
▁Living	-10301
igo	-10302
eties	-10303
enos	-10304
▁tag	-10305
▁alive	-10306
▁commenced	-10307
▁departments	-10308
ffect	-10309
ido	-10310
▁Admiral	-10311
▁ju	-10312
▁moral	-10313
▁tournaments	-10314
▁Kl	-10315
▁Chester	-10316
▁measured	-10317
▁Mul	-10318
▁1981,	-10319
▁internet	-10320
▁bag	-10321
▁cruc	-10322
▁acceler	-10323
ivic	-10324
cos	-10325
▁beauty	-10326
free	-10327
▁Tech	-10328
▁Obama	-10329
▁rib	-10330
rawn	-10331
two	-10332
▁gram	-10333
▁neutral	-10334
▁references	-10335
▁distinction	-10336
▁Argentine	-10337
Qu	-10338
power	-10339
▁exclusive	-10340
▁Magn	-10341
▁visits	-10342
▁cyl	-10343
▁assists	-10344
icing	-10345
▁56	-10346
▁capita	-10347
▁Confederate	-10348
▁powered	-10349
isp	-10350
ospitals	-10351
▁permitted	-10352
▁resumed	-10353
▁Ring	-10354
▁1927	-10355
▁bachelor	-10356
▁Full	-10357
▁walking	-10358
▁Minor	-10359
▁columns	-10360
▁burned	-10361
▁les	-10362
▁250	-10363
▁historians	-10364
▁guests	-10365
rep	-10366
▁Newcastle	-10367
▁interpretation	-10368
▁fundamental	-10369
▁recalled	-10370
▁nephew	-10371
▁Napole	-10372
oi	-10373
▁receives	-10374
▁Pel	-10375
▁Bert	-10376
▁Hope	-10377
▁(16	-10378
keley	-10379
▁copper	-10380
▁Vegas	-10381
ais	-10382
MI	-10383
▁Songs	-10384
▁51	-10385
▁spir	-10386
▁Kenya	-10387
lee	-10388
athon	-10389
ometimes	-10390
▁Cinem	-10391
wig	-10392
eway	-10393
ortion	-10394
▁carries	-10395
▁Faculty	-10396
▁Brew	-10397
▁(190	-10398
▁Cou	-10399
EP	-10400
▁Christianity	-10401
▁Lions	-10402
▁distinctive	-10403
itic	-10404
▁torped	-10405
▁conven	-10406
▁Liga	-10407
▁Comics	-10408
nan	-10409
▁quarterback	-10410
▁Mend	-10411
▁horror	-10412
ificial	-10413
▁ski	-10414
▁Antar	-10415
▁Steven	-10416
iev	-10417
▁consolid	-10418
▁informed	-10419
//	-10420
berry	-10421
▁nam	-10422
▁Sah	-10423
▁thinking	-10424
▁Moroc	-10425
▁Storm	-10426
▁forg	-10427
▁peoples	-10428
atra	-10429
▁sample	-10430
▁gallery	-10431
▁tens	-10432
▁reporter	-10433
ogle	-10434
▁58	-10435
▁stead	-10436
▁prove	-10437
▁Hann	-10438
▁Sad	-10439
▁challenges	-10440
helm	-10441
▁till	-10442
▁Oblast	-10443
▁decorated	-10444
▁Fem	-10445
▁tight	-10446
▁Lock	-10447
▁excellent	-10448
▁tub	-10449
▁1978,	-10450
▁intercept	-10451
▁confess	-10452
▁reporting	-10453
▁finance	-10454
▁1923	-10455
▁1931	-10456
▁ticket	-10457
▁neuro	-10458
▁Sz	-10459
▁narrative	-10460
▁fulf	-10461
▁grades	-10462
▁remote	-10463
mother	-10464
▁Nebraska	-10465
▁Hond	-10466
▁hence	-10467
▁Joy	-10468
▁usage	-10469
▁Industry	-10470
▁legislature	-10471
▁characteristic	-10472
iability	-10473
▁Woman	-10474
uber	-10475
▁Gonz	-10476
▁2-	-10477
▁Snow	-10478
000,	-10479
▁Seb	-10480
▁Jess	-10481
▁perspective	-10482
▁pulled	-10483
▁Croatia	-10484
▁Ghana	-10485
▁placing	-10486
▁CC	-10487
▁escaped	-10488
vol	-10489
▁Mahar	-10490
▁demands	-10491
▁Bav	-10492
▁reducing	-10493
▁Ethiop	-10494
rise	-10495
▁Ult	-10496
chers	-10497
▁writings	-10498
▁atmosphere	-10499
▁1986.	-10500
angle	-10501
velt	-10502
▁relevant	-10503
▁1926	-10504
▁disbanded	-10505
▁Bald	-10506
▁compiled	-10507
▁1976,	-10508
▁maps	-10509
tic	-10510
▁kidn	-10511
▁Costa	-10512
▁affair	-10513
German	-10514
▁raising	-10515
▁diplomatic	-10516
iginal	-10517
▁Sor	-10518
▁simultaneously	-10519
cules	-10520
▁Keith	-10521
▁cloud	-10522
rington	-10523
▁comprises	-10524
▁Fif	-10525
▁Stars	-10526
▁Rivers	-10527
00,	-10528
osexual	-10529
▁Edwards	-10530
▁disapp	-10531
length	-10532
four	-10533
▁aboard	-10534
▁crosses	-10535
▁Compet	-10536
▁166	-10537
▁resear	-10538
▁inhab	-10539
anne	-10540
–10	-10541
▁Helen	-10542
appy	-10543
▁symptoms	-10544
▁1987.	-10545
▁enters	-10546
▁Warsaw	-10547
▁physician	-10548
iji	-10549
▁Drive	-10550
▁murdered	-10551
▁Historical	-10552
▁entreprene	-10553
▁Buch	-10554
▁Side	-10555
▁Tas	-10556
▁deemed	-10557
▁instruction	-10558
alam	-10559
▁Pedro	-10560
▁answer	-10561
▁odd	-10562
▁options	-10563
noon	-10564
▁bath	-10565
▁sitting	-10566
▁Professional	-10567
▁Amsterdam	-10568
▁predecessor	-10569
▁Fu	-10570
▁endors	-10571
▁"[	-10572
▁coinc	-10573
▁coached	-10574
▁Luke	-10575
▁tested	-10576
▁Merc	-10577
▁coup	-10578
▁Political	-10579
ampa	-10580
▁mamm	-10581
▁Petersburg	-10582
▁jump	-10583
▁residing	-10584
▁midfielder	-10585
▁annex	-10586
stown	-10587
gom	-10588
▁hills	-10589
▁1971,	-10590
▁gear	-10591
–15	-10592
▁resid	-10593
was	-10594
▁interchange	-10595
▁Exper	-10596
▁Block	-10597
▁Abu	-10598
▁promin	-10599
▁semif	-10600
▁targets	-10601
▁seemed	-10602
▁Ve	-10603
▁Holland	-10604
▁attendance	-10605
▁Cold	-10606
haus	-10607
Best	-10608
▁fighters	-10609
▁CN	-10610
▁ris	-10611
▁difficulty	-10612
clos	-10613
▁ministry	-10614
▁blow	-10615
▁portrait	-10616
oons	-10617
▁compound	-10618
▁phrase	-10619
42	-10620
▁Harbor	-10621
▁Denver	-10622
oking	-10623
▁Curt	-10624
▁Florence	-10625
enburg	-10626
://	-10627
▁1942,	-10628
▁Video	-10629
▁partial	-10630
rous	-10631
▁1985.	-10632
▁1969,	-10633
▁Alger	-10634
▁elementary	-10635
▁coins	-10636
▁brigade	-10637
▁Henri	-10638
▁Brun	-10639
▁Murphy	-10640
irms	-10641
▁root	-10642
▁tenth	-10643
▁Chapel	-10644
▁incumbent	-10645
Sm	-10646
written	-10647
▁coat	-10648
▁nearest	-10649
▁switched	-10650
▁carrier	-10651
▁technologies	-10652
▁awareness	-10653
▁169	-10654
▁doct	-10655
▁economics	-10656
▁Jar	-10657
ishops	-10658
▁ages	-10659
▁encompass	-10660
▁Kath	-10661
▁honors	-10662
▁forty	-10663
▁revol	-10664
▁thor	-10665
▁1870	-10666
▁restaurants	-10667
▁66	-10668
–17	-10669
▁supplied	-10670
idad	-10671
irk	-10672
▁Technical	-10673
▁Mol	-10674
▁Shaw	-10675
ilia	-10676
▁sugar	-10677
▁diseases	-10678
▁emphasis	-10679
▁Spirit	-10680
ullivan	-10681
▁slave	-10682
BO	-10683
▁mans	-10684
▁Yale	-10685
err	-10686
And	-10687
▁unless	-10688
osy	-10689
rague	-10690
▁gal	-10691
▁Based	-10692
▁pairs	-10693
▁removal	-10694
orp	-10695
ablished	-10696
lection	-10697
▁Chair	-10698
▁Hob	-10699
▁1973,	-10700
▁1945.	-10701
▁accompany	-10702
▁spell	-10703
▁objective	-10704
child	-10705
phal	-10706
-17	-10707
▁Manuel	-10708
▁assum	-10709
▁Robin	-10710
▁enforcement	-10711
▁fasc	-10712
▁Players	-10713
ospel	-10714
▁6–	-10715
rency	-10716
▁Pic	-10717
oka	-10718
▁Mann	-10719
DF	-10720
ected	-10721
disc	-10722
▁Gay	-10723
irts	-10724
▁Policy	-10725
▁pharm	-10726
▁Esc	-10727
▁chron	-10728
entle	-10729
overed	-10730
▁variable	-10731
ificate	-10732
pin	-10733
▁enroll	-10734
▁Bund	-10735
▁1967,	-10736
▁regul	-10737
▁Bobby	-10738
▁studios	-10739
▁deter	-10740
▁siege	-10741
▁steep	-10742
▁worst	-10743
▁bats	-10744
rien	-10745
▁€	-10746
rus	-10747
▁drums	-10748
▁butter	-10749
oric	-10750
▁closure	-10751
▁Venice	-10752
iscopal	-10753
ums	-10754
front	-10755
otten	-10756
▁prol	-10757
aco	-10758
▁recovery	-10759
iko	-10760
etary	-10761
▁sket	-10762
▁Ing	-10763
▁kilometers	-10764
▁1915	-10765
▁Hunt	-10766
▁recur	-10767
▁Š	-10768
upt	-10769
rary	-10770
▁exhibitions	-10771
oro	-10772
▁telling	-10773
▁Yam	-10774
▁historically	-10775
▁delayed	-10776
▁Stuart	-10777
▁2020.	-10778
▁pushed	-10779
▁fat	-10780
formance	-10781
▁soph	-10782
▁(10	-10783
▁hybrid	-10784
▁Grace	-10785
▁Bulgarian	-10786
▁descendants	-10787
that	-10788
▁meat	-10789
▁scope	-10790
▁recipient	-10791
▁1941,	-10792
▁Roose	-10793
ricketer	-10794
▁exactly	-10795
▁1977,	-10796
▁emotional	-10797
atche	-10798
▁dissolved	-10799
▁Ord	-10800
stand	-10801
▁ske	-10802
▁Sony	-10803
▁outdoor	-10804
zyme	-10805
▁Gust	-10806
▁orn	-10807
▁Delaware	-10808
▁Harold	-10809
▁tourist	-10810
ffield	-10811
▁sung	-10812
▁speaker	-10813
pow	-10814
▁chrom	-10815
▁improvements	-10816
▁Giants	-10817
▁temporarily	-10818
thlete	-10819
▁plain	-10820
▁connects	-10821
izer	-10822
tense	-10823
▁gran	-10824
▁Gw	-10825
▁Wu	-10826
▁dramatic	-10827
lax	-10828
▁essentially	-10829
▁Formula	-10830
▁undergraduate	-10831
▁rout	-10832
▁buses	-10833
▁Gas	-10834
▁Sierra	-10835
▁sure	-10836
▁variant	-10837
▁retreat	-10838
▁affiliate	-10839
▁pian	-10840
▁approaches	-10841
iper	-10842
▁Hughes	-10843
▁Bulgaria	-10844
▁Ton	-10845
ön	-10846
▁Type	-10847
▁comprehensive	-10848
▁impossible	-10849
▁IP	-10850
▁Á	-10851
▁feeling	-10852
What	-10853
eper	-10854
▁indicating	-10855
▁São	-10856
▁worn	-10857
▁Ottawa	-10858
▁mini	-10859
levard	-10860
▁gathered	-10861
▁1984.	-10862
▁Math	-10863
▁Larry	-10864
▁collapse	-10865
▁vel	-10866
▁Range	-10867
▁volunteers	-10868
▁Dog	-10869
▁Salt	-10870
▁organic	-10871
▁feud	-10872
▁controls	-10873
akespe	-10874
etta	-10875
▁Ralph	-10876
▁Filip	-10877
▁amounts	-10878
pine	-10879
▁comparison	-10880
▁Gregory	-10881
▁Yu	-10882
isting	-10883
employ	-10884
ropod	-10885
▁Vill	-10886
5),	-10887
▁Gilbert	-10888
▁uncertain	-10889
aceae	-10890
wald	-10891
née	-10892
▁Ni	-10893
▁1916	-10894
▁bankrupt	-10895
▁favorite	-10896
▁wasn	-10897
▁Support	-10898
▁bonus	-10899
▁error	-10900
▁Hitler	-10901
▁enemies	-10902
▁experiments	-10903
▁vocalist	-10904
"'	-10905
▁Survey	-10906
▁explain	-10907
▁(7	-10908
▁"".	-10909
irect	-10910
▁automatic	-10911
▁widow	-10912
▁explicit	-10913
▁Shanghai	-10914
▁alternate	-10915
▁monthly	-10916
imensional	-10917
▁abolished	-10918
▁gardens	-10919
yll	-10920
▁zero	-10921
▁organisations	-10922
▁Got	-10923
▁Say	-10924
▁Mig	-10925
▁mask	-10926
▁fifty	-10927
▁talks	-10928
week	-10929
oustic	-10930
▁Loc	-10931
ds	-10932
isan	-10933
▁Syrian	-10934
▁Cond	-10935
wings	-10936
▁hidden	-10937
▁Southeast	-10938
anni	-10939
▁Croatian	-10940
▁sleep	-10941
▁Bot	-10942
▁Campaign	-10943
▁flank	-10944
▁choir	-10945
▁collective	-10946
▁tours	-10947
▁consistent	-10948
▁parks	-10949
41	-10950
eras	-10951
▁Kab	-10952
esty	-10953
▁speakers	-10954
▁exhibit	-10955
▁thanks	-10956
▁IT	-10957
var	-10958
▁"(	-10959
▁namely	-10960
▁extinct	-10961
▁Exchange	-10962
▁recruited	-10963
▁resol	-10964
roe	-10965
▁collaps	-10966
▁basin	-10967
▁Fab	-10968
▁1980.	-10969
itro	-10970
aughter	-10971
▁angle	-10972
▁corruption	-10973
▁pitched	-10974
▁elevated	-10975
▁reception	-10976
▁theories	-10977
▁tox	-10978
▁Susan	-10979
▁therapy	-10980
▁17.	-10981
▁Madison	-10982
▁administered	-10983
▁Production	-10984
▁installation	-10985
bie	-10986
▁consumption	-10987
agonist	-10988
RI	-10989
▁Malay	-10990
▁Mey	-10991
▁veteran	-10992
▁attacking	-10993
vet	-10994
▁Ernest	-10995
core	-10996
▁57	-10997
▁1982.	-10998
▁Butler	-10999
▁1983.	-11000
▁arrives	-11001
▁Nevertheless	-11002
▁Lebanon	-11003
▁Nathan	-11004
▁looks	-11005
▁4-	-11006
▁Oil	-11007
▁Abraham	-11008
uckland	-11009
▁Ferr	-11010
▁Dennis	-11011
▁voy	-11012
▁1943,	-11013
fortun	-11014
attered	-11015
▁coaches	-11016
▁judg	-11017
▁18.	-11018
▁analy	-11019
▁Venezuela	-11020
▁ratings	-11021
▁Lux	-11022
▁compositions	-11023
▁corps	-11024
▁Lie	-11025
▁Wellington	-11026
eda	-11027
▁SP	-11028
▁nickname	-11029
asia	-11030
▁Roosevelt	-11031
▁waiting	-11032
achi	-11033
▁familiar	-11034
new	-11035
▁bridges	-11036
▁spots	-11037
kar	-11038
▁ruler	-11039
▁Anglican	-11040
▁Nan	-11041
▁travels	-11042
▁Berkeley	-11043
▁logo	-11044
▁apprec	-11045
▁aggregate	-11046
ictions	-11047
Black	-11048
▁NC	-11049
▁Ib	-11050
▁breeding	-11051
Car	-11052
▁orche	-11053
akespeare	-11054
aho	-11055
▁Moz	-11056
itary	-11057
▁prox	-11058
iast	-11059
▁Adv	-11060
▁1908	-11061
▁parking	-11062
atern	-11063
▁Language	-11064
▁Finance	-11065
▁clan	-11066
ocket	-11067
▁documented	-11068
▁permit	-11069
cca	-11070
Te	-11071
▁Blood	-11072
▁evil	-11073
dal	-11074
inking	-11075
▁convinced	-11076
▁Independence	-11077
▁Hamburg	-11078
▁sharing	-11079
▁conscious	-11080
rection	-11081
▁curric	-11082
▁Lion	-11083
▁contracts	-11084
utors	-11085
▁scen	-11086
▁Sic	-11087
▁Eg	-11088
▁posts	-11089
▁EC	-11090
▁tone	-11091
▁quad	-11092
orious	-11093
▁qualification	-11094
▁Heavy	-11095
▁disaster	-11096
▁consumer	-11097
▁Neil	-11098
▁yard	-11099
–16	-11100
▁gap	-11101
▁archaeological	-11102
▁Mills	-11103
Par	-11104
redited	-11105
▁symp	-11106
pled	-11107
▁lie	-11108
▁1940,	-11109
▁citing	-11110
▁Cork	-11111
▁plastic	-11112
▁roster	-11113
▁suspect	-11114
▁predominantly	-11115
ancer	-11116
▁scientist	-11117
▁failing	-11118
▁Bag	-11119
▁aims	-11120
▁drove	-11121
▁Wed	-11122
fecture	-11123
▁tum	-11124
▁Tibet	-11125
giate	-11126
▁20.	-11127
▁styl	-11128
▁laboratory	-11129
alling	-11130
▁structural	-11131
▁Albums	-11132
▁reforms	-11133
caster	-11134
▁procedure	-11135
▁sovere	-11136
regular	-11137
ju	-11138
▁prev	-11139
▁universe	-11140
▁USS	-11141
▁1911	-11142
▁oblig	-11143
▁Haz	-11144
▁accum	-11145
▁Byzantine	-11146
▁Wells	-11147
uis	-11148
▁earthquake	-11149
▁Kay	-11150
tz	-11151
▁Leo	-11152
Do	-11153
▁fib	-11154
▁photo	-11155
acked	-11156
▁Protection	-11157
▁Hein	-11158
▁happy	-11159
▁seeds	-11160
▁Soft	-11161
▁stops	-11162
▁Bass	-11163
▁thereby	-11164
▁64,	-11165
▁bell	-11166
▁Horse	-11167
rost	-11168
98	-11169
▁answ	-11170
▁Rat	-11171
▁Somers	-11172
▁Beth	-11173
▁supplement	-11174
▁Sheffield	-11175
wright	-11176
▁Kil	-11177
through	-11178
▁argues	-11179
▁rab	-11180
▁asking	-11181
ulus	-11182
▁Soph	-11183
▁bench	-11184
▁proof	-11185
▁explan	-11186
▁referring	-11187
▁oxygen	-11188
▁challenged	-11189
▁Watson	-11190
▁Google	-11191
▁Auckland	-11192
rapped	-11193
▁blind	-11194
▁unex	-11195
▁1965,	-11196
▁Treas	-11197
▁patent	-11198
▁Mut	-11199
sub	-11200
▁hind	-11201
▁suspension	-11202
▁retiring	-11203
▁programmes	-11204
▁radar	-11205
"|	-11206
film	-11207
▁lakes	-11208
▁concur	-11209
▁Newton	-11210
▁Secondary	-11211
▁Slav	-11212
▁rice	-11213
yler	-11214
▁Beginning	-11215
count	-11216
▁Operations	-11217
ften	-11218
▁touchdowns	-11219
▁Stanford	-11220
atta	-11221
▁virus	-11222
▁aw	-11223
▁disturb	-11224
▁casualties	-11225
▁44,	-11226
▁155	-11227
▁comments	-11228
ovich	-11229
minster	-11230
▁compress	-11231
ás	-11232
▁valuable	-11233
▁solutions	-11234
▁tourism	-11235
ieg	-11236
▁accommodate	-11237
▁flex	-11238
▁rhythm	-11239
▁landmark	-11240
▁Next	-11241
▁mainland	-11242
▁clar	-11243
▁feelings	-11244
▁colleagues	-11245
ussia	-11246
duces	-11247
▁rac	-11248
▁arrive	-11249
▁signals	-11250
▁align	-11251
amer	-11252
▁gymn	-11253
▁perceived	-11254
▁Toy	-11255
▁MTV	-11256
▁relay	-11257
▁calendar	-11258
▁Term	-11259
▁1979.	-11260
▁silent	-11261
▁imprisoned	-11262
▁defender	-11263
▁interaction	-11264
▁Ny	-11265
fan	-11266
▁Rah	-11267
mn	-11268
▁achievement	-11269
▁1913	-11270
▁chemistry	-11271
Hz	-11272
asm	-11273
▁neighboring	-11274
cker	-11275
▁elabor	-11276
▁Thai	-11277
Station	-11278
▁Guild	-11279
▁Primary	-11280
▁actively	-11281
▁Junction	-11282
▁willing	-11283
▁passion	-11284
▁Productions	-11285
▁Methodist	-11286
▁politicians	-11287
▁Arnold	-11288
alis	-11289
▁Eddie	-11290
▁revised	-11291
▁Bird	-11292
▁Ted	-11293
oker	-11294
named	-11295
▁renowned	-11296
▁Eagles	-11297
▁Cruz	-11298
▁cave	-11299
▁sustained	-11300
verse	-11301
▁Ambass	-11302
▁1964,	-11303
▁allies	-11304
▁interesting	-11305
▁Sask	-11306
▁locomotive	-11307
▁faster	-11308
▁broadcasts	-11309
▁drinking	-11310
UC	-11311
okes	-11312
▁grandson	-11313
▁gift	-11314
él	-11315
▁Gang	-11316
▁milk	-11317
▁functional	-11318
▁overt	-11319
▁53	-11320
▁airline	-11321
▁Deb	-11322
▁McM	-11323
▁reservoir	-11324
omed	-11325
▁Joint	-11326
▁Wallace	-11327
▁Crim	-11328
▁mail	-11329
ubb	-11330
▁Yugoslavia	-11331
▁prepare	-11332
▁variation	-11333
boat	-11334
join	-11335
▁traveling	-11336
▁victories	-11337
▁afford	-11338
▁bull	-11339
▁faces	-11340
86	-11341
▁thirteen	-11342
▁reflected	-11343
▁prestigious	-11344
▁genes	-11345
▁stake	-11346
▁maintaining	-11347
▁Krist	-11348
ashes	-11349
▁academy	-11350
▁Nashville	-11351
▁Delta	-11352
▁violin	-11353
▁culmin	-11354
▁celebration	-11355
iffer	-11356
▁Kle	-11357
▁cathedral	-11358
▁Ax	-11359
▁Nat	-11360
▁aviation	-11361
▁sav	-11362
▁Sut	-11363
▁putting	-11364
▁Collection	-11365
▁computers	-11366
LP	-11367
▁forth	-11368
▁extending	-11369
▁Vermont	-11370
cott	-11371
ults	-11372
▁Coach	-11373
▁drag	-11374
▁enzyme	-11375
▁Wag	-11376
anta	-11377
:30	-11378
aurus	-11379
▁Phillips	-11380
▁magic	-11381
▁Aviation	-11382
▁contribute	-11383
gebra	-11384
></	-11385
▁beaten	-11386
▁discontinued	-11387
▁extends	-11388
▁Guardian	-11389
▁bombing	-11390
▁redes	-11391
liminary	-11392
▁Hab	-11393
▁underwent	-11394
hn	-11395
▁prevented	-11396
▁trick	-11397
▁fastest	-11398
▁flour	-11399
DE	-11400
team	-11401
artered	-11402
▁Grammy	-11403
▁ol	-11404
▁footage	-11405
▁masc	-11406
▁empire	-11407
▁printing	-11408
▁Ec	-11409
itudes	-11410
00.	-11411
▁hardware	-11412
▁verse	-11413
▁Prest	-11414
▁belt	-11415
▁Montana	-11416
▁1860	-11417
▁philos	-11418
▁Shakespeare	-11419
▁flee	-11420
▁cutting	-11421
▁Kash	-11422
writing	-11423
▁Palmer	-11424
namese	-11425
▁1966,	-11426
▁Roche	-11427
▁Isab	-11428
▁bone	-11429
▁grave	-11430
▁breast	-11431
▁cultures	-11432
▁regist	-11433
inery	-11434
▁efficiency	-11435
onial	-11436
▁jail	-11437
▁focusing	-11438
gomery	-11439
cycle	-11440
▁fault	-11441
▁crops	-11442
▁Past	-11443
▁payment	-11444
▁moll	-11445
▁sharp	-11446
BE	-11447
▁holiday	-11448
▁Bened	-11449
▁concepts	-11450
VP	-11451
ema	-11452
▁pap	-11453
▁Bond	-11454
▁Log	-11455
otion	-11456
▁improvement	-11457
▁gaining	-11458
▁boss	-11459
▁fame	-11460
▁Franç	-11461
speaking	-11462
▁Monday	-11463
rish	-11464
naissance	-11465
▁athletic	-11466
▁85	-11467
pic	-11468
fast	-11469
▁Crime	-11470
▁Marx	-11471
▁diet	-11472
▁loop	-11473
▁tru	-11474
▁vulner	-11475
▁grav	-11476
▁shield	-11477
▁virtual	-11478
▁ft	-11479
▁abund	-11480
▁numbered	-11481
▁Raymond	-11482
▁flash	-11483
▁addressed	-11484
▁phosph	-11485
▁colonies	-11486
▁hospitals	-11487
essed	-11488
▁venues	-11489
▁Esp	-11490
▁59	-11491
racks	-11492
▁desert	-11493
▁readers	-11494
▁LA	-11495
43	-11496
▁Shep	-11497
▁1972.	-11498
▁theatrical	-11499
▁refugees	-11500
▁Bosnia	-11501
▁2–1	-11502
▁shorter	-11503
▁Conservation	-11504
▁pioneer	-11505
▁Academ	-11506
▁Interstate	-11507
▁sick	-11508
post	-11509
▁worker	-11510
▁handed	-11511
afe	-11512
▁liv	-11513
▁fabric	-11514
umer	-11515
▁ordinary	-11516
▁reward	-11517
▁artificial	-11518
▁tributary	-11519
▁confused	-11520
cat	-11521
▁peer	-11522
▁behaviour	-11523
▁leagues	-11524
align	-11525
central	-11526
▁dict	-11527
▁equation	-11528
▁institute	-11529
▁Tow	-11530
▁ambassador	-11531
▁craft	-11532
▁1960,	-11533
Mon	-11534
airo	-11535
▁Grove	-11536
▁referend	-11537
▁Elementary	-11538
▁Map	-11539
▁fraud	-11540
acles	-11541
▁Og	-11542
▁accurate	-11543
▁preserve	-11544
▁fewer	-11545
▁Franco	-11546
If	-11547
▁tomb	-11548
made	-11549
▁situations	-11550
▁Note	-11551
▁disorder	-11552
▁Kun	-11553
▁counsel	-11554
▁abilities	-11555
▁Perth	-11556
arr	-11557
Love	-11558
▁independently	-11559
▁counterpart	-11560
▁sending	-11561
ente	-11562
▁forcing	-11563
his	-11564
▁Must	-11565
▁Leonard	-11566
▁Ori	-11567
white	-11568
piece	-11569
held	-11570
▁Intelligence	-11571
▁Pearl	-11572
▁Occ	-11573
omo	-11574
▁literacy	-11575
▁Stakes	-11576
▁firing	-11577
opol	-11578
▁19.	-11579
byter	-11580
▁displays	-11581
▁understood	-11582
▁Contemporary	-11583
▁22.	-11584
▁afternoon	-11585
▁Commerce	-11586
▁orb	-11587
▁Suz	-11588
ansk	-11589
▁Cameron	-11590
▁Pod	-11591
▁Prague	-11592
iu	-11593
▁triple	-11594
▁Transportation	-11595
▁25.	-11596
▁Sang	-11597
issa	-11598
▁relie	-11599
▁68	-11600
▁manip	-11601
▁Kerala	-11602
▁gauge	-11603
▁register	-11604
▁stored	-11605
▁tel	-11606
▁lifetime	-11607
ategory	-11608
aukee	-11609
ña	-11610
▁memor	-11611
▁Va	-11612
gence	-11613
▁threw	-11614
▁HD	-11615
▁Iraqi	-11616
▁relating	-11617
▁dialogue	-11618
inee	-11619
▁Vent	-11620
▁arena	-11621
▁samples	-11622
Big	-11623
inae	-11624
▁segments	-11625
▁1974.	-11626
▁flower	-11627
▁runners	-11628
▁handle	-11629
aping	-11630
▁inspe	-11631
▁tip	-11632
▁Plat	-11633
▁Sean	-11634
▁Montgomery	-11635
rah	-11636
▁regulation	-11637
▁ash	-11638
▁Northwest	-11639
-12	-11640
▁altitude	-11641
▁eventual	-11642
▁abst	-11643
▁sciences	-11644
▁Rhodes	-11645
▁portions	-11646
▁1939,	-11647
▁telephone	-11648
▁realized	-11649
▁generations	-11650
▁Bent	-11651
–199	-11652
▁cogn	-11653
▁progressive	-11654
▁Vers	-11655
▁coron	-11656
▁Harvey	-11657
▁Economics	-11658
illes	-11659
▁nest	-11660
▁deliber	-11661
▁updated	-11662
speed	-11663
▁employee	-11664
▁shipping	-11665
▁Berg	-11666
▁Indies	-11667
▁fourteen	-11668
eto	-11669
▁1978.	-11670
▁reinfor	-11671
▁ranges	-11672
/1	-11673
▁Put	-11674
▁intense	-11675
▁statements	-11676
unny	-11677
▁alien	-11678
elia	-11679
orient	-11680
▁21.	-11681
lived	-11682
▁enact	-11683
▁Tommy	-11684
▁discovers	-11685
ław	-11686
▁Sudan	-11687
▁boards	-11688
sur	-11689
▁Railways	-11690
▁Gabriel	-11691
tingham	-11692
▁Nature	-11693
▁1906	-11694
icity	-11695
fa	-11696
▁MD	-11697
▁Lear	-11698
umbai	-11699
atha	-11700
founded	-11701
dess	-11702
▁Swan	-11703
Music	-11704
spec	-11705
▁gif	-11706
pressed	-11707
▁tube	-11708
▁wish	-11709
▁reverse	-11710
arta	-11711
▁cad	-11712
”,	-11713
▁legit	-11714
acco	-11715
▁Oscar	-11716
▁tape	-11717
▁pilots	-11718
▁Kol	-11719
▁golden	-11720
▁Cabinet	-11721
▁examination	-11722
▁horn	-11723
▁NAS	-11724
imo	-11725
▁pist	-11726
▁Devon	-11727
▁communist	-11728
▁surprise	-11729
▁moderate	-11730
izz	-11731
▁requiring	-11732
uli	-11733
▁immigration	-11734
holders	-11735
▁warning	-11736
▁rifle	-11737
liga	-11738
▁Rams	-11739
▁engagement	-11740
▁Boulevard	-11741
▁Bach	-11742
▁1975.	-11743
99	-11744
▁sixteen	-11745
▁stationed	-11746
▁demanded	-11747
▁reviewed	-11748
▁Krish	-11749
▁Tong	-11750
▁Price	-11751
arvae	-11752
chief	-11753
asp	-11754
▁promised	-11755
▁Kur	-11756
▁clients	-11757
▁poison	-11758
▁Starting	-11759
▁Kra	-11760
▁psychology	-11761
▁1976.	-11762
▁Syl	-11763
▁punk	-11764
▁revival	-11765
▁23.	-11766
▁succession	-11767
▁freight	-11768
quer	-11769
▁Representative	-11770
▁Golf	-11771
▁dogs	-11772
▁manages	-11773
entieth	-11774
▁Buc	-11775
▁Kin	-11776
GC	-11777
▁Bruns	-11778
▁presents	-11779
rets	-11780
▁engage	-11781
▁fung	-11782
▁fallen	-11783
▁Hat	-11784
oses	-11785
rised	-11786
▁Liu	-11787
▁horizon	-11788
RE	-11789
rys	-11790
▁spokes	-11791
▁illustrated	-11792
ournals	-11793
icester	-11794
▁experts	-11795
idance	-11796
▁restrictions	-11797
gov	-11798
empl	-11799
▁repeatedly	-11800
▁Rif	-11801
opened	-11802
iffs	-11803
▁maintains	-11804
▁Provincial	-11805
▁Stein	-11806
▁surrender	-11807
▁Isaac	-11808
istani	-11809
▁dealing	-11810
▁clot	-11811
▁1981.	-11812
itol	-11813
▁merely	-11814
▁remembered	-11815
uced	-11816
▁listen	-11817
▁exha	-11818
auer	-11819
▁files	-11820
▁Workers	-11821
▁1970.	-11822
▁Eld	-11823
▁toler	-11824
▁Revival	-11825
▁bin	-11826
▁Otto	-11827
rod	-11828
▁skill	-11829
▁profile	-11830
▁athlete	-11831
▁mixture	-11832
uh	-11833
pit	-11834
▁Computer	-11835
▁Wilhelm	-11836
▁Besides	-11837
▁advertis	-11838
▁bars	-11839
▁Clarke	-11840
▁artwork	-11841
▁Flow	-11842
▁diesel	-11843
ittees	-11844
▁rede	-11845
▁metropolitan	-11846
▁Vietnamese	-11847
▁grid	-11848
eling	-11849
Gu	-11850
▁investigate	-11851
BL	-11852
▁indeed	-11853
▁lights	-11854
waukee	-11855
▁manufacturers	-11856
▁Concer	-11857
▁Jin	-11858
▁Giov	-11859
furt	-11860
▁Gothic	-11861
▁coffee	-11862
▁Artillery	-11863
five	-11864
▁backing	-11865
onna	-11866
ibn	-11867
▁vow	-11868
umni	-11869
▁memb	-11870
brev	-11871
▁1973.	-11872
▁Palestine	-11873
▁Celtic	-11874
▁elite	-11875
▁announcement	-11876
arts	-11877
▁CDP	-11878
▁Panama	-11879
4).	-11880
▁24.	-11881
IM	-11882
▁Indonesian	-11883
bek	-11884
▁Ahmed	-11885
▁permanently	-11886
▁Aj	-11887
umberland	-11888
▁orient	-11889
FF	-11890
lined	-11891
▁130	-11892
▁Higher	-11893
▁editorial	-11894
▁brew	-11895
elin	-11896
alymp	-11897
▁graphics	-11898
▁Ruth	-11899
▁1963,	-11900
▁fantasy	-11901
▁Exped	-11902
▁mit	-11903
▁1905	-11904
▁unanim	-11905
Ab	-11906
ulous	-11907
▁severely	-11908
▁Pul	-11909
▁Doc	-11910
▁tissue	-11911
▁orbit	-11912
▁PlayStation	-11913
▁seriously	-11914
▁friendship	-11915
▁dependent	-11916
▁HMS	-11917
▁reserves	-11918
▁Marqu	-11919
lights	-11920
▁renewed	-11921
iao	-11922
▁Syn	-11923
▁brings	-11924
▁Shir	-11925
▁72	-11926
▁animation	-11927
▁missile	-11928
▁patri	-11929
▁78	-11930
▁Carr	-11931
▁Agriculture	-11932
▁Danny	-11933
▁Joan	-11934
▁jew	-11935
▁Friedrich	-11936
▁Mathemat	-11937
▁divorce	-11938
▁Airlines	-11939
▁Lucas	-11940
▁Midd	-11941
NT	-11942
▁allegedly	-11943
entry	-11944
vanced	-11945
▁flav	-11946
▁prince	-11947
rowing	-11948
▁teeth	-11949
▁Valent	-11950
▁followers	-11951
log	-11952
▁client	-11953
▁professionals	-11954
▁statistics	-11955
John	-11956
asan	-11957
common	-11958
▁Days	-11959
▁fairly	-11960
▁Armed	-11961
apur	-11962
gart	-11963
▁radiation	-11964
▁Sak	-11965
▁Chan	-11966
▁Flight	-11967
▁developments	-11968
▁photographer	-11969
▁Any	-11970
▁songwriter	-11971
▁rebellion	-11972
▁cow	-11973
▁Boe	-11974
▁commitment	-11975
▁Environmental	-11976
▁centres	-11977
▁Spencer	-11978
▁circulation	-11979
▁76	-11980
lair	-11981
▁ordained	-11982
azi	-11983
boro	-11984
▁1946,	-11985
ighting	-11986
▁varied	-11987
ocent	-11988
▁Ara	-11989
overy	-11990
urated	-11991
▁variations	-11992
▁Bear	-11993
▁tasks	-11994
▁orange	-11995
▁clay	-11996
▁Essex	-11997
ourg	-11998
▁enabled	-11999
HF	-12000
▁magnetic	-12001
▁bord	-12002
▁exit	-12003
unning	-12004
▁Gy	-12005
▁martial	-12006
ixed	-12007
▁RA	-12008
▁prisoner	-12009
▁nominations	-12010
▁dancing	-12011
ometown	-12012
page	-12013
▁1971.	-12014
itus	-12015
whe	-12016
▁shifted	-12017
▁Ambassador	-12018
▁Tasman	-12019
istent	-12020
▁package	-12021
▁universal	-12022
▁Sof	-12023
▁beam	-12024
▁Somerset	-12025
▁Din	-12026
gus	-12027
▁intervention	-12028
▁molecular	-12029
ignated	-12030
umi	-12031
▁Beh	-12032
▁creates	-12033
▁drain	-12034
uros	-12035
oting	-12036
▁encourage	-12037
▁Lar	-12038
▁blog	-12039
mid	-12040
hibition	-12041
▁Renaissance	-12042
▁handling	-12043
▁breaks	-12044
iago	-12045
▁Columbus	-12046
▁shots	-12047
ahl	-12048
▁Gand	-12049
▁Wald	-12050
▁bears	-12051
▁observation	-12052
▁Reed	-12053
▁audiences	-12054
omes	-12055
▁suspic	-12056
ultural	-12057
bot	-12058
▁hyd	-12059
▁Mang	-12060
▁Lamb	-12061
▁empty	-12062
▁1948,	-12063
atorial	-12064
▁concentrated	-12065
▁morph	-12066
legraph	-12067
▁Brunswick	-12068
She	-12069
▁Financial	-12070
▁1962,	-12071
▁criteria	-12072
insky	-12073
ussels	-12074
▁Student	-12075
▁abandon	-12076
▁cuts	-12077
▁Anti	-12078
zon	-12079
ete	-12080
▁Reyn	-12081
▁privile	-12082
omber	-12083
GBT	-12084
▁Brah	-12085
▁Bennett	-12086
▁Rus	-12087
▁requirement	-12088
▁Cardinal	-12089
▁confron	-12090
quiry	-12091
▁Carn	-12092
▁neighbouring	-12093
randed	-12094
▁Vladimir	-12095
▁advocate	-12096
▁personally	-12097
▁beliefs	-12098
▁pitcher	-12099
▁Mumbai	-12100
aca	-12101
kan	-12102
▁Leader	-12103
▁McL	-12104
▁societies	-12105
▁celebrate	-12106
ateral	-12107
▁Todd	-12108
▁Manager	-12109
▁suspected	-12110
▁Jen	-12111
▁destination	-12112
▁queen	-12113
▁Friends	-12114
▁Dale	-12115
aus	-12116
▁Scar	-12117
▁Anim	-12118
▁grants	-12119
▁lawsuit	-12120
72	-12121
▁Altern	-12122
▁export	-12123
GM	-12124
▁Arabia	-12125
▁governing	-12126
▁waves	-12127
▁Diamond	-12128
▁bare	-12129
▁civilians	-12130
▁Stage	-12131
▁Raf	-12132
▁Gener	-12133
▁quiet	-12134
HC	-12135
avia	-12136
▁resource	-12137
▁je	-12138
▁1977.	-12139
▁releasing	-12140
adian	-12141
▁1907	-12142
gra	-12143
mill	-12144
▁transit	-12145
▁seized	-12146
▁inscription	-12147
▁anthrop	-12148
▁encountered	-12149
▁Stockholm	-12150
▁Cox	-12151
▁ERA	-12152
▁1947,	-12153
▁Paralymp	-12154
▁similarly	-12155
▁hole	-12156
▁diversity	-12157
omorph	-12158
▁Cov	-12159
▁referendum	-12160
fol	-12161
▁provisions	-12162
▁congregation	-12163
ambers	-12164
▁adjust	-12165
▁158	-12166
avian	-12167
▁canon	-12168
▁Get	-12169
▁autobi	-12170
Nov	-12171
▁raid	-12172
▁Where	-12173
▁Ronald	-12174
▁Leicester	-12175
▁1968.	-12176
▁anticip	-12177
▁enlisted	-12178
▁exile	-12179
▁varies	-12180
▁lad	-12181
▁1909	-12182
▁rivals	-12183
enson	-12184
▁convert	-12185
▁trouble	-12186
uto	-12187
▁Daw	-12188
▁separation	-12189
▁wars	-12190
▁Pent	-12191
CD	-12192
▁thesis	-12193
isch	-12194
▁hyp	-12195
▁presentation	-12196
March	-12197
thal	-12198
▁Abor	-12199
▁prototype	-12200
▁Aires	-12201
sized	-12202
ichi	-12203
▁volunteer	-12204
selling	-12205
–20	-12206
Aust	-12207
Jan	-12208
South	-12209
▁Lot	-12210
TP	-12211
▁Java	-12212
Sw	-12213
▁BA	-12214
inyl	-12215
▁Deep	-12216
▁Sebast	-12217
▁Foster	-12218
▁Pep	-12219
▁Using	-12220
handed	-12221
▁cir	-12222
▁Revolutionary	-12223
▁cotton	-12224
▁ports	-12225
▁fluid	-12226
▁signature	-12227
▁specialist	-12228
▁Jamaica	-12229
▁Ful	-12230
▁Winn	-12231
▁sin	-12232
▁Scout	-12233
boys	-12234
ouch	-12235
▁interface	-12236
anti	-12237
brook	-12238
▁fortress	-12239
yd	-12240
▁soc	-12241
▁owns	-12242
▁BM	-12243
ben	-12244
▁transformed	-12245
forming	-12246
▁improving	-12247
hev	-12248
onso	-12249
▁26.	-12250
▁110	-12251
adier	-12252
▁hoped	-12253
▁conjunction	-12254
▁1961,	-12255
ieties	-12256
senal	-12257
yers	-12258
▁symmet	-12259
RO	-12260
oshi	-12261
▁dubbed	-12262
▁nationwide	-12263
reated	-12264
▁Still	-12265
▁1969.	-12266
▁Person	-12267
▁tackles	-12268
▁Craw	-12269
▁Jacques	-12270
cor	-12271
taining	-12272
▁tier	-12273
▁invented	-12274
▁Bod	-12275
▁Fish	-12276
enhagen	-12277
▁considering	-12278
▁arrangements	-12279
▁Jak	-12280
▁ministers	-12281
uba	-12282
▁1904	-12283
▁cartoon	-12284
▁Miguel	-12285
▁curriculum	-12286
shore	-12287
▁suddenly	-12288
took	-12289
▁fisher	-12290
▁boot	-12291
ointed	-12292
▁chest	-12293
▁upcoming	-12294
▁Laura	-12295
▁Arc	-12296
makers	-12297
▁69	-12298
axy	-12299
▁exterior	-12300
▁Edmund	-12301
▁optim	-12302
▁Instit	-12303
▁Soul	-12304
▁Shin	-12305
-16	-12306
▁wore	-12307
▁Forum	-12308
00,000	-12309
▁recognize	-12310
▁allegations	-12311
▁Manila	-12312
▁2,000	-12313
▁Literature	-12314
▁interact	-12315
▁Rut	-12316
▁integration	-12317
▁pole	-12318
▁poster	-12319
▁procedures	-12320
ión	-12321
▁Lakes	-12322
▁floors	-12323
▁cricketer	-12324
▁noise	-12325
eded	-12326
▁aest	-12327
▁Palestinian	-12328
harm	-12329
▁Sullivan	-12330
▁founders	-12331
▁analog	-12332
world	-12333
▁electro	-12334
▁Reading	-12335
half	-12336
▁matrix	-12337
▁Facebook	-12338
Euro	-12339
▁Georgian	-12340
Christ	-12341
▁Oakland	-12342
▁hometown	-12343
▁pursued	-12344
▁closest	-12345
▁Roll	-12346
▁manual	-12347
hop	-12348
▁altered	-12349
parent	-12350
▁Tunis	-12351
ctorate	-12352
died	-12353
ussion	-12354
▁Sussex	-12355
▁Yellow	-12356
▁decrease	-12357
▁database	-12358
▁164	-12359
▁Mü	-12360
si	-12361
▁operators	-12362
▁Apart	-12363
▁survivors	-12364
▁Tir	-12365
▁headquartered	-12366
▁62	-12367
▁Jur	-12368
▁conductor	-12369
▁Heights	-12370
▁singers	-12371
▁Liberty	-12372
iens	-12373
▁destro	-12374
▁findings	-12375
▁Room	-12376
inf	-12377
▁Aaron	-12378
▁Owen	-12379
habilit	-12380
▁journals	-12381
▁doubt	-12382
▁Presbyter	-12383
▁clergy	-12384
▁noting	-12385
▁survival	-12386
▁Inv	-12387
about	-12388
▁comprising	-12389
▁Marvel	-12390
▁Suff	-12391
hal	-12392
,”	-12393
oslov	-12394
▁Nottingham	-12395
bet	-12396
▁potentially	-12397
▁adventure	-12398
▁Cec	-12399
▁MC	-12400
▁width	-12401
▁honored	-12402
▁diocese	-12403
mail	-12404
▁targeted	-12405
▁Serie	-12406
▁shed	-12407
▁Maurice	-12408
▁assessment	-12409
▁Ferdin	-12410
▁Princ	-12411
▁privately	-12412
irl	-12413
▁danger	-12414
–12	-12415
▁authorized	-12416
▁Sou	-12417
▁kills	-12418
munition	-12419
▁blues	-12420
▁5-	-12421
▁Magic	-12422
▁streams	-12423
▁overlook	-12424
▁indoor	-12425
▁suggesting	-12426
ucks	-12427
▁1918,	-12428
▁rever	-12429
▁Scotia	-12430
▁Wool	-12431
▁Tax	-12432
▁Motors	-12433
▁commentary	-12434
alin	-12435
erness	-12436
ska	-12437
▁mall	-12438
▁Kate	-12439
▁divorced	-12440
▁autumn	-12441
▁storyline	-12442
▁larvae	-12443
ashire	-12444
▁deals	-12445
▁trio	-12446
▁syndrome	-12447
▁Westminster	-12448
▁63	-12449
imen	-12450
▁stones	-12451
▁weaken	-12452
▁relatives	-12453
▁pregnant	-12454
▁Guide	-12455
▁farms	-12456
▁Cand	-12457
▁Left	-12458
▁#1	-12459
▁Congo	-12460
▁burial	-12461
▁Chron	-12462
▁Direct	-12463
▁Dominican	-12464
lic	-12465
lend	-12466
▁Kor	-12467
▁Fourth	-12468
▁compat	-12469
▁Lac	-12470
▁expanding	-12471
▁Bak	-12472
▁Buenos	-12473
▁Twenty	-12474
▁specimens	-12475
▁nationally	-12476
aders	-12477
▁Durham	-12478
tes	-12479
apest	-12480
▁lighting	-12481
▁rebels	-12482
▁chronic	-12483
▁27.	-12484
▁Raid	-12485
▁shelter	-12486
cal	-12487
ragon	-12488
▁lux	-12489
▁codice	-12490
▁quoted	-12491
▁praise	-12492
iw	-12493
▁reveal	-12494
▁1:	-12495
ovsky	-12496
GO	-12497
▁lectures	-12498
▁messages	-12499
Int	-12500
▁plates	-12501
▁Lak	-12502
77	-12503
▁psychological	-12504
▁inhabited	-12505
▁Milwaukee	-12506
▁1967.	-12507
▁push	-12508
intendo	-12509
imm	-12510
▁activists	-12511
▁volleyball	-12512
▁André	-12513
▁ampl	-12514
irus	-12515
▁garrison	-12516
rific	-12517
▁infection	-12518
▁Nak	-12519
▁Mik	-12520
▁Justin	-12521
inite	-12522
▁Cycl	-12523
▁Hous	-12524
▁intermediate	-12525
oucester	-12526
▁(20	-12527
▁journalists	-12528
▁Buddh	-12529
▁banking	-12530
▁prosper	-12531
▁159	-12532
▁Bros	-12533
▁Volunte	-12534
▁1850	-12535
▁1.5	-12536
▁bicy	-12537
ourag	-12538
▁Triple	-12539
▁impressive	-12540
eme	-12541
▁tram	-12542
zig	-12543
▁50%	-12544
▁restore	-12545
▁Zhang	-12546
Ju	-12547
▁95	-12548
ST	-12549
ulture	-12550
▁engineers	-12551
▁associations	-12552
▁Expedition	-12553
ipher	-12554
arms	-12555
▁Fam	-12556
▁NASA	-12557
▁pianist	-12558
▁discrimination	-12559
isha	-12560
▁goalkeeper	-12561
osophical	-12562
▁automatically	-12563
▁Laboratory	-12564
▁disappeared	-12565
▁Albanian	-12566
▁coc	-12567
▁guidance	-12568
may	-12569
ahan	-12570
▁liver	-12571
▁Knights	-12572
▁volunt	-12573
▁councill	-12574
▁McD	-12575
▁1950,	-12576
▁conflicts	-12577
▁Lor	-12578
▁span	-12579
▁ber	-12580
▁conducting	-12581
▁binding	-12582
▁batting	-12583
inguished	-12584
▁Weekly	-12585
lacier	-12586
▁VII	-12587
▁Fig	-12588
▁obsc	-12589
▁deeply	-12590
eting	-12591
▁99	-12592
ctuary	-12593
nut	-12594
▁implic	-12595
▁prospect	-12596
▁customer	-12597
icia	-12598
▁Cant	-12599
▁favourite	-12600
▁receiver	-12601
August	-12602
VA	-12603
▁auction	-12604
adows	-12605
▁Ober	-12606
▁inches	-12607
▁southeastern	-12608
▁Lancashire	-12609
▁stolen	-12610
▁panels	-12611
▁wickets	-12612
▁mentions	-12613
▁devast	-12614
▁consultant	-12615
▁Formation	-12616
World	-12617
▁enable	-12618
▁warfare	-12619
▁Ancient	-12620
second	-12621
▁10-	-12622
▁Newport	-12623
aire	-12624
▁Ahmad	-12625
▁minimal	-12626
▁revolutionary	-12627
▁Films	-12628
▁heading	-12629
icken	-12630
hall	-12631
▁Gardens	-12632
dire	-12633
ilian	-12634
▁memoir	-12635
▁Lem	-12636
ilo	-12637
▁scandal	-12638
erves	-12639
▁trend	-12640
▁Less	-12641
▁toll	-12642
▁irregular	-12643
▁exchang	-12644
▁Franz	-12645
▁staged	-12646
▁democracy	-12647
▁proportion	-12648
ovan	-12649
▁chapters	-12650
▁174	-12651
▁88	-12652
▁Indianapolis	-12653
▁Johannes	-12654
▁conferences	-12655
▁emerging	-12656
onomy	-12657
▁algorithm	-12658
▁enhance	-12659
▁Amazon	-12660
yon	-12661
orey	-12662
▁unve	-12663
inda	-12664
▁77	-12665
▁citizenship	-12666
▁Cyr	-12667
built	-12668
▁125	-12669
▁denomin	-12670
▁acoustic	-12671
enesis	-12672
▁140	-12673
species	-12674
vironments	-12675
▁1/	-12676
▁Eight	-12677
athi	-12678
▁Julian	-12679
oints	-12680
▁conspir	-12681
▁Outstanding	-12682
▁Rovers	-12683
▁mineral	-12684
▁12-	-12685
atories	-12686
▁priests	-12687
▁Belarus	-12688
▁rocket	-12689
▁Nine	-12690
▁shaped	-12691
▁Eagle	-12692
▁upgraded	-12693
▁Mold	-12694
first	-12695
▁cla	-12696
backs	-12697
_2	-12698
iblings	-12699
▁easier	-12700
▁Kid	-12701
▁confidence	-12702
▁rebounds	-12703
iman	-12704
▁wait	-12705
▁Ecu	-12706
angered	-12707
▁forb	-12708
▁Walt	-12709
▁Amend	-12710
▁acknowledged	-12711
ormal	-12712
▁hydrogen	-12713
▁pir	-12714
Co	-12715
▁Imm	-12716
terbury	-12717
▁Cypr	-12718
anthrop	-12719
borg	-12720
▁practiced	-12721
▁investors	-12722
▁1944.	-12723
teg	-12724
▁Legion	-12725
▁Circle	-12726
ucker	-12727
▁urg	-12728
▁entity	-12729
▁Gloucester	-12730
▁Return	-12731
▁Vern	-12732
6).	-12733
▁travelling	-12734
▁Writing	-12735
▁1956,	-12736
▁withdrawn	-12737
▁1–0	-12738
▁Morning	-12739
▁doctorate	-12740
quarters	-12741
▁proceeded	-12742
▁essay	-12743
▁1901	-12744
▁threats	-12745
▁Paulo	-12746
UN	-12747
cano	-12748
▁Manit	-12749
▁duration	-12750
-15	-12751
lia	-12752
▁confront	-12753
▁Future	-12754
iatric	-12755
▁recruit	-12756
▁phenomenon	-12757
▁Ages	-12758
▁LGBT	-12759
▁Dame	-12760
▁Rice	-12761
SE	-12762
▁ridge	-12763
▁Quarter	-12764
Me	-12765
▁nineteenth	-12766
▁anime	-12767
▁Ng	-12768
▁2.5	-12769
awk	-12770
▁transported	-12771
▁hub	-12772
▁CF	-12773
▁deriv	-12774
▁topped	-12775
▁Pakistani	-12776
▁hem	-12777
▁deposits	-12778
▁Kas	-12779
▁striking	-12780
▁oral	-12781
Mad	-12782
–14	-12783
▁comics	-12784
▁vital	-12785
atoes	-12786
▁ferry	-12787
bone	-12788
erts	-12789
▁stability	-12790
▁hung	-12791
▁entrepreneur	-12792
▁1965.	-12793
▁1958,	-12794
▁Cuban	-12795
izard	-12796
▁Dragon	-12797
OP	-12798
▁rainfall	-12799
Sch	-12800
▁Prop	-12801
▁torpedo	-12802
RL	-12803
vy	-12804
orge	-12805
▁Copenhagen	-12806
omi	-12807
DI	-12808
▁preliminary	-12809
▁Pand	-12810
ija	-12811
▁Moreover	-12812
▁accomplished	-12813
AP	-12814
▁happen	-12815
founder	-12816
▁Cornwall	-12817
music	-12818
south	-12819
▁Artist	-12820
Red	-12821
▁doctors	-12822
building	-12823
▁attraction	-12824
▁estates	-12825
▁28.	-12826
▁Nancy	-12827
▁upset	-12828
▁governed	-12829
▁airfield	-12830
phis	-12831
bey	-12832
▁knee	-12833
▁Sox	-12834
▁particles	-12835
▁northeastern	-12836
▁performers	-12837
fortunately	-12838
▁supporter	-12839
▁Right	-12840
itely	-12841
herent	-12842
usa	-12843
▁haz	-12844
▁Dy	-12845
beat	-12846
▁1903	-12847
▁generate	-12848
▁61	-12849
▁carved	-12850
▁Napoleon	-12851
amy	-12852
▁Site	-12853
▁Isle	-12854
▁Czechoslov	-12855
▁Rhode	-12856
▁occasional	-12857
had	-12858
ounted	-12859
▁criticised	-12860
▁Data	-12861
ocity	-12862
icit	-12863
Time	-12864
▁Ports	-12865
mented	-12866
▁towers	-12867
▁ESP	-12868
▁unp	-12869
▁helicopter	-12870
aturally	-12871
intendent	-12872
▁Pi	-12873
tage	-12874
▁lineup	-12875
▁Davies	-12876
▁secular	-12877
acional	-12878
urse	-12879
▁backed	-12880
▁bearing	-12881
ér	-12882
▁breed	-12883
▁monarch	-12884
▁Armstrong	-12885
▁pub	-12886
ulsion	-12887
▁varying	-12888
▁surrend	-12889
▁Performance	-12890
aning	-12891
▁impressed	-12892
▁firms	-12893
▁1959,	-12894
▁armies	-12895
▁variants	-12896
▁Duc	-12897
There	-12898
▁Baronet	-12899
▁Dest	-12900
▁soap	-12901
math	-12902
▁punishment	-12903
tor	-12904
▁merc	-12905
▁streak	-12906
▁hier	-12907
three	-12908
▁onwards	-12909
effic	-12910
▁Gam	-12911
bank	-12912
▁identification	-12913
8).	-12914
▁Lok	-12915
▁Chi	-12916
▁circular	-12917
▁Laz	-12918
▁Ecuador	-12919
To	-12920
▁prey	-12921
▁Heath	-12922
▁artif	-12923
▁kilometres	-12924
rates	-12925
▁Geoff	-12926
▁Crow	-12927
dimensional	-12928
stage	-12929
iscal	-12930
▁sailing	-12931
sted	-12932
▁perpet	-12933
essa	-12934
▁polar	-12935
▁solely	-12936
▁Urugu	-12937
▁Lisa	-12938
▁jet	-12939
▁1902	-12940
▁hopes	-12941
▁ghost	-12942
▁Pont	-12943
▁Page	-12944
▁ruins	-12945
iliary	-12946
▁Expl	-12947
▁shrub	-12948
▁assembled	-12949
▁judicial	-12950
▁infer	-12951
▁Continental	-12952
▁biography	-12953
▁Guang	-12954
▁Uganda	-12955
alysis	-12956
▁Eis	-12957
▁beneath	-12958
▁Article	-12959
King	-12960
▁Cardinals	-12961
▁gastropod	-12962
▁htt	-12963
▁wreck	-12964
–13	-12965
iffe	-12966
osing	-12967
▁learns	-12968
▁Belf	-12969
▁Ess	-12970
▁chore	-12971
▁premier	-12972
▁Pete	-12973
▁sheep	-12974
▁Drama	-12975
lies	-12976
▁lift	-12977
▁temples	-12978
phabet	-12979
▁competitors	-12980
▁Phot	-12981
▁arbit	-12982
▁Meg	-12983
nesday	-12984
▁mutual	-12985
▁wheels	-12986
▁neighbourhood	-12987
▁photos	-12988
▁Link	-12989
▁1949,	-12990
▁Tat	-12991
▁tea	-12992
isons	-12993
produced	-12994
ellers	-12995
LB	-12996
▁overw	-12997
▁acquire	-12998
iology	-12999
▁1964.	-13000
member	-13001
▁paying	-13002
ollo	-13003
aining	-13004
▁Similarly	-13005
▁Grande	-13006
▁pounds	-13007
▁involve	-13008
▁muscle	-13009
▁Cred	-13010
▁integral	-13011
▁Holmes	-13012
ursday	-13013
▁stronger	-13014
than	-13015
▁Nintendo	-13016
▁bulk	-13017
▁migration	-13018
onne	-13019
▁quantum	-13020
quet	-13021
uchy	-13022
▁ammunition	-13023
▁feels	-13024
awks	-13025
ailing	-13026
onnie	-13027
▁stroke	-13028
▁drawings	-13029
▁configuration	-13030
▁interpreted	-13031
▁0.0	-13032
onnell	-13033
▁"...	-13034
▁unemploy	-13035
▁Kazakh	-13036
▁ow	-13037
sburg	-13038
▁fru	-13039
▁cens	-13040
▁sequences	-13041
▁hect	-13042
▁Artists	-13043
▁pill	-13044
▁Transit	-13045
alan	-13046
▁welfare	-13047
▁Subsequently	-13048
League	-13049
▁ing	-13050
▁1966.	-13051
▁Rush	-13052
▁Cort	-13053
▁Hass	-13054
▁67	-13055
▁Fat	-13056
▁Examp	-13057
ocene	-13058
▁1957,	-13059
offs	-13060
aji	-13061
odia	-13062
Family	-13063
▁fo	-13064
▁Private	-13065
▁libraries	-13066
▁thorough	-13067
▁imposed	-13068
atchewan	-13069
imer	-13070
▁BCE	-13071
▁achievements	-13072
plant	-13073
▁Fly	-13074
▁predict	-13075
▁Woods	-13076
▁Hus	-13077
▁Cut	-13078
▁consent	-13079
▁Aub	-13080
▁Pain	-13081
elong	-13082
▁revenge	-13083
▁publish	-13084
▁graphic	-13085
▁Citiz	-13086
▁Observ	-13087
▁theology	-13088
▁regardless	-13089
▁rally	-13090
▁shallow	-13091
▁mansion	-13092
▁30.	-13093
▁Mam	-13094
itting	-13095
▁occurring	-13096
▁homosexual	-13097
▁View	-13098
avier	-13099
woman	-13100
▁Roth	-13101
▁Ferdinand	-13102
▁compounds	-13103
abe	-13104
▁moist	-13105
▁lecturer	-13106
East	-13107
▁kings	-13108
▁flooding	-13109
▁Mario	-13110
▁democratic	-13111
▁unions	-13112
▁Brussels	-13113
▁Franc	-13114
▁explore	-13115
▁consequence	-13116
▁apprent	-13117
▁prompted	-13118
▁bore	-13119
▁Cyprus	-13120
▁distinguish	-13121
▁Vil	-13122
▁reads	-13123
list	-13124
▁stretch	-13125
green	-13126
▁Lodge	-13127
ounters	-13128
ilion	-13129
▁Ach	-13130
▁Raw	-13131
▁layers	-13132
▁Gol	-13133
▁Zimb	-13134
acular	-13135
▁compensation	-13136
▁watching	-13137
▁Meh	-13138
▁Brooks	-13139
▁CR	-13140
▁reluct	-13141
role	-13142
▁pace	-13143
▁Vid	-13144
▁Louise	-13145
▁struggled	-13146
official	-13147
stock	-13148
▁topic	-13149
cap	-13150
▁Cavalry	-13151
▁Cardiff	-13152
dem	-13153
▁dying	-13154
▁dors	-13155
▁stick	-13156
unda	-13157
▁OS	-13158
▁Canterbury	-13159
▁compact	-13160
▁167	-13161
alions	-13162
USA	-13163
▁metab	-13164
Ang	-13165
rift	-13166
▁Kingston	-13167
▁bassist	-13168
▁Bark	-13169
▁Ply	-13170
▁Emma	-13171
▁siblings	-13172
▁shoulder	-13173
▁environments	-13174
both	-13175
▁Kem	-13176
agger	-13177
izations	-13178
▁Amy	-13179
▁Compan	-13180
▁cock	-13181
▁rational	-13182
shi	-13183
▁Lithuania	-13184
▁HIV	-13185
isle	-13186
▁workshops	-13187
▁Presbyterian	-13188
▁Apost	-13189
▁lobby	-13190
icas	-13191
▁XV	-13192
▁bapt	-13193
▁vector	-13194
▁Hull	-13195
▁Advisory	-13196
▁attitude	-13197
▁acclaimed	-13198
▁Piet	-13199
▁knows	-13200
▁virtually	-13201
▁precip	-13202
▁properly	-13203
▁Bears	-13204
bery	-13205
▁hosting	-13206
▁explosion	-13207
English	-13208
▁define	-13209
nai	-13210
▁ic	-13211
▁comprom	-13212
▁Cauc	-13213
▁alumin	-13214
▁Malta	-13215
▁Hod	-13216
veloped	-13217
▁Fras	-13218
uta	-13219
▁Wildlife	-13220
rium	-13221
▁Rank	-13222
▁airing	-13223
▁testim	-13224
▁developers	-13225
olith	-13226
▁Dj	-13227
hin	-13228
▁Morocco	-13229
▁hook	-13230
▁Hir	-13231
▁bypass	-13232
ologically	-13233
▁decreased	-13234
ridor	-13235
▁Constantin	-13236
▁Cann	-13237
▁dock	-13238
▁rook	-13239
▁Gur	-13240
▁terrain	-13241
▁Saskatchewan	-13242
▁Dob	-13243
▁developer	-13244
amation	-13245
olics	-13246
▁Pom	-13247
▁Canton	-13248
▁Peak	-13249
▁Idaho	-13250
▁XI	-13251
▁dozen	-13252
▁lessons	-13253
illon	-13254
▁Flying	-13255
ophone	-13256
▁sits	-13257
▁bout	-13258
inas	-13259
▁fate	-13260
▁summ	-13261
EN	-13262
▁varieties	-13263
▁journalism	-13264
▁Giovanni	-13265
▁verte	-13266
▁acclaim	-13267
▁Princeton	-13268
▁Ellis	-13269
aru	-13270
auc	-13271
▁territorial	-13272
▁Foot	-13273
▁Advanced	-13274
prises	-13275
▁teammate	-13276
▁dece	-13277
abwe	-13278
▁handled	-13279
▁1955,	-13280
▁observations	-13281
▁amph	-13282
▁Plate	-13283
▁fees	-13284
▁Geneva	-13285
▁equally	-13286
dist	-13287
▁consensus	-13288
▁oct	-13289
▁Gael	-13290
▁insects	-13291
▁absent	-13292
edge	-13293
▁100,000	-13294
ieu	-13295
▁Pick	-13296
arded	-13297
▁tourists	-13298
▁Located	-13299
▁sword	-13300
▁aster	-13301
rators	-13302
▁averaged	-13303
▁calcul	-13304
alties	-13305
earing	-13306
bian	-13307
62	-13308
thouse	-13309
▁authent	-13310
▁lying	-13311
▁reass	-13312
▁Oz	-13313
▁evident	-13314
▁immun	-13315
▁ware	-13316
▁GT	-13317
umps	-13318
▁Estate	-13319
usters	-13320
▁ibn	-13321
▁colours	-13322
▁Santiago	-13323
▁Mull	-13324
rier	-13325
▁cancel	-13326
▁militia	-13327
ordinary	-13328
atem	-13329
▁reconstruction	-13330
▁tom	-13331
▁sulf	-13332
oque	-13333
▁Episcopal	-13334
eness	-13335
Pe	-13336
rike	-13337
▁Edition	-13338
oding	-13339
vas	-13340
▁surfaces	-13341
▁cleared	-13342
▁codes	-13343
National	-13344
oku	-13345
▁transformation	-13346
section	-13347
▁preparing	-13348
▁buff	-13349
▁imprisonment	-13350
▁constantly	-13351
▁manufacture	-13352
▁sacrif	-13353
▁prayer	-13354
arre	-13355
▁sweet	-13356
▁voyage	-13357
▁Worcester	-13358
▁Benedict	-13359
▁pm	-13360
▁maid	-13361
▁corporation	-13362
▁specified	-13363
▁undertaken	-13364
.<	-13365
▁schem	-13366
▁girlfriend	-13367
▁furniture	-13368
är	-13369
▁Dim	-13370
▁freestyle	-13371
rano	-13372
▁ensemble	-13373
▁array	-13374
▁trips	-13375
▁Basin	-13376
icz	-13377
▁(0.	-13378
pring	-13379
CAR	-13380
▁innovative	-13381
GS	-13382
arrior	-13383
▁sou	-13384
▁centered	-13385
▁interactions	-13386
▁vegetation	-13387
▁doctrine	-13388
▁Campus	-13389
▁anchor	-13390
▁Armenia	-13391
techn	-13392
▁advisor	-13393
▁depends	-13394
roscop	-13395
▁Aw	-13396
▁thrown	-13397
wart	-13398
▁refuses	-13399
▁complain	-13400
▁farmer	-13401
dorf	-13402
▁Andrews	-13403
▁Kumar	-13404
▁Engineers	-13405
▁Shield	-13406
▁southwestern	-13407
▁1917,	-13408
▁hull	-13409
▁Surrey	-13410
▁unclear	-13411
▁pink	-13412
▁Chelsea	-13413
▁Salvador	-13414
▁Flag	-13415
▁Hindi	-13416
▁ov	-13417
amine	-13418
course	-13419
▁habitats	-13420
ensen	-13421
▁craf	-13422
▁Rabbi	-13423
▁burning	-13424
▁Lutheran	-13425
shaw	-13426
▁Trin	-13427
▁Luxemb	-13428
zhou	-13429
▁literally	-13430
▁moments	-13431
▁epit	-13432
▁Fernando	-13433
▁troubl	-13434
imensions	-13435
vor	-13436
onal	-13437
▁magnitude	-13438
▁unexpected	-13439
▁Fighter	-13440
▁metre	-13441
▁Distinguished	-13442
▁kitchen	-13443
▁Aur	-13444
▁Nas	-13445
▁1954,	-13446
▁talking	-13447
▁sporting	-13448
▁adoption	-13449
▁cabin	-13450
▁FBI	-13451
base	-13452
icus	-13453
grand	-13454
▁missionary	-13455
▁Gibson	-13456
▁Colin	-13457
▁Richardson	-13458
▁Bradford	-13459
uke	-13460
▁Annual	-13461
▁mysterious	-13462
government	-13463
▁theorem	-13464
▁Sabha	-13465
▁clothes	-13466
songwriter	-13467
▁Ł	-13468
▁Ana	-13469
▁manor	-13470
▁capabilities	-13471
▁aerial	-13472
▁Liv	-13473
▁Marcus	-13474
▁bold	-13475
▁naming	-13476
▁abbrev	-13477
▁collecting	-13478
EL	-13479
▁Solomon	-13480
▁confusion	-13481
▁Competition	-13482
Brit	-13483
quest	-13484
best	-13485
▁lease	-13486
plete	-13487
Tr	-13488
▁Lex	-13489
▁algebra	-13490
▁badly	-13491
apa	-13492
ishi	-13493
▁cant	-13494
▁slavery	-13495
▁Kurt	-13496
▁Rodrig	-13497
ento	-13498
▁Karn	-13499
▁inclusion	-13500
▁Contest	-13501
▁reactions	-13502
▁Evangel	-13503
▁remn	-13504
▁absorbed	-13505
▁$1.	-13506
▁twentieth	-13507
▁considerably	-13508
▁Aboriginal	-13509
▁Dund	-13510
▁Mé	-13511
▁Source	-13512
▁Tampa	-13513
▁legendary	-13514
▁mathematical	-13515
▁Duncan	-13516
▁Voice	-13517
▁29.	-13518
▁Simpson	-13519
▁Gren	-13520
▁Cust	-13521
NP	-13522
300	-13523
non	-13524
June	-13525
▁joins	-13526
ān	-13527
▁Kill	-13528
▁dynamic	-13529
▁unw	-13530
▁Zimbabwe	-13531
▁grain	-13532
▁expelled	-13533
▁1953,	-13534
▁collapsed	-13535
▁beer	-13536
▁IBM	-13537
etry	-13538
layer	-13539
▁zones	-13540
▁revived	-13541
▁desired	-13542
▁proposals	-13543
chel	-13544
▁Actor	-13545
▁Bryan	-13546
▁Gerald	-13547
▁commanding	-13548
▁rotation	-13549
gener	-13550
oan	-13551
▁tribal	-13552
▁finale	-13553
▁accordance	-13554
anyon	-13555
▁absolute	-13556
▁suburbs	-13557
ardi	-13558
cock	-13559
rating	-13560
▁bread	-13561
▁Emmy	-13562
▁Legislature	-13563
▁ion	-13564
▁Finals	-13565
("	-13566
▁kinds	-13567
▁Mobile	-13568
▁gla	-13569
▁Twitter	-13570
▁Belgrade	-13571
artet	-13572
▁encourag	-13573
DR	-13574
▁vicinity	-13575
▁preservation	-13576
▁faction	-13577
▁fossil	-13578
▁conce	-13579
▁Hurricane	-13580
▁poorly	-13581
▁Mine	-13582
▁Agre	-13583
▁Pos	-13584
▁Kurd	-13585
▁opens	-13586
▁Chase	-13587
▁theoretical	-13588
▁lib	-13589
him	-13590
▁1952,	-13591
quin	-13592
OT	-13593
▁AB	-13594
▁Path	-13595
▁chlor	-13596
▁relegation	-13597
▁argue	-13598
▁Guards	-13599
▁Cu	-13600
▁Albania	-13601
▁172	-13602
gary	-13603
▁Wonder	-13604
uras	-13605
▁fatal	-13606
▁gathering	-13607
▁Wednesday	-13608
▁intensity	-13609
▁cosm	-13610
▁uncon	-13611
89	-13612
▁assignment	-13613
ighthouse	-13614
▁exploration	-13615
...]	-13616
▁slopes	-13617
▁1938,	-13618
ilda	-13619
edo	-13620
ublished	-13621
▁Julia	-13622
▁1960.	-13623
▁1946.	-13624
▁Monten	-13625
▁Founded	-13626
▁disagre	-13627
▁bacteria	-13628
▁Desert	-13629
appro	-13630
▁discipline	-13631
▁advised	-13632
▁renovated	-13633
▁currency	-13634
▁curve	-13635
idi	-13636
eri	-13637
▁Tiger	-13638
▁Oslo	-13639
Ireland	-13640
▁1962.	-13641
▁intens	-13642
▁162	-13643
▁Beaut	-13644
missions	-13645
▁Soci	-13646
▁registration	-13647
estrian	-13648
▁Ming	-13649
▁symbols	-13650
400	-13651
iblical	-13652
▁architects	-13653
▁Chapter	-13654
▁promotional	-13655
▁ballot	-13656
gends	-13657
▁probability	-13658
atever	-13659
▁3,000	-13660
▁Clif	-13661
▁rivalry	-13662
▁Allan	-13663
▁separately	-13664
▁posthum	-13665
esters	-13666
▁pin	-13667
esar	-13668
IF	-13669
▁interviewed	-13670
erals	-13671
ango	-13672
▁creek	-13673
▁Bran	-13674
▁mild	-13675
▁sheet	-13676
▁portraits	-13677
ictionary	-13678
umm	-13679
▁mi	-13680
▁Tab	-13681
▁Bloom	-13682
▁northwestern	-13683
Af	-13684
▁Pink	-13685
airy	-13686
group	-13687
▁Henderson	-13688
▁opposing	-13689
▁Manitoba	-13690
▁rape	-13691
▁limestone	-13692
immer	-13693
When	-13694
▁Safety	-13695
▁renovation	-13696
stanbul	-13697
▁treas	-13698
▁Powell	-13699
▁distant	-13700
▁Qing	-13701
▁weigh	-13702
▁peninsula	-13703
canic	-13704
lif	-13705
▁Others	-13706
▁Scientific	-13707
▁estimates	-13708
▁consequences	-13709
▁Porter	-13710
ymph	-13711
▁rejoin	-13712
April	-13713
▁Blake	-13714
eu	-13715
▁Hopkins	-13716
▁sky	-13717
upe	-13718
▁Actress	-13719
▁confirm	-13720
avi	-13721
▁1942.	-13722
▁predicted	-13723
▁Rachel	-13724
▁riders	-13725
atics	-13726
▁monitoring	-13727
▁preval	-13728
imity	-13729
Ed	-13730
▁instructions	-13731
▁hitting	-13732
▁eighteen	-13733
▁continental	-13734
▁Lig	-13735
▁necessarily	-13736
uclear	-13737
▁Gö	-13738
▁Ster	-13739
▁Dynasty	-13740
Mal	-13741
▁Bil	-13742
addy	-13743
▁Crist	-13744
▁rounded	-13745
▁Chin	-13746
▁overwhel	-13747
▁retrie	-13748
oline	-13749
▁Bradley	-13750
▁1920,	-13751
Sec	-13752
inned	-13753
oriented	-13754
▁presidency	-13755
ritic	-13756
▁anten	-13757
▁Trent	-13758
▁introduce	-13759
itory	-13760
▁chorus	-13761
pert	-13762
▁Emily	-13763
alifax	-13764
anch	-13765
hero	-13766
▁blocked	-13767
▁Saw	-13768
▁voiced	-13769
▁Critics	-13770
▁Arsenal	-13771
▁oxid	-13772
▁Was	-13773
▁5,000	-13774
▁quarters	-13775
▁Veter	-13776
▁entries	-13777
wind	-13778
ahu	-13779
stable	-13780
▁1963.	-13781
▁lung	-13782
▁Natal	-13783
Ste	-13784
▁exempt	-13785
▁dancer	-13786
▁boarding	-13787
▁Tree	-13788
▁listing	-13789
▁agrees	-13790
▁Reich	-13791
▁Kenneth	-13792
▁Warwick	-13793
▁Prison	-13794
ww	-13795
▁spectrum	-13796
▁Machine	-13797
▁173	-13798
▁incidents	-13799
▁2"	-13800
▁wound	-13801
▁depicting	-13802
▁kin	-13803
▁sacred	-13804
▁conceived	-13805
▁convoy	-13806
▁Amendment	-13807
▁egg	-13808
▁aggressive	-13809
rene	-13810
▁Ard	-13811
▁Leslie	-13812
▁condemned	-13813
▁GP	-13814
▁Dow	-13815
October	-13816
▁borrow	-13817
adal	-13818
▁Worth	-13819
▁Eve	-13820
▁Palm	-13821
inished	-13822
San	-13823
▁cott	-13824
▁Plymouth	-13825
▁Kw	-13826
▁wildlife	-13827
▁repairs	-13828
screen	-13829
▁Parks	-13830
▁wake	-13831
▁manga	-13832
Per	-13833
▁AFL	-13834
▁Guj	-13835
▁layout	-13836
How	-13837
Pol	-13838
ennium	-13839
oye	-13840
▁biology	-13841
uxiliary	-13842
▁copyright	-13843
adh	-13844
▁paras	-13845
comp	-13846
▁74	-13847
▁withdrawal	-13848
eastern	-13849
▁Proper	-13850
etheless	-13851
▁smart	-13852
▁Brighton	-13853
▁investigated	-13854
▁Pine	-13855
ribution	-13856
71	-13857
monton	-13858
▁trig	-13859
▁af	-13860
▁stepped	-13861
▁Chad	-13862
▁Watch	-13863
▁Publishing	-13864
September	-13865
▁allocated	-13866
fr	-13867
arin	-13868
astics	-13869
linary	-13870
deen	-13871
▁1899	-13872
manuel	-13873
▁estimate	-13874
▁scattered	-13875
▁watched	-13876
phant	-13877
5).	-13878
▁ESPN	-13879
RP	-13880
▁Principal	-13881
laus	-13882
ndez	-13883
▁Preston	-13884
icals	-13885
▁1898	-13886
▁2–0	-13887
▁loved	-13888
omatic	-13889
Life	-13890
▁Talk	-13891
▁1914,	-13892
gue	-13893
algam	-13894
▁interim	-13895
chron	-13896
▁×	-13897
oko	-13898
▁Memphis	-13899
▁performs	-13900
July	-13901
▁Tyler	-13902
▁Parliamentary	-13903
▁Without	-13904
▁consideration	-13905
▁Herald	-13906
▁conversation	-13907
–11	-13908
▁Relations	-13909
▁measuring	-13910
▁71	-13911
▁Vale	-13912
▁clerk	-13913
▁salary	-13914
ylum	-13915
▁favorable	-13916
▁penet	-13917
▁promise	-13918
ouns	-13919
▁Teh	-13920
Brien	-13921
▁adequ	-13922
▁crucial	-13923
▁Eugene	-13924
▁legacy	-13925
▁colonel	-13926
uchi	-13927
▁discussions	-13928
▁Tennis	-13929
▁populated	-13930
elo	-13931
OW	-13932
hurst	-13933
OL	-13934
▁Lucy	-13935
Mr	-13936
Los	-13937
hou	-13938
▁frust	-13939
▁boxing	-13940
▁Universe	-13941
ipur	-13942
▁flagship	-13943
assy	-13944
EM	-13945
lando	-13946
▁manuscripts	-13947
▁Plaza	-13948
rud	-13949
▁Herm	-13950
lez	-13951
▁lun	-13952
▁Bend	-13953
▁2:	-13954
▁questioned	-13955
▁1951,	-13956
▁Alpha	-13957
▁1919,	-13958
▁Shore	-13959
never	-13960
Cent	-13961
horn	-13962
▁navy	-13963
▁Calgary	-13964
▁Bailey	-13965
▁customs	-13966
▁Additional	-13967
ár	-13968
▁brands	-13969
electric	-13970
listed	-13971
▁edges	-13972
▁Glass	-13973
▁boost	-13974
▁outcome	-13975
▁genera	-13976
gard	-13977
▁AF	-13978
▁Burton	-13979
▁considers	-13980
▁Made	-13981
▁embarked	-13982
▁Param	-13983
holder	-13984
▁mature	-13985
▁Anat	-13986
▁bankruptcy	-13987
▁Scholar	-13988
▁Caroline	-13989
rising	-13990
▁Comedy	-13991
▁guards	-13992
ints	-13993
▁conquest	-13994
iott	-13995
▁Deuts	-13996
▁hurricane	-13997
▁jack	-13998
▁seal	-13999
▁inaugurated	-14000
▁Editor	-14001
▁screenplay	-14002
▁composers	-14003
▁skull	-14004
▁naturally	-14005
rica	-14006
abling	-14007
▁Ö	-14008
▁minim	-14009
▁legally	-14010
pri	-14011
▁Milton	-14012
▁Harbour	-14013
▁vari	-14014
▁crack	-14015
oux	-14016
▁protagonist	-14017
gae	-14018
▁(189	-14019
anian	-14020
Que	-14021
▁neighb	-14022
▁Shop	-14023
cyclop	-14024
▁drives	-14025
▁Canyon	-14026
"".	-14027
▁enrollment	-14028
▁navig	-14029
▁dinner	-14030
▁Cert	-14031
▁Cord	-14032
▁botan	-14033
▁Archae	-14034
▁depicts	-14035
▁Thursday	-14036
▁horizontal	-14037
▁vinyl	-14038
▁Feder	-14039
▁emigrated	-14040
–198	-14041
▁Nadu	-14042
▁recreational	-14043
▁NATO	-14044
▁Curtis	-14045
asium	-14046
eer	-14047
▁assassination	-14048
▁163	-14049
▁autonomous	-14050
▁mechanisms	-14051
▁underlying	-14052
dan	-14053
▁physically	-14054
▁Sold	-14055
ancers	-14056
▁Testament	-14057
▁subspecies	-14058
▁telev	-14059
GP	-14060
▁Republicans	-14061
agi	-14062
▁Gamb	-14063
▁Directors	-14064
▁exhibits	-14065
Let	-14066
hl	-14067
▁intend	-14068
▁Doug	-14069
▁deterior	-14070
▁Carne	-14071
▁sor	-14072
▁tob	-14073
▁fertil	-14074
73	-14075
▁epid	-14076
alli	-14077
▁draws	-14078
▁sculptor	-14079
▁fro	-14080
▁proximity	-14081
itated	-14082
structed	-14083
▁700	-14084
author	-14085
▁synthes	-14086
▁tale	-14087
▁Miles	-14088
▁traff	-14089
▁manifest	-14090
Art	-14091
▁suburban	-14092
▁certainly	-14093
▁gameplay	-14094
▁lifestyle	-14095
▁Halifax	-14096
▁laps	-14097
▁marking	-14098
▁stere	-14099
▁explanation	-14100
Ant	-14101
▁171	-14102
▁Lah	-14103
▁receptor	-14104
▁premises	-14105
ductive	-14106
ellar	-14107
▁Sene	-14108
▁Edge	-14109
▁Glenn	-14110
▁Fraser	-14111
▁79	-14112
▁marri	-14113
achers	-14114
▁1937,	-14115
www	-14116
▁optical	-14117
▁dish	-14118
idelines	-14119
restrial	-14120
este	-14121
itative	-14122
▁Prefecture	-14123
▁rendered	-14124
▁arose	-14125
▁Vij	-14126
▁logic	-14127
▁dimensions	-14128
▁rapper	-14129
▁reconc	-14130
▁Cave	-14131
▁Faith	-14132
▁hamlet	-14133
▁aftermath	-14134
▁nose	-14135
aneous	-14136
six	-14137
▁Fergus	-14138
Super	-14139
▁Speaker	-14140
▁Dw	-14141
▁Reid	-14142
▁Gan	-14143
▁Slovenia	-14144
IR	-14145
walk	-14146
powered	-14147
▁Chancellor	-14148
▁1940.	-14149
path	-14150
GN	-14151
December	-14152
▁1936,	-14153
▁Balk	-14154
▁Leop	-14155
▁Wend	-14156
▁Bedford	-14157
▁Robertson	-14158
comes	-14159
▁Baby	-14160
▁Colonial	-14161
umble	-14162
▁Jung	-14163
▁Claud	-14164
▁Naples	-14165
▁Against	-14166
▁Catholics	-14167
▁knocked	-14168
ht	-14169
oyle	-14170
▁Basil	-14171
▁committees	-14172
xi	-14173
▁subfamily	-14174
pay	-14175
word	-14176
▁cameras	-14177
▁raw	-14178
▁consistently	-14179
▁lip	-14180
▁Folk	-14181
ettes	-14182
▁Number	-14183
▁Guatem	-14184
▁nicknamed	-14185
▁Frankfurt	-14186
▁CH	-14187
appa	-14188
▁facade	-14189
▁Store	-14190
awi	-14191
▁sensitive	-14192
▁hide	-14193
▁73	-14194
ikes	-14195
▁Raz	-14196
▁Lut	-14197
▁McDonald	-14198
▁offense	-14199
▁Ced	-14200
▁Sul	-14201
▁snail	-14202
▁proven	-14203
▁Interior	-14204
atty	-14205
▁prohibited	-14206
▁Vat	-14207
▁runway	-14208
cot	-14209
▁Rib	-14210
▁Highland	-14211
▁Filipino	-14212
▁reserved	-14213
▁1941.	-14214
▁alphabet	-14215
▁notion	-14216
istle	-14217
▁Rhine	-14218
▁1896	-14219
▁marsh	-14220
▁accus	-14221
▁Wesley	-14222
▁Philosophy	-14223
Har	-14224
▁obst	-14225
▁RBI	-14226
▁1961.	-14227
Hist	-14228
Europe	-14229
▁Lyon	-14230
grim	-14231
▁Estonia	-14232
▁recurring	-14233
▁companion	-14234
unal	-14235
inum	-14236
▁Complex	-14237
▁athletics	-14238
▁Resources	-14239
▁Mechan	-14240
▁servant	-14241
just	-14242
▁planted	-14243
▁USSR	-14244
▁marble	-14245
stadt	-14246
▁Study	-14247
stop	-14248
▁lesser	-14249
▁Musical	-14250
▁membrane	-14251
Hung	-14252
▁Boeing	-14253
▁Capitol	-14254
▁Sheriff	-14255
▁motif	-14256
▁Kang	-14257
MT	-14258
market	-14259
▁supervision	-14260
▁stabil	-14261
pp	-14262
▁Cit	-14263
▁contend	-14264
▁Albany	-14265
EF	-14266
▁activated	-14267
▁DS	-14268
▁Spec	-14269
▁vault	-14270
▁fires	-14271
▁1948.	-14272
▁orientation	-14273
▁Ign	-14274
▁Coalition	-14275
▁directing	-14276
▁vulnerable	-14277
inis	-14278
▁82	-14279
▁socialist	-14280
ém	-14281
hart	-14282
▁Lords	-14283
▁freed	-14284
▁Cinema	-14285
▁Adrian	-14286
ewise	-14287
▁strikes	-14288
educ	-14289
▁eating	-14290
▁Associate	-14291
▁scar	-14292
▁1895	-14293
▁semifinals	-14294
card	-14295
▁crowned	-14296
▁Sisters	-14297
jud	-14298
▁Commercial	-14299
▁holes	-14300
▁NSW	-14301
▁commercially	-14302
▁aside	-14303
▁instructor	-14304
▁kiss	-14305
▁Hes	-14306
-21	-14307
▁demonstrate	-14308
▁1943.	-14309
▁creator	-14310
▁Crus	-14311
▁strategies	-14312
▁Charter	-14313
▁jointly	-14314
ouncing	-14315
▁Edmonton	-14316
▁Windsor	-14317
▁lord	-14318
▁Nikol	-14319
▁sax	-14320
▁XX	-14321
has	-14322
enzie	-14323
▁molecules	-14324
▁Belfast	-14325
▁bills	-14326
▁persec	-14327
▁surpass	-14328
▁RNA	-14329
▁1840	-14330
▁Emir	-14331
▁taste	-14332
▁orch	-14333
▁phon	-14334
▁heter	-14335
▁Fun	-14336
▁unveiled	-14337
▁Cly	-14338
▁obvious	-14339
▁96	-14340
▁Reynolds	-14341
▁Prussia	-14342
▁Fra	-14343
▁mosque	-14344
▁Stafford	-14345
kees	-14346
▁facilitate	-14347
▁delegation	-14348
▁sculptures	-14349
▁Middles	-14350
▁referee	-14351
▁Ek	-14352
▁diagnosed	-14353
▁Bea	-14354
▁kids	-14355
avor	-14356
▁feeding	-14357
▁Architecture	-14358
▁politically	-14359
oves	-14360
▁interven	-14361
▁rehabilit	-14362
encia	-14363
▁substance	-14364
▁Tall	-14365
▁Tanz	-14366
kinson	-14367
▁performer	-14368
North	-14369
▁swing	-14370
▁Prof	-14371
▁successive	-14372
▁Lomb	-14373
▁pref	-14374
likely	-14375
▁basement	-14376
▁imported	-14377
▁terrorist	-14378
agle	-14379
▁calculated	-14380
amped	-14381
thood	-14382
▁François	-14383
November	-14384
ocate	-14385
▁Burns	-14386
▁preceding	-14387
▁removing	-14388
iar	-14389
▁Springfield	-14390
clusive	-14391
▁pig	-14392
▁scales	-14393
▁Portsmouth	-14394
andro	-14395
▁Chuck	-14396
▁portfol	-14397
▁Male	-14398
▁bonds	-14399
▁Fifth	-14400
▁Globe	-14401
ulates	-14402
▁Muk	-14403
▁tun	-14404
▁philosopher	-14405
▁Physics	-14406
▁Cos	-14407
▁WC	-14408
▁moon	-14409
▁bullet	-14410
ivo	-14411
▁tension	-14412
▁IF	-14413
▁rises	-14414
aze	-14415
▁hypothesis	-14416
▁inland	-14417
▁consumers	-14418
▁1897	-14419
▁reinforce	-14420
▁explored	-14421
▁Planning	-14422
▁Dew	-14423
▁Loren	-14424
▁agreements	-14425
▁Por	-14426
▁Berk	-14427
▁Examples	-14428
▁Zamb	-14429
▁advocated	-14430
antle	-14431
uesday	-14432
..."	-14433
▁trophy	-14434
▁tradem	-14435
▁finger	-14436
isers	-14437
January	-14438
▁disabled	-14439
▁AFC	-14440
▁analyst	-14441
▁[...]	-14442
▁genres	-14443
empor	-14444
▁united	-14445
▁investigations	-14446
▁101	-14447
tlement	-14448
▁Agreement	-14449
▁museums	-14450
▁Manor	-14451
▁156	-14452
zegov	-14453
imon	-14454
pending	-14455
established	-14456
▁millions	-14457
▁spite	-14458
mag	-14459
▁voices	-14460
uin	-14461
▁10%	-14462
iking	-14463
▁1956.	-14464
sal	-14465
▁indirect	-14466
gram	-14467
fold	-14468
how	-14469
▁subord	-14470
▁administrator	-14471
iden	-14472
▁rushing	-14473
▁Bever	-14474
▁surrendered	-14475
▁Jesse	-14476
▁Americas	-14477
▁arguments	-14478
▁Aberdeen	-14479
▁authored	-14480
Good	-14481
▁statistical	-14482
▁fron	-14483
▁Presidential	-14484
sole	-14485
▁bones	-14486
akk	-14487
▁Ig	-14488
Rock	-14489
▁consort	-14490
arium	-14491
ducer	-14492
▁novelist	-14493
▁VIII	-14494
▁researcher	-14495
▁directions	-14496
▁Ellen	-14497
plane	-14498
▁tonn	-14499
etti	-14500
▁orth	-14501
▁cub	-14502
this	-14503
▁Ari	-14504
▁Dud	-14505
▁audition	-14506
9).	-14507
▁axis	-14508
▁custody	-14509
▁abstract	-14510
▁arguing	-14511
album	-14512
▁healthy	-14513
▁Dum	-14514
▁replic	-14515
SCO	-14516
▁synthesis	-14517
▁digit	-14518
▁UA	-14519
▁remarkable	-14520
▁rebel	-14521
laws	-14522
▁payments	-14523
▁Lenn	-14524
▁Alexandria	-14525
reens	-14526
▁Utt	-14527
assis	-14528
cussion	-14529
▁Fellowship	-14530
▁bishops	-14531
criptions	-14532
▁Luxembourg	-14533
▁Rochester	-14534
▁Carroll	-14535
▁Ost	-14536
Port	-14537
▁Progressive	-14538
iating	-14539
▁accidentally	-14540
ør	-14541
▁utility	-14542
▁Seminary	-14543
▁tobacco	-14544
600	-14545
lla	-14546
▁Various	-14547
▁stair	-14548
▁Pomer	-14549
cin	-14550
▁tent	-14551
▁Comb	-14552
▁enterprise	-14553
▁tables	-14554
▁Billboard	-14555
▁(188	-14556
lord	-14557
▁continuously	-14558
▁Cel	-14559
▁CIA	-14560
▁Blu	-14561
▁Notre	-14562
▁Banks	-14563
▁Bord	-14564
▁reader	-14565
eps	-14566
▁Oct	-14567
▁defect	-14568
▁Mis	-14569
▁velocity	-14570
▁IA	-14571
▁WA	-14572
illiant	-14573
▁Original	-14574
▁Appro	-14575
▁McN	-14576
▁dense	-14577
seat	-14578
▁bowl	-14579
forest	-14580
▁Individual	-14581
▁Marines	-14582
▁impression	-14583
▁6-	-14584
▁Wagner	-14585
▁subdiv	-14586
▁lasting	-14587
▁Brid	-14588
▁Warriors	-14589
▁fract	-14590
▁monks	-14591
▁tornado	-14592
mand	-14593
erek	-14594
▁Spart	-14595
▁CB	-14596
▁oak	-14597
ifier	-14598
▁elaborate	-14599
▁circles	-14600
ioned	-14601
▁Task	-14602
▁item	-14603
iformes	-14604
▁comprised	-14605
▁Kann	-14606
▁labels	-14607
▁grandmother	-14608
illance	-14609
mus	-14610
▁Kyle	-14611
▁thermal	-14612
▁Lost	-14613
▁sustainable	-14614
▁Hoff	-14615
▁gates	-14616
▁dressed	-14617
▁Lancaster	-14618
▁Viol	-14619
▁suffer	-14620
▁cryst	-14621
▁Cohen	-14622
▁Clement	-14623
SU	-14624
▁Index	-14625
▁discipl	-14626
lis	-14627
EE	-14628
▁fier	-14629
▁1893	-14630
▁Wake	-14631
▁raids	-14632
pus	-14633
Pal	-14634
hey	-14635
▁antib	-14636
▁pret	-14637
▁pursuit	-14638
▁endangered	-14639
▁veterans	-14640
▁1933,	-14641
▁apolog	-14642
▁maternal	-14643
▁1947.	-14644
▁1959.	-14645
▁Writers	-14646
▁epic	-14647
▁Haven	-14648
▁Et	-14649
▁truly	-14650
▁fla	-14651
▁Monroe	-14652
Bar	-14653
▁philanthrop	-14654
▁Headquarters	-14655
▁achieving	-14656
ados	-14657
acing	-14658
eni	-14659
aceut	-14660
▁1930,	-14661
▁Lynn	-14662
▁hotels	-14663
▁Level	-14664
ding	-14665
▁1958.	-14666
▁geographical	-14667
elly	-14668
▁SO	-14669
▁Pé	-14670
heng	-14671
▁Brent	-14672
▁Recon	-14673
▁lig	-14674
▁Half	-14675
asse	-14676
▁(194	-14677
imental	-14678
▁harass	-14679
▁1935,	-14680
heric	-14681
▁examined	-14682
▁tactics	-14683
Her	-14684
▁slot	-14685
▁propri	-14686
▁foundations	-14687
houses	-14688
▁obtaining	-14689
urities	-14690
▁pronounced	-14691
Sat	-14692
▁Kom	-14693
▁humid	-14694
▁garn	-14695
▁longtime	-14696
▁pastor	-14697
▁sectors	-14698
▁1939.	-14699
adio	-14700
▁dealt	-14701
▁Own	-14702
▁Hels	-14703
▁nights	-14704
▁pine	-14705
▁workshop	-14706
▁ancestry	-14707
ayette	-14708
▁Orlando	-14709
enary	-14710
▁Liberation	-14711
alid	-14712
▁presum	-14713
▁vig	-14714
▁chess	-14715
▁Linda	-14716
aris	-14717
▁cere	-14718
▁Mail	-14719
▁Heat	-14720
estock	-14721
▁Travel	-14722
▁Morrison	-14723
▁proclaimed	-14724
zegovina	-14725
▁Bj	-14726
▁Being	-14727
▁proceedings	-14728
ylan	-14729
▁depot	-14730
▁fights	-14731
▁delegates	-14732
▁motorcycle	-14733
▁1894	-14734
Men	-14735
▁sunk	-14736
▁conve	-14737
▁Baltic	-14738
bles	-14739
▁contracted	-14740
▁tackle	-14741
▁innovation	-14742
▁89	-14743
▁invitation	-14744
▁Agricultural	-14745
▁cluster	-14746
▁intellig	-14747
▁lengths	-14748
▁1800	-14749
▁Crystal	-14750
aram	-14751
▁enorm	-14752
▁settings	-14753
▁Inspe	-14754
▁Depression	-14755
ercis	-14756
▁proceeds	-14757
▁batteries	-14758
ashtra	-14759
▁Troy	-14760
▁Exhibition	-14761
colm	-14762
▁AN	-14763
▁mystery	-14764
▁Movie	-14765
▁Harm	-14766
▁harbour	-14767
▁Nacional	-14768
▁arist	-14769
▁rulers	-14770
▁Angels	-14771
ablo	-14772
▁Moss	-14773
▁bombs	-14774
▁81	-14775
▁humor	-14776
▁counts	-14777
arians	-14778
▁98	-14779
▁engra	-14780
▁mud	-14781
▁reflects	-14782
atri	-14783
▁1957.	-14784
chair	-14785
▁Chal	-14786
eno	-14787
▁disputed	-14788
Sal	-14789
ych	-14790
lar	-14791
daughter	-14792
▁priority	-14793
▁unsuccessfully	-14794
rh	-14795
ondo	-14796
▁rings	-14797
▁contestants	-14798
▁enhanced	-14799
andin	-14800
▁divide	-14801
aternity	-14802
sup	-14803
▁1-	-14804
anca	-14805
▁allied	-14806
▁Dayton	-14807
▁na	-14808
Comm	-14809
▁Southwest	-14810
▁trim	-14811
▁leather	-14812
▁gamb	-14813
▁Ley	-14814
▁humanity	-14815
mic	-14816
clesiast	-14817
▁Anders	-14818
ycl	-14819
books	-14820
▁romance	-14821
▁Moses	-14822
mile	-14823
▁Theodore	-14824
▁Bohem	-14825
ught	-14826
▁undergo	-14827
▁Ki	-14828
▁ingred	-14829
▁initiatives	-14830
▁verb	-14831
otypes	-14832
▁bounded	-14833
▁complicated	-14834
▁mph	-14835
▁harsh	-14836
present	-14837
▁Barnes	-14838
▁1892	-14839
▁Wyoming	-14840
▁orchest	-14841
▁Antarctic	-14842
▁nationalist	-14843
▁preventing	-14844
▁Harper	-14845
▁Heaven	-14846
opy	-14847
etics	-14848
▁Mick	-14849
▁ceremonies	-14850
▁Richards	-14851
▁Chess	-14852
▁rescued	-14853
▁donations	-14854
▁SM	-14855
▁brut	-14856
▁Martha	-14857
itively	-14858
▁quit	-14859
formed	-14860
▁overcome	-14861
ndon	-14862
▁planes	-14863
▁organize	-14864
▁Dong	-14865
▁catalog	-14866
▁María	-14867
▁Month	-14868
▁Factory	-14869
▁artifacts	-14870
headed	-14871
▁intact	-14872
▁wrestler	-14873
ographers	-14874
▁Sacram	-14875
roat	-14876
56	-14877
▁Nigerian	-14878
isive	-14879
▁Hugo	-14880
▁Marian	-14881
andra	-14882
▁Rey	-14883
effect	-14884
▁balls	-14885
▁ori	-14886
▁presenter	-14887
▁rectangular	-14888
▁murders	-14889
▁accuracy	-14890
irie	-14891
ño	-14892
▁Account	-14893
▁parad	-14894
▁decree	-14895
▁factories	-14896
iza	-14897
▁86	-14898
▁outlets	-14899
▁disappear	-14900
hears	-14901
bern	-14902
arity	-14903
▁Excell	-14904
▁conspiracy	-14905
▁flowering	-14906
▁1885	-14907
▁diff	-14908
▁battalions	-14909
▁Blair	-14910
▁propaganda	-14911
▁Gustav	-14912
ibli	-14913
▁speaks	-14914
▁destroying	-14915
▁essays	-14916
orms	-14917
rill	-14918
▁Jennifer	-14919
ercises	-14920
ogo	-14921
▁Arctic	-14922
▁seeks	-14923
▁honours	-14924
▁Churchill	-14925
▁Seoul	-14926
▁Marion	-14927
▁1950.	-14928
▁thriller	-14929
▁Marcel	-14930
▁Đ	-14931
▁insisted	-14932
▁Hunting	-14933
▁presenting	-14934
58	-14935
▁deployment	-14936
▁controlling	-14937
▁1889	-14938
▁advancing	-14939
▁careers	-14940
▁Rosen	-14941
▁certificate	-14942
▁spur	-14943
▁wingspan	-14944
▁Lic	-14945
Cap	-14946
▁Istanbul	-14947
▁massacre	-14948
owner	-14949
"—	-14950
▁trucks	-14951
▁Nobel	-14952
bird	-14953
▁marketed	-14954
▁prominence	-14955
▁admission	-14956
▁mad	-14957
▁openly	-14958
▁illeg	-14959
▁RT	-14960
oya	-14961
▁challenging	-14962
▁poets	-14963
▁counted	-14964
▁Peng	-14965
Met	-14966
ipeg	-14967
although	-14968
▁neur	-14969
▁regiments	-14970
▁Congreg	-14971
▁ceiling	-14972
▁Dipl	-14973
▁accompanying	-14974
▁ITV	-14975
▁canton	-14976
▁nominee	-14977
last	-14978
▁invaded	-14979
▁believing	-14980
▁Edgar	-14981
▁rookie	-14982
▁voltage	-14983
▁submit	-14984
▁Riv	-14985
istence	-14986
▁Hayes	-14987
▁introducing	-14988
beck	-14989
▁ramp	-14990
▁Maxim	-14991
▁cater	-14992
▁1500	-14993
▁cream	-14994
▁specimen	-14995
▁Karen	-14996
▁84	-14997
club	-14998
cs	-14999
▁merchants	-15000
▁Spect	-15001
irical	-15002
lette	-15003
▁une	-15004
▁revolt	-15005
isode	-15006
▁Ethiopia	-15007
shan	-15008
abi	-15009
▁Lip	-15010
▁irrig	-15011
▁20,000	-15012
iaz	-15013
▁nan	-15014
rition	-15015
▁casting	-15016
agers	-15017
▁congressional	-15018
cession	-15019
ingle	-15020
▁errors	-15021
▁reliable	-15022
▁memories	-15023
▁killer	-15024
Ital	-15025
▁Cros	-15026
▁fortune	-15027
idan	-15028
▁Kad	-15029
▁Romans	-15030
▁crypt	-15031
ogical	-15032
Go	-15033
▁guided	-15034
▁Kot	-15035
▁Diet	-15036
▁objectives	-15037
hydro	-15038
▁substit	-15039
▁pollution	-15040
▁Marin	-15041
▁feather	-15042
▁protecting	-15043
▁Clear	-15044
▁vacant	-15045
azar	-15046
▁gods	-15047
▁Typ	-15048
▁crashed	-15049
rone	-15050
▁endorsed	-15051
▁feminist	-15052
▁acceptance	-15053
▁Sweet	-15054
▁Crawford	-15055
hend	-15056
▁Nu	-15057
▁variables	-15058
alla	-15059
▁Eb	-15060
colspan	-15061
▁tickets	-15062
▁auto	-15063
▁Sex	-15064
Austral	-15065
],	-15066
elfth	-15067
UP	-15068
▁suppl	-15069
▁Buddhism	-15070
▁breath	-15071
▁fare	-15072
▁Bagh	-15073
▁Carnegie	-15074
▁invested	-15075
▁batted	-15076
▁evaluation	-15077
▁Lay	-15078
▁derives	-15079
▁rolling	-15080
▁graduates	-15081
▁lover	-15082
▁solve	-15083
▁parade	-15084
▁Lav	-15085
Old	-15086
atsu	-15087
▁tune	-15088
▁pel	-15089
▁1929,	-15090
▁reopened	-15091
▁demonstration	-15092
▁Brom	-15093
modern	-15094
▁abortion	-15095
inded	-15096
▁Tuesday	-15097
▁saving	-15098
oche	-15099
▁managers	-15100
▁parishes	-15101
ochem	-15102
omical	-15103
▁pav	-15104
▁altar	-15105
▁tet	-15106
penter	-15107
▁Kosovo	-15108
ocaust	-15109
hra	-15110
record	-15111
isión	-15112
▁Institution	-15113
▁Mercury	-15114
▁Ish	-15115
atti	-15116
▁reunited	-15117
▁practition	-15118
▁fiscal	-15119
lave	-15120
aternal	-15121
Will	-15122
titled	-15123
▁filter	-15124
ufficient	-15125
smith	-15126
▁postp	-15127
▁Jeremy	-15128
▁Screen	-15129
▁Rever	-15130
▁	-15131
e	-15132
a	-15133
t	-15134
n	-15135
i	-15136
o	-15137
r	-15138
s	-15139
h	-15140
l	-15141
d	-15142
[...]
